#pragma once
#include <stddef.h>
#include <stdint.h>




// Tensor sizes

#define FC_LIF_LAYER_1_TENSOR_ARENA_SIZE  5280
#define FC_LIF_LAYER_1_INPUT_LAYER_SIZE  64
#define FC_LIF_LAYER_1_OUTPUT_LAYER_SIZE  64
#define FC_LIF_LAYER_1_WEIGHT_LEN 4432
#define FC_LIF_LAYER_1_BIAS_LEN 640

// Input/output addresses (Relative Addressing)

#define FC_LIF_LAYER_1_IN_SPK_ADDR 0
#define FC_LIF_LAYER_1_BIAS_ADDR 0
#define FC_LIF_LAYER_1_WEIGHT_ADDR 640
#define FC_LIF_LAYER_1_LN_BETA_ADDR 0
#define FC_LIF_LAYER_1_VTH_ADDR 64
#define FC_LIF_LAYER_1_V_MEM_ADDR 5200
#define FC_LIF_LAYER_1_TIME_NOT_UPDATED_ADDR 5264
#define FC_LIF_LAYER_1_IN_CURR_ADDR 5136
#define FC_LIF_LAYER_1_DECAY_ADDR 5072
#define FC_LIF_LAYER_1_DECAYED_MEM_ADDR 5072
#define FC_LIF_LAYER_1_UPDATE_NXT_LAYER_ADDR 5265
#define FC_LIF_LAYER_1_OUT_SPK_ADDR 0

//Quantization Params

#define FC_LIF_LAYER_1_IN_SPK_SCALE 1.0
#define FC_LIF_LAYER_1_IN_SPK_ZERO_POINT 0
#define FC_LIF_LAYER_1_BIAS_SCALE 0.002745098039215686
#define FC_LIF_LAYER_1_BIAS_ZERO_POINT 0
#define FC_LIF_LAYER_1_WEIGHT_SCALE 0.002745098039215686
#define FC_LIF_LAYER_1_WEIGHT_ZERO_POINT 0
#define FC_LIF_LAYER_1_LN_BETA_SCALE 0.011764705882352941
#define FC_LIF_LAYER_1_LN_BETA_ZERO_POINT -128
#define FC_LIF_LAYER_1_VTH_SCALE 0.00392156862745098
#define FC_LIF_LAYER_1_VTH_ZERO_POINT -256
#define FC_LIF_LAYER_1_V_MEM_SCALE 0.01568627450980392
#define FC_LIF_LAYER_1_V_MEM_ZERO_POINT -64
#define FC_LIF_LAYER_1_TIME_NOT_UPDATED_SCALE 0.06274509803921569
#define FC_LIF_LAYER_1_TIME_NOT_UPDATED_ZERO_POINT -128
#define FC_LIF_LAYER_1_DECAY_SCALE 0.00392156862745098
#define FC_LIF_LAYER_1_DECAY_ZERO_POINT -128
#define FC_LIF_LAYER_1_IN_CURR_SCALE 0.01568627450980392
#define FC_LIF_LAYER_1_IN_CURR_ZERO_POINT -64
#define FC_LIF_LAYER_1_DECAYED_MEM_SCALE 0.043137254901960784
#define FC_LIF_LAYER_1_DECAYED_MEM_ZERO_POINT -105
#define FC_LIF_LAYER_1_UPDATE_NXT_LAYER_SCALE 0.00392156862745098
#define FC_LIF_LAYER_1_UPDATE_NXT_LAYER_ZERO_POINT -128
#define FC_LIF_LAYER_1_OUT_SPK_SCALE 1.0
#define FC_LIF_LAYER_1_OUT_SPK_ZERO_POINT 0











static const uint8_t cms_fc_lif_layer_1[] __attribute__((aligned(16))) = 
{

0x43, 0x4f, 0x50, 0x31,
0x01, 0x00, 0x10, 0x00,
0x08, 0x30, 0x00, 0x00,
0x00, 0x00, 0x06, 0x10,
0x05, 0x00, 0x00, 0x00,
0x05, 0x00, 0x00, 0x00,
0x05, 0x00, 0x00, 0x00,
0x02, 0x00, 0x36, 0x01,
0x30, 0x01, 0x04, 0x00,
0x30, 0x40, 0x00, 0x00,
0x00, 0x00, 0x00, 0x00,
0x31, 0x01, 0x03, 0x01,
0x31, 0x40, 0x00, 0x00,
0x00, 0xb8, 0x00, 0x00,
0x32, 0x40, 0x00, 0x00,
0x00, 0x01, 0x00, 0x00,
0x10, 0x00, 0x00, 0x00,
0x24, 0x40, 0x26, 0x00,
0x40, 0x40, 0x40, 0x40,
0x0f, 0x01, 0x03, 0x00,
0x00, 0x40, 0x00, 0x00,
0x00, 0x00, 0x00, 0x00,
0x01, 0x40, 0x00, 0x00,
0x00, 0x00, 0x00, 0x00,
0x02, 0x40, 0x00, 0x00,
0x00, 0x00, 0x00, 0x00,
0x03, 0x40, 0x00, 0x00,
0x00, 0x00, 0x00, 0x00,
0x0b, 0x01, 0x00, 0x00,
0x0c, 0x01, 0xff, 0xff,
0x0a, 0x01, 0x00, 0x00,
0x04, 0x01, 0x3f, 0x00,
0x06, 0x40, 0x00, 0x00,
0x01, 0x00, 0x00, 0x00,
0x05, 0x40, 0x00, 0x00,
0x40, 0x00, 0x00, 0x00,
0x04, 0x40, 0x00, 0x00,
0x40, 0x00, 0x00, 0x00,
0x09, 0x01, 0x80, 0xff,
0x05, 0x01, 0x01, 0x00,
0x07, 0x01, 0x00, 0x00,
0x1f, 0x01, 0x01, 0x00,
0x10, 0x40, 0x00, 0x00,
0xd0, 0x13, 0x00, 0x00,
0x11, 0x40, 0x00, 0x00,
0x00, 0x00, 0x00, 0x00,
0x12, 0x40, 0x00, 0x00,
0x00, 0x00, 0x00, 0x00,
0x13, 0x40, 0x00, 0x00,
0x00, 0x00, 0x00, 0x00,
0x1b, 0x01, 0x00, 0x00,
0x1c, 0x01, 0xff, 0xff,
0x1a, 0x01, 0x00, 0x00,
0x12, 0x01, 0x00, 0x00,
0x11, 0x01, 0x00, 0x00,
0x13, 0x01, 0x3f, 0x00,
0x16, 0x40, 0x00, 0x00,
0x10, 0x00, 0x00, 0x00,
0x15, 0x40, 0x00, 0x00,
0x40, 0x00, 0x00, 0x00,
0x14, 0x40, 0x00, 0x00,
0x10, 0x00, 0x00, 0x00,
0x18, 0x01, 0x80, 0xff,
0x14, 0x01, 0x41, 0x01,
0x25, 0x01, 0x10, 0x00,
0x26, 0x01, 0x80, 0xff,
0x27, 0x01, 0x7f, 0x00,
0x16, 0x01, 0x01, 0x00,
0x15, 0x01, 0x01, 0x00,
0x17, 0x01, 0x3f, 0x00,
0x0d, 0x01, 0x2e, 0x00,
0x2d, 0x01, 0x2e, 0x00,
0x8d, 0x01, 0x0a, 0x00,
0x24, 0x01, 0x00, 0x00,
0x8f, 0x01, 0x01, 0x00,
0x80, 0x40, 0x00, 0x00,
0x90, 0x14, 0x00, 0x00,
0x81, 0x40, 0x00, 0x00,
0x00, 0x00, 0x00, 0x00,
0x82, 0x40, 0x00, 0x00,
0x00, 0x00, 0x00, 0x00,
0x83, 0x40, 0x00, 0x00,
0x00, 0x00, 0x00, 0x00,
0x8b, 0x01, 0x00, 0x00,
0x8c, 0x01, 0xff, 0xff,
0x8a, 0x01, 0x00, 0x00,
0x86, 0x40, 0x00, 0x00,
0x01, 0x00, 0x00, 0x00,
0x85, 0x40, 0x00, 0x00,
0x01, 0x00, 0x00, 0x00,
0x84, 0x40, 0x00, 0x00,
0x01, 0x00, 0x00, 0x00,
0x89, 0x01, 0x80, 0xff,
0x85, 0x01, 0x01, 0x00,
0x80, 0x01, 0x04, 0x00,
0x2f, 0x01, 0x00, 0x00,
0x11, 0x00, 0x00, 0x00,
0x06, 0x00, 0x00, 0x00,
0x30, 0x01, 0x00, 0x00,
0x31, 0x01, 0x01, 0x00,
0x31, 0x40, 0x00, 0x00,
0x00, 0x00, 0x00, 0x00,
0x32, 0x40, 0x00, 0x00,
0xd0, 0x13, 0x00, 0x00,
0x10, 0x00, 0x00, 0x00,
0x0f, 0x01, 0x05, 0x00,
0x09, 0x01, 0x00, 0x00,
0x00, 0x01, 0x00, 0x00,
0x01, 0x01, 0x00, 0x00,
0x03, 0x01, 0x00, 0x00,
0x02, 0x01, 0x00, 0x00,
0x10, 0x40, 0x00, 0x00,
0x10, 0x14, 0x00, 0x00,
0x18, 0x01, 0xc0, 0xff,
0x14, 0x01, 0x41, 0x00,
0x21, 0x01, 0x00, 0x00,
0x20, 0x01, 0x00, 0x00,
0x22, 0x01, 0x00, 0x00,
0x28, 0x01, 0x01, 0x00,
0x20, 0x40, 0x00, 0x00,
0x80, 0x02, 0x00, 0x00,
0x21, 0x40, 0x00, 0x00,
0x50, 0x11, 0x00, 0x00,
0x29, 0x01, 0x01, 0x00,
0x22, 0x40, 0x00, 0x00,
0x00, 0x00, 0x00, 0x00,
0x23, 0x40, 0x00, 0x00,
0x80, 0x02, 0x00, 0x00,
0x25, 0x01, 0x00, 0x00,
0x0d, 0x01, 0x0a, 0x00,
0x2d, 0x01, 0x1e, 0x00,
0x2f, 0x01, 0x03, 0x00,
0x11, 0x00, 0x00, 0x00,
0x02, 0x00, 0x00, 0x00,
0x24, 0x40, 0x28, 0x00,
0x8c, 0xba, 0x74, 0x5d,
0x0f, 0x01, 0x01, 0x00,
0x00, 0x40, 0x00, 0x00,
0x50, 0x14, 0x00, 0x00,
0x09, 0x01, 0xc0, 0xff,
0x10, 0x40, 0x00, 0x00,
0xd0, 0x13, 0x00, 0x00,
0x18, 0x01, 0x97, 0xff,
0x14, 0x01, 0x41, 0x01,
0x0d, 0x01, 0x2e, 0x00,
0x2d, 0x01, 0x2e, 0x00,
0x80, 0x40, 0x00, 0x00,
0xd0, 0x13, 0x00, 0x00,
0x86, 0x40, 0x00, 0x00,
0x10, 0x00, 0x00, 0x00,
0x85, 0x40, 0x00, 0x00,
0x40, 0x00, 0x00, 0x00,
0x84, 0x40, 0x00, 0x00,
0x10, 0x00, 0x00, 0x00,
0x85, 0x01, 0x41, 0x00,
0x80, 0x01, 0x00, 0x00,
0x06, 0x00, 0x00, 0x00,
0x25, 0x40, 0x0d, 0x00,
0xd1, 0x45, 0x17, 0x5d,
0x26, 0x40, 0x00, 0x00,
0x00, 0x00, 0x00, 0x00,
0x24, 0x40, 0x30, 0x00,
0x00, 0x00, 0x00, 0x58,
0x00, 0x40, 0x00, 0x00,
0xd0, 0x13, 0x00, 0x00,
0x06, 0x40, 0x00, 0x00,
0x10, 0x00, 0x00, 0x00,
0x04, 0x40, 0x00, 0x00,
0x10, 0x00, 0x00, 0x00,
0x09, 0x01, 0x97, 0xff,
0x05, 0x01, 0x41, 0x02,
0x10, 0x40, 0x00, 0x00,
0x50, 0x14, 0x00, 0x00,
0x18, 0x01, 0xc0, 0xff,
0x80, 0x40, 0x00, 0x00,
0x10, 0x14, 0x00, 0x00,
0x89, 0x01, 0xc0, 0xff,
0x2f, 0x01, 0x00, 0x00,
0x06, 0x00, 0x01, 0x00,
0x30, 0x01, 0x04, 0x00,
0x30, 0x40, 0x00, 0x00,
0x00, 0x01, 0x00, 0x00,
0x31, 0x01, 0x03, 0x01,
0x31, 0x40, 0x00, 0x00,
0x00, 0xb9, 0x00, 0x00,
0x32, 0x40, 0x00, 0x00,
0x00, 0x01, 0x00, 0x00,
0x10, 0x00, 0x00, 0x00,
0x25, 0x40, 0x0d, 0x00,
0x00, 0x00, 0x00, 0x40,
0x24, 0x40, 0x2f, 0x00,
0x00, 0x00, 0x00, 0x40,
0x00, 0x40, 0x00, 0x00,
0x50, 0x14, 0x00, 0x00,
0x09, 0x01, 0xc0, 0xff,
0x1f, 0x01, 0x06, 0x00,
0x10, 0x40, 0x00, 0x00,
0x00, 0x00, 0x00, 0x00,
0x16, 0x40, 0x00, 0x00,
0x01, 0x00, 0x00, 0x00,
0x14, 0x40, 0x00, 0x00,
0x40, 0x00, 0x00, 0x00,
0x18, 0x01, 0x80, 0xff,
0x14, 0x01, 0x01, 0x01,
0x25, 0x01, 0x11, 0x00,
0x8f, 0x01, 0x03, 0x00,
0x80, 0x40, 0x00, 0x00,
0x40, 0x00, 0x00, 0x00,
0x86, 0x40, 0x00, 0x00,
0x01, 0x00, 0x00, 0x00,
0x84, 0x40, 0x00, 0x00,
0x40, 0x00, 0x00, 0x00,
0x89, 0x01, 0x00, 0xff,
0x85, 0x01, 0x01, 0x00,
0x11, 0x00, 0x00, 0x00,
0x06, 0x00, 0x02, 0x00,
0x24, 0x40, 0x1f, 0x00,
0x55, 0x55, 0x55, 0x55,
0x0f, 0x01, 0x03, 0x00,
0x00, 0x40, 0x00, 0x00,
0x40, 0x00, 0x00, 0x00,
0x06, 0x40, 0x00, 0x00,
0x01, 0x00, 0x00, 0x00,
0x04, 0x40, 0x00, 0x00,
0x40, 0x00, 0x00, 0x00,
0x09, 0x01, 0x00, 0xff,
0x05, 0x01, 0x01, 0x00,
0x1f, 0x01, 0x01, 0x00,
0x10, 0x40, 0x00, 0x00,
0x10, 0x14, 0x00, 0x00,
0x16, 0x40, 0x00, 0x00,
0x10, 0x00, 0x00, 0x00,
0x14, 0x40, 0x00, 0x00,
0x10, 0x00, 0x00, 0x00,
0x14, 0x01, 0x41, 0x01,
0x25, 0x01, 0x00, 0x00,
0x8f, 0x01, 0x06, 0x00,
0x80, 0x40, 0x00, 0x00,
0x00, 0x00, 0x00, 0x00,
0x89, 0x01, 0x00, 0x00,
0x06, 0x00, 0x00, 0x00,
0x25, 0x40, 0x0d, 0x00,
0x00, 0x00, 0x00, 0x60,
0x24, 0x40, 0x31, 0x00,
0x00, 0x00, 0x00, 0x40,
0x0f, 0x01, 0x01, 0x00,
0x00, 0x40, 0x00, 0x00,
0x50, 0x14, 0x00, 0x00,
0x06, 0x40, 0x00, 0x00,
0x10, 0x00, 0x00, 0x00,
0x04, 0x40, 0x00, 0x00,
0x10, 0x00, 0x00, 0x00,
0x09, 0x01, 0xc0, 0xff,
0x05, 0x01, 0x41, 0x02,
0x10, 0x40, 0x00, 0x00,
0x50, 0x14, 0x00, 0x00,
0x16, 0x40, 0x00, 0x00,
0x01, 0x00, 0x00, 0x00,
0x14, 0x40, 0x00, 0x00,
0x40, 0x00, 0x00, 0x00,
0x18, 0x01, 0xc0, 0xff,
0x14, 0x01, 0x01, 0x01,
0x8f, 0x01, 0x01, 0x00,
0x80, 0x40, 0x00, 0x00,
0x10, 0x14, 0x00, 0x00,
0x86, 0x40, 0x00, 0x00,
0x10, 0x00, 0x00, 0x00,
0x84, 0x40, 0x00, 0x00,
0x10, 0x00, 0x00, 0x00,
0x89, 0x01, 0x80, 0xff,
0x85, 0x01, 0x41, 0x00,
0x06, 0x00, 0x02, 0x00,
0x0f, 0x01, 0x06, 0x00,
0x00, 0x40, 0x00, 0x00,
0x00, 0x00, 0x00, 0x00,
0x06, 0x40, 0x00, 0x00,
0x01, 0x00, 0x00, 0x00,
0x04, 0x40, 0x00, 0x00,
0x40, 0x00, 0x00, 0x00,
0x09, 0x01, 0x00, 0x00,
0x05, 0x01, 0x01, 0x00,
0x10, 0x40, 0x00, 0x00,
0x91, 0x14, 0x00, 0x00,
0x13, 0x01, 0x00, 0x00,
0x15, 0x40, 0x00, 0x00,
0x01, 0x00, 0x00, 0x00,
0x14, 0x40, 0x00, 0x00,
0x01, 0x00, 0x00, 0x00,
0x18, 0x01, 0x80, 0xff,
0x17, 0x01, 0x07, 0x00,
0x0d, 0x01, 0x0a, 0x00,
0x2d, 0x01, 0x1e, 0x00,
0x24, 0x40, 0x16, 0x00,
0xff, 0x00, 0xc0, 0x3f,
0x2f, 0x01, 0x03, 0x00,
0x05, 0x00, 0x02, 0x00,
0x24, 0x40, 0x1e, 0x00,
0x00, 0x00, 0x00, 0x40,
0x0f, 0x01, 0x01, 0x00,
0x00, 0x40, 0x00, 0x00,
0x90, 0x14, 0x00, 0x00,
0x04, 0x01, 0x00, 0x00,
0x05, 0x40, 0x00, 0x00,
0x01, 0x00, 0x00, 0x00,
0x04, 0x40, 0x00, 0x00,
0x01, 0x00, 0x00, 0x00,
0x09, 0x01, 0x80, 0xff,
0x10, 0x40, 0x00, 0x00,
0x90, 0x14, 0x00, 0x00,
0x27, 0x01, 0x80, 0xff,
0x0d, 0x01, 0x2e, 0x00,
0x2d, 0x01, 0x2e, 0x00,
0x89, 0x01, 0x00, 0x00,
0x85, 0x01, 0x00, 0x00,
0x80, 0x01, 0x80, 0x00,
0x81, 0x01, 0x00, 0x00,
0x06, 0x00, 0x00, 0x00,
0x00, 0x00, 0xff, 0xff, 

};







static inline const uint8_t * Getfc_lif_layer_1CMSPointer()
{
	return cms_fc_lif_layer_1;
}

static inline size_t Getfc_lif_layer_1CMSLen()
{
	return sizeof(cms_fc_lif_layer_1);
}





static const int8_t weight_fc_lif_layer_1[] __attribute__((aligned(16))) = 
{

//biases
0xd5, 0xff, 0xff, 0xff,
0xff, 0x9a, 0x99, 0x99,
0x59, 0x21, 0xe2, 0xff,
0xff, 0xff, 0xff, 0x9a,
0x99, 0x99, 0x59, 0x21,
0xc9, 0xff, 0xff, 0xff,
0xff, 0x9a, 0x99, 0x99,
0x59, 0x21, 0xed, 0xff,
0xff, 0xff, 0xff, 0x9a,
0x99, 0x99, 0x59, 0x21,
0x03, 0x00, 0x00, 0x00,
0x00, 0x9a, 0x99, 0x99,
0x59, 0x21, 0xd8, 0xff,
0xff, 0xff, 0xff, 0x9a,
0x99, 0x99, 0x59, 0x21,
0x02, 0x00, 0x00, 0x00,
0x00, 0x9a, 0x99, 0x99,
0x59, 0x21, 0x15, 0x00,
0x00, 0x00, 0x00, 0x9a,
0x99, 0x99, 0x59, 0x21,
0xcb, 0xff, 0xff, 0xff,
0xff, 0x9a, 0x99, 0x99,
0x59, 0x21, 0x12, 0x00,
0x00, 0x00, 0x00, 0x9a,
0x99, 0x99, 0x59, 0x21,
0xd7, 0xff, 0xff, 0xff,
0xff, 0x9a, 0x99, 0x99,
0x59, 0x21, 0xee, 0xff,
0xff, 0xff, 0xff, 0x9a,
0x99, 0x99, 0x59, 0x21,
0xda, 0xff, 0xff, 0xff,
0xff, 0x9a, 0x99, 0x99,
0x59, 0x21, 0x04, 0x00,
0x00, 0x00, 0x00, 0x9a,
0x99, 0x99, 0x59, 0x21,
0xef, 0xff, 0xff, 0xff,
0xff, 0x9a, 0x99, 0x99,
0x59, 0x21, 0xd4, 0xff,
0xff, 0xff, 0xff, 0x9a,
0x99, 0x99, 0x59, 0x21,
0xd1, 0xff, 0xff, 0xff,
0xff, 0x9a, 0x99, 0x99,
0x59, 0x21, 0x17, 0x00,
0x00, 0x00, 0x00, 0x9a,
0x99, 0x99, 0x59, 0x21,
0xff, 0xff, 0xff, 0xff,
0xff, 0x9a, 0x99, 0x99,
0x59, 0x21, 0x07, 0x00,
0x00, 0x00, 0x00, 0x9a,
0x99, 0x99, 0x59, 0x21,
0x13, 0x00, 0x00, 0x00,
0x00, 0x9a, 0x99, 0x99,
0x59, 0x21, 0xec, 0xff,
0xff, 0xff, 0xff, 0x9a,
0x99, 0x99, 0x59, 0x21,
0xe6, 0xff, 0xff, 0xff,
0xff, 0x9a, 0x99, 0x99,
0x59, 0x21, 0xd4, 0xff,
0xff, 0xff, 0xff, 0x9a,
0x99, 0x99, 0x59, 0x21,
0xe4, 0xff, 0xff, 0xff,
0xff, 0x9a, 0x99, 0x99,
0x59, 0x21, 0xd1, 0xff,
0xff, 0xff, 0xff, 0x9a,
0x99, 0x99, 0x59, 0x21,
0xd7, 0xff, 0xff, 0xff,
0xff, 0x9a, 0x99, 0x99,
0x59, 0x21, 0x00, 0x00,
0x00, 0x00, 0x00, 0x9a,
0x99, 0x99, 0x59, 0x21,
0xdf, 0xff, 0xff, 0xff,
0xff, 0x9a, 0x99, 0x99,
0x59, 0x21, 0xf2, 0xff,
0xff, 0xff, 0xff, 0x9a,
0x99, 0x99, 0x59, 0x21,
0xee, 0xff, 0xff, 0xff,
0xff, 0x9a, 0x99, 0x99,
0x59, 0x21, 0xe1, 0xff,
0xff, 0xff, 0xff, 0x9a,
0x99, 0x99, 0x59, 0x21,
0x12, 0x00, 0x00, 0x00,
0x00, 0x9a, 0x99, 0x99,
0x59, 0x21, 0x08, 0x00,
0x00, 0x00, 0x00, 0x9a,
0x99, 0x99, 0x59, 0x21,
0xf0, 0xff, 0xff, 0xff,
0xff, 0x9a, 0x99, 0x99,
0x59, 0x21, 0x0d, 0x00,
0x00, 0x00, 0x00, 0x9a,
0x99, 0x99, 0x59, 0x21,
0xbe, 0xff, 0xff, 0xff,
0xff, 0x9a, 0x99, 0x99,
0x59, 0x21, 0xf7, 0xff,
0xff, 0xff, 0xff, 0x9a,
0x99, 0x99, 0x59, 0x21,
0xec, 0xff, 0xff, 0xff,
0xff, 0x9a, 0x99, 0x99,
0x59, 0x21, 0xfb, 0xff,
0xff, 0xff, 0xff, 0x9a,
0x99, 0x99, 0x59, 0x21,
0xea, 0xff, 0xff, 0xff,
0xff, 0x9a, 0x99, 0x99,
0x59, 0x21, 0x14, 0x00,
0x00, 0x00, 0x00, 0x9a,
0x99, 0x99, 0x59, 0x21,
0xc8, 0xff, 0xff, 0xff,
0xff, 0x9a, 0x99, 0x99,
0x59, 0x21, 0x14, 0x00,
0x00, 0x00, 0x00, 0x9a,
0x99, 0x99, 0x59, 0x21,
0xfe, 0xff, 0xff, 0xff,
0xff, 0x9a, 0x99, 0x99,
0x59, 0x21, 0xe3, 0xff,
0xff, 0xff, 0xff, 0x9a,
0x99, 0x99, 0x59, 0x21,
0xdd, 0xff, 0xff, 0xff,
0xff, 0x9a, 0x99, 0x99,
0x59, 0x21, 0xfa, 0xff,
0xff, 0xff, 0xff, 0x9a,
0x99, 0x99, 0x59, 0x21,
0xe8, 0xff, 0xff, 0xff,
0xff, 0x9a, 0x99, 0x99,
0x59, 0x21, 0xdb, 0xff,
0xff, 0xff, 0xff, 0x9a,
0x99, 0x99, 0x59, 0x21,
0xf7, 0xff, 0xff, 0xff,
0xff, 0x9a, 0x99, 0x99,
0x59, 0x21, 0x03, 0x00,
0x00, 0x00, 0x00, 0x9a,
0x99, 0x99, 0x59, 0x21,
0xdb, 0xff, 0xff, 0xff,
0xff, 0x9a, 0x99, 0x99,
0x59, 0x21, 0xce, 0xff,
0xff, 0xff, 0xff, 0x9a,
0x99, 0x99, 0x59, 0x21,
0xe0, 0xff, 0xff, 0xff,
0xff, 0x9a, 0x99, 0x99,
0x59, 0x21, 0xf6, 0xff,
0xff, 0xff, 0xff, 0x9a,
0x99, 0x99, 0x59, 0x21,
0xf3, 0xff, 0xff, 0xff,
0xff, 0x9a, 0x99, 0x99,
0x59, 0x21, 0xcd, 0xff,
0xff, 0xff, 0xff, 0x9a,
0x99, 0x99, 0x59, 0x21,
0xbd, 0xff, 0xff, 0xff,
0xff, 0x9a, 0x99, 0x99,
0x59, 0x21, 0x08, 0x00,
0x00, 0x00, 0x00, 0x9a,
0x99, 0x99, 0x59, 0x21,
0x11, 0x00, 0x00, 0x00,
0x00, 0x9a, 0x99, 0x99,
0x59, 0x21, 0xe1, 0xff,
0xff, 0xff, 0xff, 0x9a,
0x99, 0x99, 0x59, 0x21,
0x19, 0x00, 0x00, 0x00,
0x00, 0x9a, 0x99, 0x99,
0x59, 0x21, 0xe4, 0xff,
0xff, 0xff, 0xff, 0x9a,
0x99, 0x99, 0x59, 0x21, 
//weights
0xfe, 0x7f, 0x54, 0x00,
0xfe, 0x2f, 0xd6, 0x9e,
0x7d, 0x1f, 0xbb, 0x36,
0xb2, 0xd7, 0x9f, 0x96,
0xbf, 0xcc, 0x08, 0xbb,
0xdf, 0xac, 0xb6, 0x32,
0x96, 0x35, 0xf7, 0x6b,
0x26, 0xdd, 0xf7, 0x4e,
0x64, 0xed, 0xf7, 0x3a,
0x5f, 0x3a, 0xfc, 0x34,
0x56, 0xf6, 0x3f, 0x5f,
0x13, 0xa9, 0x6a, 0xee,
0x45, 0x6c, 0xcb, 0xdb,
0xf9, 0x53, 0x03, 0xe8,
0x55, 0xfa, 0x7c, 0x6d,
0x56, 0xab, 0x24, 0x5c,
0xb8, 0xef, 0x13, 0xce,
0x5e, 0xe4, 0x6b, 0xed,
0xf2, 0xf3, 0x19, 0x48,
0xd3, 0xfb, 0x99, 0xce,
0x56, 0x84, 0x8a, 0x37,
0xb3, 0xff, 0x4a, 0x06,
0x83, 0x33, 0xee, 0xf7,
0xf3, 0xfd, 0x7d, 0x94,
0xc8, 0xb9, 0x7b, 0x0f,
0x77, 0x2d, 0xe6, 0xb7,
0x4b, 0xbc, 0xf7, 0x93,
0x36, 0xbf, 0x82, 0xd7,
0xbe, 0x24, 0xe8, 0xf7,
0xfe, 0x85, 0x73, 0xdc,
0xe8, 0xae, 0xfb, 0xd2,
0x46, 0x4a, 0x7b, 0x7b,
0xed, 0x28, 0x17, 0xd3,
0xad, 0xef, 0x1f, 0xea,
0x12, 0x2c, 0x7d, 0x7c,
0xbf, 0x8a, 0x1c, 0xdc,
0xf7, 0xfb, 0xce, 0xdf,
0xc1, 0x6c, 0xef, 0x5f,
0x38, 0x35, 0xff, 0x4c,
0x3f, 0xa3, 0xd3, 0xe5,
0xda, 0x5d, 0xdb, 0xf6,
0x72, 0xf1, 0xfd, 0xbf,
0x5d, 0xb3, 0x8d, 0x16,
0xb4, 0x6d, 0xef, 0x0f,
0xb9, 0xc1, 0xdb, 0xfb,
0xc4, 0xdd, 0x4d, 0xd5,
0xf9, 0xde, 0x1a, 0x52,
0xb4, 0x68, 0x6d, 0xef,
0xfb, 0x3f, 0x0b, 0xdf,
0x39, 0x7f, 0x93, 0x30,
0x0a, 0xd4, 0xdf, 0x77,
0x1e, 0x9a, 0xbf, 0x20,
0x1b, 0xbb, 0x73, 0xbd,
0x89, 0xbc, 0xbb, 0xbf,
0x96, 0x60, 0xb1, 0x06,
0x33, 0x5b, 0xfd, 0x72,
0x03, 0xcb, 0x77, 0x2b,
0x20, 0x69, 0x1c, 0x9a,
0xf9, 0x77, 0xf6, 0xba,
0x64, 0x4d, 0x37, 0xab,
0x95, 0x5b, 0x99, 0xcb,
0xc7, 0x56, 0xd6, 0xbb,
0xba, 0xdf, 0xb3, 0x04,
0x24, 0x00, 0x36, 0xd9,
0x5d, 0x2e, 0x03, 0x3f,
0x2f, 0xf3, 0xd9, 0x36,
0x5c, 0xf2, 0x8a, 0x77,
0xf1, 0xed, 0x7b, 0x19,
0x54, 0xbe, 0xbf, 0xa6,
0x61, 0x2f, 0x90, 0x36,
0x7e, 0xd5, 0xfe, 0x57,
0x2d, 0x4b, 0x6b, 0xfb,
0x6e, 0xfc, 0x1a, 0x5d,
0xa1, 0x5e, 0xfe, 0xd6,
0x28, 0x52, 0x6c, 0xc2,
0xd7, 0x65, 0x07, 0xad,
0x84, 0xe4, 0x9e, 0x37,
0x3b, 0x3f, 0xdc, 0x8a,
0xe5, 0xb7, 0xed, 0xff,
0xe6, 0x74, 0x42, 0x95,
0xbf, 0xad, 0x8e, 0xbd,
0xbc, 0xb7, 0xf6, 0x31,
0x6b, 0x12, 0x42, 0xec,
0xf8, 0xf7, 0x74, 0xd4,
0x5e, 0x87, 0xf8, 0xfe,
0xc4, 0xfa, 0x61, 0x3d,
0x6b, 0xf9, 0x5f, 0x0c,
0xa9, 0x9c, 0x8b, 0xbe,
0xdd, 0x4b, 0x77, 0x2f,
0x7a, 0xf3, 0x7f, 0xae,
0xb2, 0xef, 0xde, 0x3b,
0xfc, 0x98, 0xd6, 0x89,
0xd7, 0xf7, 0xb9, 0x52,
0x63, 0xc5, 0xf7, 0x6c,
0xf8, 0x60, 0xa1, 0x2b,
0x5e, 0x97, 0x35, 0x06,
0x4d, 0x3c, 0x2f, 0xf5,
0xdb, 0xfe, 0xdb, 0xaf,
0x6b, 0x80, 0xec, 0xf8,
0xde, 0xdf, 0xe8, 0x41,
0x3f, 0x17, 0x65, 0x21,
0xf6, 0xff, 0xbc, 0x2b,
0xc7, 0x43, 0xcc, 0x29,
0x47, 0x6f, 0xeb, 0xff,
0x9c, 0xbb, 0xee, 0x09,
0xf7, 0x7b, 0xbd, 0x14,
0x6d, 0xd9, 0x5e, 0xdf,
0x5d, 0xdb, 0x92, 0x7f,
0x5d, 0xbb, 0xdb, 0x9b,
0x0d, 0xeb, 0xfa, 0x96,
0x17, 0xff, 0xce, 0x2e,
0xb5, 0x4f, 0x01, 0xc1,
0x82, 0xec, 0xbd, 0xcd,
0x7c, 0x66, 0x46, 0x3e,
0x5c, 0xff, 0xa5, 0x12,
0x9b, 0xa4, 0x84, 0xfe,
0x3c, 0x37, 0x4d, 0x23,
0xfc, 0xff, 0xb7, 0xdb,
0xcf, 0xcb, 0x88, 0x5a,
0x5f, 0x74, 0xdc, 0xef,
0x01, 0xdf, 0xdb, 0xf6,
0x3d, 0xc6, 0xff, 0x3e,
0x07, 0xf7, 0x72, 0xe7,
0xcf, 0x9f, 0xbb, 0xea,
0xbf, 0x4f, 0xcf, 0x63,
0xce, 0xdb, 0xc7, 0x54,
0xd4, 0x4e, 0xb7, 0xd9,
0xfb, 0xe8, 0x79, 0xfc,
0x04, 0x9c, 0x2f, 0x4d,
0x25, 0xa2, 0xc2, 0x8a,
0x6e, 0xfb, 0xa3, 0x5e,
0x4c, 0x19, 0x1e, 0x81,
0xcb, 0x55, 0xbf, 0xb4,
0x37, 0x9b, 0x4a, 0xef,
0x79, 0x5e, 0xa9, 0x0b,
0xb2, 0xd5, 0x17, 0xfb,
0x4d, 0xc6, 0xd3, 0xeb,
0xbf, 0x8d, 0xdc, 0x87,
0xbe, 0x67, 0xb8, 0x89,
0xcf, 0x63, 0xc5, 0x7b,
0x33, 0xea, 0x7f, 0x6b,
0xd6, 0x5f, 0xdd, 0xcf,
0x7f, 0x3a, 0x4d, 0x0b,
0x1a, 0x45, 0xf8, 0xfc,
0xc6, 0x31, 0x5e, 0x8b,
0xe4, 0xee, 0xec, 0x55,
0x9a, 0x3b, 0x5f, 0xa6,
0x2f, 0x1b, 0x2b, 0x99,
0x4d, 0xb4, 0xda, 0x5f,
0xdb, 0xea, 0x8a, 0x11,
0x25, 0x7e, 0xcd, 0xfe,
0x42, 0x62, 0x39, 0xaa,
0x77, 0xf7, 0x77, 0x80,
0x85, 0x33, 0xad, 0xfe,
0x16, 0x78, 0x7a, 0xbf,
0xbe, 0xff, 0x96, 0x77,
0xc0, 0xfe, 0xdb, 0xb6,
0x0e, 0x74, 0xf6, 0xff,
0xdb, 0xbb, 0x4c, 0x2c,
0x7c, 0x7e, 0x7b, 0x0f,
0xcd, 0xa9, 0x7c, 0x08,
0x68, 0x4a, 0xff, 0x6d,
0x92, 0xa8, 0x8a, 0x29,
0xe8, 0xef, 0xfe, 0xdf,
0xf6, 0xb3, 0x9f, 0x65,
0xbc, 0xc7, 0x66, 0x4e,
0xaa, 0x6d, 0x7f, 0xef,
0xc4, 0xe8, 0x5c, 0x8c,
0x13, 0xb4, 0xb7, 0xcb,
0x69, 0x56, 0xf3, 0xde,
0x03, 0xc5, 0x50, 0x2c,
0xe3, 0xba, 0x9f, 0x7f,
0x45, 0xa7, 0x30, 0xef,
0xd5, 0xbb, 0x4a, 0x0a,
0xcf, 0xda, 0xff, 0x9b,
0x48, 0x02, 0xc3, 0xdd,
0xdb, 0xf9, 0x48, 0xc2,
0xfd, 0xff, 0xf6, 0xbc,
0x96, 0xfa, 0xdb, 0xef,
0xd7, 0xfa, 0x1a, 0x5f,
0xdd, 0xff, 0x9e, 0x78,
0xeb, 0xb3, 0xa9, 0xc6,
0x39, 0xd7, 0xff, 0x57,
0x75, 0x5d, 0x55, 0x04,
0x0d, 0xb8, 0xd7, 0x77,
0x86, 0x37, 0x0e, 0x64,
0x67, 0xff, 0x7a, 0xc7,
0x9a, 0xed, 0xe5, 0xd6,
0x53, 0x2e, 0xd3, 0xf4,
0xcd, 0xdd, 0x57, 0x6d,
0xb1, 0xf7, 0x67, 0xe3,
0x01, 0xfd, 0x75, 0x8d,
0x0e, 0xff, 0x94, 0x34,
0xd2, 0xdc, 0x7f, 0x7f,
0x4c, 0xe1, 0xdf, 0x8b,
0xba, 0xfb, 0xf5, 0xde,
0x63, 0x43, 0x8b, 0xc7,
0xae, 0x75, 0x52, 0x6f,
0xbe, 0xfc, 0x37, 0xf6,
0x27, 0x60, 0x98, 0x76,
0xf8, 0x12, 0xfa, 0x83,
0x08, 0xfb, 0xad, 0xfb,
0x5d, 0xc2, 0x77, 0x7d,
0x44, 0x54, 0x9d, 0xbd,
0x14, 0x24, 0x83, 0x7c,
0xcd, 0xa6, 0x4d, 0x05,
0x8a, 0x91, 0x6f, 0xff,
0xd9, 0x79, 0x18, 0x42,
0x66, 0x4c, 0xe7, 0x4c,
0xed, 0x31, 0xd6, 0xcd,
0xb7, 0x67, 0xa6, 0xa7,
0x94, 0x99, 0x8e, 0x6e,
0xfd, 0xdb, 0x17, 0x3a,
0x17, 0xf2, 0xdb, 0x7f,
0xb4, 0xa1, 0xa9, 0x1d,
0xb7, 0x74, 0xdf, 0x33,
0xfd, 0xdb, 0xcd, 0xfe,
0xbe, 0x30, 0xb5, 0xad,
0xcd, 0xac, 0xcf, 0xb8,
0x91, 0xf5, 0xe9, 0x24,
0xde, 0xff, 0x94, 0xa7,
0x09, 0xa3, 0xdd, 0xca,
0xfc, 0x77, 0xfb, 0xc4,
0x20, 0xa6, 0xd4, 0x75,
0xff, 0x53, 0x88, 0x78,
0x7b, 0x7f, 0xe7, 0x38,
0xb3, 0xfb, 0xb7, 0x2d,
0xb1, 0x79, 0xae, 0xf3,
0x75, 0x1d, 0xbc, 0xb6,
0xdf, 0xef, 0x8f, 0x20,
0x84, 0xba, 0xba, 0x6f,
0x6b, 0x51, 0x7d, 0xde,
0xec, 0xd4, 0xe4, 0xe1,
0x44, 0xf8, 0x77, 0xf6,
0x3d, 0xf4, 0x55, 0xf7,
0xab, 0x7b, 0xbf, 0xfe,
0xda, 0xf4, 0xf6, 0xf7,
0xf6, 0xc7, 0x4c, 0x03,
0xef, 0xbe, 0xce, 0x70,
0xa6, 0xeb, 0xdb, 0xda,
0xef, 0xe2, 0x37, 0x45,
0xfe, 0x36, 0xef, 0xdd,
0x65, 0xed, 0xf4, 0xb6,
0x3e, 0x7b, 0x52, 0x52,
0xff, 0x6f, 0xd5, 0x6f,
0xfe, 0x96, 0x3f, 0xee,
0xda, 0x5f, 0x9f, 0x69,
0xf1, 0xe7, 0xbd, 0xd6,
0x5a, 0xe4, 0xff, 0xf9,
0xeb, 0x1a, 0xf0, 0xa7,
0xb9, 0xbc, 0x7f, 0x97,
0x96, 0xc8, 0x2a, 0xb5,
0xed, 0xfe, 0x7b, 0x4d,
0x29, 0xc4, 0x6d, 0xdd,
0x22, 0x64, 0xe4, 0xfe,
0xae, 0x12, 0x50, 0x46,
0x2b, 0x48, 0x37, 0xc9,
0xd3, 0xaf, 0x24, 0x1a,
0x5b, 0xec, 0x97, 0xee,
0xaa, 0xbe, 0x8a, 0x06,
0xbd, 0x35, 0xba, 0x28,
0xae, 0xd9, 0xfa, 0x85,
0x73, 0xe5, 0xd6, 0x40,
0x7d, 0xb2, 0x19, 0xef,
0xff, 0xd1, 0x46, 0xe9,
0x4a, 0x0d, 0xf3, 0x7f,
0xb3, 0xfb, 0xe8, 0x0e,
0xbd, 0xe9, 0xfb, 0xea,
0x5d, 0xd7, 0xd9, 0xae,
0x86, 0x0f, 0xea, 0x5d,
0x02, 0xdc, 0xf5, 0xfe,
0xa7, 0x90, 0x2a, 0xd3,
0x4f, 0x6b, 0xff, 0xad,
0xd1, 0xd4, 0xcd, 0xef,
0x6d, 0x74, 0xe3, 0x56,
0x67, 0x9e, 0xcc, 0x3e,
0x30, 0x94, 0xaf, 0xaf,
0x2d, 0xad, 0x4b, 0x6f,
0xed, 0x53, 0x9b, 0x17,
0x1f, 0xcf, 0xec, 0xf4,
0xb9, 0xbe, 0xeb, 0x8f,
0x4c, 0xc6, 0xd4, 0x11,
0xef, 0x0e, 0xf7, 0x07,
0x7c, 0xb3, 0x37, 0xef,
0x63, 0x4d, 0x99, 0x9c,
0x58, 0xdf, 0xac, 0xdf,
0xce, 0xaf, 0xa5, 0x53,
0xfb, 0x73, 0x6e, 0x6e,
0xbf, 0xad, 0xdf, 0x33,
0x6b, 0xfe, 0xb7, 0xba,
0xff, 0x15, 0xc2, 0x55,
0xcc, 0x1d, 0xff, 0xd4,
0x75, 0xef, 0xee, 0xf5,
0x9f, 0x14, 0xef, 0xf1,
0xae, 0xfb, 0x67, 0x4d,
0x11, 0x74, 0xd7, 0xcf,
0x9f, 0xc9, 0xe8, 0xdd,
0xca, 0xa7, 0x07, 0x59,
0xb3, 0xef, 0x9e, 0x4f,
0xca, 0x27, 0xc5, 0xd7,
0xff, 0xa4, 0x0e, 0xc0,
0xd4, 0xc6, 0xba, 0xef,
0x59, 0xb8, 0x31, 0x61,
0xaf, 0xbd, 0x57, 0xde,
0xf7, 0xed, 0xaf, 0xdb,
0x43, 0x30, 0x31, 0xfc,
0xb4, 0x7d, 0xb9, 0x8e,
0x62, 0x8c, 0xff, 0xd2,
0xf5, 0x8e, 0x4f, 0xdf,
0xfb, 0xed, 0x97, 0xaa,
0x1d, 0xfa, 0x7b, 0x4b,
0x71, 0xbe, 0xea, 0xff,
0xed, 0xfd, 0xda, 0x9a,
0x6f, 0x26, 0xf8, 0xba,
0xf6, 0x34, 0x6d, 0xe3,
0x56, 0x6f, 0xad, 0x8b,
0x87, 0xfd, 0x6e, 0x7f,
0x17, 0xa7, 0x00, 0x5f,
0x4c, 0xf7, 0xbf, 0xff,
0x23, 0xdf, 0xfe, 0x6e,
0x7f, 0xd6, 0xa8, 0xfb,
0xa6, 0xfe, 0xeb, 0x9d,
0x36, 0x7b, 0xfb, 0xcd,
0x5f, 0x3b, 0x8b, 0xf9,
0xf3, 0x3f, 0xe3, 0x50,
0xe5, 0xfe, 0x24, 0x2d,
0xe4, 0xd7, 0x6b, 0xfc,
0xe6, 0x7e, 0x31, 0xed,
0x71, 0x81, 0x59, 0x5c,
0xee, 0xff, 0x0a, 0x3b,
0xb8, 0xbd, 0xad, 0xfe,
0x33, 0x9d, 0xc2, 0x7e,
0x4e, 0xbd, 0x89, 0x7b,
0xb2, 0x32, 0x7b, 0xd3,
0x49, 0x6b, 0x6e, 0xdf,
0xe7, 0x05, 0xad, 0xff,
0x50, 0x8c, 0xef, 0xbc,
0x77, 0xdf, 0x17, 0xfe,
0x0f, 0x5e, 0x97, 0x1b,
0x51, 0x8b, 0xb5, 0xf4,
0x3f, 0x41, 0x15, 0xa9,
0x0e, 0x70, 0xbd, 0x66,
0x43, 0xb4, 0xf0, 0xce,
0xbf, 0x32, 0xef, 0x67,
0xc1, 0xbd, 0xc2, 0x77,
0xb5, 0xf3, 0x4e, 0x6d,
0x8f, 0x1c, 0xbf, 0x45,
0x6d, 0x57, 0xe2, 0x44,
0x74, 0xe7, 0xfe, 0xf8,
0x70, 0xfc, 0x77, 0x5c,
0xdd, 0x53, 0x3b, 0x83,
0x05, 0xf3, 0xbb, 0xe2,
0xbf, 0x55, 0xdd, 0xf5,
0xe3, 0xae, 0xe7, 0x3b,
0xbe, 0xe0, 0xe0, 0xf5,
0x6d, 0xfd, 0x86, 0x4e,
0x65, 0xfe, 0x37, 0x6d,
0xdb, 0xec, 0x01, 0xdd,
0x76, 0x1f, 0x49, 0x53,
0x8b, 0xa5, 0xdd, 0xdf,
0x6f, 0x25, 0x75, 0x27,
0xfa, 0x39, 0x0e, 0xda,
0xed, 0xdf, 0xde, 0xcf,
0xda, 0xe1, 0x8f, 0x51,
0xfb, 0x7e, 0xef, 0x78,
0xf2, 0x4c, 0xd1, 0xba,
0x93, 0x35, 0xf6, 0x6d,
0xf9, 0xef, 0xe4, 0xc6,
0xa4, 0x69, 0xe5, 0xfd,
0x3a, 0x4c, 0xe0, 0xd5,
0xfc, 0xef, 0x2d, 0x48,
0xc6, 0xf1, 0x5b, 0x6d,
0x43, 0x09, 0xae, 0xbf,
0x7b, 0xfe, 0x64, 0x48,
0x64, 0xab, 0xbb, 0xbc,
0x89, 0xd0, 0xe6, 0x7e,
0xbb, 0xbe, 0xf6, 0x2e,
0x03, 0x6d, 0xcd, 0xcf,
0x01, 0x9c, 0xe2, 0xaf,
0xab, 0x6f, 0xf5, 0x9f,
0xd0, 0xfa, 0xee, 0x7e,
0xeb, 0xf4, 0xda, 0x6b,
0xce, 0x3f, 0x7d, 0x66,
0x9a, 0xf7, 0xc1, 0xc5,
0xd2, 0x82, 0xff, 0xde,
0x9d, 0x9b, 0x33, 0x8a,
0xbd, 0xbc, 0xfb, 0x7d,
0x7e, 0x9c, 0xc3, 0xbf,
0xb6, 0xf7, 0x78, 0x7d,
0xbd, 0xbd, 0xbf, 0x0d,
0x5a, 0xe6, 0x3d, 0xbb,
0x5f, 0x30, 0x40, 0x6a,
0xfa, 0x35, 0x17, 0x40,
0xed, 0xea, 0xb6, 0x2f,
0xac, 0x78, 0xb0, 0xd3,
0xf7, 0xcb, 0xce, 0x46,
0xea, 0x08, 0xcf, 0x9c,
0x5b, 0xee, 0xba, 0xe6,
0xdc, 0x73, 0xf7, 0x1a,
0xd2, 0x2e, 0x46, 0x5b,
0xef, 0x3b, 0x31, 0xd7,
0x93, 0xdf, 0x4c, 0x6b,
0x77, 0x3e, 0xf9, 0xbe,
0x2a, 0x77, 0x4f, 0x5a,
0xfe, 0xe3, 0xee, 0xfe,
0xb7, 0xa4, 0xe9, 0x30,
0xf4, 0xeb, 0xb8, 0x18,
0xf8, 0x6c, 0xf7, 0x07,
0xb3, 0xe7, 0x42, 0x5d,
0x94, 0xfa, 0x1f, 0xa3,
0x12, 0xe0, 0x4a, 0xf9,
0xbd, 0x9f, 0x8d, 0xe2,
0x6b, 0xe2, 0xd6, 0x7e,
0x9d, 0x50, 0xe4, 0xfa,
0xef, 0xed, 0x27, 0xba,
0x9e, 0xf9, 0x8e, 0xfe,
0xff, 0xc1, 0xdc, 0xad,
0xff, 0x3d, 0x66, 0xcd,
0xda, 0xdd, 0xbc, 0x42,
0x27, 0x4e, 0xc7, 0xee,
0xb9, 0xf5, 0x6b, 0xeb,
0xfa, 0x1e, 0x9f, 0x66,
0x06, 0x5e, 0x7e, 0xfd,
0xe5, 0xf2, 0x48, 0xb2,
0xff, 0xf1, 0xdb, 0xd5,
0x6d, 0x1d, 0xdd, 0x14,
0xbf, 0xbd, 0xff, 0xb2,
0x0a, 0xfd, 0x55, 0xb7,
0xfc, 0xf1, 0x54, 0xfd,
0x1d, 0x1f, 0xbe, 0x55,
0x1f, 0xfb, 0xfa, 0x36,
0xe3, 0x63, 0xcf, 0x76,
0x77, 0xff, 0x77, 0xd6,
0x3e, 0x09, 0x66, 0xb9,
0xc3, 0xbb, 0x8f, 0xf7,
0xbe, 0x27, 0x9c, 0xec,
0x61, 0xbf, 0xde, 0x66,
0x20, 0x9a, 0xdc, 0x3e,
0xab, 0x3b, 0x2a, 0xc1,
0x9a, 0x7d, 0xaf, 0x7a,
0x7b, 0x3c, 0xb0, 0xb2,
0x57, 0xdb, 0x57, 0x8b,
0xb2, 0x23, 0x70, 0xd7,
0x7f, 0x4d, 0xbf, 0x3f,
0xbd, 0x1a, 0xbd, 0xb7,
0x9f, 0x7e, 0x7e, 0x8d,
0x8f, 0x37, 0xef, 0xe2,
0x13, 0xda, 0xbd, 0x55,
0x0e, 0x17, 0x76, 0xdc,
0xfb, 0xfa, 0xae, 0xb5,
0xf2, 0x3c, 0x91, 0xca,
0xff, 0xed, 0x8f, 0xd3,
0x56, 0xdd, 0x6b, 0x57,
0x71, 0xe3, 0xff, 0x9c,
0xdd, 0xf9, 0xe3, 0xb0,
0xae, 0xdd, 0xcf, 0x6d,
0x67, 0x47, 0x5c, 0xd5,
0xf6, 0x5f, 0x8e, 0xe0,
0x69, 0xff, 0x74, 0xdb,
0x52, 0x09, 0xda, 0xaa,
0x6f, 0x29, 0x60, 0xc8,
0x85, 0xd4, 0xe4, 0x4f,
0xd2, 0x21, 0x11, 0x33,
0xb6, 0xfe, 0xdc, 0x72,
0x4b, 0x65, 0x6d, 0x65,
0xbe, 0xdd, 0x3f, 0x91,
0xc7, 0x7e, 0x7f, 0xb3,
0x58, 0x4f, 0x39, 0x6d,
0xab, 0xdb, 0x3f, 0xbf,
0x89, 0x94, 0xf5, 0x5b,
0x7e, 0xb1, 0xd5, 0xf6,
0x77, 0xd9, 0xd6, 0xfa,
0xf2, 0x40, 0xcf, 0x13,
0x7d, 0x86, 0x05, 0x96,
0xf2, 0xbe, 0xce, 0x66,
0x94, 0x87, 0x4f, 0x9b,
0x7f, 0xdf, 0xc5, 0x1a,
0x1e, 0x8f, 0x7f, 0xd7,
0xfd, 0xa5, 0xe5, 0x36,
0x6f, 0xcf, 0xfc, 0xb7,
0x3d, 0x7e, 0xe5, 0x9b,
0xab, 0x07, 0x92, 0xc9,
0xf8, 0x19, 0xb5, 0xaa,
0x01, 0x67, 0xe8, 0xf7,
0xed, 0x25, 0x52, 0x03,
0xac, 0x2b, 0xb1, 0xf6,
0x7e, 0x2b, 0xbc, 0xc7,
0x4e, 0xef, 0xf4, 0x23,
0x9f, 0xd5, 0x49, 0x7f,
0x86, 0x37, 0x8a, 0x2a,
0xcd, 0x57, 0x6a, 0x8d,
0x56, 0x8e, 0xd0, 0x7f,
0xfd, 0x5a, 0xfb, 0x86,
0xa3, 0x31, 0x21, 0xba,
0x6d, 0x1b, 0xd7, 0x6d,
0xc6, 0xf6, 0xff, 0x98,
0xe6, 0xd2, 0xbf, 0xdd,
0xfb, 0xba, 0x4c, 0xfe,
0x5f, 0x1e, 0x9e, 0xbb,
0xf7, 0x48, 0xd0, 0x31,
0xa4, 0x48, 0xf7, 0x7f,
0xeb, 0x85, 0x1c, 0x71,
0x79, 0x69, 0x77, 0x1f,
0xd9, 0xcb, 0xdc, 0xff,
0xb7, 0xf7, 0x61, 0x6b,
0xff, 0xde, 0xbe, 0x67,
0xb9, 0xeb, 0xed, 0xbd,
0x16, 0x95, 0x80, 0xfd,
0x4e, 0xbf, 0xe1, 0x65,
0xe9, 0xff, 0x37, 0x5d,
0x7c, 0xc6, 0x7b, 0x5f,
0xcf, 0xdf, 0x8d, 0x94,
0x9e, 0xeb, 0x0f, 0x23,
0x93, 0xef, 0x7d, 0xfa,
0xd6, 0x3f, 0x28, 0xec,
0x2c, 0x19, 0xb4, 0xbb,
0x76, 0x0f, 0x6c, 0x24,
0xe4, 0x7e, 0xb6, 0xe6,
0xf5, 0x43, 0x0e, 0xff,
0xef, 0xba, 0x2e, 0xa8,
0x4f, 0x46, 0xff, 0xed,
0xea, 0x77, 0x52, 0x2b,
0xed, 0xbf, 0xd6, 0xbd,
0xbb, 0xd7, 0xe6, 0x1d,
0x33, 0x99, 0x66, 0xf2,
0xfd, 0x8c, 0xa6, 0xec,
0xf5, 0x8e, 0xd7, 0xe9,
0x7f, 0xe5, 0x80, 0x39,
0x6d, 0xd8, 0x7f, 0x97,
0x89, 0x66, 0x3e, 0xfe,
0xce, 0x56, 0xde, 0x5d,
0xbb, 0xc6, 0xbd, 0x14,
0xbd, 0x4a, 0xa9, 0xef,
0x74, 0xef, 0x67, 0x73,
0xc8, 0xfa, 0x0f, 0xa7,
0x4e, 0xbe, 0x9b, 0xaa,
0x12, 0x7a, 0xff, 0xfc,
0xf2, 0xde, 0x09, 0x27,
0x5a, 0x28, 0x2c, 0xdf,
0xa0, 0x0e, 0x31, 0xff,
0x78, 0xbe, 0xc6, 0xea,
0x93, 0x32, 0xdb, 0x27,
0x6b, 0xee, 0x7f, 0x43,
0xb2, 0x69, 0x2c, 0x41,
0x5f, 0xf7, 0xa5, 0xeb,
0x3d, 0xff, 0x92, 0x2e,
0x1c, 0xd0, 0xbc, 0xbc,
0x3d, 0x9f, 0xea, 0xe3,
0x30, 0x7b, 0xf8, 0xdf,
0xe5, 0x46, 0x3f, 0xfd,
0x4e, 0xbd, 0xd7, 0x3d,
0xef, 0x0d, 0x95, 0xbe,
0xdf, 0x77, 0xa0, 0xbc,
0xe8, 0x5e, 0xec, 0x03,
0xb3, 0xa0, 0xdf, 0xf3,
0x4d, 0x1f, 0xe2, 0x39,
0xe3, 0x3f, 0x8b, 0x0c,
0x97, 0x7a, 0x9d, 0x54,
0x9f, 0x64, 0x74, 0x7c,
0x23, 0xde, 0xa7, 0xd7,
0x41, 0x88, 0xbb, 0xa5,
0xfd, 0xdd, 0xfc, 0x73,
0xa0, 0x36, 0xeb, 0xdd,
0xdd, 0x27, 0x8c, 0xa6,
0x7e, 0x6f, 0xab, 0xec,
0x7f, 0xaa, 0xed, 0x4d,
0x8b, 0x2b, 0x13, 0xbf,
0xbf, 0xe7, 0xde, 0xec,
0xde, 0xe4, 0x54, 0xae,
0xdf, 0x3b, 0x37, 0x5e,
0x8b, 0xfb, 0x3f, 0x57,
0xd0, 0x17, 0x82, 0x3f,
0x5d, 0x63, 0x9c, 0x99,
0x72, 0xee, 0xfc, 0xc8,
0xd9, 0xf3, 0xe3, 0x81,
0x5c, 0xe7, 0x1f, 0x5e,
0xcb, 0xce, 0xdc, 0xff,
0x5d, 0xe1, 0xeb, 0x32,
0xfd, 0x7f, 0x5d, 0x56,
0x1a, 0x9b, 0xef, 0xb2,
0xfd, 0xb0, 0xc2, 0xf5,
0xf5, 0xc2, 0x1a, 0xcc,
0x15, 0x0f, 0xa3, 0xbb,
0xdf, 0xcf, 0x10, 0xc2,
0x09, 0xbc, 0xd9, 0x9c,
0xb7, 0x02, 0xd5, 0x5f,
0x6e, 0x3f, 0x01, 0xf1,
0x9c, 0x85, 0x7e, 0x98,
0xbf, 0xdb, 0xd1, 0xd2,
0xb5, 0xae, 0x51, 0xf7,
0x0d, 0x67, 0x30, 0xff,
0xd9, 0xe6, 0x2f, 0x68,
0xe3, 0x55, 0xd3, 0x1f,
0x10, 0x54, 0x68, 0xe0,
0xee, 0xe6, 0xa8, 0x58,
0xa8, 0x5e, 0xba, 0x7f,
0x3b, 0x87, 0x92, 0xe0,
0xbe, 0xf7, 0x57, 0x03,
0xb4, 0x7e, 0x81, 0xbf,
0x2f, 0x74, 0xea, 0xb1,
0xa3, 0x7e, 0x7b, 0xdf,
0x47, 0x93, 0x99, 0xcc,
0xfb, 0x5d, 0xfb, 0x86,
0x5a, 0x7f, 0x77, 0x37,
0x40, 0x4f, 0xc6, 0xf7,
0xff, 0xe1, 0xf5, 0x86,
0x39, 0x6f, 0xdb, 0x7e,
0x87, 0x61, 0xc1, 0xee,
0xff, 0x6e, 0x22, 0x01,
0x85, 0xff, 0x6d, 0x4b,
0x29, 0xb7, 0xff, 0xd2,
0x0b, 0x79, 0xb0, 0xb4,
0xff, 0xdf, 0xd9, 0xc3,
0x86, 0x16, 0xfa, 0xf5,
0x78, 0x6f, 0xbb, 0x69,
0xdf, 0xee, 0xce, 0x27,
0x48, 0xce, 0xff, 0xbb,
0x79, 0x4f, 0x9d, 0x9e,
0xfd, 0x7b, 0x7b, 0xc8,
0xbe, 0xff, 0xaf, 0xed,
0xdf, 0x0d, 0xfd, 0x6a,
0x7d, 0xcc, 0xcf, 0xea,
0x9b, 0xba, 0xa5, 0x47,
0xbf, 0x06, 0xe4, 0xfe,
0x3f, 0x93, 0x0a, 0x43,
0x5f, 0xd1, 0xfb, 0x1e,
0x41, 0xb8, 0xd3, 0xef,
0x6c, 0x96, 0xcd, 0x71,
0x6b, 0xdb, 0x9f, 0x39,
0xe9, 0xcf, 0xff, 0xe7,
0x99, 0x79, 0xaf, 0x37,
0xf6, 0x77, 0x73, 0x5d,
0x7e, 0xe9, 0x65, 0xbf,
0xcd, 0x6b, 0xbe, 0xde,
0xb5, 0x1f, 0xd7, 0xdd,
0x3a, 0xce, 0x1f, 0xdb,
0xaf, 0xf3, 0x6f, 0xee,
0xb0, 0xfe, 0xdc, 0xff,
0x25, 0x97, 0x88, 0x74,
0xbf, 0x9c, 0xeb, 0x4e,
0xdb, 0xef, 0x37, 0xbb,
0xf0, 0x4b, 0x49, 0xb8,
0xba, 0x5e, 0xd9, 0xc5,
0x9f, 0xce, 0xb6, 0x2f,
0x58, 0xc2, 0x35, 0xce,
0xde, 0xaf, 0x0e, 0xda,
0x2b, 0xf7, 0xfa, 0xb0,
0x9e, 0x8f, 0xf6, 0xeb,
0xdf, 0xdb, 0xd7, 0x42,
0x5d, 0x75, 0x2e, 0xb6,
0x8d, 0x1b, 0x86, 0xf1,
0x5d, 0xd7, 0x5f, 0xd5,
0xf5, 0x0b, 0x25, 0xbd,
0x97, 0xdb, 0x77, 0x02,
0xa3, 0x50, 0x9f, 0xca,
0x0b, 0x41, 0xf5, 0xdb,
0xd7, 0x17, 0x4d, 0x17,
0xe6, 0x8a, 0x41, 0xd6,
0x57, 0x8b, 0x3a, 0x21,
0xd9, 0xfc, 0xaf, 0xc1,
0x95, 0x32, 0xd7, 0x7f,
0x9a, 0xce, 0x5f, 0xa9,
0x7c, 0xdf, 0xed, 0xbb,
0xb5, 0x91, 0x39, 0xef,
0xce, 0x1f, 0xbc, 0x20,
0x94, 0xa6, 0xfe, 0xa5,
0x1b, 0x62, 0x7b, 0x7f,
0xbf, 0x59, 0x00, 0xfb,
0x2e, 0x7f, 0xbd, 0x23,
0x19, 0x21, 0xa6, 0xdb,
0x6b, 0x04, 0x1d, 0x1e,
0xdc, 0xfe, 0xb7, 0xd0,
0x7d, 0x6a, 0x9e, 0x68,
0xf3, 0xda, 0xa9, 0x99,
0x71, 0x6f, 0xde, 0xaf,
0x79, 0x2d, 0xbb, 0xca,
0xfe, 0x7d, 0xf7, 0x05,
0x4d, 0xb8, 0x6e, 0xdf,
0xaf, 0x31, 0xfc, 0xdf,
0xad, 0x1b, 0x9a, 0xf0,
0x39, 0xef, 0x77, 0xe7,
0x34, 0x83, 0xb5, 0x72,
0x2b, 0x4f, 0x67, 0x03,
0xbf, 0x5e, 0x6f, 0x6d,
0xc5, 0x86, 0xeb, 0xf1,
0xdd, 0xfc, 0x87, 0x26,
0xda, 0xff, 0xf7, 0xee,
0x2e, 0x73, 0x4d, 0xfe,
0xae, 0x4f, 0x8e, 0x88,
0x28, 0xfd, 0xd2, 0xc4,
0x94, 0xfb, 0x6e, 0xef,
0xc3, 0x55, 0x95, 0x00,
0xbd, 0xfd, 0xe6, 0x67,
0xfe, 0xad, 0x9d, 0xd3,
0xd7, 0x89, 0xec, 0x9f,
0xe3, 0xf6, 0x2d, 0xd7,
0xdd, 0x33, 0x6a, 0xd7,
0xdf, 0x10, 0xa7, 0xfe,
0xd9, 0xd7, 0xfb, 0x87,
0xa4, 0x97, 0xf4, 0x76,
0x3e, 0x55, 0xb9, 0x3e,
0x3f, 0x5b, 0xad, 0x72,
0x37, 0xfb, 0x96, 0xd7,
0xc9, 0x56, 0x57, 0xc4,
0xff, 0x45, 0xbb, 0xec,
0xf7, 0x5d, 0xf5, 0xf6,
0xaa, 0x65, 0x84, 0x5b,
0x9d, 0x2e, 0xbf, 0x67,
0x3a, 0x73, 0xc1, 0xd5,
0x7b, 0x7f, 0xaf, 0xf9,
0x73, 0x60, 0xdb, 0xfb,
0xbc, 0xdf, 0xf9, 0xa1,
0x9d, 0xdb, 0x9d, 0xc6,
0x33, 0xfb, 0xcd, 0x5e,
0x84, 0x4a, 0x5c, 0x73,
0xef, 0x77, 0xef, 0x03,
0xc3, 0xf6, 0xde, 0xde,
0x11, 0x4a, 0x48, 0xe4,
0xc3, 0x3c, 0x87, 0x0e,
0xa3, 0x4a, 0xbd, 0x8a,
0x67, 0xaa, 0xc4, 0x52,
0x50, 0xda, 0xdf, 0xb7,
0x97, 0x93, 0x50, 0xa3,
0x1e, 0xe1, 0x5a, 0xef,
0xcd, 0x95, 0xd2, 0x69,
0x93, 0xff, 0xea, 0x1f,
0x97, 0x7f, 0xf5, 0xdc,
0xf5, 0x73, 0x99, 0x4f,
0x9e, 0xde, 0x73, 0x60,
0xe5, 0x7e, 0xbf, 0xb3,
0xd9, 0x44, 0xab, 0x3f,
0xf5, 0xe4, 0x6d, 0x18,
0xea, 0xf6, 0x9e, 0x7d,
0xb9, 0x5e, 0xbf, 0xd1,
0x99, 0xb0, 0xf4, 0xbd,
0xce, 0x47, 0x51, 0xb0,
0x58, 0xfd, 0xd6, 0x47,
0xad, 0xdd, 0xba, 0xff,
0xef, 0x71, 0x84, 0x85,
0x4a, 0x79, 0x75, 0x6f,
0x1c, 0xa3, 0x77, 0x53,
0x67, 0xc8, 0x6d, 0x6e,
0xe5, 0xdd, 0xfe, 0x3f,
0xb8, 0x1b, 0x40, 0x6f,
0x6f, 0x77, 0x1f, 0xec,
0xe8, 0x7f, 0xce, 0x3a,
0xef, 0x33, 0xad, 0xfd,
0x9e, 0x47, 0x83, 0xf7,
0x74, 0x7f, 0xb6, 0x35,
0x7a, 0x0f, 0xcd, 0xe3,
0xce, 0x9c, 0xbb, 0xad,
0x8e, 0x4a, 0xbf, 0x7b,
0xe4, 0xb6, 0x4a, 0xcb,
0xb9, 0x7b, 0xdf, 0xe3,
0xe3, 0x6a, 0xff, 0xf7,
0xed, 0xfe, 0x80, 0xce,
0xf4, 0x2e, 0x7f, 0x1a,
0x23, 0xbf, 0xbf, 0xd6,
0x3e, 0xec, 0xf5, 0xde,
0x7d, 0xab, 0xb8, 0xe7,
0x45, 0x1a, 0xb2, 0xe7,
0xd2, 0x37, 0x21, 0xce,
0xcf, 0xd2, 0x4e, 0x96,
0x40, 0x1b, 0x8c, 0xf0,
0x3e, 0xb6, 0x43, 0xb6,
0x9b, 0xad, 0x79, 0xee,
0x76, 0x2c, 0xfe, 0xef,
0x92, 0x5b, 0xe7, 0x7f,
0xda, 0x7f, 0x7f, 0xfd,
0xff, 0xab, 0x92, 0x9e,
0x4a, 0xfc, 0x5d, 0xbe,
0xdb, 0x43, 0x39, 0xfc,
0xd8, 0xff, 0xb9, 0x25,
0xc0, 0x75, 0x99, 0x9f,
0x2d, 0x81, 0x46, 0x6f,
0x75, 0xd7, 0xf2, 0x67,
0x44, 0xbf, 0xdf, 0xdd,
0x7f, 0xb4, 0x6f, 0x3d,
0xf4, 0x9f, 0xab, 0x1b,
0xf1, 0xfc, 0xdf, 0xd5,
0xb9, 0xac, 0x19, 0x45,
0xf6, 0xf7, 0x1e, 0x52,
0x79, 0xfa, 0x76, 0x6f,
0x9c, 0x91, 0xa7, 0x9d,
0xf7, 0x6e, 0x27, 0xac,
0x8e, 0xfe, 0xd7, 0x3f,
0xef, 0xa2, 0xf2, 0xdf,
0xdd, 0x2f, 0x14, 0x73,
0x45, 0xe6, 0xdd, 0xf5,
0xbb, 0xd0, 0x2d, 0xfd,
0x09, 0xd3, 0xf1, 0xcb,
0xdf, 0xc7, 0xd7, 0xec,
0x07, 0xa9, 0xe6, 0xf9,
0xee, 0xfa, 0xd3, 0xdf,
0xf6, 0xfa, 0x7e, 0xd3,
0x00, 0xff, 0xde, 0x4b,
0xb9, 0x55, 0xe3, 0xeb,
0xba, 0xda, 0xa7, 0x04,
0x5b, 0x8f, 0x77, 0xee,
0xbf, 0x6d, 0xde, 0x97,
0xc5, 0xf7, 0xda, 0xf9,
0xf3, 0xda, 0xdb, 0x6a,
0xff, 0xb5, 0x1c, 0x56,
0x46, 0x4c, 0xfd, 0xdd,
0xd1, 0x53, 0xec, 0xef,
0xf3, 0xe6, 0xa9, 0xcc,
0x2f, 0xf9, 0xd5, 0xfb,
0xed, 0x98, 0xe5, 0xd4,
0xae, 0x5f, 0x68, 0xb8,
0xe6, 0xf7, 0xdc, 0x3f,
0xb3, 0x43, 0x77, 0x77,
0xfe, 0x8b, 0x30, 0xb8,
0x36, 0x3f, 0xdf, 0x7f,
0x57, 0x95, 0xda, 0xff,
0xd8, 0x84, 0x57, 0x6e,
0xcd, 0x95, 0xc5, 0x6b,
0x32, 0xee, 0xef, 0xf7,
0x16, 0xab, 0xfc, 0x1f,
0xf1, 0x5f, 0x57, 0x2f,
0x22, 0x69, 0x9f, 0xce,
0x83, 0xdf, 0x57, 0xdb,
0xf7, 0xfb, 0xef, 0x04,
0x93, 0xad, 0x7f, 0x77,
0xaf, 0x10, 0xed, 0xfb,
0xf5, 0x5a, 0xe7, 0x6f,
0x57, 0xef, 0xbd, 0xad,
0x1c, 0x89, 0x7f, 0x9b,
0x0d, 0x35, 0xc5, 0xcd,
0xd2, 0xff, 0xff, 0x34,
0x9f, 0x9d, 0x6e, 0xdf,
0x6b, 0xa0, 0x3d, 0x69,
0x73, 0x87, 0x93, 0x76,
0x5c, 0x7f, 0x6f, 0xef,
0x07, 0xc1, 0xb4, 0xa2,
0xb1, 0xd1, 0xbb, 0x7d,
0x01, 0x6e, 0x76, 0xaf,
0x59, 0x3d, 0xf4, 0x10,
0xbf, 0xbe, 0x9f, 0x4d,
0xb5, 0xf1, 0x48, 0x01,
0x7e, 0x9a, 0xfe, 0xdb,
0x28, 0xf7, 0xbe, 0xda,
0x2b, 0x67, 0xff, 0x44,
0xb7, 0x5d, 0xbf, 0x57,
0xce, 0xc7, 0xec, 0x7e,
0xb7, 0xf0, 0x95, 0x94,
0x9f, 0xb7, 0xea, 0x3e,
0x3d, 0x61, 0xfb, 0x7d,
0x8e, 0x6e, 0xfc, 0xe2,
0xce, 0xdf, 0xde, 0x27,
0x16, 0xb6, 0xf0, 0x73,
0xec, 0x41, 0x29, 0x48,
0xfd, 0xea, 0xbd, 0x42,
0x1a, 0xbc, 0xbd, 0xef,
0xef, 0x2e, 0x47, 0xbd,
0xd8, 0xdf, 0xe3, 0x2e,
0xd1, 0xfa, 0x4b, 0xfb,
0x2f, 0x0b, 0xcb, 0x2e,
0xbf, 0x69, 0xfd, 0x27,
0x5c, 0xbc, 0xef, 0xe3,
0x3d, 0x96, 0x33, 0x01,
0xcb, 0xdd, 0x55, 0x30,
0x93, 0x78, 0xe8, 0x24,
0xed, 0x2a, 0xb3, 0xfa,
0x6d, 0xf7, 0xfa, 0x16,
0xac, 0xa6, 0xc4, 0xe2,
0x6a, 0xae, 0xbd, 0xf6,
0x90, 0x0a, 0x56, 0xb2,
0xff, 0x7a, 0xbf, 0x91,
0xdb, 0xee, 0xbe, 0xd7,
0xac, 0x3a, 0x40, 0x56,
0xef, 0x6f, 0xf2, 0x33,
0xbd, 0xdc, 0x76, 0xff,
0x41, 0x7a, 0xd8, 0xb6,
0x95, 0x15, 0x37, 0xcb,
0xf9, 0xeb, 0xef, 0xb9,
0xa0, 0x69, 0xe0, 0xb9,
0xe1, 0x53, 0xfb, 0xb5,
0x95, 0x6e, 0xdb, 0xbf,
0xd6, 0x41, 0xe9, 0xb3,
0x94, 0xed, 0xce, 0xbf,
0x7b, 0x8e, 0xa3, 0x7b,
0xbe, 0x1c, 0x92, 0x88,
0xfc, 0x9f, 0x35, 0x01,
0x00, 0x23, 0xd9, 0x75,
0xbf, 0x3f, 0xfc, 0x19,
0x13, 0xd9, 0xfe, 0xd7,
0x3d, 0x2e, 0xde, 0xfe,
0xdd, 0x66, 0x1e, 0x36,
0xbe, 0x57, 0xaf, 0x25,
0x26, 0x1b, 0x77, 0xfb,
0x7f, 0xf6, 0xb6, 0xe8,
0xac, 0xc1, 0x67, 0xb7,
0x1d, 0xdd, 0x64, 0x3f,
0x8f, 0x5e, 0xf1, 0xec,
0xfd, 0x36, 0x3f, 0x28,
0xaa, 0x7a, 0xac, 0xbb,
0xba, 0xed, 0xfb, 0xa7,
0xcc, 0xea, 0xb7, 0xe7,
0xff, 0xc7, 0xe9, 0x98,
0xef, 0xab, 0xef, 0xba,
0x0d, 0x9f, 0x6f, 0x1f,
0x4f, 0xde, 0x6d, 0xf1,
0xd7, 0xba, 0xeb, 0xab,
0xa7, 0xfe, 0xa3, 0x7b,
0x3d, 0xf6, 0x0d, 0x97,
0xdf, 0x9f, 0xb7, 0x26,
0x14, 0x85, 0x3b, 0xdb,
0x1f, 0x29, 0x51, 0xd1,
0xf7, 0xdb, 0x1d, 0xb8,
0xc4, 0x3e, 0xf7, 0x5f,
0xae, 0x47, 0xfe, 0xee,
0x7b, 0x2e, 0x9b, 0x98,
0xee, 0xb4, 0x73, 0x1f,
0xc5, 0xf2, 0xc4, 0xef,
0xdf, 0x9b, 0x24, 0xb4,
0xd6, 0xe6, 0xdb, 0x3a,
0x5f, 0x31, 0x55, 0x77,
0xff, 0xd1, 0x2d, 0x5f,
0xc0, 0xf2, 0x59, 0xbc,
0x95, 0xdd, 0x7c, 0xbf,
0xbf, 0x6b, 0xbc, 0x14,
0x28, 0x73, 0xb2, 0xff,
0x77, 0x94, 0xee, 0xa5,
0x89, 0xb2, 0xf1, 0x69,
0xf9, 0xbe, 0x3e, 0xa1,
0xe1, 0x24, 0xbe, 0x72,
0xf3, 0xaf, 0xdc, 0xfb,
0x5c, 0x6f, 0xcf, 0x6f,
0xf8, 0x77, 0x60, 0x7c,
0xcb, 0xa7, 0x17, 0x9c,
0x95, 0xaf, 0xfa, 0x14,
0xf5, 0xdd, 0x24, 0xd6,
0xff, 0xf5, 0x13, 0x50,
0x4f, 0x00, 0x3a, 0x9b,
0x3d, 0xdd, 0xa0, 0xf6,
0xf6, 0xf6, 0x39, 0x55,
0x38, 0xaf, 0xf6, 0x5d,
0x4d, 0xb1, 0x96, 0x48,
0xe7, 0xd7, 0xbc, 0x48,
0x53, 0xfb, 0xb8, 0xf3,
0x53, 0x32, 0xf7, 0x3a,
0x7b, 0x5d, 0xfb, 0x67,
0x31, 0xc6, 0x97, 0xe2,
0x3e, 0xf4, 0xf6, 0x72,
0x95, 0x81, 0xd2, 0xbe,
0xeb, 0xfb, 0xf1, 0xff,
0x71, 0x3e, 0x3d, 0x77,
0xab, 0xb4, 0x8c, 0xf4,
0xe9, 0x35, 0x59, 0x9e,
0x4b, 0xed, 0x9a, 0x76,
0x75, 0x38, 0x53, 0x3c,
0x1f, 0xee, 0xf7, 0xfb,
0xf9, 0x46, 0xf1, 0xed,
0xb6, 0xeb, 0xfd, 0x92,
0xde, 0x77, 0xf5, 0x8b,
0x27, 0x07, 0x5a, 0xf7,
0xff, 0x80, 0x10, 0x59,
0xd5, 0xea, 0x07, 0xdc,
0x50, 0xf6, 0xdf, 0x49,
0xa7, 0x35, 0xb0, 0x24,
0xdc, 0xff, 0x67, 0x5d,
0x91, 0x49, 0x4b, 0xcb,
0xbd, 0xbb, 0xff, 0xed,
0xfa, 0x57, 0x1f, 0xa7,
0xf3, 0xfc, 0x85, 0xfd,
0x7f, 0x5b, 0xf5, 0xfc,
0x6d, 0x0c, 0xfd, 0x77,
0xb7, 0x7f, 0x41, 0x1b,
0x7e, 0xbb, 0x71, 0x15,
0x95, 0xef, 0xff, 0xeb,
0x2c, 0x60, 0x82, 0xd9,
0xa1, 0xbb, 0x5f, 0x38,
0xad, 0xed, 0xf6, 0x77,
0x2e, 0xf7, 0xf8, 0xf4,
0x7f, 0xcb, 0x00, 0x56,
0xf1, 0x56, 0xfb, 0x29,
0x6e, 0x21, 0xde, 0xae,
0xff, 0x45, 0x12, 0xca,
0xef, 0xa7, 0x1d, 0x4b,
0x64, 0xec, 0xfe, 0xdc,
0xa7, 0x5c, 0xf9, 0x7c,
0xda, 0xbc, 0xb1, 0x47,
0x98, 0xf7, 0xdb, 0xf1,
0x86, 0x7c, 0x9a, 0xa9,
0xf6, 0x7c, 0xef, 0x24,
0xc1, 0x9d, 0xb7, 0x75,
0xfe, 0xce, 0x21, 0x58,
0xdf, 0xfb, 0xff, 0xdb,
0x59, 0xe6, 0xe9, 0xfb,
0x14, 0xc2, 0x7d, 0xbb,
0x0f, 0xc4, 0x80, 0x80,
0x6f, 0x7b, 0x9f, 0xd7,
0x17, 0x79, 0x8a, 0xef,
0x32, 0x65, 0xf6, 0x92,
0xff, 0xd6, 0x5e, 0x4b,
0xba, 0x25, 0x9e, 0xca,
0xbf, 0xdd, 0x3d, 0xfb,
0x20, 0xd7, 0x5f, 0xaf,
0x2d, 0xe1, 0xdf, 0x76,
0x3e, 0x37, 0xff, 0x59,
0xc5, 0xe7, 0xb7, 0x83,
0xb8, 0x75, 0xeb, 0xcd,
0x7c, 0xb7, 0x1d, 0xf2,
0xb4, 0xec, 0xb3, 0xdb,
0x5b, 0x31, 0x4a, 0xeb,
0xed, 0xc3, 0xe1, 0x4d,
0xe0, 0x0b, 0x5f, 0x7f,
0x6a, 0x26, 0x67, 0x02,
0x69, 0x06, 0xfd, 0x9f,
0xf9, 0x8e, 0xa8, 0x4e,
0xbb, 0x58, 0xe7, 0xd9,
0x2e, 0x27, 0x31, 0xfb,
0xb9, 0x6a, 0xae, 0x73,
0x52, 0xf9, 0xe7, 0xfa,
0xbe, 0xec, 0x84, 0x91,
0xb4, 0xdb, 0xeb, 0x3d,
0x4b, 0x50, 0x7e, 0xdf,
0xa7, 0xfb, 0x33, 0x5a,
0xc5, 0xd6, 0xf7, 0x64,
0x1e, 0xfb, 0xdd, 0xfd,
0x7e, 0x6f, 0xc4, 0xbe,
0xf1, 0xbb, 0x37, 0xfd,
0xff, 0x5e, 0xe0, 0xfe,
0x9f, 0xfe, 0x56, 0xc2,
0x5f, 0x9f, 0x6f, 0xd3,
0xf3, 0x85, 0xff, 0x56,
0xfd, 0x9a, 0x3f, 0x97,
0xff, 0x6a, 0xfd, 0xb3,
0x3e, 0x1b, 0x55, 0xbf,
0x5a, 0xbe, 0x24, 0x7d,
0xbf, 0x27, 0x5c, 0x72,
0x8a, 0xd3, 0xe6, 0xfd,
0x9e, 0x34, 0x45, 0x9f,
0x71, 0xbb, 0xff, 0x2d,
0xd2, 0xd3, 0x73, 0xaf,
0xbb, 0xaf, 0x80, 0x67,
0xfe, 0x6d, 0x58, 0x23,
0x44, 0xf1, 0xef, 0xda,
0xff, 0x90, 0xcf, 0xef,
0xf4, 0xff, 0xd2, 0x5e,
0x74, 0x5f, 0x7d, 0xfb,
0xd8, 0x5a, 0xfe, 0xc9,
0x76, 0xdf, 0xcf, 0x0b,
0x5a, 0x07, 0x11, 0xd7,
0xff, 0x8d, 0x0f, 0x2d,
0x7d, 0xbf, 0xf7, 0xbe,
0x3b, 0xfe, 0x9d, 0xf6,
0x1c, 0x69, 0x63, 0xf5,
0xdf, 0x37, 0x06, 0xbc,
0xf2, 0xf3, 0xbd, 0xd4,
0x1e, 0xf9, 0x7f, 0x9b,
0xbb, 0x87, 0xd2, 0xd3,
0xf7, 0xf6, 0xff, 0x52,
0xf2, 0xf6, 0xee, 0xec,
0xef, 0x12, 0xd4, 0x56,
0x6f, 0x17, 0x3c, 0x77,
0x67, 0xff, 0xb5, 0xf5,
0x73, 0xa6, 0x60, 0xfd,
0xdf, 0x9d, 0xbf, 0xe7,
0x7c, 0x3d, 0x5e, 0x01,
0xca, 0xdf, 0xd7, 0x3b,
0xa4, 0xec, 0xcc, 0xa0,
0x61, 0xd7, 0x1f, 0x4e,
0xd2, 0xb7, 0xf5, 0xc7,
0x5f, 0xfd, 0x52, 0x58,
0xad, 0xfd, 0xb7, 0x6e,
0xb9, 0xf9, 0x76, 0xaf,
0x43, 0xf3, 0x9d, 0xef,
0x1b, 0x1a, 0x93, 0x3e,
0x38, 0xbf, 0x48, 0x91,
0xec, 0x34, 0x8a, 0x57,
0x73, 0x4f, 0xc8, 0xf9,
0x70, 0x06, 0x91, 0x6b,
0xbf, 0x5a, 0xa5, 0xb2,
0xe7, 0x50, 0xeb, 0x7e,
0x0d, 0xdf, 0xa4, 0xde,
0x97, 0x76, 0x63, 0x32,
0x1f, 0x6b, 0xbf, 0xaf,
0x75, 0xee, 0x4f, 0x0d,
0xaf, 0x5f, 0x93, 0xd9,
0x76, 0xfa, 0x71, 0xf8,
0x16, 0xba, 0xc8, 0xa3,
0x20, 0x2a, 0x64, 0xe9,
0xbf, 0xb1, 0x60, 0x70,
0x49, 0x84, 0xfd, 0x3f,
0xdd, 0xb5, 0x31, 0xed,
0xd7, 0xff, 0xbf, 0xb5,
0x7e, 0x13, 0xef, 0xdf,
0x4e, 0x7f, 0x02, 0x70,
0xec, 0xeb, 0xd5, 0x76,
0x72, 0x63, 0xbd, 0xbb,
0xf7, 0x3f, 0x05, 0x6b,
0xbf, 0x7b, 0xf7, 0xe2,
0xb9, 0x1f, 0x9d, 0xfa,
0x5d, 0x8a, 0x4c, 0x8b,
0xf7, 0xe4, 0xad, 0xb3,
0x55, 0xcb, 0xdc, 0xbe,
0x6f, 0x92, 0xe0, 0x34,
0xe3, 0x4f, 0xd5, 0xbf,
0x75, 0x5f, 0xbc, 0xaf,
0xeb, 0xaf, 0x0d, 0xfb,
0xbc, 0xff, 0x5e, 0xff,
0x12, 0x39, 0x6f, 0x16,
0xbe, 0x29, 0xe7, 0xad,
0x5e, 0xc9, 0xff, 0xff,
0xff, 0xff, 0xff, 0xff,
0xff, 0xff, 0xff, 0xff,
0xff, 0xff, 0xff, 0xff, 

};






static inline const int8_t * Getfc_lif_layer_1WeightsPointer()
{
	return weight_fc_lif_layer_1;
}

static inline size_t Getfc_lif_layer_1WeightsLen()
{
	return sizeof(weight_fc_lif_layer_1);
}





static const int8_t lif_param_fc_lif_layer_1[] __attribute__((aligned(16))) = 
{


// ln(beta)_quant
127, 127, 127, 127, 127, 127, 127, 127, 127, 
127, 127, 127, 127, 127, 127, 127, 127, 
127, 127, 127, 127, 127, 127, 127, 127, 
127, 127, 127, 127, 127, 127, 127, 127, 
127, 127, 127, 127, 127, 127, 127, 127, 
127, 127, 127, 127, 127, 127, 127, 127, 
127, 127, 127, 127, 127, 127, 127, 127, 
127, 127, 127, 127, 127, 127, 127, 
// vth_quant
-1, -1, -1, -1, -1, -1, -1, -1, -1, 
-1, -1, -1, -1, -1, -1, -1, -1, 
-1, -1, -1, -1, -1, -1, -1, -1, 
-1, -1, -1, -1, -1, -1, -1, -1, 
-1, -1, -1, -1, -1, -1, -1, -1, 
-1, -1, -1, -1, -1, -1, -1, -1, 
-1, -1, -1, -1, -1, -1, -1, -1, 
-1, -1, -1, -1, -1, -1, -1, 

};







static inline const int8_t* Getfc_lif_layer_1LIFParamPointer()
{
	return lif_param_fc_lif_layer_1;
}
static inline size_t Getfc_lif_layer_1LIFParamLen()
{
	return sizeof(lif_param_fc_lif_layer_1);
}





static const int8_t lut_fc_lif_layer_1[] __attribute__((aligned(16))) = 
{


//lut index 0
127, 
127, 127, 127, 127, 127, 127, 127, 127, 
127, 127, 127, 127, 127, 127, 127, 127, 
127, 127, 127, 127, 127, 127, 127, 127, 
127, 127, 127, 127, 127, 127, 127, 127, 
127, 127, 127, 127, 127, 127, 127, 127, 
127, 127, 127, 127, 127, 127, 127, 127, 
127, 127, 127, 127, 127, 127, 127, 127, 
127, 127, 127, 127, 127, 127, 127, 127, 
127, 127, 127, 127, 127, 127, 127, 127, 
127, 127, 127, 127, 127, 127, 127, 127, 
127, 127, 127, 127, 127, 127, 127, 127, 
127, 127, 127, 127, 127, 127, 127, 127, 
127, 127, 127, 127, 127, 127, 127, 127, 
127, 127, 127, 127, 127, 127, 127, 127, 
127, 127, 127, 127, 127, 127, 127, 127, 
127, 127, 127, 127, 127, 127, 127, 127, 
127, 127, 127, 127, 127, 127, 127, 127, 
127, 127, 127, 127, 127, 127, 127, 127, 
127, 127, 127, 127, 127, 127, 127, 127, 
127, 127, 127, 127, 127, 127, 127, 127, 
127, 127, 127, 127, 127, 127, 127, 127, 
127, 127, 127, 127, 127, 127, 127, 127, 
127, 127, 127, 127, 127, 127, 127, 127, 
127, 127, 127, 127, 127, 127, 127, 127, 
127, 127, 127, 127, 127, 127, 127, 127, 
127, 127, 127, 127, 127, 127, 127, 127, 
127, 127, 127, 127, 127, 127, 127, 127, 
127, 127, 127, 127, 127, 127, 127, 127, 
127, 127, 127, 127, 127, 127, 127, 127, 
127, 127, 127, 127, 127, 127, 127, 127, 
127, 127, 127, 127, 127, 127, 127, 127, 
127, 127, 127, 127, 127, 127, 127, 
//lut index 1
0, 
1, 1, 1, 1, 1, 1, 1, 1, 
1, 1, 1, 1, 1, 1, 1, 1, 
1, 1, 1, 1, 1, 1, 1, 1, 
1, 1, 1, 1, 1, 1, 1, 1, 
1, 1, 1, 1, 1, 1, 1, 1, 
1, 1, 1, 1, 1, 1, 1, 1, 
1, 1, 1, 1, 1, 1, 1, 1, 
1, 1, 1, 1, 1, 1, 1, 1, 
1, 1, 1, 1, 1, 1, 1, 1, 
1, 1, 1, 1, 1, 1, 1, 1, 
1, 1, 1, 1, 1, 1, 1, 1, 
1, 1, 1, 1, 1, 1, 1, 1, 
1, 1, 1, 1, 1, 1, 1, 1, 
1, 1, 1, 1, 1, 1, 1, 1, 
1, 1, 1, 1, 1, 1, 1, 1, 
1, 1, 1, 1, 1, 1, 1, 1, 
1, 1, 1, 1, 1, 1, 1, 1, 
1, 1, 1, 1, 1, 1, 1, 1, 
1, 1, 1, 1, 1, 1, 1, 1, 
1, 1, 1, 1, 1, 1, 1, 1, 
1, 1, 1, 1, 1, 1, 1, 1, 
1, 1, 1, 1, 1, 1, 1, 1, 
1, 1, 1, 1, 1, 1, 1, 1, 
1, 1, 1, 1, 1, 1, 1, 1, 
1, 1, 1, 1, 1, 1, 1, 1, 
1, 1, 1, 1, 1, 1, 1, 1, 
1, 1, 1, 1, 1, 1, 1, 1, 
1, 1, 1, 1, 1, 1, 1, 1, 
1, 1, 1, 1, 1, 1, 1, 1, 
1, 1, 1, 1, 1, 1, 1, 1, 
1, 1, 1, 1, 1, 1, 1, 1, 
1, 1, 1, 1, 1, 1, 1, 


};







static inline const int8_t* Getfc_lif_layer_1LUTPointer()
{
	return lut_fc_lif_layer_1;
}
static inline size_t Getfc_lif_layer_1LUTLen()
{
	return sizeof(lut_fc_lif_layer_1);
}

/*
Register Command Stream:
+---------------------------+-----------+-------------------------+
| Command Name              | Parameter | Payload Data            |
+---------------------------+-----------+-------------------------+
| NPU_SET_DMA0_SRC_REGION   | 4         | -                       |
| NPU_SET_DMA0_SRC          | 0         | 0x00000000 (0)          |
| NPU_SET_DMA0_DST_REGION   | 259       | -                       |
| NPU_SET_DMA0_DST          | 0         | 0x0000b800 (47104)      |
| NPU_SET_DMA0_LEN          | 0         | 0x00000100 (256)        |
| NPU_OP_DMA_START          | 0         | -                       |
| NPU_SET_OFM_SCALE         | 38        | 0x40404040 (1077952576) |
| NPU_SET_IFM_REGION        | 3         | -                       |
| NPU_SET_IFM_BASE0         | 0         | 0x00000000 (0)          |
| NPU_SET_IFM_BASE1         | 0         | 0x00000000 (0)          |
| NPU_SET_IFM_BASE2         | 0         | 0x00000000 (0)          |
| NPU_SET_IFM_BASE3         | 0         | 0x00000000 (0)          |
| NPU_SET_IFM_HEIGHT0_M1    | 0         | -                       |
| NPU_SET_IFM_HEIGHT1_M1    | 65535     | -                       |
| NPU_SET_IFM_WIDTH0_M1     | 0         | -                       |
| NPU_SET_IFM_DEPTH_M1      | 63        | -                       |
| NPU_SET_IFM_STRIDE_C      | 0         | 0x00000001 (1)          |
| NPU_SET_IFM_STRIDE_Y      | 0         | 0x00000040 (64)         |
| NPU_SET_IFM_STRIDE_X      | 0         | 0x00000040 (64)         |
| NPU_SET_IFM_ZERO_POINT    | 65408     | -                       |
| NPU_SET_IFM_PRECISION     | 1         | -                       |
| NPU_SET_IFM_UPSCALE       | 0         | -                       |
| NPU_SET_OFM_REGION        | 1         | -                       |
| NPU_SET_OFM_BASE0         | 0         | 0x000013d0 (5072)       |
| NPU_SET_OFM_BASE1         | 0         | 0x00000000 (0)          |
| NPU_SET_OFM_BASE2         | 0         | 0x00000000 (0)          |
| NPU_SET_OFM_BASE3         | 0         | 0x00000000 (0)          |
| NPU_SET_OFM_HEIGHT0_M1    | 0         | -                       |
| NPU_SET_OFM_HEIGHT1_M1    | 65535     | -                       |
| NPU_SET_OFM_WIDTH0_M1     | 0         | -                       |
| NPU_SET_OFM_HEIGHT_M1     | 0         | -                       |
| NPU_SET_OFM_WIDTH_M1      | 0         | -                       |
| NPU_SET_OFM_DEPTH_M1      | 63        | -                       |
| NPU_SET_OFM_STRIDE_C      | 0         | 0x00000010 (16)         |
| NPU_SET_OFM_STRIDE_Y      | 0         | 0x00000040 (64)         |
| NPU_SET_OFM_STRIDE_X      | 0         | 0x00000010 (16)         |
| NPU_SET_OFM_ZERO_POINT    | 65408     | -                       |
| NPU_SET_OFM_PRECISION     | 321       | -                       |
| NPU_SET_ACTIVATION        | 16        | -                       |
| NPU_SET_ACTIVATION_MIN    | 65408     | -                       |
| NPU_SET_ACTIVATION_MAX    | 127       | -                       |
| NPU_SET_OFM_BLK_HEIGHT_M1 | 1         | -                       |
| NPU_SET_OFM_BLK_WIDTH_M1  | 1         | -                       |
| NPU_SET_OFM_BLK_DEPTH_M1  | 63        | -                       |
| NPU_SET_IFM_IB_END        | 46        | -                       |
| NPU_SET_AB_START          | 46        | -                       |
| NPU_SET_IFM2_IB_START     | 10        | -                       |
| NPU_SET_ACC_FORMAT        | 0         | -                       |
| NPU_SET_IFM2_REGION       | 1         | -                       |
| NPU_SET_IFM2_BASE0        | 0         | 0x00001490 (5264)       |
| NPU_SET_IFM2_BASE1        | 0         | 0x00000000 (0)          |
| NPU_SET_IFM2_BASE2        | 0         | 0x00000000 (0)          |
| NPU_SET_IFM2_BASE3        | 0         | 0x00000000 (0)          |
| NPU_SET_IFM2_HEIGHT0_M1   | 0         | -                       |
| NPU_SET_IFM2_HEIGHT1_M1   | 65535     | -                       |
| NPU_SET_IFM2_WIDTH0_M1    | 0         | -                       |
| NPU_SET_IFM2_STRIDE_C     | 0         | 0x00000001 (1)          |
| NPU_SET_IFM2_STRIDE_Y     | 0         | 0x00000001 (1)          |
| NPU_SET_IFM2_STRIDE_X     | 0         | 0x00000001 (1)          |
| NPU_SET_IFM2_ZERO_POINT   | 65408     | -                       |
| NPU_SET_IFM_PRECISION     | 1         | -                       |
| NPU_SET_IFM2_BROADCAST    | 4         | -                       |
| NPU_SET_BLOCKDEP          | 0         | -                       |
| NPU_OP_DMA_WAIT           | 0         | -                       |
| NPU_OP_ELEMENTWISE        | 0         | -                       |
| NPU_SET_DMA0_SRC_REGION   | 0         | -                       |
| NPU_SET_DMA0_DST_REGION   | 1         | -                       |
| NPU_SET_DMA0_DST          | 0         | 0x00000000 (0)          |
| NPU_SET_DMA0_LEN          | 0         | 0x000013d0 (5072)       |
| NPU_OP_DMA_START          | 0         | -                       |
| NPU_SET_IFM_REGION        | 5         | -                       |
| NPU_SET_IFM_ZERO_POINT    | 0         | -                       |
| NPU_SET_IFM_PAD_TOP       | 0         | -                       |
| NPU_SET_IFM_PAD_LEFT      | 0         | -                       |
| NPU_SET_IFM_PAD_BOTTOM    | 0         | -                       |
| NPU_SET_IFM_PAD_RIGHT     | 0         | -                       |
| NPU_SET_OFM_BASE0         | 0         | 0x00001410 (5136)       |
| NPU_SET_OFM_ZERO_POINT    | 65472     | -                       |
| NPU_SET_OFM_PRECISION     | 65        | -                       |
| NPU_SET_KERNEL_HEIGHT_M1  | 0         | -                       |
| NPU_SET_KERNEL_WIDTH_M1   | 0         | -                       |
| NPU_SET_KERNEL_STRIDE     | 0         | -                       |
| NPU_SET_WEIGHT_REGION     | 1         | -                       |
| NPU_SET_WEIGHT_BASE       | 0         | 0x00000280 (640)        |
| NPU_SET_WEIGHT_LENGTH     | 0         | 0x00001150 (4432)       |
| NPU_SET_SCALE_REGION      | 1         | -                       |
| NPU_SET_SCALE_BASE        | 0         | 0x00000000 (0)          |
| NPU_SET_SCALE_LENGTH      | 0         | 0x00000280 (640)        |
| NPU_SET_ACTIVATION        | 0         | -                       |
| NPU_SET_IFM_IB_END        | 10        | -                       |
| NPU_SET_AB_START          | 30        | -                       |
| NPU_SET_BLOCKDEP          | 3         | -                       |
| NPU_OP_DMA_WAIT           | 0         | -                       |
| NPU_OP_CONV               | 0         | -                       |
| NPU_SET_OFM_SCALE         | 40        | 0x5d74ba8c (1567931020) |
| NPU_SET_IFM_REGION        | 1         | -                       |
| NPU_SET_IFM_BASE0         | 0         | 0x00001450 (5200)       |
| NPU_SET_IFM_ZERO_POINT    | 65472     | -                       |
| NPU_SET_OFM_BASE0         | 0         | 0x000013d0 (5072)       |
| NPU_SET_OFM_ZERO_POINT    | 65431     | -                       |
| NPU_SET_OFM_PRECISION     | 321       | -                       |
| NPU_SET_IFM_IB_END        | 46        | -                       |
| NPU_SET_AB_START          | 46        | -                       |
| NPU_SET_IFM2_BASE0        | 0         | 0x000013d0 (5072)       |
| NPU_SET_IFM2_STRIDE_C     | 0         | 0x00000010 (16)         |
| NPU_SET_IFM2_STRIDE_Y     | 0         | 0x00000040 (64)         |
| NPU_SET_IFM2_STRIDE_X     | 0         | 0x00000010 (16)         |
| NPU_SET_IFM_PRECISION     | 65        | -                       |
| NPU_SET_IFM2_BROADCAST    | 0         | -                       |
| NPU_OP_ELEMENTWISE        | 0         | -                       |
| NPU_SET_OPA_SCALE         | 13        | 0x5d1745d1 (1561806289) |
| NPU_SET_OPB_SCALE         | 0         | 0x00000000 (0)          |
| NPU_SET_OFM_SCALE         | 48        | 0x58000000 (1476395008) |
| NPU_SET_IFM_BASE0         | 0         | 0x000013d0 (5072)       |
| NPU_SET_IFM_STRIDE_C      | 0         | 0x00000010 (16)         |
| NPU_SET_IFM_STRIDE_X      | 0         | 0x00000010 (16)         |
| NPU_SET_IFM_ZERO_POINT    | 65431     | -                       |
| NPU_SET_IFM_PRECISION     | 577       | -                       |
| NPU_SET_OFM_BASE0         | 0         | 0x00001450 (5200)       |
| NPU_SET_OFM_ZERO_POINT    | 65472     | -                       |
| NPU_SET_IFM2_BASE0        | 0         | 0x00001410 (5136)       |
| NPU_SET_IFM2_ZERO_POINT   | 65472     | -                       |
| NPU_SET_BLOCKDEP          | 0         | -                       |
| NPU_OP_ELEMENTWISE        | 1         | -                       |
| NPU_SET_DMA0_SRC_REGION   | 4         | -                       |
| NPU_SET_DMA0_SRC          | 0         | 0x00000100 (256)        |
| NPU_SET_DMA0_DST_REGION   | 259       | -                       |
| NPU_SET_DMA0_DST          | 0         | 0x0000b900 (47360)      |
| NPU_SET_DMA0_LEN          | 0         | 0x00000100 (256)        |
| NPU_OP_DMA_START          | 0         | -                       |
| NPU_SET_OPA_SCALE         | 13        | 0x40000000 (1073741824) |
| NPU_SET_OFM_SCALE         | 47        | 0x40000000 (1073741824) |
| NPU_SET_IFM_BASE0         | 0         | 0x00001450 (5200)       |
| NPU_SET_IFM_ZERO_POINT    | 65472     | -                       |
| NPU_SET_OFM_REGION        | 6         | -                       |
| NPU_SET_OFM_BASE0         | 0         | 0x00000000 (0)          |
| NPU_SET_OFM_STRIDE_C      | 0         | 0x00000001 (1)          |
| NPU_SET_OFM_STRIDE_X      | 0         | 0x00000040 (64)         |
| NPU_SET_OFM_ZERO_POINT    | 65408     | -                       |
| NPU_SET_OFM_PRECISION     | 257       | -                       |
| NPU_SET_ACTIVATION        | 17        | -                       |
| NPU_SET_IFM2_REGION       | 3         | -                       |
| NPU_SET_IFM2_BASE0        | 0         | 0x00000040 (64)         |
| NPU_SET_IFM2_STRIDE_C     | 0         | 0x00000001 (1)          |
| NPU_SET_IFM2_STRIDE_X     | 0         | 0x00000040 (64)         |
| NPU_SET_IFM2_ZERO_POINT   | 65280     | -                       |
| NPU_SET_IFM_PRECISION     | 1         | -                       |
| NPU_OP_DMA_WAIT           | 0         | -                       |
| NPU_OP_ELEMENTWISE        | 2         | -                       |
| NPU_SET_OFM_SCALE         | 31        | 0x55555555 (1431655765) |
| NPU_SET_IFM_REGION        | 3         | -                       |
| NPU_SET_IFM_BASE0         | 0         | 0x00000040 (64)         |
| NPU_SET_IFM_STRIDE_C      | 0         | 0x00000001 (1)          |
| NPU_SET_IFM_STRIDE_X      | 0         | 0x00000040 (64)         |
| NPU_SET_IFM_ZERO_POINT    | 65280     | -                       |
| NPU_SET_IFM_PRECISION     | 1         | -                       |
| NPU_SET_OFM_REGION        | 1         | -                       |
| NPU_SET_OFM_BASE0         | 0         | 0x00001410 (5136)       |
| NPU_SET_OFM_STRIDE_C      | 0         | 0x00000010 (16)         |
| NPU_SET_OFM_STRIDE_X      | 0         | 0x00000010 (16)         |
| NPU_SET_OFM_PRECISION     | 321       | -                       |
| NPU_SET_ACTIVATION        | 0         | -                       |
| NPU_SET_IFM2_REGION       | 6         | -                       |
| NPU_SET_IFM2_BASE0        | 0         | 0x00000000 (0)          |
| NPU_SET_IFM2_ZERO_POINT   | 0         | -                       |
| NPU_OP_ELEMENTWISE        | 0         | -                       |
| NPU_SET_OPA_SCALE         | 13        | 0x60000000 (1610612736) |
| NPU_SET_OFM_SCALE         | 49        | 0x40000000 (1073741824) |
| NPU_SET_IFM_REGION        | 1         | -                       |
| NPU_SET_IFM_BASE0         | 0         | 0x00001450 (5200)       |
| NPU_SET_IFM_STRIDE_C      | 0         | 0x00000010 (16)         |
| NPU_SET_IFM_STRIDE_X      | 0         | 0x00000010 (16)         |
| NPU_SET_IFM_ZERO_POINT    | 65472     | -                       |
| NPU_SET_IFM_PRECISION     | 577       | -                       |
| NPU_SET_OFM_BASE0         | 0         | 0x00001450 (5200)       |
| NPU_SET_OFM_STRIDE_C      | 0         | 0x00000001 (1)          |
| NPU_SET_OFM_STRIDE_X      | 0         | 0x00000040 (64)         |
| NPU_SET_OFM_ZERO_POINT    | 65472     | -                       |
| NPU_SET_OFM_PRECISION     | 257       | -                       |
| NPU_SET_IFM2_REGION       | 1         | -                       |
| NPU_SET_IFM2_BASE0        | 0         | 0x00001410 (5136)       |
| NPU_SET_IFM2_STRIDE_C     | 0         | 0x00000010 (16)         |
| NPU_SET_IFM2_STRIDE_X     | 0         | 0x00000010 (16)         |
| NPU_SET_IFM2_ZERO_POINT   | 65408     | -                       |
| NPU_SET_IFM_PRECISION     | 65        | -                       |
| NPU_OP_ELEMENTWISE        | 2         | -                       |
| NPU_SET_IFM_REGION        | 6         | -                       |
| NPU_SET_IFM_BASE0         | 0         | 0x00000000 (0)          |
| NPU_SET_IFM_STRIDE_C      | 0         | 0x00000001 (1)          |
| NPU_SET_IFM_STRIDE_X      | 0         | 0x00000040 (64)         |
| NPU_SET_IFM_ZERO_POINT    | 0         | -                       |
| NPU_SET_IFM_PRECISION     | 1         | -                       |
| NPU_SET_OFM_BASE0         | 0         | 0x00001491 (5265)       |
| NPU_SET_OFM_DEPTH_M1      | 0         | -                       |
| NPU_SET_OFM_STRIDE_Y      | 0         | 0x00000001 (1)          |
| NPU_SET_OFM_STRIDE_X      | 0         | 0x00000001 (1)          |
| NPU_SET_OFM_ZERO_POINT    | 65408     | -                       |
| NPU_SET_OFM_BLK_DEPTH_M1  | 7         | -                       |
| NPU_SET_IFM_IB_END        | 10        | -                       |
| NPU_SET_AB_START          | 30        | -                       |
| NPU_SET_OFM_SCALE         | 22        | 0x3fc000ff (1069547775) |
| NPU_SET_BLOCKDEP          | 3         | -                       |
| NPU_OP_POOL               | 2         | -                       |
| NPU_SET_OFM_SCALE         | 30        | 0x40000000 (1073741824) |
| NPU_SET_IFM_REGION        | 1         | -                       |
| NPU_SET_IFM_BASE0         | 0         | 0x00001490 (5264)       |
| NPU_SET_IFM_DEPTH_M1      | 0         | -                       |
| NPU_SET_IFM_STRIDE_Y      | 0         | 0x00000001 (1)          |
| NPU_SET_IFM_STRIDE_X      | 0         | 0x00000001 (1)          |
| NPU_SET_IFM_ZERO_POINT    | 65408     | -                       |
| NPU_SET_OFM_BASE0         | 0         | 0x00001490 (5264)       |
| NPU_SET_ACTIVATION_MAX    | 65408     | -                       |
| NPU_SET_IFM_IB_END        | 46        | -                       |
| NPU_SET_AB_START          | 46        | -                       |
| NPU_SET_IFM2_ZERO_POINT   | 0         | -                       |
| NPU_SET_IFM_PRECISION     | 0         | -                       |
| NPU_SET_IFM2_BROADCAST    | 128       | -                       |
| NPU_SET_IFM2_SCALAR       | 0         | -                       |
| NPU_OP_ELEMENTWISE        | 0         | -                       |
| NPU_OP_STOP               | 65535     | -                       |
+---------------------------+-----------+-------------------------+
*/
