#pragma once
#include <stddef.h>
#include <stdint.h>




// Tensor sizes

#define FC_LIF_LAYER_0_TENSOR_ARENA_SIZE  19952
#define FC_LIF_LAYER_0_INPUT_LAYER_SIZE  784
#define FC_LIF_LAYER_0_OUTPUT_LAYER_SIZE  64
#define FC_LIF_LAYER_0_WEIGHT_LEN 19104
#define FC_LIF_LAYER_0_BIAS_LEN 640

// Input/output addresses (Relative Addressing)

#define FC_LIF_LAYER_0_IN_SPK_ADDR 0
#define FC_LIF_LAYER_0_BIAS_ADDR 0
#define FC_LIF_LAYER_0_WEIGHT_ADDR 640
#define FC_LIF_LAYER_0_LN_BETA_ADDR 0
#define FC_LIF_LAYER_0_VTH_ADDR 64
#define FC_LIF_LAYER_0_V_MEM_ADDR 19872
#define FC_LIF_LAYER_0_TIME_NOT_UPDATED_ADDR 19936
#define FC_LIF_LAYER_0_IN_CURR_ADDR 19808
#define FC_LIF_LAYER_0_DECAY_ADDR 19744
#define FC_LIF_LAYER_0_DECAYED_MEM_ADDR 19744
#define FC_LIF_LAYER_0_UPDATE_NXT_LAYER_ADDR 19937
#define FC_LIF_LAYER_0_OUT_SPK_ADDR 0

//Quantization Params

#define FC_LIF_LAYER_0_IN_SPK_SCALE 1.0
#define FC_LIF_LAYER_0_IN_SPK_ZERO_POINT 0
#define FC_LIF_LAYER_0_BIAS_SCALE 0.002745098039215686
#define FC_LIF_LAYER_0_BIAS_ZERO_POINT 0
#define FC_LIF_LAYER_0_WEIGHT_SCALE 0.002745098039215686
#define FC_LIF_LAYER_0_WEIGHT_ZERO_POINT 0
#define FC_LIF_LAYER_0_LN_BETA_SCALE 0.011764705882352941
#define FC_LIF_LAYER_0_LN_BETA_ZERO_POINT -128
#define FC_LIF_LAYER_0_VTH_SCALE 0.00392156862745098
#define FC_LIF_LAYER_0_VTH_ZERO_POINT -256
#define FC_LIF_LAYER_0_V_MEM_SCALE 0.01568627450980392
#define FC_LIF_LAYER_0_V_MEM_ZERO_POINT -64
#define FC_LIF_LAYER_0_TIME_NOT_UPDATED_SCALE 0.06274509803921569
#define FC_LIF_LAYER_0_TIME_NOT_UPDATED_ZERO_POINT -128
#define FC_LIF_LAYER_0_DECAY_SCALE 0.00392156862745098
#define FC_LIF_LAYER_0_DECAY_ZERO_POINT -128
#define FC_LIF_LAYER_0_IN_CURR_SCALE 0.01568627450980392
#define FC_LIF_LAYER_0_IN_CURR_ZERO_POINT -64
#define FC_LIF_LAYER_0_DECAYED_MEM_SCALE 0.043137254901960784
#define FC_LIF_LAYER_0_DECAYED_MEM_ZERO_POINT -105
#define FC_LIF_LAYER_0_UPDATE_NXT_LAYER_SCALE 0.00392156862745098
#define FC_LIF_LAYER_0_UPDATE_NXT_LAYER_ZERO_POINT -128
#define FC_LIF_LAYER_0_OUT_SPK_SCALE 1.0
#define FC_LIF_LAYER_0_OUT_SPK_ZERO_POINT 0











static const uint8_t cms_fc_lif_layer_0[] __attribute__((aligned(16))) = 
{

0x43, 0x4f, 0x50, 0x31,
0x01, 0x00, 0x10, 0x00,
0x08, 0x30, 0x00, 0x00,
0x00, 0x00, 0x06, 0x10,
0x05, 0x00, 0x00, 0x00,
0x05, 0x00, 0x00, 0x00,
0x05, 0x00, 0x00, 0x00,
0x02, 0x00, 0x40, 0x01,
0x30, 0x01, 0x04, 0x00,
0x30, 0x40, 0x00, 0x00,
0x00, 0x00, 0x00, 0x00,
0x31, 0x01, 0x03, 0x01,
0x31, 0x40, 0x00, 0x00,
0x00, 0xb8, 0x00, 0x00,
0x32, 0x40, 0x00, 0x00,
0x00, 0x01, 0x00, 0x00,
0x10, 0x00, 0x00, 0x00,
0x24, 0x40, 0x26, 0x00,
0x40, 0x40, 0x40, 0x40,
0x0f, 0x01, 0x03, 0x00,
0x00, 0x40, 0x00, 0x00,
0x00, 0x00, 0x00, 0x00,
0x01, 0x40, 0x00, 0x00,
0x00, 0x00, 0x00, 0x00,
0x02, 0x40, 0x00, 0x00,
0x00, 0x00, 0x00, 0x00,
0x03, 0x40, 0x00, 0x00,
0x00, 0x00, 0x00, 0x00,
0x0b, 0x01, 0x00, 0x00,
0x0c, 0x01, 0xff, 0xff,
0x0a, 0x01, 0x00, 0x00,
0x04, 0x01, 0x3f, 0x00,
0x06, 0x40, 0x00, 0x00,
0x01, 0x00, 0x00, 0x00,
0x05, 0x40, 0x00, 0x00,
0x40, 0x00, 0x00, 0x00,
0x04, 0x40, 0x00, 0x00,
0x40, 0x00, 0x00, 0x00,
0x09, 0x01, 0x80, 0xff,
0x05, 0x01, 0x01, 0x00,
0x07, 0x01, 0x00, 0x00,
0x1f, 0x01, 0x01, 0x00,
0x10, 0x40, 0x00, 0x00,
0x20, 0x4d, 0x00, 0x00,
0x11, 0x40, 0x00, 0x00,
0x00, 0x00, 0x00, 0x00,
0x12, 0x40, 0x00, 0x00,
0x00, 0x00, 0x00, 0x00,
0x13, 0x40, 0x00, 0x00,
0x00, 0x00, 0x00, 0x00,
0x1b, 0x01, 0x00, 0x00,
0x1c, 0x01, 0xff, 0xff,
0x1a, 0x01, 0x00, 0x00,
0x12, 0x01, 0x00, 0x00,
0x11, 0x01, 0x00, 0x00,
0x13, 0x01, 0x3f, 0x00,
0x16, 0x40, 0x00, 0x00,
0x10, 0x00, 0x00, 0x00,
0x15, 0x40, 0x00, 0x00,
0x40, 0x00, 0x00, 0x00,
0x14, 0x40, 0x00, 0x00,
0x10, 0x00, 0x00, 0x00,
0x18, 0x01, 0x80, 0xff,
0x14, 0x01, 0x41, 0x01,
0x25, 0x01, 0x10, 0x00,
0x26, 0x01, 0x80, 0xff,
0x27, 0x01, 0x7f, 0x00,
0x16, 0x01, 0x01, 0x00,
0x15, 0x01, 0x01, 0x00,
0x17, 0x01, 0x3f, 0x00,
0x0d, 0x01, 0x2e, 0x00,
0x2d, 0x01, 0x2e, 0x00,
0x8d, 0x01, 0x0a, 0x00,
0x24, 0x01, 0x00, 0x00,
0x8f, 0x01, 0x01, 0x00,
0x80, 0x40, 0x00, 0x00,
0xe0, 0x4d, 0x00, 0x00,
0x81, 0x40, 0x00, 0x00,
0x00, 0x00, 0x00, 0x00,
0x82, 0x40, 0x00, 0x00,
0x00, 0x00, 0x00, 0x00,
0x83, 0x40, 0x00, 0x00,
0x00, 0x00, 0x00, 0x00,
0x8b, 0x01, 0x00, 0x00,
0x8c, 0x01, 0xff, 0xff,
0x8a, 0x01, 0x00, 0x00,
0x86, 0x40, 0x00, 0x00,
0x01, 0x00, 0x00, 0x00,
0x85, 0x40, 0x00, 0x00,
0x01, 0x00, 0x00, 0x00,
0x84, 0x40, 0x00, 0x00,
0x01, 0x00, 0x00, 0x00,
0x89, 0x01, 0x80, 0xff,
0x85, 0x01, 0x01, 0x00,
0x80, 0x01, 0x04, 0x00,
0x2f, 0x01, 0x00, 0x00,
0x11, 0x00, 0x00, 0x00,
0x06, 0x00, 0x00, 0x00,
0x30, 0x01, 0x00, 0x00,
0x31, 0x01, 0x01, 0x00,
0x31, 0x40, 0x00, 0x00,
0x00, 0x00, 0x00, 0x00,
0x32, 0x40, 0x00, 0x00,
0x20, 0x4d, 0x00, 0x00,
0x10, 0x00, 0x00, 0x00,
0x0f, 0x01, 0x05, 0x00,
0x04, 0x01, 0x0f, 0x03,
0x05, 0x40, 0x00, 0x00,
0x10, 0x03, 0x00, 0x00,
0x04, 0x40, 0x00, 0x00,
0x10, 0x03, 0x00, 0x00,
0x09, 0x01, 0x00, 0x00,
0x00, 0x01, 0x00, 0x00,
0x01, 0x01, 0x00, 0x00,
0x03, 0x01, 0x00, 0x00,
0x02, 0x01, 0x00, 0x00,
0x10, 0x40, 0x00, 0x00,
0x60, 0x4d, 0x00, 0x00,
0x18, 0x01, 0xc0, 0xff,
0x14, 0x01, 0x41, 0x00,
0x21, 0x01, 0x00, 0x00,
0x20, 0x01, 0x00, 0x00,
0x22, 0x01, 0x00, 0x00,
0x28, 0x01, 0x01, 0x00,
0x20, 0x40, 0x00, 0x00,
0x80, 0x02, 0x00, 0x00,
0x21, 0x40, 0x00, 0x00,
0xa0, 0x4a, 0x00, 0x00,
0x29, 0x01, 0x01, 0x00,
0x22, 0x40, 0x00, 0x00,
0x00, 0x00, 0x00, 0x00,
0x23, 0x40, 0x00, 0x00,
0x80, 0x02, 0x00, 0x00,
0x25, 0x01, 0x00, 0x00,
0x0d, 0x01, 0x0a, 0x00,
0x2d, 0x01, 0x1e, 0x00,
0x2f, 0x01, 0x03, 0x00,
0x11, 0x00, 0x00, 0x00,
0x02, 0x00, 0x00, 0x00,
0x24, 0x40, 0x28, 0x00,
0x8c, 0xba, 0x74, 0x5d,
0x0f, 0x01, 0x01, 0x00,
0x00, 0x40, 0x00, 0x00,
0xa0, 0x4d, 0x00, 0x00,
0x04, 0x01, 0x3f, 0x00,
0x05, 0x40, 0x00, 0x00,
0x40, 0x00, 0x00, 0x00,
0x04, 0x40, 0x00, 0x00,
0x40, 0x00, 0x00, 0x00,
0x09, 0x01, 0xc0, 0xff,
0x10, 0x40, 0x00, 0x00,
0x20, 0x4d, 0x00, 0x00,
0x18, 0x01, 0x97, 0xff,
0x14, 0x01, 0x41, 0x01,
0x0d, 0x01, 0x2e, 0x00,
0x2d, 0x01, 0x2e, 0x00,
0x80, 0x40, 0x00, 0x00,
0x20, 0x4d, 0x00, 0x00,
0x86, 0x40, 0x00, 0x00,
0x10, 0x00, 0x00, 0x00,
0x85, 0x40, 0x00, 0x00,
0x40, 0x00, 0x00, 0x00,
0x84, 0x40, 0x00, 0x00,
0x10, 0x00, 0x00, 0x00,
0x85, 0x01, 0x41, 0x00,
0x80, 0x01, 0x00, 0x00,
0x06, 0x00, 0x00, 0x00,
0x25, 0x40, 0x0d, 0x00,
0xd1, 0x45, 0x17, 0x5d,
0x26, 0x40, 0x00, 0x00,
0x00, 0x00, 0x00, 0x00,
0x24, 0x40, 0x30, 0x00,
0x00, 0x00, 0x00, 0x58,
0x00, 0x40, 0x00, 0x00,
0x20, 0x4d, 0x00, 0x00,
0x06, 0x40, 0x00, 0x00,
0x10, 0x00, 0x00, 0x00,
0x04, 0x40, 0x00, 0x00,
0x10, 0x00, 0x00, 0x00,
0x09, 0x01, 0x97, 0xff,
0x05, 0x01, 0x41, 0x02,
0x10, 0x40, 0x00, 0x00,
0xa0, 0x4d, 0x00, 0x00,
0x18, 0x01, 0xc0, 0xff,
0x80, 0x40, 0x00, 0x00,
0x60, 0x4d, 0x00, 0x00,
0x89, 0x01, 0xc0, 0xff,
0x2f, 0x01, 0x00, 0x00,
0x06, 0x00, 0x01, 0x00,
0x30, 0x01, 0x04, 0x00,
0x30, 0x40, 0x00, 0x00,
0x00, 0x01, 0x00, 0x00,
0x31, 0x01, 0x03, 0x01,
0x31, 0x40, 0x00, 0x00,
0x00, 0xb9, 0x00, 0x00,
0x32, 0x40, 0x00, 0x00,
0x00, 0x01, 0x00, 0x00,
0x10, 0x00, 0x00, 0x00,
0x25, 0x40, 0x0d, 0x00,
0x00, 0x00, 0x00, 0x40,
0x24, 0x40, 0x2f, 0x00,
0x00, 0x00, 0x00, 0x40,
0x00, 0x40, 0x00, 0x00,
0xa0, 0x4d, 0x00, 0x00,
0x09, 0x01, 0xc0, 0xff,
0x1f, 0x01, 0x06, 0x00,
0x10, 0x40, 0x00, 0x00,
0x00, 0x00, 0x00, 0x00,
0x16, 0x40, 0x00, 0x00,
0x01, 0x00, 0x00, 0x00,
0x14, 0x40, 0x00, 0x00,
0x40, 0x00, 0x00, 0x00,
0x18, 0x01, 0x80, 0xff,
0x14, 0x01, 0x01, 0x01,
0x25, 0x01, 0x11, 0x00,
0x8f, 0x01, 0x03, 0x00,
0x80, 0x40, 0x00, 0x00,
0x40, 0x00, 0x00, 0x00,
0x86, 0x40, 0x00, 0x00,
0x01, 0x00, 0x00, 0x00,
0x84, 0x40, 0x00, 0x00,
0x40, 0x00, 0x00, 0x00,
0x89, 0x01, 0x00, 0xff,
0x85, 0x01, 0x01, 0x00,
0x11, 0x00, 0x00, 0x00,
0x06, 0x00, 0x02, 0x00,
0x24, 0x40, 0x1f, 0x00,
0x55, 0x55, 0x55, 0x55,
0x0f, 0x01, 0x03, 0x00,
0x00, 0x40, 0x00, 0x00,
0x40, 0x00, 0x00, 0x00,
0x06, 0x40, 0x00, 0x00,
0x01, 0x00, 0x00, 0x00,
0x04, 0x40, 0x00, 0x00,
0x40, 0x00, 0x00, 0x00,
0x09, 0x01, 0x00, 0xff,
0x05, 0x01, 0x01, 0x00,
0x1f, 0x01, 0x01, 0x00,
0x10, 0x40, 0x00, 0x00,
0x60, 0x4d, 0x00, 0x00,
0x16, 0x40, 0x00, 0x00,
0x10, 0x00, 0x00, 0x00,
0x14, 0x40, 0x00, 0x00,
0x10, 0x00, 0x00, 0x00,
0x14, 0x01, 0x41, 0x01,
0x25, 0x01, 0x00, 0x00,
0x8f, 0x01, 0x06, 0x00,
0x80, 0x40, 0x00, 0x00,
0x00, 0x00, 0x00, 0x00,
0x89, 0x01, 0x00, 0x00,
0x06, 0x00, 0x00, 0x00,
0x25, 0x40, 0x0d, 0x00,
0x00, 0x00, 0x00, 0x60,
0x24, 0x40, 0x31, 0x00,
0x00, 0x00, 0x00, 0x40,
0x0f, 0x01, 0x01, 0x00,
0x00, 0x40, 0x00, 0x00,
0xa0, 0x4d, 0x00, 0x00,
0x06, 0x40, 0x00, 0x00,
0x10, 0x00, 0x00, 0x00,
0x04, 0x40, 0x00, 0x00,
0x10, 0x00, 0x00, 0x00,
0x09, 0x01, 0xc0, 0xff,
0x05, 0x01, 0x41, 0x02,
0x10, 0x40, 0x00, 0x00,
0xa0, 0x4d, 0x00, 0x00,
0x16, 0x40, 0x00, 0x00,
0x01, 0x00, 0x00, 0x00,
0x14, 0x40, 0x00, 0x00,
0x40, 0x00, 0x00, 0x00,
0x18, 0x01, 0xc0, 0xff,
0x14, 0x01, 0x01, 0x01,
0x8f, 0x01, 0x01, 0x00,
0x80, 0x40, 0x00, 0x00,
0x60, 0x4d, 0x00, 0x00,
0x86, 0x40, 0x00, 0x00,
0x10, 0x00, 0x00, 0x00,
0x84, 0x40, 0x00, 0x00,
0x10, 0x00, 0x00, 0x00,
0x89, 0x01, 0x80, 0xff,
0x85, 0x01, 0x41, 0x00,
0x06, 0x00, 0x02, 0x00,
0x0f, 0x01, 0x06, 0x00,
0x00, 0x40, 0x00, 0x00,
0x00, 0x00, 0x00, 0x00,
0x06, 0x40, 0x00, 0x00,
0x01, 0x00, 0x00, 0x00,
0x04, 0x40, 0x00, 0x00,
0x40, 0x00, 0x00, 0x00,
0x09, 0x01, 0x00, 0x00,
0x05, 0x01, 0x01, 0x00,
0x10, 0x40, 0x00, 0x00,
0xe1, 0x4d, 0x00, 0x00,
0x13, 0x01, 0x00, 0x00,
0x15, 0x40, 0x00, 0x00,
0x01, 0x00, 0x00, 0x00,
0x14, 0x40, 0x00, 0x00,
0x01, 0x00, 0x00, 0x00,
0x18, 0x01, 0x80, 0xff,
0x17, 0x01, 0x07, 0x00,
0x0d, 0x01, 0x0a, 0x00,
0x2d, 0x01, 0x1e, 0x00,
0x24, 0x40, 0x16, 0x00,
0xff, 0x00, 0xc0, 0x3f,
0x2f, 0x01, 0x03, 0x00,
0x05, 0x00, 0x02, 0x00,
0x24, 0x40, 0x1e, 0x00,
0x00, 0x00, 0x00, 0x40,
0x0f, 0x01, 0x01, 0x00,
0x00, 0x40, 0x00, 0x00,
0xe0, 0x4d, 0x00, 0x00,
0x04, 0x01, 0x00, 0x00,
0x05, 0x40, 0x00, 0x00,
0x01, 0x00, 0x00, 0x00,
0x04, 0x40, 0x00, 0x00,
0x01, 0x00, 0x00, 0x00,
0x09, 0x01, 0x80, 0xff,
0x10, 0x40, 0x00, 0x00,
0xe0, 0x4d, 0x00, 0x00,
0x27, 0x01, 0x80, 0xff,
0x0d, 0x01, 0x2e, 0x00,
0x2d, 0x01, 0x2e, 0x00,
0x89, 0x01, 0x00, 0x00,
0x85, 0x01, 0x00, 0x00,
0x80, 0x01, 0x80, 0x00,
0x81, 0x01, 0x00, 0x00,
0x06, 0x00, 0x00, 0x00,
0x00, 0x00, 0xff, 0xff, 

};







static inline const uint8_t * Getfc_lif_layer_0CMSPointer()
{
	return cms_fc_lif_layer_0;
}

static inline size_t Getfc_lif_layer_0CMSLen()
{
	return sizeof(cms_fc_lif_layer_0);
}





static const int8_t weight_fc_lif_layer_0[] __attribute__((aligned(16))) = 
{

//biases
0xb8, 0xff, 0xff, 0xff,
0xff, 0x9a, 0x99, 0x99,
0x59, 0x21, 0xc6, 0xff,
0xff, 0xff, 0xff, 0x9a,
0x99, 0x99, 0x59, 0x21,
0xab, 0xff, 0xff, 0xff,
0xff, 0x9a, 0x99, 0x99,
0x59, 0x21, 0xbd, 0xff,
0xff, 0xff, 0xff, 0x9a,
0x99, 0x99, 0x59, 0x21,
0xb8, 0xff, 0xff, 0xff,
0xff, 0x9a, 0x99, 0x99,
0x59, 0x21, 0xbc, 0xff,
0xff, 0xff, 0xff, 0x9a,
0x99, 0x99, 0x59, 0x21,
0xbf, 0xff, 0xff, 0xff,
0xff, 0x9a, 0x99, 0x99,
0x59, 0x21, 0xc0, 0xff,
0xff, 0xff, 0xff, 0x9a,
0x99, 0x99, 0x59, 0x21,
0xb1, 0xff, 0xff, 0xff,
0xff, 0x9a, 0x99, 0x99,
0x59, 0x21, 0xbc, 0xff,
0xff, 0xff, 0xff, 0x9a,
0x99, 0x99, 0x59, 0x21,
0xb9, 0xff, 0xff, 0xff,
0xff, 0x9a, 0x99, 0x99,
0x59, 0x21, 0xc3, 0xff,
0xff, 0xff, 0xff, 0x9a,
0x99, 0x99, 0x59, 0x21,
0xc5, 0xff, 0xff, 0xff,
0xff, 0x9a, 0x99, 0x99,
0x59, 0x21, 0xc4, 0xff,
0xff, 0xff, 0xff, 0x9a,
0x99, 0x99, 0x59, 0x21,
0xc0, 0xff, 0xff, 0xff,
0xff, 0x9a, 0x99, 0x99,
0x59, 0x21, 0xbf, 0xff,
0xff, 0xff, 0xff, 0x9a,
0x99, 0x99, 0x59, 0x21,
0xc5, 0xff, 0xff, 0xff,
0xff, 0x9a, 0x99, 0x99,
0x59, 0x21, 0xc6, 0xff,
0xff, 0xff, 0xff, 0x9a,
0x99, 0x99, 0x59, 0x21,
0xb1, 0xff, 0xff, 0xff,
0xff, 0x9a, 0x99, 0x99,
0x59, 0x21, 0xb4, 0xff,
0xff, 0xff, 0xff, 0x9a,
0x99, 0x99, 0x59, 0x21,
0xbb, 0xff, 0xff, 0xff,
0xff, 0x9a, 0x99, 0x99,
0x59, 0x21, 0xbe, 0xff,
0xff, 0xff, 0xff, 0x9a,
0x99, 0x99, 0x59, 0x21,
0xba, 0xff, 0xff, 0xff,
0xff, 0x9a, 0x99, 0x99,
0x59, 0x21, 0xb0, 0xff,
0xff, 0xff, 0xff, 0x9a,
0x99, 0x99, 0x59, 0x21,
0xba, 0xff, 0xff, 0xff,
0xff, 0x9a, 0x99, 0x99,
0x59, 0x21, 0xbe, 0xff,
0xff, 0xff, 0xff, 0x9a,
0x99, 0x99, 0x59, 0x21,
0xb4, 0xff, 0xff, 0xff,
0xff, 0x9a, 0x99, 0x99,
0x59, 0x21, 0xb5, 0xff,
0xff, 0xff, 0xff, 0x9a,
0x99, 0x99, 0x59, 0x21,
0xc6, 0xff, 0xff, 0xff,
0xff, 0x9a, 0x99, 0x99,
0x59, 0x21, 0xc3, 0xff,
0xff, 0xff, 0xff, 0x9a,
0x99, 0x99, 0x59, 0x21,
0xad, 0xff, 0xff, 0xff,
0xff, 0x9a, 0x99, 0x99,
0x59, 0x21, 0xb4, 0xff,
0xff, 0xff, 0xff, 0x9a,
0x99, 0x99, 0x59, 0x21,
0xc5, 0xff, 0xff, 0xff,
0xff, 0x9a, 0x99, 0x99,
0x59, 0x21, 0xb2, 0xff,
0xff, 0xff, 0xff, 0x9a,
0x99, 0x99, 0x59, 0x21,
0xb7, 0xff, 0xff, 0xff,
0xff, 0x9a, 0x99, 0x99,
0x59, 0x21, 0xbe, 0xff,
0xff, 0xff, 0xff, 0x9a,
0x99, 0x99, 0x59, 0x21,
0xbf, 0xff, 0xff, 0xff,
0xff, 0x9a, 0x99, 0x99,
0x59, 0x21, 0xbf, 0xff,
0xff, 0xff, 0xff, 0x9a,
0x99, 0x99, 0x59, 0x21,
0xb1, 0xff, 0xff, 0xff,
0xff, 0x9a, 0x99, 0x99,
0x59, 0x21, 0xc5, 0xff,
0xff, 0xff, 0xff, 0x9a,
0x99, 0x99, 0x59, 0x21,
0xc0, 0xff, 0xff, 0xff,
0xff, 0x9a, 0x99, 0x99,
0x59, 0x21, 0xc5, 0xff,
0xff, 0xff, 0xff, 0x9a,
0x99, 0x99, 0x59, 0x21,
0xbf, 0xff, 0xff, 0xff,
0xff, 0x9a, 0x99, 0x99,
0x59, 0x21, 0xb4, 0xff,
0xff, 0xff, 0xff, 0x9a,
0x99, 0x99, 0x59, 0x21,
0xb1, 0xff, 0xff, 0xff,
0xff, 0x9a, 0x99, 0x99,
0x59, 0x21, 0xbe, 0xff,
0xff, 0xff, 0xff, 0x9a,
0x99, 0x99, 0x59, 0x21,
0xc7, 0xff, 0xff, 0xff,
0xff, 0x9a, 0x99, 0x99,
0x59, 0x21, 0xc2, 0xff,
0xff, 0xff, 0xff, 0x9a,
0x99, 0x99, 0x59, 0x21,
0xbb, 0xff, 0xff, 0xff,
0xff, 0x9a, 0x99, 0x99,
0x59, 0x21, 0xaf, 0xff,
0xff, 0xff, 0xff, 0x9a,
0x99, 0x99, 0x59, 0x21,
0xb2, 0xff, 0xff, 0xff,
0xff, 0x9a, 0x99, 0x99,
0x59, 0x21, 0xbe, 0xff,
0xff, 0xff, 0xff, 0x9a,
0x99, 0x99, 0x59, 0x21,
0xc8, 0xff, 0xff, 0xff,
0xff, 0x9a, 0x99, 0x99,
0x59, 0x21, 0xc5, 0xff,
0xff, 0xff, 0xff, 0x9a,
0x99, 0x99, 0x59, 0x21,
0xbf, 0xff, 0xff, 0xff,
0xff, 0x9a, 0x99, 0x99,
0x59, 0x21, 0xb7, 0xff,
0xff, 0xff, 0xff, 0x9a,
0x99, 0x99, 0x59, 0x21,
0xb8, 0xff, 0xff, 0xff,
0xff, 0x9a, 0x99, 0x99,
0x59, 0x21, 0xc5, 0xff,
0xff, 0xff, 0xff, 0x9a,
0x99, 0x99, 0x59, 0x21,
0xbf, 0xff, 0xff, 0xff,
0xff, 0x9a, 0x99, 0x99,
0x59, 0x21, 0xbd, 0xff,
0xff, 0xff, 0xff, 0x9a,
0x99, 0x99, 0x59, 0x21,
0xc8, 0xff, 0xff, 0xff,
0xff, 0x9a, 0x99, 0x99,
0x59, 0x21, 0xb8, 0xff,
0xff, 0xff, 0xff, 0x9a,
0x99, 0x99, 0x59, 0x21,
0xbf, 0xff, 0xff, 0xff,
0xff, 0x9a, 0x99, 0x99,
0x59, 0x21, 0xb8, 0xff,
0xff, 0xff, 0xff, 0x9a,
0x99, 0x99, 0x59, 0x21, 
//weights
0xf6, 0x05, 0xc0, 0x5f,
0xfa, 0xed, 0x8e, 0xc3,
0xd5, 0xe8, 0xff, 0x57,
0xd5, 0x03, 0x54, 0x55,
0xfd, 0x05, 0xf0, 0x3f,
0x00, 0x00, 0x00, 0xc0,
0xd7, 0xff, 0x57, 0x15,
0x40, 0x5d, 0x55, 0x3f,
0xc0, 0xc3, 0x03, 0x00,
0x00, 0xc0, 0x7f, 0xd5,
0x3f, 0x54, 0x41, 0xd5,
0x57, 0xc1, 0xc3, 0x3f,
0x00, 0x23, 0x0c, 0xe0,
0x06, 0x00, 0xf6, 0x07,
0xc0, 0x5f, 0xfa, 0x0d,
0x77, 0xc7, 0xd9, 0xa8,
0x7f, 0x00, 0x80, 0x7f,
0xf5, 0x3f, 0x54, 0x81,
0xea, 0xab, 0xc2, 0x03,
0x00, 0x00, 0x00, 0x80,
0xaa, 0xfe, 0x0a, 0x30,
0x80, 0xe3, 0xff, 0x01,
0x20, 0x00, 0x00, 0x80,
0xaa, 0xfe, 0x0a, 0x30,
0x80, 0xe3, 0xff, 0x01,
0x20, 0x00, 0x00, 0xce,
0x50, 0xf5, 0xab, 0xc0,
0x01, 0xd0, 0xff, 0x03,
0xd0, 0x0d, 0x18, 0xfb,
0x02, 0xe0, 0x1f, 0xfd,
0x86, 0xbb, 0x63, 0x00,
0x00, 0xaa, 0x57, 0xc5,
0x07, 0x00, 0xfe, 0x07,
0xf0, 0x0f, 0x00, 0x00,
0xe8, 0x0f, 0x00, 0xa8,
0xfa, 0x55, 0xe0, 0xf8,
0x0f, 0xe0, 0xff, 0x01,
0xe0, 0x00, 0xe1, 0x0f,
0x00, 0x28, 0xf5, 0x15,
0x70, 0xfe, 0x07, 0xe0,
0xff, 0x00, 0x60, 0x3f,
0x00, 0xfc, 0xa3, 0xe1,
0x6f, 0x77, 0x8b, 0x7f,
0x00, 0x01, 0x1f, 0xbe,
0x0a, 0xbe, 0xfb, 0x13,
0x18, 0x40, 0x0c, 0x40,
0xf9, 0x07, 0x00, 0xf0,
0xc1, 0x6b, 0x61, 0x57,
0xff, 0x81, 0x01, 0x00,
0x00, 0xec, 0x0b, 0x80,
0xdf, 0x34, 0xfc, 0xed,
0x8e, 0xb7, 0xd9, 0x2a,
0x00, 0x00, 0x00, 0x54,
0x7d, 0xd5, 0x3f, 0x7c,
0x15, 0x7c, 0xd5, 0x7f,
0xfd, 0x7f, 0x55, 0xfd,
0x03, 0x00, 0x00, 0x00,
0xd4, 0x55, 0xf5, 0xff,
0x17, 0xc0, 0x55, 0xf5,
0xff, 0x7f, 0x55, 0xfd,
0x7f, 0x01, 0x70, 0xc0,
0x01, 0x00, 0xb5, 0x5f,
0xd5, 0x3f, 0x78, 0x35,
0xdc, 0xd5, 0xff, 0xfa,
0xff, 0x55, 0x75, 0x00,
0xb0, 0x0f, 0xe0, 0xfe,
0xd1, 0x70, 0xf7, 0x3b,
0x56, 0x15, 0x00, 0x00,
0x00, 0x00, 0x00, 0xa0,
0xaa, 0x4a, 0x55, 0xb5,
0xaa, 0xea, 0xff, 0x5f,
0xed, 0x0b, 0x80, 0x7f,
0xf4, 0x1b, 0xde, 0x5e,
0x81, 0x1f, 0xf8, 0x1f,
0x00, 0x00, 0x00, 0x00,
0x80, 0x1f, 0xf8, 0x7f,
0x00, 0xf8, 0x7f, 0x00,
0x18, 0x00, 0x00, 0x00,
0x80, 0xf9, 0x7f, 0x00,
0xf8, 0x7f, 0x00, 0xf8,
0x41, 0x60, 0x40, 0x08,
0x00, 0xf0, 0x0f, 0x10,
0x00, 0xec, 0x07, 0xc0,
0x5f, 0xf4, 0x1b, 0xee,
0xfe, 0x3f, 0x00, 0xfc,
0x1f, 0x00, 0x00, 0x00,
0x00, 0x00, 0x1f, 0xfc,
0x1f, 0x00, 0x00, 0x00,
0x00, 0x00, 0xff, 0x1f,
0xc0, 0x01, 0xc0, 0xbe,
0x00, 0xf8, 0x47, 0xbf,
0xdd, 0x6d, 0x15, 0x00,
0x00, 0x00, 0x00, 0xe0,
0x1f, 0x00, 0x00, 0x00,
0x80, 0x01, 0x02, 0x00,
0x04, 0x87, 0x0f, 0x00,
0x40, 0x10, 0x01, 0x02,
0x00, 0x00, 0xe0, 0x1f,
0x00, 0x00, 0x00, 0x80,
0x7d, 0x03, 0xf0, 0x97,
0x7e, 0xbb, 0xe1, 0xf1,
0x76, 0x0a, 0x00, 0xe0,
0x0f, 0x08, 0x70, 0xf8,
0x00, 0xa0, 0xaa, 0xbf,
0x02, 0x0c, 0x00, 0xe0,
0x0f, 0x08, 0x70, 0xf8,
0x00, 0xa0, 0xaa, 0xbf,
0x02, 0x0c, 0x00, 0xe0,
0x0f, 0x08, 0x72, 0xf0,
0x01, 0x40, 0x55, 0x7f,
0x45, 0x18, 0x00, 0x80,
0x3f, 0x20, 0xa0, 0xe5,
0x07, 0x00, 0xaa, 0xfa,
0x15, 0x70, 0x00, 0xee,
0xff, 0xab, 0xea, 0xaa,
0xfa, 0xd5, 0x7f, 0xe0,
0xaa, 0xf8, 0x15, 0x70,
0x00, 0x00, 0x00, 0xfe,
0xaf, 0xea, 0xaf, 0xaa,
0x57, 0xf5, 0xe7, 0xaf,
0x80, 0x57, 0xc5, 0x07,
0x00, 0x00, 0x00, 0xf6,
0xfa, 0x7d, 0xba, 0x56,
0xd5, 0xdf, 0x7f, 0x01,
0x56, 0xd5, 0x1f, 0x07,
0x27, 0x00, 0x00, 0xc0,
0xfe, 0x00, 0xf8, 0x51,
0xbf, 0xe1, 0xee, 0x38,
0xba, 0xbd, 0x56, 0xa7,
0x00, 0xdc, 0xff, 0x57,
0xd5, 0xff, 0x05, 0xb0,
0xaa, 0xfe, 0xfe, 0x09,
0x00, 0x00, 0x00, 0x00,
0xfc, 0xc0, 0x00, 0xd3,
0xff, 0x57, 0xd5, 0x00,
0xb5, 0xaa, 0xfe, 0x00,
0x08, 0x00, 0xfc, 0x0d,
0x7c, 0x80, 0xeb, 0xff,
0xab, 0x6a, 0x30, 0xba,
0xaa, 0xfe, 0x02, 0xff,
0x01, 0xfc, 0xc0, 0x71,
0xfe, 0x33, 0x00, 0xf8,
0xf5, 0xff, 0x54, 0x05,
0xa8, 0x57, 0xd5, 0x3f,
0xc0, 0x0e, 0x00, 0xf6,
0x03, 0xc0, 0x3f, 0xfa,
0x0d, 0x77, 0xc7, 0x00,
0xe8, 0x0f, 0x00, 0xf8,
0x5f, 0xf5, 0x0f, 0x54,
0xa8, 0xfa, 0x55, 0xe0,
0x00, 0x00, 0x00, 0x00,
0x58, 0x55, 0x7f, 0x01,
0x08, 0xf8, 0xe0, 0x0f,
0x00, 0xf6, 0x03, 0xc0,
0x4f, 0xfa, 0x0d, 0x77,
0xb3, 0xd7, 0x07, 0x00,
0x30, 0x08, 0x54, 0x5f,
0x15, 0x1e, 0x00, 0xfc,
0x1e, 0x84, 0x3f, 0x00,
0x03, 0xc0, 0x00, 0xfd,
0xae, 0xda, 0x23, 0x60,
0x01, 0x8f, 0xbf, 0x00,
0xb3, 0x3f, 0x00, 0xfe,
0xd3, 0x6f, 0xb8, 0x5b,
0xcd, 0x8e, 0xb7, 0xd3,
0x0f, 0x00, 0x00, 0x00,
0xaa, 0xaf, 0x0a, 0x0f,
0x00, 0xfe, 0x0f, 0x80,
0x3f, 0x18, 0x00, 0xa0,
0x3f, 0x00, 0x20, 0xd5,
0x57, 0xc0, 0xf9, 0x1f,
0x80, 0xff, 0x07, 0x80,
0x81, 0xa4, 0x3f, 0x00,
0x1c, 0xd5, 0x5f, 0x15,
0x1f, 0xfb, 0x0b, 0xfe,
0x1f, 0x00, 0xff, 0x67,
0x00, 0x03, 0x1f, 0x1f,
0x00, 0xec, 0xf2, 0xae,
0x00, 0xfb, 0x1f, 0x00,
0xf6, 0x07, 0xc0, 0x8f,
0x1a, 0xfe, 0x76, 0xc7,
0xd7, 0x68, 0xf6, 0xd9,
0x0c, 0x00, 0xfc, 0x03,
0x00, 0xfc, 0xc0, 0x55,
0xf3, 0xaa, 0xff, 0x80,
0x00, 0x00, 0x00, 0x00,
0x00, 0x00, 0xaa, 0xfa,
0xab, 0xff, 0x80, 0x55,
0xf5, 0xab, 0xff, 0xd5,
0xff, 0x57, 0x85, 0x0f,
0x00, 0x07, 0xf8, 0x07,
0xb8, 0xaa, 0xfa, 0xeb,
0x7f, 0x30, 0xab, 0xea,
0x57, 0xff, 0xab, 0xff,
0xaf, 0x0a, 0xdf, 0x03,
0x1e, 0x00, 0x08, 0xd4,
0x55, 0xfb, 0x76, 0x7f,
0x03, 0x7a, 0xf5, 0x5e,
0x03, 0x66, 0x7f, 0x00,
0xfc, 0xa9, 0xdf, 0x70,
0x77, 0x5c, 0xdd, 0x66,
0x9f, 0xd7, 0xe9, 0xff,
0xab, 0x6a, 0x80, 0xc3,
0xff, 0x03, 0xc0, 0xff,
0x00, 0x58, 0x55, 0x3f,
0x40, 0x5d, 0x55, 0xff,
0xff, 0x57, 0xd5, 0x03,
0xd4, 0xff, 0x03, 0xc0,
0x03, 0x00, 0x00, 0x00,
0xc0, 0xff, 0x03, 0xc0,
0xff, 0x03, 0xc0, 0x3f,
0x00, 0x00, 0xf8, 0x19,
0x60, 0xe0, 0xb9, 0xff,
0x07, 0x80, 0xff, 0x86,
0xc9, 0xff, 0xc3, 0xc3,
0x2f, 0x60, 0xd9, 0xe1,
0xc3, 0xde, 0x0f, 0xf6,
0x1f, 0x00, 0xd8, 0x0f,
0x00, 0xff, 0xe8, 0x37,
0xdc, 0xdd, 0xfe, 0x3f,
0x80, 0xfa, 0x3f, 0x00,
0xfe, 0x07, 0x00, 0x00,
0x00, 0x00, 0xe0, 0x07,
0xfe, 0x07, 0x00, 0x00,
0x00, 0x00, 0xa0, 0x7a,
0x55, 0x7c, 0x00, 0xb0,
0x1f, 0x00, 0x7e, 0xd3,
0x6f, 0xf7, 0x5a, 0x8d,
0x3e, 0x9b, 0x00, 0x00,
0x00, 0x40, 0x00, 0x02,
0xf2, 0x37, 0x18, 0xc0,
0x19, 0x0a, 0x66, 0x47,
0x3a, 0x00, 0x00, 0x84,
0xf0, 0x0f, 0x00, 0x00,
0xf6, 0x01, 0xc0, 0x3f,
0xfa, 0xed, 0x4e, 0xa3,
0x38, 0x50, 0x00, 0x00,
0x00, 0x00, 0x80, 0x7f,
0x00, 0x00, 0xb0, 0x1f,
0x00, 0x7e, 0xd2, 0x6f,
0x37, 0x7c, 0xdd, 0x02,
0x00, 0x00, 0xe0, 0x1f,
0x00, 0xe0, 0x83, 0x03,
0x44, 0x55, 0xfd, 0x05,
0x20, 0x00, 0xe8, 0x2f,
0xb0, 0xd0, 0x34, 0xff,
0x00, 0xc4, 0xaa, 0x3d,
0x00, 0xd8, 0x0f, 0x00,
0xff, 0xe8, 0xb7, 0x1b,
0xae, 0x56, 0xc1, 0x03,
0x00, 0xc0, 0xc3, 0x0f,
0x41, 0xf9, 0x17, 0x60,
0xa0, 0xba, 0xaa, 0xfe,
0x07, 0x20, 0x00, 0xf0,
0x0f, 0x00, 0xf0, 0x07,
0x04, 0xa8, 0x05, 0xa0,
0x7d, 0x01, 0xf0, 0xa3,
0x7e, 0xc3, 0xdd, 0x71,
0xb6, 0xba, 0x9d, 0x36,
0x3f, 0x00, 0x00, 0x78,
0xff, 0x5f, 0x55, 0xff,
0x17, 0xc0, 0xaa, 0xfa,
0xfb, 0x07, 0x00, 0x00,
0x00, 0x00, 0xf8, 0x57,
0x7f, 0x5f, 0x2f, 0xff,
0x0a, 0xb8, 0xaa, 0x7e,
0xaf, 0x00, 0xe1, 0xc1,
0x03, 0xc8, 0x03, 0xde,
0xfe, 0x5f, 0xd5, 0x7f,
0x57, 0xc6, 0x7b, 0xe1,
0xae, 0xfa, 0x87, 0x47,
0x80, 0x3c, 0x70, 0xf6,
0x07, 0xc0, 0xaf, 0xfa,
0x0d, 0x77, 0xc7, 0xd9,
0xe9, 0x36, 0xda, 0x4c,
0x16, 0x01, 0x00, 0x80,
0xfb, 0xff, 0xaa, 0xfa,
0xbf, 0x00, 0x56, 0xd5,
0xdf, 0x3f, 0x01, 0x00,
0x00, 0x00, 0x80, 0x1f,
0x18, 0x60, 0xfa, 0xff,
0xaa, 0x1a, 0xa0, 0x56,
0xd5, 0x1f, 0x00, 0x01,
0x80, 0x7f, 0x81, 0x0f,
0x70, 0xfd, 0x7f, 0x55,
0x0d, 0x4f, 0xa7, 0xaa,
0xbf, 0x82, 0xff, 0x71,
0x7e, 0xf3, 0xfb, 0xfb,
0x10, 0xf8, 0x1f, 0x00,
0xe0, 0xbf, 0xea, 0x1f,
0xaa, 0xa0, 0xea, 0xab,
0xee, 0x6f, 0x7f, 0x00,
0xfc, 0xa9, 0xdf, 0x70,
0x77, 0x9c, 0x9d, 0x6e,
0xaf, 0xcf, 0x26, 0x00,
0x00, 0xa0, 0x3f, 0x00,
0xe0, 0x7f, 0xd5, 0x3f,
0x50, 0xa1, 0xea, 0x57,
0x81, 0x03, 0x00, 0x00,
0x00, 0x60, 0x55, 0xfd,
0x05, 0x20, 0xe0, 0x83,
0xff, 0x03, 0x00, 0x00,
0x38, 0xc8, 0xaa, 0xee,
0xdf, 0xd6, 0xff, 0xe0,
0xeb, 0x1d, 0xc0, 0xfd,
0x3f, 0x80, 0xff, 0x0e,
0x0f, 0x06, 0x18, 0x00,
0xaa, 0xea, 0x2f, 0x80,
0x01, 0xc0, 0xbe, 0x00,
0xf8, 0x4b, 0xbf, 0xe1,
0xee, 0xf8, 0x3a, 0xfd,
0x7f, 0x80, 0xf8, 0x00,
0x00, 0x00, 0xa0, 0xfa,
0xaa, 0xf0, 0x00, 0xe0,
0xff, 0x00, 0xf8, 0x00,
0x00, 0xe0, 0xf8, 0x00,
0xa0, 0xaa, 0xbf, 0x02,
0xec, 0xff, 0x00, 0xf8,
0x7f, 0x00, 0x08, 0x70,
0xf8, 0x03, 0x8c, 0xa9,
0xfe, 0x2a, 0x70, 0x01,
0x60, 0x9f, 0x00, 0xfc,
0xa9, 0xe1, 0x6f, 0x77,
0x9c, 0xbd, 0x3e, 0xb7,
0xd1, 0x65, 0xc0, 0x19,
0x00, 0xec, 0x1f, 0x00,
0x80, 0x0f, 0xbe, 0x0a,
0xbe, 0xfa, 0x0f, 0x0c,
0x00, 0x00, 0xc0, 0x3f,
0x00, 0xc0, 0x0f, 0x5c,
0x15, 0xbf, 0xfa, 0x0f,
0x0c, 0x00, 0x00, 0x00,
0x00, 0x00, 0x40, 0x55,
0xbf, 0xfa, 0x0f, 0x5c,
0x15, 0xbf, 0xfa, 0x5f,
0xfd, 0x7f, 0x55, 0x7c,
0x21, 0x74, 0xc1, 0x3e,
0x84, 0x7b, 0xa8, 0x7e,
0xf5, 0x7e, 0xf9, 0x7e,
0xce, 0x55, 0xfd, 0xff,
0xd6, 0xfb, 0xfa, 0xff,
0xaa, 0xfa, 0x07, 0x00,
0x00, 0x00, 0xa8, 0xab,
0xea, 0xff, 0x01, 0xc0,
0x7e, 0x80, 0xfb, 0x47,
0xbf, 0xe1, 0xee, 0x18,
0x54, 0x55, 0xff, 0xff,
0x01, 0x00, 0xaa, 0xaa,
0xaa, 0xaa, 0xaa, 0xaa,
0x54, 0x55, 0x01, 0x00,
0x54, 0x55, 0xff, 0xff,
0x01, 0x00, 0xaa, 0xaa,
0xaa, 0xaa, 0x00, 0x00,
0x00, 0x00, 0x00, 0xb0,
0x1f, 0x00, 0xfe, 0xd3,
0xf0, 0xb7, 0x9b, 0x7d,
0x36, 0xab, 0xd1, 0xff,
0x03, 0x00, 0x00, 0x00,
0x00, 0x8e, 0x0f, 0xbf,
0xef, 0x8e, 0xff, 0x07,
0xc0, 0xfe, 0x0f, 0xb1,
0x05, 0x68, 0xe0, 0x3a,
0x00, 0x80, 0x3f, 0x60,
0xff, 0x05, 0x30, 0x00,
0xd8, 0x1f, 0x00, 0xff,
0xe9, 0x37, 0xdc, 0xbd,
0x6e, 0x9f, 0xd9, 0x28,
0x00, 0xfc, 0x3f, 0x00,
0xfc, 0x3f, 0x00, 0xfc,
0x03, 0x00, 0x00, 0x00,
0x00, 0xfc, 0x03, 0xfc,
0x03, 0x00, 0x00, 0x00,
0x00, 0x54, 0x7d, 0x15,
0x3c, 0x00, 0x00, 0x00,
0x00, 0x3d, 0xe3, 0x9f,
0x03, 0xae, 0xaa, 0xfe,
0x2a, 0xf8, 0x07, 0xbc,
0x0c, 0xfb, 0x0e, 0x00,
0x80, 0x00, 0x00, 0x2a,
0xe0, 0xf6, 0x07, 0xc0,
0x8f, 0xfa, 0xed, 0x86,
0xaf, 0xdb, 0xec, 0x34,
0xfa, 0xfc, 0x00, 0x00,
0x00, 0x40, 0x00, 0x00,
0x00, 0xc0, 0x3f, 0x00,
0x00, 0x00, 0x00, 0xc0,
0x1f, 0x10, 0xe0, 0xf0,
0x01, 0x40, 0x55, 0x7f,
0x05, 0x18, 0x00, 0x70,
0xfe, 0xf0, 0x07, 0x07,
0xfe, 0xa7, 0xbc, 0x07,
0x0a, 0x55, 0x7e, 0xc5,
0xf8, 0x03, 0x19, 0x00,
0xc7, 0x07, 0x00, 0xff,
0x03, 0x18, 0x00, 0xec,
0x0f, 0x80, 0x3f, 0xf5,
0x1b, 0xee, 0x8e, 0xb7,
0xd7, 0x66, 0xf5, 0x99,
0x04, 0x7e, 0x60, 0x00,
0x00, 0x00, 0xaa, 0xfa,
0x15, 0x70, 0xaa, 0xfa,
0x15, 0x70, 0xfe, 0x01,
0x00, 0x00, 0xfe, 0xaf,
0xea, 0xff, 0x2b, 0xe0,
0xaa, 0xf8, 0xd5, 0x7f,
0x60, 0x00, 0x00, 0x00,
0x00, 0x6e, 0xff, 0xab,
0xf6, 0x7f, 0x01, 0xac,
0xbe, 0xdf, 0xeb, 0x7b,
0x30, 0x0c, 0x0c, 0xdf,
0xef, 0x40, 0x18, 0x78,
0xfe, 0xff, 0xab, 0xea,
0xff, 0x0b, 0xe0, 0x55,
0xf7, 0xd5, 0x7f, 0xc0,
0x01, 0xd8, 0xfe, 0x00,
0xf8, 0x57, 0xbf, 0xe1,
0x71, 0x37, 0x9a, 0x7d,
0x6e, 0xab, 0xd3, 0xe6,
0x12, 0x00, 0x00, 0x00,
0x50, 0xaf, 0xaa, 0xdf,
0xff, 0x03, 0xea, 0xff,
0xab, 0xca, 0x1f, 0x00,
0x00, 0x00, 0x00, 0xf0,
0x1f, 0x70, 0x80, 0xff,
0x55, 0xf5, 0x2b, 0xe0,
0xfc, 0x5f, 0xd5, 0x0f,
0x54, 0x00, 0x13, 0x78,
0xbe, 0xff, 0x0c, 0xf1,
0xa0, 0xf6, 0x55, 0xf5,
0xe1, 0xe7, 0xf3, 0xff,
0xaa, 0xfe, 0x8d, 0x6a,
0xf8, 0xf8, 0x73, 0xfe,
0x6e, 0x0e, 0xef, 0x1f,
0x00, 0xa0, 0xea, 0xab,
0xe0, 0x01, 0xc0, 0x3e,
0x00, 0xf8, 0x47, 0xbf,
0xe3, 0x70, 0xf7, 0xff,
0xab, 0xea, 0x01, 0x0a,
0x00, 0xa0, 0xea, 0xab,
0xe0, 0xe1, 0x1f, 0x00,
0x00, 0xec, 0x0b, 0x80,
0x3f, 0xf5, 0xdb, 0x0d,
0x4f, 0xb7, 0xd7, 0x6a,
0x36, 0x9a, 0xf4, 0x0f,
0x00, 0x00, 0x00, 0x00,
0x0e, 0x30, 0xfe, 0x03,
0x1e, 0x80, 0x01, 0xf5,
0xaa, 0xfa, 0xab, 0xea,
0x0f, 0xc0, 0x67, 0xb0,
0xba, 0xbf, 0xf7, 0xf8,
0x07, 0x80, 0x03, 0xc7,
0x51, 0x7f, 0x55, 0xfd,
0xad, 0xf6, 0x2d, 0x78,
0x0f, 0x00, 0x80, 0x1f,
0x18, 0x00, 0xec, 0x0f,
0x80, 0x1f, 0xf5, 0x1b,
0xee, 0x66, 0xab, 0xd3,
0xe7, 0x36, 0x0a, 0xc0,
0xfc, 0x3f, 0x00, 0x0c,
0x00, 0x00, 0x40, 0x55,
0xbf, 0x02, 0x0e, 0xc0,
0xfc, 0x3f, 0x00, 0x0c,
0x00, 0xc0, 0x0f, 0x0c,
0x10, 0xab, 0xea, 0x0f,
0xe2, 0xf8, 0x7f, 0x00,
0xf8, 0x1f, 0x00, 0x80,
0x4f, 0xdf, 0x70, 0x78,
0x58, 0x7f, 0x55, 0xf9,
0x76, 0xdc, 0xf8, 0x7f,
0x01, 0xfb, 0x5f, 0xc0,
0xdd, 0xcf, 0x0f, 0xe0,
0x07, 0x06, 0x88, 0x55,
0xf0, 0xf6, 0x07, 0xc0,
0x9f, 0x1a, 0xfe, 0x76,
0xc7, 0xd9, 0xed, 0x35,
0x5a, 0x7d, 0x56, 0xff,
0x41, 0x03, 0x00, 0x00,
0xf0, 0x0f, 0x00, 0xf0,
0xc1, 0xab, 0xe1, 0xd6,
0xff, 0x00, 0x01, 0x00,
0x00, 0x00, 0x00, 0x00,
0x54, 0xed, 0x5d, 0xff,
0x03, 0x56, 0xd5, 0xaf,
0xfe, 0x57, 0xff, 0x5f,
0x15, 0xfe, 0x04, 0x06,
0x70, 0x06, 0xa0, 0x6b,
0x55, 0xff, 0xee, 0x7e,
0xfc, 0x3d, 0xd7, 0xaf,
0xba, 0xef, 0xd7, 0xfa,
0xff, 0x7f, 0xe5, 0xf6,
0x41, 0x00, 0x00, 0x80,
0x7a, 0x01, 0x68, 0x7f,
0x00, 0xfc, 0xab, 0xdf,
0x70, 0x77, 0x7c, 0xcd,
0x46, 0xab, 0xd3, 0xed,
0x73, 0x59, 0x05, 0x0f,
0x55, 0x5f, 0xf5, 0x5f,
0xff, 0x5f, 0x55, 0x00,
0x0f, 0xff, 0x0f, 0x00,
0xff, 0x05, 0x70, 0x55,
0xfd, 0x00, 0x75, 0x55,
0xfd, 0xff, 0x5f, 0x55,
0x0f, 0x50, 0xff, 0x0f,
0x0c, 0x3f, 0x00, 0x00,
0x00, 0x00, 0xe8, 0x7f,
0x00, 0xff, 0x0d, 0xdc,
0xee, 0xfd, 0xf7, 0xdf,
0x8f, 0xed, 0xc3, 0xe0,
0xd1, 0xef, 0x3e, 0xc7,
0x1f, 0xff, 0xbe, 0xc1,
0xfb, 0x0e, 0x7d, 0xf1,
0xfe, 0x0f, 0xe0, 0xff,
0x01, 0xe0, 0x07, 0x00,
0x00, 0xb0, 0x3f, 0x00,
0xfe, 0xd3, 0x6f, 0xb8,
0x9b, 0x9d, 0x36, 0xb7,
0x51, 0x00, 0x00, 0x70,
0xfc, 0x3f, 0x00, 0xfc,
0x3f, 0x00, 0x7c, 0x00,
0x00, 0x00, 0x00, 0xf0,
0x7f, 0x00, 0x7c, 0x00,
0x08, 0x90, 0x01, 0x80,
0x55, 0x7f, 0xd5, 0xf9,
0x01, 0x00, 0x80, 0xef,
0x4c, 0x3b, 0x6c, 0x94,
0x23, 0xfc, 0xb1, 0xed,
0xf4, 0xfa, 0x5e, 0x05,
0x1e, 0x00, 0x8d, 0xa7,
0x03, 0x00, 0x00, 0x00,
0x00, 0xfb, 0x03, 0xe0,
0x4f, 0xfd, 0x76, 0xc3,
0xd3, 0xed, 0x35, 0x9a,
0xad, 0x2e, 0x81, 0x1f,
0x18, 0x00, 0x00, 0x00,
0x00, 0x00, 0x00, 0x80,
0xf9, 0x01, 0x00, 0x00,
0x00, 0xc0, 0xff, 0x02,
0x00, 0x7c, 0x70, 0xa0,
0x50, 0x55, 0x7f, 0x07,
0x18, 0x00, 0x9f, 0xe1,
0xdf, 0x7f, 0x00, 0x1e,
0xfc, 0xdf, 0xbf, 0x0b,
0xbc, 0x7b, 0xfc, 0xa9,
0xea, 0x57, 0xcd, 0x05,
0x06, 0x01, 0x3c, 0x3c,
0x00, 0x04, 0x00, 0xfb,
0x03, 0xe0, 0x67, 0xfd,
0x86, 0xbb, 0xe3, 0xeb,
0xb4, 0xba, 0xcd, 0x46,
0x9f, 0xcd, 0x62, 0x55,
0xfd, 0x01, 0x9c, 0x1f,
0x00, 0x00, 0x00, 0xa8,
0x5e, 0x15, 0x1f, 0xac,
0xbc, 0x2a, 0x3e, 0xf0,
0x03, 0x03, 0x00, 0xf0,
0x57, 0xff, 0x5f, 0x15,
0xff, 0x0a, 0xbe, 0xaa,
0xff, 0xeb, 0x7f, 0x00,
0x60, 0x18, 0x0c, 0xc6,
0x81, 0xf1, 0x7f, 0x55,
0xff, 0x5f, 0x1d, 0xbf,
0x0e, 0xbe, 0xfe, 0xfe,
0xd6, 0xfb, 0x0c, 0xc7,
0xe1, 0x71, 0xdf, 0x3e,
0x90, 0xff, 0xe0, 0xf7,
0x03, 0x7f, 0xfd, 0x7f,
0x55, 0xf9, 0x57, 0xc0,
0x55, 0xe5, 0xdb, 0x3f,
0x00, 0xbf, 0xeb, 0x37,
0xdc, 0x1d, 0x6f, 0xb3,
0xd7, 0x67, 0x35, 0xda,
0x9c, 0x2e, 0x8b, 0xc3,
0x7f, 0x00, 0x00, 0x00,
0x00, 0x80, 0xff, 0xaa,
0xff, 0xaf, 0x82, 0xaf,
0x82, 0xaf, 0xfa, 0x87,
0x07, 0x00, 0x00, 0x00,
0x80, 0xdf, 0xc7, 0xfd,
0xc6, 0xce, 0xdf, 0xf9,
0xde, 0xff, 0x57, 0x05,
0xee, 0x7f, 0x4f, 0x95,
0xdf, 0x1b, 0x77, 0x7c,
0xff, 0x2f, 0x0e, 0x0f,
0xfc, 0x3b, 0xff, 0xbf,
0xf3, 0xff, 0xc0, 0xdf,
0x03, 0xef, 0xff, 0xab,
0xea, 0x01, 0xea, 0xaf,
0xbe, 0x57, 0xc1, 0x03,
0xc0, 0x01, 0xde, 0x1f,
0x00, 0xf0, 0xbf, 0xea,
0x1f, 0xa8, 0x50, 0xf5,
0xab, 0xc0, 0x01, 0x00,
0xf0, 0xc1, 0x0e, 0x6c,
0xfc, 0xaf, 0xfa, 0x07,
0x2a, 0x53, 0xfd, 0xd5,
0xeb, 0x0f, 0x1c, 0x07,
0x00, 0x84, 0xff, 0x39,
0x73, 0xbf, 0xdf, 0xff,
0xa8, 0xfa, 0xff, 0xff,
0xfb, 0x7f, 0xc1, 0x0f,
0x3f, 0x1f, 0xfb, 0xfc,
0xfe, 0x17, 0x7b, 0xff,
0x0d, 0xf8, 0xc3, 0xcf,
0xff, 0x39, 0x7f, 0x07,
0xbe, 0x0f, 0x78, 0x7f,
0xd5, 0x7f, 0xd5, 0xfb,
0x03, 0x00, 0x7e, 0xdf,
0xfc, 0x3f, 0x80, 0x74,
0x80, 0x03, 0x00, 0x54,
0x7d, 0x05, 0xdc, 0xfe,
0x00, 0xf8, 0x59, 0xbf,
0xe1, 0x6e, 0x74, 0x9b,
0xbd, 0x56, 0x93, 0xd3,
0xe5, 0xb1, 0x18, 0x00,
0x81, 0x1f, 0xf8, 0x1f,
0x00, 0x00, 0xf0, 0x00,
0x54, 0x55, 0x7f, 0x01,
0x0c, 0xf0, 0xf0, 0xff,
0x00, 0x18, 0x00, 0xbc,
0xb7, 0xcf, 0x3f, 0x42,
0xec, 0x77, 0xfd, 0x55,
0xf7, 0xed, 0x07, 0x3f,
0x7e, 0x7f, 0xfc, 0x3f,
0x1c, 0xdc, 0xdf, 0xf9,
0xff, 0x06, 0x0c, 0xc0,
0xe1, 0x00, 0x51, 0x49,
0xbf, 0x07, 0x3c, 0xff,
0x03, 0x7e, 0xff, 0x05,
0xfe, 0x07, 0x00, 0xf8,
0x07, 0x00, 0x00, 0xfb,
0x03, 0xe0, 0x67, 0x0d,
0x7f, 0xbb, 0xe3, 0x6b,
0x75, 0x9b, 0x9d, 0x3e,
0x9b, 0xc9, 0xe2, 0xab,
0xe2, 0xab, 0xff, 0x80,
0x00, 0x00, 0x00, 0xfe,
0x01, 0x00, 0xfe, 0x80,
0xaf, 0xfe, 0xab, 0xea,
0x8f, 0x7f, 0xc0, 0x06,
0x80, 0x40, 0x00, 0x41,
0x02, 0x30, 0xab, 0xfa,
0xff, 0xba, 0x9f, 0xfe,
0xfd, 0xfb, 0x5f, 0x65,
0x5f, 0xf5, 0x5f, 0xff,
0x5f, 0x29, 0xff, 0x02,
0x0c, 0xfc, 0xf7, 0x00,
0x80, 0xaa, 0x5f, 0xf5,
0x0f, 0xde, 0x0f, 0xdf,
0xaa, 0xfe, 0xfd, 0x7f,
0x55, 0x7d, 0x7f, 0x07,
0x02, 0x00, 0x00, 0xd8,
0x1f, 0x00, 0xbf, 0x6b,
0xf8, 0xdb, 0x1d, 0x57,
0xa7, 0xd1, 0x65, 0xb6,
0xb9, 0x7d, 0x26, 0x87,
0x3d, 0x54, 0xfd, 0xaa,
0x7f, 0xf0, 0xaa, 0xf8,
0xaa, 0xff, 0xfa, 0xff,
0xaa, 0xf2, 0x07, 0x00,
0x00, 0x00, 0xd4, 0x6b,
0x75, 0xe7, 0x7f, 0xc1,
0xad, 0xaa, 0xbf, 0xff,
0x57, 0xf5, 0xff, 0x15,
0xf0, 0x07, 0xfb, 0xfe,
0xe8, 0x33, 0xe8, 0x47,
0xdd, 0xfe, 0xfd, 0x3f,
0x00, 0xef, 0xff, 0x0f,
0xfe, 0xce, 0xf8, 0x08,
0x73, 0xfd, 0xf7, 0x3e,
0xee, 0xff, 0x00, 0xef,
0x80, 0xff, 0xf7, 0x7f,
0x00, 0xfc, 0x3f, 0x00,
0xfc, 0xfd, 0x7f, 0x3e,
0x00, 0xf8, 0xc3, 0x0f,
0x00, 0x00, 0x0f, 0xec,
0x0f, 0x80, 0xff, 0xf5,
0x1b, 0xee, 0x46, 0x93,
0xdb, 0x6c, 0x75, 0xda,
0x0c, 0x3e, 0x97, 0xc5,
0xe1, 0x0f, 0x00, 0x00,
0x00, 0xfe, 0x01, 0xfe,
0x1f, 0x00, 0xfc, 0x1f,
0x00, 0xc0, 0x73, 0x00,
0x00, 0xc0, 0xfd, 0x3b,
0x20, 0xfe, 0x07, 0x3e,
0x0f, 0x68, 0x6f, 0xfb,
0x03, 0xe0, 0x9f, 0xab,
0xb6, 0xfa, 0xff, 0xbb,
0xdf, 0xdf, 0xc0, 0xff,
0x87, 0xff, 0x3d, 0x87,
0xff, 0xf8, 0xbf, 0xf7,
0x3e, 0xf7, 0x81, 0x21,
0xfc, 0xfb, 0x05, 0x86,
0x61, 0xf5, 0xab, 0xc2,
0x83, 0xcf, 0x07, 0xfe,
0x7f, 0x00, 0x02, 0x00,
0x00, 0xb0, 0x3f, 0x00,
0x7e, 0xd6, 0x6f, 0x37,
0x1c, 0x6d, 0x6e, 0xb3,
0xd5, 0xe7, 0x74, 0x79,
0x2c, 0x02, 0x80, 0x7f,
0x00, 0x00, 0x00, 0x02,
0x80, 0x81, 0x01, 0x00,
0xf8, 0x81, 0x1b, 0x38,
0x1e, 0xf0, 0x00, 0x30,
0xfc, 0x85, 0xff, 0xe1,
0xc8, 0xf7, 0xff, 0xde,
0xff, 0x1f, 0xf6, 0xfe,
0x76, 0xf0, 0xbf, 0x9f,
0x55, 0x7d, 0x15, 0x3c,
0xc1, 0xdb, 0x39, 0x38,
0xfc, 0xdf, 0x40, 0x80,
0xd3, 0x0f, 0x00, 0x54,
0xf5, 0xab, 0xff, 0xdf,
0x80, 0x3d, 0x00, 0xe0,
0x1f, 0x40, 0x00, 0xf4,
0x5a, 0x00, 0x7e, 0xd8,
0x6f, 0xb8, 0x3b, 0xae,
0x4e, 0xb3, 0xdb, 0xeb,
0x31, 0xda, 0x4c, 0x3e,
0x97, 0xbb, 0x22, 0x50,
0xbd, 0x2a, 0x3e, 0xf0,
0x03, 0x03, 0x00, 0x00,
0xb8, 0xea, 0x5f, 0x15,
0x1e, 0x54, 0x5f, 0x15,
0xde, 0xd3, 0xff, 0xfb,
0x27, 0x00, 0x08, 0xc4,
0xff, 0xaa, 0xbd, 0xbf,
0xf0, 0x7b, 0x39, 0x7e,
0xb5, 0xfd, 0xfe, 0x0f,
0x70, 0x30, 0x1c, 0xef,
0xef, 0x03, 0xde, 0xef,
0xc0, 0x7f, 0xde, 0xfb,
0xff, 0xaf, 0xaa, 0xbf,
0xed, 0xc3, 0xff, 0xf3,
0xfb, 0x57, 0xdd, 0xd7,
0xdf, 0xff, 0x3f, 0x00,
0xc0, 0xc1, 0x3c, 0xe0,
0x01, 0xbc, 0xff, 0xaf,
0xaa, 0xff, 0x0b, 0x60,
0x55, 0xfd, 0xfd, 0x03,
0x00, 0x00, 0x00, 0x00,
0xfc, 0xab, 0xff, 0xaf,
0x0a, 0xbf, 0x0a, 0x5f,
0x5f, 0xdf, 0xfd, 0x03,
0x00, 0x07, 0x16, 0x00,
0x01, 0xc0, 0x52, 0x80,
0x90, 0x7b, 0xeb, 0x17,
0xbf, 0x5d, 0xbc, 0x79,
0x05, 0xf5, 0x6e, 0x8c,
0x11, 0xff, 0x71, 0xf7,
0xae, 0xbb, 0x35, 0x65,
0xce, 0xff, 0xbb, 0xa9,
0x46, 0x95, 0xf9, 0x70,
0xeb, 0x00, 0xce, 0xe1,
0x0b, 0x02, 0x00, 0x5c,
0x00, 0x7c, 0x80, 0xe6,
0x03, 0xc0, 0x2f, 0xfb,
0xed, 0x86, 0xc7, 0xd5,
0xe9, 0xb3, 0xb9, 0xbd,
0x46, 0x8f, 0xbd, 0x65,
0x71, 0x18, 0xdc, 0xe5,
0xfe, 0xbf, 0xaa, 0x06,
0x38, 0x7e, 0x00, 0x00,
0xa0, 0x80, 0x7a, 0x55,
0xf9, 0x80, 0x5f, 0xff,
0x4f, 0x55, 0x80, 0x0f,
0x0e, 0x08, 0x00, 0x00,
0x95, 0xff, 0x0a, 0x38,
0x00, 0x38, 0x10, 0x10,
0xf6, 0x2b, 0x00, 0xfc,
0xd5, 0xf9, 0x41, 0x2a,
0x0f, 0x10, 0xe7, 0xfb,
0x3b, 0xe0, 0x9f, 0x02,
0xdd, 0x3e, 0x80, 0x9f,
0xee, 0x0e, 0x63, 0xf8,
0x7a, 0xec, 0xdd, 0xbf,
0x02, 0xf0, 0x7d, 0x2d,
0xdb, 0xde, 0xde, 0xc5,
0x7b, 0x6b, 0x21, 0x7d,
0xc2, 0xfc, 0x8b, 0x59,
0xe0, 0x0c, 0x47, 0xc0,
0x01, 0xb0, 0x00, 0x00,
0x04, 0x00, 0x80, 0xe9,
0x00, 0xf8, 0xc3, 0x7e,
0xc3, 0xdd, 0xec, 0x76,
0x5a, 0x8d, 0x2e, 0x93,
0xcf, 0xe6, 0x31, 0x78,
0xfd, 0xed, 0xfe, 0xe1,
0x1f, 0x00, 0xfe, 0x1d,
0x00, 0x0f, 0x00, 0x00,
0x00, 0xff, 0xff, 0x00,
0x00, 0xff, 0x00, 0xff,
0x00, 0x00, 0x00, 0x4e,
0x04, 0x84, 0x76, 0xfc,
0xbf, 0xb1, 0xce, 0xf9,
0x6f, 0xec, 0x27, 0x0c,
0x48, 0x30, 0xe3, 0xfc,
0x00, 0x60, 0x21, 0x02,
0xbd, 0xe8, 0xfa, 0x3f,
0x0b, 0x3e, 0xd1, 0x90,
0x7a, 0x84, 0xda, 0xbf,
0x2d, 0xe4, 0x4b, 0x53,
0x76, 0xfb, 0x5f, 0x30,
0xd6, 0x2f, 0x3d, 0x05,
0x43, 0x4a, 0x04, 0x40,
0xfc, 0x7e, 0x40, 0xbb,
0x7f, 0x00, 0x70, 0x80,
0xbf, 0xe1, 0x00, 0xf8,
0xc3, 0x86, 0xbf, 0xdd,
0xec, 0x70, 0x7c, 0xad,
0x6e, 0xa7, 0xcf, 0x68,
0x73, 0x79, 0x2c, 0xf6,
0xfc, 0x1f, 0x60, 0xff,
0xff, 0x01, 0x01, 0x00,
0x00, 0xfc, 0x03, 0x00,
0xfc, 0x01, 0xff, 0xef,
0x1f, 0x1f, 0x00, 0x00,
0x00, 0x00, 0xdc, 0x08,
0x08, 0x80, 0x77, 0xee,
0x2d, 0xff, 0xcf, 0x80,
0x16, 0xb5, 0xef, 0x6c,
0xff, 0x83, 0xef, 0xed,
0x8f, 0x03, 0xec, 0x3f,
0x9c, 0x8d, 0x80, 0x20,
0x24, 0x42, 0xe0, 0xf1,
0x00, 0x04, 0xf3, 0x13,
0x08, 0x9e, 0x08, 0xe4,
0xd5, 0xb9, 0x03, 0xc8,
0x78, 0x4f, 0xf4, 0xef,
0x86, 0xdd, 0x50, 0x9b,
0xba, 0xe8, 0x23, 0xbc,
0x2f, 0x00, 0xb0, 0x00,
0x80, 0xfd, 0x01, 0xf1,
0xc7, 0x86, 0xbf, 0xdd,
0xf1, 0xb6, 0x1a, 0x5d,
0x66, 0xa7, 0xcd, 0xe7,
0x35, 0x79, 0x0c, 0xf6,
0x76, 0x00, 0x8c, 0x0f,
0x00, 0x00, 0xe0, 0x7f,
0x00, 0x82, 0xff, 0x07,
0x80, 0x01, 0x06, 0x80,
0xff, 0x07, 0x80, 0x01,
0xe0, 0x1f, 0x00, 0x00,
0x00, 0x7f, 0x00, 0x00,
0xff, 0x0f, 0x00, 0x1f,
0x00, 0x80, 0xf9, 0x9f,
0x01, 0xff, 0x83, 0x80,
0xbf, 0x01, 0xfa, 0x76,
0x5c, 0xe0, 0x8a, 0xe8,
0xc0, 0xef, 0xf6, 0xa4,
0xf7, 0xff, 0xa7, 0x03,
0xfa, 0x03, 0x10, 0x5f,
0xe7, 0xbf, 0xff, 0x7f,
0x41, 0x93, 0x60, 0xfc,
0x15, 0x40, 0x86, 0x1f,
0xd8, 0xdf, 0xee, 0xdf,
0x4f, 0x40, 0xfa, 0x0f,
0xae, 0xfa, 0x83, 0x9b,
0xcf, 0x87, 0x8e, 0x03,
0x00, 0x00, 0x0c, 0x00,
0x00, 0x00, 0xa6, 0x03,
0xe0, 0xff, 0xfa, 0x0d,
0x77, 0xb3, 0xcf, 0xe1,
0xf6, 0x1a, 0x5d, 0x56,
0xa7, 0xcd, 0x63, 0xb2,
0x78, 0x00, 0x00, 0x00,
0x00, 0xf4, 0xf7, 0x00,
0xf8, 0x7f, 0x00, 0xf8,
0x03, 0x00, 0x00, 0x00,
0x00, 0xfe, 0x03, 0xf8,
0x0f, 0x80, 0x4e, 0x04,
0x04, 0x7e, 0xdf, 0x6f,
0x30, 0xf7, 0x63, 0x78,
0x7d, 0xc3, 0x9e, 0x87,
0x70, 0x30, 0x3f, 0xc0,
0x38, 0x73, 0xc0, 0x81,
0x6f, 0x22, 0xe0, 0xec,
0xfb, 0xdc, 0xfa, 0xf3,
0xdf, 0xe1, 0xee, 0xd4,
0xf0, 0x9b, 0x43, 0x39,
0x3b, 0x04, 0xaf, 0xaf,
0x28, 0xb0, 0xf7, 0x85,
0x1a, 0x00, 0x8e, 0x06,
0xb4, 0x53, 0x6c, 0x08,
0x00, 0xa0, 0x0c, 0x00,
0x00, 0x00, 0x4f, 0x02,
0xe0, 0x87, 0xfd, 0x76,
0xc3, 0xd1, 0x65, 0xf6,
0x5a, 0x9d, 0x16, 0x83,
0xdb, 0xe3, 0xf0, 0xf7,
0x4c, 0x02, 0x00, 0xc0,
0xc3, 0x03, 0x00, 0x00,
0x00, 0x00, 0x00, 0x00,
0xc0, 0x3f, 0x00, 0x00,
0x00, 0x00, 0x7c, 0xff,
0xee, 0xcf, 0x79, 0xff,
0x1f, 0xee, 0x00, 0x00,
0x00, 0xac, 0x06, 0x08,
0xf8, 0x99, 0x1f, 0xc6,
0x7e, 0x1d, 0xfc, 0x32,
0xc0, 0xc0, 0xd7, 0xc4,
0xdd, 0xcd, 0x1f, 0xa0,
0x18, 0x8e, 0x40, 0xc9,
0xe6, 0x37, 0x81, 0x5f,
0xf3, 0x36, 0xf7, 0xee,
0xe5, 0x3f, 0x7c, 0x63,
0x7c, 0x2e, 0x20, 0x70,
0x4e, 0x04, 0x00, 0x80,
0x00, 0x00, 0x00, 0xee,
0x3d, 0x00, 0xfe, 0xb1,
0xdf, 0x6e, 0x78, 0xbc,
0x4d, 0x5e, 0xa3, 0xcb,
0x6c, 0xb3, 0x3a, 0x7d,
0x1e, 0x8b, 0xc3, 0xe0,
0x07, 0x00, 0xff, 0x00,
0x00, 0xff, 0x7f, 0x00,
0x04, 0x00, 0xff, 0x00,
0x00, 0x7f, 0x40, 0x80,
0xfb, 0x07, 0x7c, 0x00,
0x00, 0x00, 0x0b, 0x02,
0xc2, 0x83, 0xff, 0x14,
0xe1, 0xde, 0x80, 0xb4,
0x00, 0xb7, 0xf7, 0xf7,
0xcf, 0xfb, 0x0f, 0xc1,
0x03, 0xc3, 0x05, 0xe3,
0x6f, 0x07, 0x80, 0xfd,
0x03, 0x8c, 0x9b, 0x8d,
0x13, 0x7f, 0xee, 0xff,
0x5a, 0xe0, 0xe8, 0x17,
0xe6, 0xf2, 0x73, 0x33,
0x30, 0xc3, 0x3d, 0x6a,
0x14, 0x3b, 0x30, 0xe6,
0xfc, 0x98, 0x0d, 0x7f,
0x44, 0xfe, 0x00, 0x20,
0xfe, 0x71, 0x1d, 0x00,
0xfe, 0xd8, 0x6f, 0xb8,
0x3b, 0xce, 0x3e, 0xb7,
0xd3, 0x68, 0xf2, 0x58,
0xbc, 0x56, 0x9b, 0xcb,
0x61, 0xef, 0xaf, 0x80,
0x57, 0xf5, 0xe7, 0x07,
0x00, 0x00, 0x00, 0x00,
0xfe, 0xaf, 0xea, 0xff,
0x2b, 0xe0, 0xaa, 0xf8,
0xd5, 0x7f, 0x60, 0x00,
0x00, 0x00, 0x00, 0x30,
0x22, 0x20, 0xfc, 0x03,
0x00, 0xfa, 0x87, 0xfc,
0xdd, 0x00, 0xf1, 0x01,
0xda, 0xfd, 0xf3, 0xaf,
0x1f, 0xae, 0xdc, 0x3f,
0xef, 0x09, 0x1c, 0xe3,
0x13, 0x7a, 0x79, 0x01,
0x00, 0x3e, 0xd6, 0xe0,
0x07, 0xfe, 0xbd, 0x07,
0x3c, 0xf0, 0xf1, 0x1e,
0xe1, 0xe0, 0x0d, 0xa7,
0x00, 0x78, 0x60, 0x1b,
0x01, 0x01, 0x06, 0x00,
0x40, 0xc0, 0x3f, 0xd3,
0x01, 0xe0, 0x97, 0xfd,
0x76, 0xc7, 0xe1, 0xe6,
0x76, 0x98, 0xbd, 0x3e,
0x93, 0xd5, 0x69, 0xf4,
0x58, 0x5c, 0xfe, 0x7a,
0x80, 0x7a, 0x55, 0xf9,
0x80, 0x0f, 0x4e, 0x00,
0x00, 0x00, 0xff, 0xab,
0xfe, 0x81, 0x0a, 0x55,
0xbf, 0x0a, 0x9c, 0xfd,
0x07, 0xff, 0x9f, 0xfd,
0x90, 0xdf, 0x07, 0x00,
0x00, 0xe0, 0x44, 0x40,
0x58, 0xfb, 0x7c, 0xef,
0xd8, 0x5c, 0xc4, 0xfd,
0x81, 0xe3, 0x67, 0xa0,
0x13, 0x3c, 0xf0, 0x0e,
0xe9, 0xbb, 0xfb, 0xc6,
0xaf, 0xf7, 0x7f, 0x7c,
0xc7, 0x5a, 0x07, 0xbd,
0x17, 0x68, 0xb0, 0x0d,
0x08, 0x7c, 0x4f, 0x08,
0x20, 0x02, 0x40, 0x40,
0xe0, 0x9f, 0xc1, 0x3f,
0x80, 0x7f, 0x03, 0x1c,
0xc8, 0xb7, 0x20, 0xff,
0x00, 0xc0, 0x1e, 0x00,
0x00, 0x00, 0xf6, 0x07,
0xc0, 0xff, 0xfa, 0x0d,
0x77, 0xaf, 0xd5, 0x63,
0xf3, 0x39, 0x8d, 0x16,
0xb3, 0xcb, 0x61, 0xf0,
0x07, 0x50, 0x57, 0xd5,
0x0f, 0x00, 0xf0, 0x0f,
0xf0, 0x0f, 0x00, 0x00,
0xfe, 0x03, 0xdc, 0xaa,
0xf2, 0x6b, 0xe0, 0x00,
0x36, 0xff, 0x0f, 0x00,
0x07, 0x40, 0x76, 0xff,
0x0b, 0xbf, 0xbf, 0xff,
0xff, 0x7d, 0x9f, 0xee,
0xd7, 0xff, 0xd7, 0x2e,
0xfb, 0x81, 0xfe, 0x7b,
0x9f, 0x7f, 0xe7, 0x77,
0xc0, 0xee, 0xef, 0xfd,
0x3f, 0x3c, 0xff, 0xff,
0xef, 0xfb, 0xc3, 0x1f,
0xe0, 0xed, 0xf7, 0x80,
0x37, 0xbc, 0xf6, 0xaa,
0xfa, 0x0f, 0x78, 0xfe,
0x1f, 0x00, 0xfe, 0x0f,
0x00, 0x00, 0x60, 0x44,
0x00, 0xfc, 0xb0, 0xe1,
0x6f, 0x77, 0x39, 0x6e,
0x6e, 0xb3, 0xd3, 0x6b,
0x35, 0x7a, 0x7c, 0x16,
0x7f, 0xbd, 0x00, 0x87,
0x5f, 0x05, 0xaf, 0xea,
0x8f, 0x0f, 0x00, 0x00,
0x00, 0x7e, 0xe0, 0x00,
0xc3, 0x7f, 0x81, 0x5d,
0x55, 0xff, 0x3f, 0x00,
0x00, 0x00, 0xc0, 0xe3,
0x27, 0x83, 0x09, 0x40,
0xd7, 0x01, 0x82, 0xf6,
0xec, 0x79, 0xdd, 0x7f,
0x7d, 0x33, 0xe7, 0xb9,
0xee, 0xfb, 0x72, 0x70,
0xb8, 0xff, 0xdd, 0xda,
0x17, 0x40, 0x40, 0xd9,
0x82, 0x24, 0x06, 0x06,
0xa0, 0x80, 0xf0, 0x3f,
0x40, 0x00, 0x00, 0x5e,
0x20, 0xf0, 0x9f, 0x40,
0xff, 0x4b, 0xf5, 0x7e,
0x60, 0x0c, 0x20, 0x10,
0x00, 0x7a, 0xc0, 0xfe,
0x80, 0xf8, 0x65, 0xc3,
0xdf, 0xee, 0x78, 0x3b,
0xad, 0x66, 0xaf, 0xd1,
0xe6, 0x32, 0x59, 0x1c,
0x3e, 0x8f, 0xc1, 0x1f,
0x00, 0x00, 0x3f, 0x00,
0x00, 0x03, 0x0c, 0x00,
0xf0, 0xff, 0x00, 0xc0,
0x3f, 0x03, 0x00, 0xf0,
0x03, 0xa0, 0xff, 0x01,
0xd0, 0x00, 0xe0, 0x3e,
0x48, 0x00, 0x40, 0xfa,
0x03, 0xc0, 0xbf, 0x5f,
0x03, 0x1b, 0x0c, 0x0c,
0xf3, 0x07, 0xc3, 0xfe,
0x5b, 0x8f, 0xdf, 0x00,
0x13, 0x68, 0xc5, 0xf7,
0x69, 0x43, 0xe0, 0xd3,
0xdf, 0x96, 0xf6, 0x1e,
0x7f, 0xf3, 0xff, 0x0c,
0xa8, 0xb7, 0x73, 0x9d,
0xfc, 0xff, 0xdc, 0xae,
0xaf, 0x40, 0xa3, 0x00,
0xdf, 0xc0, 0x2d, 0xf4,
0x02, 0xcc, 0xd0, 0xca,
0x2f, 0xe0, 0xfb, 0x1b,
0x40, 0xfc, 0xe0, 0xf2,
0xff, 0x18, 0x80, 0x40,
0x02, 0xb0, 0x3f, 0x00,
0x7e, 0xd7, 0x6f, 0xb8,
0x9b, 0xbd, 0x2e, 0x9f,
0xdb, 0x69, 0xf4, 0xd8,
0x4c, 0x16, 0xab, 0xff,
0x07, 0x00, 0x00, 0x00,
0x00, 0xc0, 0x07, 0xff,
0x0f, 0x00, 0xff, 0x0f,
0x00, 0x07, 0x00, 0x00,
0xd8, 0x81, 0xce, 0xff,
0x01, 0xfa, 0x3f, 0x70,
0xfe, 0x76, 0xbe, 0xff,
0x06, 0xfc, 0xfd, 0xe3,
0xf7, 0x3f, 0xef, 0x7f,
0xfe, 0xfb, 0xf9, 0xfe,
0x9f, 0xdd, 0xbc, 0x33,
0x72, 0xff, 0xff, 0xbb,
0x3f, 0xde, 0xc1, 0xef,
0xc3, 0xbf, 0xdf, 0xef,
0xdf, 0x86, 0x89, 0x01,
0xfa, 0x81, 0x0f, 0xe0,
0x5f, 0x55, 0x7f, 0xbd,
0xff, 0x0f, 0xf0, 0xfb,
0x03, 0xff, 0xf5, 0xfd,
0x03, 0x82, 0xde, 0x03,
0xc0, 0xdf, 0xfa, 0xed,
0x86, 0x9b, 0xd9, 0x6b,
0xb4, 0x3a, 0x5d, 0x1e,
0x8b, 0xcf, 0x21, 0x00,
0x00, 0x00, 0xfc, 0x03,
0x00, 0x00, 0x00, 0x00,
0xde, 0x03, 0x02, 0x00,
0xf8, 0x07, 0x00, 0xfc,
0xf8, 0x01, 0x00, 0x00,
0x2c, 0x08, 0x08, 0xff,
0xde, 0x7e, 0x47, 0x5c,
0x5e, 0x90, 0x17, 0x29,
0x19, 0x1c, 0xc4, 0xf3,
0xdb, 0x12, 0xc0, 0xf9,
0x06, 0x7d, 0x66, 0xf9,
0x63, 0x26, 0xfa, 0xd3,
0x7a, 0xbd, 0x0a, 0x6d,
0xb8, 0x2d, 0x04, 0x80,
0x03, 0x64, 0xf8, 0x1f,
0x00, 0x70, 0xd8, 0xf7,
0x41, 0x30, 0x40, 0x08,
0x00, 0x00, 0x00, 0x80,
0x00, 0xb8, 0x0f, 0x00,
0x7f, 0xec, 0xb7, 0x1b,
0xde, 0x8e, 0xb3, 0xd3,
0x67, 0xf3, 0x58, 0x1c,
0x5e, 0xab, 0xcb, 0x64,
0xf0, 0x07, 0xfe, 0x80,
0x00, 0x87, 0x0f, 0x00,
0xaa, 0xfa, 0x2b, 0xc0,
0x00, 0x00, 0xfe, 0xc0,
0x05, 0xd8, 0xff, 0x83,
0x0d, 0xfc, 0xd7, 0x5f,
0xd5, 0xbe, 0x0a, 0xde,
0x01, 0x04, 0x00, 0x06,
0x04, 0x84, 0x6f, 0x39,
0xe7, 0x1f, 0x37, 0x69,
0x72, 0x6e, 0x7f, 0xf0,
0xbf, 0x2f, 0x73, 0xf9,
0xcf, 0xff, 0xbb, 0xfd,
0x5a, 0xf5, 0x07, 0xf8,
0x37, 0x9d, 0x1d, 0xba,
0xa7, 0x95, 0xfc, 0xcc,
0x9f, 0x8a, 0xaa, 0xea,
0x27, 0xfc, 0xff, 0x00,
0x03, 0x1b, 0xf0, 0x00,
0xff, 0x00, 0xe0, 0x0f,
0x0e, 0x03, 0x00, 0x00,
0x0c, 0xc2, 0x80, 0x3e,
0x00, 0x00, 0x20, 0x80,
0xf5, 0x00, 0xf0, 0xb7,
0x7e, 0xc3, 0xdd, 0xf1,
0xf6, 0x5a, 0xcd, 0x3e,
0x9b, 0xc5, 0xe8, 0x72,
0xf8, 0xff, 0x55, 0xf5,
0x5f, 0x00, 0x57, 0xd5,
0xff, 0x0f, 0x00, 0x00,
0x00, 0x00, 0xf0, 0x5f,
0xf5, 0xff, 0x55, 0xf0,
0x55, 0xf0, 0x55, 0xff,
0xf0, 0x00, 0x00, 0x00,
0x02, 0xd0, 0x43, 0x80,
0x30, 0xdf, 0x41, 0xe6,
0xcc, 0x9d, 0x37, 0xdf,
0x53, 0xae, 0x0b, 0xa1,
0x07, 0x8c, 0xaf, 0xd6,
0xbf, 0xb9, 0xfe, 0xc3,
0x82, 0x40, 0x74, 0xce,
0xfb, 0x40, 0x00, 0x00,
0x80, 0xf6, 0x03, 0xc0,
0x2f, 0xfb, 0x1d, 0x77,
0xc3, 0xdb, 0xec, 0xb1,
0x3a, 0x7d, 0xfe, 0xae,
0xd1, 0xe6, 0x32, 0x59,
0x1c, 0x06, 0xff, 0xbf,
0xaa, 0x06, 0x38, 0x7e,
0x00, 0xa0, 0xaa, 0x5f,
0x01, 0x07, 0x00, 0xc8,
0x5f, 0xff, 0x4f, 0x55,
0x80, 0x0f, 0x0e, 0x10,
0x55, 0xf5, 0x17, 0x80,
0x00, 0x00, 0x00, 0xfe,
0x03, 0x84, 0xbf, 0x84,
0x07, 0x9b, 0xff, 0xf1,
0x00, 0x0f, 0xc4, 0xee,
0xfd, 0xfe, 0xdf, 0xd6,
0x34, 0xf5, 0x65, 0xef,
0x48, 0xde, 0xe9, 0x15,
0xc1, 0xb3, 0x22, 0xc3,
0x0f, 0x00, 0xe4, 0x02,
0x18, 0xf8, 0x01, 0xe6,
0x03, 0x80, 0xff, 0xf8,
0xe7, 0x7f, 0xc0, 0x03,
0x00, 0x00, 0x00, 0x0e,
0x50, 0x00, 0x00, 0x60,
0x7f, 0x00, 0xfc, 0xac,
0xdf, 0x70, 0x77, 0x5b,
0x8d, 0x66, 0xa7, 0xcd,
0xe4, 0xf1, 0xfa, 0x03,
0x00, 0xa8, 0xfa, 0x2a,
0x78, 0x00, 0xf8, 0x7f,
0x00, 0x78, 0x00, 0x00,
0x00, 0xa8, 0xfa, 0x2a,
0x78, 0x00, 0xf8, 0x7f,
0x00, 0x78, 0x00, 0x80,
0xbc, 0x3f, 0x9e, 0xfd,
0xff, 0xbf, 0xfb, 0x55,
0xfd, 0xdf, 0x42, 0xef,
0x33, 0x3b, 0x7c, 0xfe,
0xff, 0xf7, 0x60, 0xfe,
0x0f, 0xe0, 0x40, 0x33,
0xc0, 0xdf, 0x81, 0xff,
0x5b, 0xd5, 0x5f, 0x3c,
0x1f, 0xfe, 0x7f, 0x03,
0x7e, 0xe0, 0x7f, 0x01,
0x18, 0x00, 0xec, 0x0f,
0x80, 0xdf, 0x35, 0xfc,
0xed, 0x5e, 0xb7, 0xd5,
0xe8, 0xb3, 0x99, 0x9d,
0x2e, 0x93, 0xc7, 0xde,
0x7f, 0x00, 0x00, 0x7f,
0xc0, 0xaa, 0xfa, 0xd5,
0x7f, 0x40, 0x00, 0x00,
0x00, 0xff, 0x00, 0x00,
0x7f, 0xc0, 0xaa, 0xfa,
0xd5, 0x7f, 0x40, 0x00,
0x00, 0x00, 0xff, 0x01,
0x32, 0x66, 0xff, 0xdf,
0x83, 0xfd, 0xd5, 0xff,
0xd5, 0xff, 0xbf, 0xfa,
0x9f, 0xce, 0x7f, 0xbd,
0x87, 0xbf, 0xbb, 0x61,
0xae, 0x8f, 0xf8, 0x7f,
0xf4, 0x0f, 0xbf, 0x83,
0x1b, 0xee, 0x0f, 0xaf,
0x8a, 0xaf, 0xfa, 0xff,
0xff, 0x21, 0x00, 0x00,
0xbc, 0xe3, 0x0b, 0x00,
0x6e, 0x04, 0xc0, 0xff,
0x1a, 0xfe, 0x76, 0xc7,
0xdb, 0xeb, 0x74, 0x99,
0x7d, 0x36, 0x93, 0xd5,
0x61, 0x70, 0x07, 0x00,
0x00, 0x40, 0x55, 0xbf,
0xfe, 0x07, 0x58, 0x55,
0xbf, 0xfa, 0x5f, 0xfd,
0x7f, 0x55, 0xf8, 0x00,
0x00, 0x00, 0xa0, 0xfa,
0xaa, 0xfe, 0xf8, 0x55,
0xf0, 0xaa, 0xfe, 0xfd,
0x7f, 0x55, 0xfd, 0x0f,
0x00, 0x30, 0xb0, 0xe1,
0x00, 0xe1, 0x39, 0x7a,
0xe1, 0xfa, 0x2a, 0xba,
0xbf, 0x39, 0xa0, 0xf0,
0xdf, 0xc1, 0xfe, 0x07,
0x56, 0x7f, 0xff, 0x07,
0x14, 0x00, 0x38, 0xfb,
0x07, 0x84, 0x7f, 0x41,
0x00, 0x40, 0xec, 0xdf,
0x01, 0x00, 0x60, 0x70,
0x75, 0xe0, 0xdf, 0x03,
0xa1, 0xdf, 0x0f, 0xa0,
0x80, 0xff, 0xb7, 0x3f,
0x00, 0x7e, 0xd5, 0x6f,
0xb8, 0x9b, 0xad, 0x4e,
0x97, 0xcf, 0xe3, 0x30,
0x88, 0xff, 0x00, 0xfe,
0x00, 0x00, 0x00, 0x00,
0x80, 0xff, 0x00, 0xfe,
0x1f, 0x00, 0xfe, 0x0f,
0x00, 0x00, 0x00, 0x00,
0x80, 0x0f, 0xfe, 0x1f,
0x00, 0xfe, 0x9f, 0x46,
0xde, 0x01, 0xba, 0x3b,
0x7f, 0xe0, 0xfd, 0x1f,
0xc1, 0xc2, 0xd3, 0xfd,
0xfe, 0x0f, 0xf6, 0x7e,
0x27, 0xf7, 0x0f, 0x80,
0x7f, 0x02, 0x08, 0x04,
0x61, 0xe0, 0x05, 0xac,
0xff, 0x01, 0xc0, 0x3e,
0x00, 0xfc, 0x45, 0xbf,
0xdd, 0xf0, 0x03, 0x3c,
0x00, 0x00, 0xc0, 0x3f,
0x00, 0x00, 0x00, 0x00,
0xd8, 0x17, 0x00, 0xbf,
0xeb, 0xb7, 0x9b, 0xbd,
0x3e, 0xa3, 0xbf, 0xed,
0xb4, 0x79, 0x1c, 0x56,
0x97, 0x49, 0x00, 0x00,
0x00, 0x00, 0xf0, 0x0f,
0x00, 0x00, 0x00, 0xe0,
0xc7, 0xaf, 0x7e, 0xb8,
0xdf, 0xdf, 0xf3, 0x1e,
0xfa, 0xfe, 0x1f, 0xf8,
0xfe, 0xee, 0xff, 0xff,
0x85, 0x5f, 0x27, 0xff,
0xf1, 0xb8, 0xe2, 0x9f,
0xfd, 0xc0, 0xeb, 0x80,
0x77, 0x07, 0x30, 0xf8,
0x7b, 0x03, 0x7d, 0xf8,
0x2f, 0x7c, 0xe0, 0xc0,
0x7c, 0xf0, 0x9c, 0x08,
0xc0, 0x5f, 0xf6, 0xdb,
0x0d, 0x6f, 0xa3, 0xcf,
0xe6, 0x75, 0x19, 0xfc,
0x65, 0xab, 0xd3, 0xe4,
0xb1, 0x38, 0xec, 0x01,
0x00, 0xff, 0x00, 0x00,
0x3f, 0x30, 0xc0, 0xfc,
0x03, 0x3f, 0x00, 0x00,
0x3f, 0x30, 0xc0, 0xf0,
0x03, 0x00, 0xff, 0xfc,
0x03, 0x00, 0x00, 0x98,
0x0e, 0x10, 0xe6, 0xe9,
0x56, 0xff, 0xe7, 0xe1,
0x41, 0xe2, 0x85, 0x1e,
0x9e, 0x60, 0x57, 0xff,
0xfb, 0xf9, 0xbf, 0x83,
0xab, 0x87, 0xa5, 0x06,
0x0f, 0x3d, 0x27, 0xf4,
0x6d, 0xfe, 0x04, 0xc0,
0xf6, 0x09, 0x30, 0x02,
0x82, 0x83, 0xfc, 0xe0,
0x80, 0x07, 0xfa, 0xff,
0x09, 0x38, 0x00, 0x00,
0x00, 0x14, 0xb0, 0x0f,
0x00, 0x7e, 0xd2, 0x6f,
0x78, 0xdc, 0xbd, 0x1a,
0xe8, 0xab, 0xea, 0xef,
0xff, 0x00, 0xfd, 0x7f,
0x55, 0xfd, 0x0f, 0x00,
0x00, 0x00, 0x00, 0xf6,
0x0b, 0xc4, 0x0f, 0xfb,
0x0d, 0x77, 0xc7, 0xdb,
0x69, 0xb5, 0x98, 0xbd,
0x46, 0x97, 0xc3, 0x67,
0x33, 0x79, 0x04, 0x78,
0x78, 0x00, 0x00, 0xf8,
0x7f, 0x00, 0xf8, 0x7f,
0x00, 0x00, 0x78, 0x00,
0x78, 0x00, 0x00, 0x00,
0x80, 0x7f, 0x04, 0x08,
0x00, 0xdc, 0xff, 0xfb,
0xff, 0xfb, 0x3f, 0xec,
0x6f, 0x80, 0x80, 0x80,
0xf7, 0xf9, 0xa7, 0x8d,
0x0f, 0x50, 0x1c, 0x0d,
0x01, 0xec, 0x37, 0xc4,
0x7d, 0x07, 0x0c, 0xf0,
0xc1, 0x0d, 0xff, 0xff,
0x01, 0x8c, 0x0f, 0x30,
0x04, 0xbc, 0x00, 0xef,
0x01, 0x80, 0xd7, 0x02,
0x02, 0x00, 0x20, 0x00,
0x06, 0xf8, 0x7f, 0x00,
0x18, 0x60, 0xfe, 0x01,
0xf8, 0x01, 0x00, 0x00,
0x00, 0x40, 0x00, 0x00,
0x20, 0x10, 0x80, 0xf9,
0x3f, 0x80, 0x0f, 0x00,
0xee, 0xe1, 0xff, 0x0f,
0x01, 0x00, 0x0d, 0x98,
0x03, 0x80, 0x41, 0x5c,
0x00, 0x10, 0x2d, 0xe0,
0x77, 0xeb, 0xe7, 0x2d,
0xff, 0xc1, 0xb1, 0xf9,
0xa2, 0xcf, 0x8b, 0xff,
0x93, 0x87, 0xbd, 0x1f,
0x2f, 0x8a, 0x0f, 0x36,
0xf4, 0xbf, 0xb7, 0x47,
0xf8, 0x83, 0x7d, 0xb2,
0x0f, 0x00, 0x7e, 0xd3,
0xef, 0x38, 0xdc, 0xcd,
0x16, 0x6f, 0xb0, 0xfb,
0x4f, 0x55, 0x5f, 0x05,
0x0f, 0xff, 0x00, 0x00,
0x5f, 0xff, 0x5f, 0x55,
0x00, 0x00, 0x00, 0xbe,
0x02, 0xe0, 0x0f, 0xfb,
0x0d, 0x77, 0x9f, 0xd5,
0xe6, 0x72, 0x3b, 0x4d,
0x8e, 0xaf, 0xd1, 0xe3,
0x30, 0x98, 0x03, 0x00,
0x00, 0xe0, 0x9f, 0x7f,
0x00, 0xe0, 0x7f, 0x00,
0x7e, 0x00, 0x00, 0x00,
0x00, 0xb0, 0x19, 0x20,
0xbc, 0xff, 0x02, 0x02,
0x40, 0x00, 0x16, 0x28,
0x00, 0xc0, 0xc1, 0xc8,
0x07, 0x28, 0xde, 0x3f,
0xe3, 0x4f, 0x00, 0x2d,
0xbc, 0xb9, 0xf4, 0xde,
0xfd, 0x1c, 0x7c, 0xbc,
0xf6, 0x80, 0xc7, 0x3d,
0xf9, 0x01, 0x15, 0x80,
0x25, 0x05, 0xff, 0xdf,
0x3e, 0x00, 0xf8, 0x4d,
0xbf, 0xe1, 0xee, 0x76,
0xba, 0x3c, 0xde, 0x0e,
0xde, 0x81, 0x3d, 0x00,
0xac, 0xaa, 0xbf, 0x00,
0x04, 0x7c, 0xf0, 0x07,
0x00, 0xfb, 0x03, 0xe0,
0x7f, 0x0d, 0x7f, 0xbb,
0xd1, 0xed, 0xf4, 0xd9,
0x5c, 0x06, 0xb3, 0xd7,
0x6a, 0xf2, 0x58, 0x84,
0x7f, 0x80, 0x7f, 0x00,
0x80, 0x7f, 0x80, 0xaa,
0xfa, 0xeb, 0x7f, 0x00,
0x00, 0x00, 0x80, 0x7f,
0x00, 0x80, 0x7f, 0xc0,
0x55, 0xf5, 0xab, 0xff,
0x80, 0x00, 0x80, 0x02,
0xe3, 0xbf, 0xfa, 0xff,
0xdf, 0xb7, 0xf1, 0xe7,
0x6f, 0xf8, 0xe3, 0xff,
0xdb, 0xf3, 0xea, 0xf9,
0xff, 0xea, 0x7f, 0xf7,
0xbf, 0xa0, 0x3f, 0xed,
0x03, 0xdc, 0xe1, 0xfd,
0xfe, 0xfb, 0xef, 0xf7,
0xfe, 0x03, 0x06, 0x18,
0xfe, 0x0a, 0x78, 0x55,
0x7f, 0x7e, 0x00, 0x00,
0x00, 0xfb, 0x00, 0xe0,
0x27, 0x0d, 0x77, 0xbf,
0xe3, 0x2d, 0x00, 0x00,
0x00, 0x00, 0xd8, 0xff,
0x80, 0xaa, 0xfa, 0xeb,
0x7f, 0x80, 0x07, 0x20,
0xfb, 0x01, 0xe2, 0x67,
0x0d, 0x77, 0xbf, 0xe3,
0x6b, 0x74, 0x9b, 0x9d,
0x3e, 0x9b, 0xcb, 0xe4,
0xef, 0x03, 0x60, 0x00,
0xf8, 0x03, 0x00, 0x00,
0x00, 0x01, 0x06, 0x00,
0xfc, 0x00, 0xc0, 0x3f,
0xfc, 0x0f, 0x00, 0xf0,
0xff, 0x08, 0xf0, 0x7f,
0x00, 0x24, 0x80, 0x06,
0xa3, 0x01, 0x90, 0x71,
0x3f, 0x42, 0xfd, 0x3e,
0xe1, 0x25, 0x9c, 0x8b,
0x09, 0x00, 0xfe, 0xdb,
0x0f, 0x00, 0xbf, 0xe9,
0x37, 0xdc, 0x1d, 0x6f,
0xb3, 0xc5, 0xfd, 0xaf,
0x6a, 0x70, 0xf8, 0xff,
0x03, 0xc0, 0xff, 0x03,
0x40, 0x55, 0xfd, 0x0f,
0xb0, 0xaa, 0xfa, 0xab,
0xff, 0xd5, 0xff, 0x50,
0x05, 0xfe, 0x80, 0xff,
0x00, 0x00, 0x00, 0x00,
0xd8, 0x00, 0xb6, 0x2f,
0x00, 0x7e, 0xd6, 0x6f,
0xb8, 0x3a, 0x3d, 0x76,
0xb7, 0xd9, 0xeb, 0xb3,
0xb9, 0x1c, 0xfe, 0x3f,
0x00, 0xfc, 0x3f, 0x00,
0xff, 0x0f, 0x00, 0x00,
0x00, 0x00, 0xc0, 0x0f,
0xfc, 0x3f, 0x80, 0xf8,
0x77, 0x20, 0x7f, 0xef,
0xff, 0xc7, 0xc0, 0x10,
0x70, 0x0f, 0xfc, 0x1d,
0x73, 0xfb, 0x3b, 0x9d,
0x7e, 0xef, 0x5f, 0xf7,
0xf7, 0xf7, 0xff, 0x00,
0xf0, 0x03, 0x00, 0x00,
0x00, 0x00, 0x00, 0x58,
0x12, 0x00, 0xbf, 0xeb,
0xb7, 0x1b, 0xae, 0x1e,
0xb3, 0xd7, 0xe9, 0x32,
0xb9, 0x6d, 0x0e, 0x7f,
0x3b, 0x55, 0xfd, 0x55,
0xf5, 0x57, 0x85, 0x27,
0x00, 0x00, 0x00, 0xfe,
0x80, 0x00, 0x00, 0x00,
0x00, 0x00, 0x00, 0x07,
0x38, 0xff, 0x0f, 0x6e,
0x80, 0x11, 0x04, 0x00,
0x00, 0xaf, 0x00, 0xc2,
0x5d, 0xf4, 0x07, 0xe6,
0x81, 0xe5, 0xec, 0x09,
0x48, 0xfb, 0x1f, 0x7a,
0xe6, 0x9a, 0x32, 0xdc,
0xcd, 0xf4, 0x01, 0xe0,
0x31, 0xfb, 0x00, 0xe0,
0x37, 0xfd, 0x76, 0xaf,
0xd9, 0xe7, 0x2f, 0xd7,
0xfc, 0xda, 0x09, 0xf9,
0x01, 0x00, 0x00, 0x00,
0xe0, 0x1f, 0x00, 0x00,
0xc0, 0x94, 0x00, 0xf8,
0x5f, 0xbf, 0xdd, 0x70,
0x76, 0x9b, 0xbc, 0x4e,
0x9f, 0xd1, 0xe6, 0xb1,
0x38, 0x0c, 0xf6, 0x00,
0x00, 0x00, 0xf0, 0x0f,
0x00, 0xb0, 0xe7, 0x07,
0x01, 0xaa, 0xfa, 0x2b,
0xc0, 0x00, 0x00, 0xfe,
0x60, 0x83, 0xe0, 0xff,
0x00, 0x0e, 0xa8, 0x57,
0x95, 0x0f, 0x06, 0x01,
0x80, 0xd3, 0x00, 0x21,
0x1f, 0xde, 0xce, 0xfb,
0x63, 0x32, 0xaf, 0x9e,
0x3e, 0x7b, 0xb5, 0x73,
0x6e, 0xde, 0x73, 0xc4,
0x8b, 0x6d, 0x9f, 0x4d,
0xae, 0x88, 0x6c, 0xde,
0x17, 0x67, 0xa0, 0x07,
0x00, 0x10, 0x00, 0x08,
0x80, 0xff, 0x00, 0x10,
0xe0, 0x1e, 0x00, 0x1f,
0x00, 0x3c, 0x09, 0x80,
0x3f, 0xf6, 0x1b, 0xee,
0x8e, 0xb3, 0xd5, 0xe3,
0xf6, 0x3a, 0x8d, 0x36,
0x87, 0xc1, 0x67, 0xf1,
0x77, 0x7b, 0x00, 0x00,
0xf8, 0xfa, 0xff, 0xaa,
0xfa, 0x2f, 0x80, 0xab,
0xea, 0xff, 0x47, 0x80,
0x00, 0x00, 0x20, 0x81,
0xbf, 0xfa, 0xf7, 0x2a,
0xbc, 0x17, 0xfe, 0xaa,
0xfa, 0xfb, 0x27, 0x00,
0x1c, 0x0c, 0x80, 0x02,
0x80, 0xd5, 0x00, 0xe1,
0xbf, 0x01, 0xbe, 0x1b,
0xfd, 0xff, 0xf6, 0xab,
0x4e, 0x5f, 0x75, 0xb6,
0xda, 0xd9, 0xaf, 0x03,
0x1a, 0xbe, 0xf5, 0xf8,
0x6b, 0xfd, 0x42, 0xe6,
0xc8, 0x8a, 0xef, 0xee,
0x1f, 0xc4, 0xf4, 0x0f,
0xd0, 0x00, 0x03, 0xfc,
0x3f, 0x00, 0xfc, 0x0f,
0x00, 0x00, 0x3f, 0x00,
0x0c, 0x00, 0xfb, 0x03,
0xe0, 0x7f, 0xfd, 0x8e,
0xbb, 0xe1, 0xe5, 0x71,
0x9b, 0xbd, 0x46, 0x9f,
0xc1, 0x6a, 0x33, 0x59,
0x14, 0x80, 0x00, 0xdc,
0xff, 0x57, 0xd5, 0x00,
0xc7, 0x0f, 0x00, 0x54,
0xf5, 0x2b, 0xe0, 0x00,
0x10, 0xf8, 0xeb, 0xef,
0xab, 0x0d, 0xcf, 0xff,
0xcf, 0x7f, 0xc0, 0xe0,
0xf3, 0xbc, 0xea, 0xbf,
0x5e, 0xdf, 0xf8, 0x7f,
0xdf, 0x9f, 0xff, 0x3f,
0xfc, 0xdf, 0x7d, 0xff,
0xfd, 0x63, 0xdf, 0xc6,
0x7f, 0xf5, 0xbf, 0x55,
0x0d, 0xf8, 0xf0, 0x7c,
0xf0, 0xe0, 0xff, 0x7b,
0x55, 0xfd, 0xbe, 0x73,
0xc7, 0xbb, 0xff, 0x0f,
0xf8, 0x3f, 0xe0, 0xfd,
0x7f, 0x55, 0x3d, 0x40,
0xfd, 0x03, 0x00, 0x74,
0xfd, 0xaa, 0xf8, 0xf6,
0x07, 0xc0, 0xef, 0xfa,
0x0d, 0x77, 0xab, 0xcf,
0x66, 0x72, 0x9b, 0x8d,
0x2e, 0xaf, 0xd3, 0x61,
0x10, 0x00, 0x00, 0x00,
0x00, 0xa8, 0xea, 0x57,
0xc0, 0x01, 0x98, 0xff,
0x07, 0x80, 0x01, 0x00,
0x6e, 0x3e, 0xff, 0xf7,
0xfe, 0x54, 0xf7, 0xff,
0xde, 0xbf, 0x82, 0x3f,
0xfe, 0xf8, 0x9b, 0x67,
0xef, 0xff, 0x01, 0xe0,
0x07, 0xf6, 0x8f, 0xfd,
0x0d, 0xf8, 0x1f, 0xa0,
0x57, 0xd5, 0xdf, 0x08,
0x7e, 0x03, 0xef, 0xff,
0x39, 0xf0, 0xff, 0x0f,
0xf0, 0xbf, 0xdf, 0x1f,
0x00, 0x00, 0xf8, 0xab,
0xea, 0x17, 0xc0, 0x00,
0xc1, 0xfe, 0x00, 0xf8,
0x59, 0xc3, 0xdf, 0xee,
0x36, 0x3b, 0x7d, 0x36,
0x97, 0xd7, 0x68, 0xb2,
0x07, 0x00, 0xf8, 0x0f,
0xe0, 0x0f, 0x00, 0xf8,
0x0f, 0x50, 0x55, 0x7f,
0xfd, 0x0b, 0x00, 0x00,
0x00, 0xe8, 0xaf, 0xf1,
0xef, 0x97, 0x5f, 0xee,
0xdf, 0x73, 0xbf, 0xf4,
0x5f, 0x15, 0xff, 0xdf,
0x5f, 0xf1, 0x77, 0x7b,
0x80, 0xc7, 0xe3, 0xc3,
0x46, 0xf7, 0xff, 0xdf,
0xfb, 0xe3, 0x33, 0xc0,
0xf8, 0xeb, 0xf6, 0xd5,
0x70, 0x55, 0xff, 0xf9,
0x2f, 0x02, 0x20, 0xe0,
0x0e, 0xf4, 0x7f, 0x00,
0x80, 0x7f, 0x80, 0xaa,
0xfa, 0xeb, 0x7f, 0x00,
0xfb, 0x07, 0xe0, 0x7f,
0x0d, 0x7f, 0xbb, 0xe3,
0x6b, 0x36, 0x5a, 0xac,
0x26, 0xb7, 0xcb, 0xe7,
0x31, 0xf8, 0x03, 0x00,
0x00, 0x00, 0x00, 0x00,
0xa8, 0xaa, 0xbf, 0xfe,
0x07, 0xa8, 0xaa, 0xbf,
0xfe, 0xaf, 0xfa, 0xff,
0x2a, 0x78, 0x70, 0x38,
0x80, 0xff, 0xc3, 0xdc,
0x59, 0xf5, 0x57, 0xfb,
0xff, 0xfd, 0x1e, 0xfe,
0xfe, 0xff, 0xbf, 0x6a,
0xfe, 0xf6, 0xff, 0xd7,
0x6f, 0xab, 0xde, 0xff,
0x0f, 0xfb, 0x3f, 0x9e,
0x03, 0xde, 0x0f, 0x6c,
0x03, 0xda, 0x7f, 0xf5,
0xbd, 0xfe, 0xff, 0xf1,
0xab, 0xe0, 0xad, 0xdf,
0xfb, 0xff, 0xaf, 0xea,
0xff, 0x29, 0x70, 0x00,
0x00, 0x00, 0xaa, 0xfa,
0xd5, 0x7f, 0xe0, 0xaa,
0xf8, 0xd5, 0xff, 0xea,
0xff, 0xab, 0xfa, 0xfe,
0x0e, 0x00, 0x00, 0xfc,
0x07, 0xf0, 0xff, 0x00,
0xf0, 0xfe, 0x08, 0x00,
0x00, 0xc0, 0xfe, 0xf9,
0xff, 0xf7, 0xc1, 0x6f,
0xfc, 0x0f, 0xdc, 0xfe,
0x0f, 0xec, 0xbf, 0xc1,
0xef, 0xfd, 0xee, 0xfb,
0x0f, 0x78, 0x0e, 0x98,
0xbb, 0xff, 0x6f, 0x03,
0x0f, 0xc0, 0x7f, 0xff,
0x07, 0xfe, 0x1b, 0x3f,
0xdf, 0x0f, 0x81, 0xdf,
0x7e, 0xe7, 0x00, 0x31,
0x01, 0x06, 0x00, 0xfe,
0x07, 0xe0, 0xff, 0x01,
0x20, 0x00, 0xd8, 0x1f,
0x00, 0xff, 0xeb, 0xb7,
0x1b, 0x6e, 0x6e, 0xb3,
0xc9, 0xea, 0xf4, 0x1a,
0x7d, 0x1e, 0x8b, 0xbf,
0x1e, 0x80, 0xae, 0xaa,
0xbf, 0xaa, 0xfe, 0x0a,
0x30, 0x00, 0x00, 0x80,
0x7f, 0x00, 0x00, 0x00,
0x00, 0xc0, 0xc3, 0xff,
0xbf, 0xdd, 0x01, 0x06,
0xf8, 0xe7, 0x7f, 0x77,
0xf6, 0x0f, 0x18, 0xff,
0xe0, 0xf7, 0x01, 0xeb,
0x7c, 0xff, 0x03, 0xfe,
0xff, 0x07, 0x3c, 0x7e,
0xf8, 0x6c, 0xe0, 0xfe,
0x7f, 0x80, 0x1f, 0xf1,
0xd9, 0x83, 0xde, 0x01,
0x4e, 0x00, 0x00, 0x00,
0xe0, 0x61, 0x00, 0xb0,
0x3f, 0x00, 0xfe, 0xd6,
0x6f, 0x37, 0x9c, 0x5d,
0x5e, 0x93, 0xd3, 0xe8,
0x70, 0xfb, 0x6c, 0x1e,
0x07, 0x00, 0x00, 0x00,
0x60, 0x7e, 0x00, 0xe0,
0x1f, 0x00, 0xa0, 0x7a,
0x55, 0x7c, 0x00, 0x00,
0xac, 0xfd, 0x3f, 0x98,
0x1f, 0xfb, 0x7a, 0x6f,
0xff, 0xb9, 0x7f, 0x9f,
0xfb, 0xc0, 0xfb, 0xbe,
0x7f, 0xab, 0xea, 0x0f,
0x9d, 0xfe, 0xe0, 0xff,
0x33, 0x7f, 0x3f, 0x78,
0xfd, 0xff, 0x01, 0xfc,
0x83, 0xf6, 0xdf, 0xdf,
0xc1, 0x3f, 0x78, 0xa1,
0xeb, 0xae, 0x6e, 0x6f,
0xf0, 0xff, 0x01, 0x00,
0xfe, 0x03, 0x04, 0x78,
0x78, 0x00, 0xb0, 0x16,
0x00, 0x7e, 0xd9, 0x6f,
0x78, 0xdc, 0x7d, 0x26,
0xab, 0xcd, 0x6d, 0x76,
0x7a, 0xbc, 0x46, 0x8b,
0xbd, 0xe5, 0x30, 0x88,
0x7f, 0x00, 0x00, 0x80,
0xaa, 0x5f, 0xf5, 0x0f,
0xfe, 0x1f, 0x55, 0xff,
0x5f, 0x05, 0x3e, 0x00,
0x01, 0x00, 0x00, 0x78,
0x2c, 0x10, 0xde, 0x0d,
0x1c, 0xe8, 0x0f, 0x90,
0xfb, 0x2f, 0xbb, 0xdf,
0x41, 0x80, 0xef, 0xdf,
0x6f, 0xff, 0x01, 0xf6,
0xf6, 0xe9, 0xf8, 0x56,
0x03, 0x71, 0xb6, 0x21,
0xfe, 0x1f, 0x40, 0x81,
0x07, 0x2e, 0x06, 0xe8,
0xa7, 0xe0, 0xfe, 0xc1,
0x20, 0x5f, 0x14, 0xf0,
0x0f, 0x04, 0xd2, 0x08,
0x0c, 0x7e, 0x40, 0xa0,
0x03, 0x04, 0x00, 0xfc,
0x01, 0x00, 0xff, 0x81,
0xc3, 0xff, 0x8f, 0x00,
0x8e, 0x00, 0x00, 0x04,
0x00, 0x00, 0x00, 0x80,
0xff, 0x00, 0xff, 0x18,
0x70, 0x00, 0x80, 0x1f,
0x00, 0x00, 0x1c, 0xc0,
0xfe, 0x01, 0x00, 0x0b,
0x00, 0x3f, 0xbf, 0x0e,
0x50, 0x6e, 0xff, 0xeb,
0xf8, 0x0f, 0x90, 0x95,
0x47, 0x0f, 0x10, 0xbb,
0xbe, 0x97, 0x6c, 0x97,
0x3c, 0x23, 0xb8, 0x7f,
0x7a, 0xa0, 0x25, 0x3c,
0x80, 0x09, 0x00, 0x8c,
0xe3, 0xff, 0x07, 0x80,
0x41, 0xe0, 0x01, 0x00,
0x00, 0xde, 0xfe, 0x00,
0xf8, 0x63, 0xbf, 0xdd,
0xf0, 0xb8, 0x9a, 0xbd,
0x36, 0x97, 0xdb, 0xe8,
0x73, 0x9a, 0x3c, 0x16,
0x87, 0xc1, 0x47, 0x00,
0x00, 0x00, 0x55, 0x5f,
0x05, 0x0f, 0xff, 0x55,
0xff, 0x50, 0x05, 0xff,
0x00, 0x00, 0x00, 0x00,
0x40, 0x00, 0xff, 0x0f,
0xfc, 0x81, 0x87, 0x1f,
0x3e, 0xac, 0xfa, 0x55,
0xff, 0xbf, 0xaa, 0x7e,
0x05, 0x18, 0xfb, 0xff,
0x07, 0xf0, 0xf7, 0xf3,
0xdf, 0xf7, 0x39, 0xf8,
0xef, 0xef, 0x7f, 0x5e,
0x7f, 0x7c, 0xff, 0xff,
0xfe, 0xf7, 0x7f, 0xfc,
0x9e, 0xf5, 0xfa, 0xae,
0xea, 0xff, 0xd5, 0xf7,
0xf7, 0xf1, 0xff, 0xff,
0xbb, 0x3f, 0xe0, 0x0c,
0xe0, 0xe1, 0x01, 0x00,
0x00, 0xec, 0x0f, 0x80,
0x9f, 0xf5, 0x1b, 0xee,
0x66, 0xaf, 0xcf, 0x6d,
0x35, 0xda, 0x5c, 0x1e,
0x7f, 0xe0, 0x0f, 0xf8,
0x0f, 0x00, 0x00, 0x00,
0xa0, 0xab, 0xea, 0x0f,
0x00, 0xe0, 0x0f, 0xf8,
0x0f, 0x00, 0x00, 0xe0,
0x1f, 0x00, 0xa0, 0xfa,
0xea, 0x70, 0xb1, 0x3f,
0xe0, 0xff, 0x01, 0xe0,
0x77, 0x80, 0x39, 0xf6,
0xff, 0x7b, 0x34, 0xf8,
0xfe, 0xff, 0xe1, 0xbe,
0xaf, 0xae, 0x37, 0x18,
0xef, 0xf7, 0x67, 0xa0,
0xff, 0x0d, 0xfe, 0xff,
0xe3, 0xfe, 0x00, 0xf1,
0x0f, 0x00, 0x50, 0xf5,
0x55, 0xf0, 0xe6, 0x03,
0xe0, 0xef, 0x1a, 0xfe,
0x76, 0xc7, 0xc9, 0xe8,
0xf3, 0xb8, 0xcd, 0x56,
0xa7, 0xcd, 0x60, 0xef,
0x07, 0x02, 0x00, 0x00,
0x7e, 0x60, 0x80, 0xe1,
0xff, 0x81, 0xff, 0x7f,
0x06, 0x00, 0x00, 0x00,
0x00, 0x00, 0x00, 0xfe,
0x03, 0xbe, 0x03, 0x01,
0xe1, 0xc0, 0xb6, 0xbf,
0x03, 0xf0, 0xff, 0x01,
0x20, 0xe0, 0xf1, 0x69,
0xff, 0x7f, 0xb8, 0xeb,
0x87, 0x40, 0x36, 0xa0,
0xed, 0xaf, 0x03, 0xe2,
0xfe, 0x50, 0x15, 0xa2,
0xfb, 0x87, 0xb5, 0xb7,
0x82, 0xcc, 0x73, 0xc0,
0x44, 0x07, 0x80, 0xef,
0x01, 0x20, 0x00, 0xfc,
0x0d, 0x0c, 0x00, 0x00,
0x68, 0x7f, 0x00, 0xfc,
0xaf, 0xdf, 0x70, 0x77,
0xbc, 0xbd, 0x46, 0xb3,
0xd5, 0x69, 0x33, 0xf9,
0x5c, 0x1e, 0x7b, 0x40,
0xf5, 0xaa, 0xfa, 0xff,
0xbf, 0xaa, 0x1e, 0xa0,
0xfe, 0x1f, 0x00, 0xfe,
0x1f, 0x00, 0x4a, 0xf5,
0x17, 0xc0, 0x55, 0xf5,
0xd7, 0xff, 0x55, 0xff,
0x40, 0x85, 0xff, 0x80,
0xf7, 0x6f, 0x00, 0x10,
0x08, 0x00, 0x00, 0x0f,
0xef, 0x8f, 0x80, 0xf7,
0xf7, 0xc1, 0xee, 0x73,
0xdf, 0xff, 0x7f, 0x3f,
0x09, 0x6c, 0xce, 0xff,
0x3f, 0xf6, 0xbf, 0x7f,
0x7d, 0xc3, 0xe7, 0xff,
0x07, 0xbf, 0xff, 0xdf,
0xb3, 0xbf, 0x7f, 0xf3,
0xa7, 0xff, 0xff, 0xfb,
0x3d, 0xfc, 0x3f, 0x00,
0x1c, 0x0c, 0x06, 0x00,
0xfb, 0x03, 0xe0, 0x7f,
0xfd, 0x86, 0xbb, 0xcd,
0xed, 0x35, 0xfa, 0x4c,
0x1e, 0xb3, 0xd5, 0xe2,
0x30, 0xf8, 0x03, 0x00,
0xf8, 0x07, 0xf8, 0x7f,
0x00, 0xf8, 0x7f, 0x00,
0x00, 0x00, 0x00, 0x00,
0x78, 0xf8, 0x7f, 0x00,
0x00, 0x00, 0x04, 0x08,
0xb0, 0x57, 0xd5, 0xdf,
0x00, 0x02, 0x00, 0xe0,
0x5e, 0x5c, 0xb7, 0x0f,
0xd8, 0xff, 0xe1, 0xef,
0xfe, 0x7b, 0xbf, 0xa7,
0xdf, 0xfb, 0xff, 0x5e,
0xaf, 0xfe, 0xf7, 0xdb,
0xff, 0x3d, 0xb8, 0xff,
0xef, 0xff, 0xff, 0xff,
0xfe, 0x7e, 0xe0, 0x1b,
0xc0, 0x0c, 0x00, 0x04,
0x10, 0x00, 0x3c, 0x0a,
0x80, 0xff, 0xf5, 0xdb,
0x0d, 0x6f, 0xb3, 0xd3,
0xe8, 0x33, 0x59, 0x5d,
0x06, 0x9b, 0xc5, 0x61,
0xcf, 0x3f, 0x00, 0x00,
0x00, 0x60, 0x02, 0x00,
0x00, 0x00, 0x7e, 0x60,
0x00, 0x00, 0x00, 0x00,
0xe6, 0x07, 0x00, 0xfe,
0x03, 0x01, 0x5c, 0x5f,
0x55, 0xff, 0x01, 0x1c,
0x00, 0xac, 0x05, 0x08,
0x83, 0xfb, 0xa6, 0xc1,
0x15, 0x3b, 0x7c, 0x2f,
0xa3, 0xef, 0xec, 0x9b,
0x7a, 0x6f, 0xce, 0x8e,
0xdf, 0xe1, 0xf6, 0x7b,
0xf1, 0x4e, 0xe0, 0x98,
0x07, 0x0a, 0x40, 0x10,
0x00, 0x10, 0x00, 0x00,
0xf0, 0x0f, 0xf0, 0x3b,
0x0c, 0x80, 0xbf, 0xeb,
0x37, 0xdc, 0x1d, 0x1f,
0x9f, 0xd1, 0x64, 0x73,
0xb8, 0xad, 0x4e, 0x8b,
0xc1, 0x01, 0x9e, 0x1f,
0x00, 0x00, 0x00, 0xf8,
0xff, 0x01, 0xfe, 0x1f,
0xf8, 0xf9, 0x07, 0x00,
0x00, 0x00, 0xc0, 0x9c,
0x80, 0xf0, 0x0f, 0x00,
0xfc, 0xbf, 0xc0, 0xff,
0x1f, 0x00, 0x06, 0x00,
0xc7, 0xf0, 0x0f, 0x01,
0x00, 0x01, 0xd0, 0x01,
0x80, 0x9b, 0x07, 0x05,
0x70, 0xb8, 0xe5, 0xef,
0xbd, 0x75, 0xf3, 0x8f,
0x0c, 0x77, 0xc1, 0x7e,
0x78, 0xfb, 0xc5, 0xce,
0x0e, 0x04, 0xa0, 0x28,
0x85, 0x1f, 0x00, 0xf0,
0x00, 0x30, 0xfc, 0x3f,
0x00, 0xfc, 0x3f, 0x00,
0x00, 0x7c, 0x8b, 0x01,
0xe0, 0x7f, 0xfd, 0x86,
0xc7, 0xdd, 0xed, 0x31,
0x7b, 0x1d, 0x4e, 0x9f,
0xc9, 0x5f, 0xb4, 0xb9,
0x3c, 0x03, 0x0c, 0x03,
0x01, 0x00, 0x55, 0xfd,
0xea, 0x3f, 0xf0, 0xff,
0x54, 0xf5, 0xff, 0x15,
0x30, 0x00, 0x00, 0x00,
0x00, 0x78, 0x0b, 0x10,
0xa0, 0x41, 0xd7, 0xb5,
0xff, 0x8b, 0x7d, 0x02,
0xa4, 0xcf, 0x5e, 0x83,
0x01, 0x3f, 0x08, 0x17,
0xbf, 0x9f, 0x76, 0x1f,
0x5c, 0xee, 0x77, 0xb0,
0x7f, 0x77, 0xc3, 0x77,
0xb6, 0x28, 0x2c, 0x5c,
0x0d, 0xff, 0x80, 0x1f,
0x0a, 0x60, 0x04, 0x80,
0x53, 0x01, 0xf0, 0xbf,
0x7e, 0xbb, 0xe1, 0xf1,
0xb6, 0x99, 0xad, 0x3e,
0x97, 0xbd, 0x69, 0xf2,
0x17, 0x1d, 0xc2, 0x3f,
0x00, 0xc0, 0x7f, 0x80,
0xff, 0x3e, 0x7c, 0x54,
0xf5, 0x57, 0x80, 0xfd,
0xbf, 0xaa, 0x1f, 0xa0,
0xfc, 0x0f, 0x60, 0x00,
0xc0, 0x83, 0xa3, 0xaa,
0x5f, 0x01, 0xf7, 0x7f,
0x55, 0xfd, 0x60, 0xe5,
0xdf, 0xfd, 0xf1, 0x01,
0xe0, 0x01, 0xfe, 0x03,
0x1e, 0x04, 0x30, 0x15,
0x20, 0x3c, 0xe2, 0x3d,
0x71, 0x6f, 0x20, 0x41,
0x8e, 0xb1, 0xe1, 0xcf,
0xb1, 0x9d, 0x7f, 0x10,
0xfe, 0x9f, 0x81, 0x0c,
0x3b, 0xc8, 0x13, 0x2c,
0x82, 0x03, 0xe0, 0xc0,
0x34, 0x5c, 0x47, 0x0f,
0x02, 0x0e, 0x38, 0xff,
0xd8, 0x27, 0x00, 0xbf,
0xeb, 0x37, 0xdc, 0xdd,
0x4e, 0xb3, 0xcd, 0xe8,
0x73, 0xd8, 0xbb, 0x56,
0x93, 0x47, 0x00, 0xf0,
0xfe, 0xff, 0xfe, 0x1f,
0x00, 0xfe, 0x9e, 0xff,
0x07, 0x30, 0x40, 0x48,
0x55, 0xbf, 0x02, 0x0e,
0xc0, 0xfc, 0x3f, 0x00,
0x0c, 0x00, 0x30, 0x90,
0x7d, 0x7d, 0x57, 0xfd,
0x77, 0x00, 0x00, 0x7f,
0xc0, 0x7f, 0x00, 0xc0,
0x8c, 0xd2, 0xbb, 0xcf,
0x3f, 0x44, 0x9d, 0xd7,
0x76, 0xfd, 0xfe, 0xef,
0xa2, 0x7f, 0xde, 0xef,
0xef, 0xfb, 0x10, 0xfe,
0x1f, 0xc7, 0xdf, 0xfb,
0xe1, 0x6e, 0xf8, 0xe0,
0x1f, 0x00, 0xe0, 0x7f,
0xa9, 0xfc, 0x06, 0xf8,
0xff, 0x0b, 0xc0, 0xff,
0x83, 0xc7, 0x07, 0x00,
0xff, 0x00, 0x00, 0x85,
0xcd, 0x05, 0xc0, 0x1f,
0x36, 0xfc, 0xed, 0x8e,
0xaf, 0xdb, 0xec, 0xb4,
0x59, 0x5d, 0x0e, 0xa3,
0xcf, 0x64, 0x31, 0xf8,
0xff, 0x3f, 0x30, 0x00,
0x00, 0x00, 0xff, 0x00,
0x00, 0x3f, 0xf8, 0xff,
0xfc, 0xf3, 0x03, 0x80,
0x00, 0x70, 0x18, 0x20,
0x0c, 0x40, 0xe0, 0xbc,
0x02, 0xa0, 0x80, 0x06,
0xd0, 0x7b, 0x17, 0x11,
0xd8, 0xf7, 0xef, 0x84,
0x4c, 0xf7, 0xc9, 0xfb,
0x3f, 0xe0, 0xff, 0x7d,
0xa0, 0x02, 0x30, 0xfb,
0xdf, 0x87, 0x3d, 0x74,
0x0f, 0x1d, 0xde, 0x00,
0x03, 0x82, 0x08, 0x00,
0x08, 0x60, 0x7f, 0x40,
0xfc, 0xb2, 0xe1, 0x6f,
0x77, 0xbc, 0xad, 0x46,
0xaf, 0xbf, 0xe9, 0xb3,
0xb9, 0x4c, 0x66, 0x8b,
0xc3, 0x60, 0xaf, 0x1f,
0x02, 0xb8, 0x6f, 0x00,
0x78, 0xff, 0x37, 0xc0,
0x01, 0x0f, 0xf0, 0xf9,
0x03, 0x80, 0x3f, 0x00,
0x00, 0xc0, 0x3f, 0x00,
0x00, 0x00, 0xfc, 0x03,
0x00, 0xfc, 0x7f, 0x00,
0x78, 0x00, 0x00, 0xf8,
0x77, 0x40, 0xf8, 0x00,
0xe0, 0x0f, 0x00, 0x40,
0x80, 0x07, 0x00, 0xfc,
0x2e, 0x7c, 0xff, 0xf8,
0x03, 0x00, 0xb4, 0x02,
0xfe, 0xff, 0x87, 0xba,
0x13, 0xf8, 0x07, 0xfb,
0x40, 0xff, 0xaf, 0x9b,
0x3f, 0xdc, 0x3d, 0xd8,
0xe9, 0xdf, 0xc7, 0x80,
0x51, 0x1f, 0x54, 0xff,
0x1b, 0x76, 0x5d, 0xa0,
0x1f, 0xde, 0x40, 0xe0,
0xb3, 0x06, 0x08, 0x08,
0x06, 0x00, 0xe0, 0xdf,
0x3e, 0x00, 0xf8, 0x4f,
0xc3, 0xdf, 0xec, 0x6f,
0x5b, 0x6d, 0x2e, 0xbf,
0xbe, 0x87, 0xfb, 0x27,
0xd0, 0xff, 0xdf, 0x20,
0x01, 0x39, 0x00, 0x03,
0xc0, 0x1f, 0x00, 0xec,
0x0f, 0x80, 0xdf, 0xf5,
0x1b, 0xee, 0x66, 0xb7,
0xd5, 0xe6, 0x72, 0xfa,
0xbc, 0x26, 0x8f, 0xc5,
0x1e, 0x00, 0x00, 0x80,
0xff, 0x03, 0xe0, 0xff,
0x01, 0xf0, 0xff, 0x03,
0x38, 0x00, 0x00, 0x00,
0xe0, 0xce, 0xff, 0x03,
0xc0, 0x1f, 0xf0, 0x0c,
0xe0, 0xe0, 0x7f, 0x0b,
0xf8, 0xdf, 0xff, 0x7b,
0x55, 0xfd, 0xef, 0xe6,
0xef, 0xd9, 0xbf, 0xfe,
0x78, 0xfe, 0xfe, 0x70,
0x5b, 0xbc, 0xde, 0xc0,
0xff, 0x01, 0x10, 0x1c,
0x0e, 0x55, 0x5f, 0xf5,
0xff, 0xff, 0xb1, 0x0f,
0x00, 0x00, 0x66, 0x00,
0x00, 0x00, 0xfb, 0x03,
0xe0, 0x7f, 0xfd, 0x76,
0xc3, 0xd3, 0xec, 0x73,
0x7b, 0x8d, 0x56, 0x8b,
0xc1, 0x5d, 0xf3, 0x38,
0x04, 0x60, 0x7e, 0x00,
0x00, 0x00, 0x00, 0xfc,
0x03, 0x1b, 0x00, 0x3f,
0x80, 0xfb, 0x1b, 0x38,
0xb0, 0xf3, 0x00, 0x00,
0xfc, 0xef, 0xf1, 0x3f,
0x6c, 0xff, 0xf7, 0x3e,
0x7c, 0xbb, 0xff, 0xef,
0xc3, 0xff, 0xcd, 0xff,
0xb5, 0xdf, 0xc7, 0xf7,
0xbe, 0xda, 0xfd, 0xf7,
0x82, 0xcf, 0xff, 0xbf,
0x7e, 0xc2, 0xe7, 0x7f,
0xfd, 0x81, 0xff, 0xfb,
0xff, 0x0e, 0xf0, 0x45,
0x6f, 0xff, 0x07, 0xdc,
0x0f, 0xfc, 0x5c, 0xd5,
0x57, 0xdf, 0x3f, 0x00,
0x60, 0xc0, 0xfe, 0x01,
0x00, 0x00, 0x4e, 0x03,
0xc0, 0xff, 0xfa, 0xed,
0x86, 0xc7, 0xd9, 0x67,
0x75, 0x9a, 0x2c, 0x0e,
0xaf, 0xd1, 0x63, 0xf0,
0x87, 0x7f, 0x00, 0x80,
0x7a, 0x55, 0xf9, 0x00,
0x00, 0x80, 0xfe, 0x00,
0x80, 0xff, 0xc0, 0x82,
0x96, 0xab, 0xea, 0xef,
0x81, 0xb7, 0x00, 0x32,
0x15, 0x20, 0xf8, 0x1f,
0x00, 0x6f, 0x8c, 0xf7,
0x9f, 0xdc, 0xbe, 0x81,
0xfe, 0x47, 0x8c, 0x1b,
0xf9, 0xf1, 0x26, 0xc0,
0xfd, 0xdf, 0x9b, 0xf8,
0x50, 0x01, 0xb3, 0x7b,
0x10, 0xe9, 0x1f, 0x00,
0xf0, 0x6f, 0x80, 0xfd,
0x0f, 0x00, 0x00, 0xed,
0x56, 0x00, 0xfc, 0xb3,
0xdf, 0x70, 0x77, 0xbc,
0xcd, 0x56, 0xa7, 0xd7,
0x68, 0xef, 0xd9, 0x5c,
0x06, 0x93, 0xc7, 0xe2,
0x70, 0x57, 0xf5, 0xef,
0xfe, 0x0f, 0xfc, 0x0f,
0x78, 0x7f, 0xf0, 0x07,
0xc0, 0x0f, 0xf0, 0xff,
0x5f, 0x55, 0xff, 0x5f,
0x00, 0x55, 0xf5, 0xd7,
0xff, 0x00, 0x05, 0x30,
0x00, 0x00, 0x70, 0xff,
0x5f, 0x55, 0xff, 0x1b,
0xb0, 0xaa, 0xfa, 0xeb,
0x7f, 0x00, 0x00, 0x00,
0xe0, 0x07, 0xe0, 0x01,
0xc0, 0x50, 0x00, 0x71,
0x30, 0xf2, 0x12, 0x82,
0x55, 0x31, 0x70, 0x82,
0x1b, 0x1f, 0xff, 0x96,
0xda, 0xcf, 0x10, 0x60,
0xdc, 0x37, 0x11, 0x4d,
0xd6, 0xdc, 0x83, 0xab,
0xe7, 0x08, 0x00, 0x3c,
0x01, 0x20, 0x64, 0xc4,
0x02, 0x80, 0xaa, 0x0a,
0x00, 0xe0, 0x37, 0x1f,
0x00, 0x7e, 0xda, 0x6f,
0x37, 0x3c, 0xbe, 0x4e,
0x8f, 0xd5, 0x6d, 0x76,
0x19, 0x7d, 0x26, 0x83,
0xbf, 0xe2, 0xb0, 0xd7,
0xdc, 0xfd, 0x4f, 0x55,
0xc0, 0x0f, 0x0c, 0x3c,
0x0f, 0x00, 0x40, 0xf5,
0xaa, 0xf8, 0xc0, 0x5f,
0xfd, 0x4f, 0x55, 0xc0,
0x0f, 0x0c, 0x00, 0x00,
0x40, 0x55, 0xbf, 0xe2,
0xff, 0x09, 0x80, 0x03,
0x01, 0x02, 0x3b, 0x0c,
0x7f, 0xd0, 0x5e, 0xe2,
0x21, 0xe8, 0x6d, 0xb0,
0xa9, 0x58, 0x68, 0xaf,
0x22, 0x58, 0xe2, 0xc6,
0x00, 0x48, 0xaf, 0x1b,
0x24, 0x10, 0x21, 0xfb,
0xe1, 0x90, 0xe3, 0x80,
0x04, 0x26, 0xee, 0x77,
0x61, 0x40, 0x58, 0x5d,
0x6b, 0x5a, 0x05, 0x8f,
0x28, 0xa8, 0x40, 0xdd,
0x0f, 0x25, 0xa0, 0xbe,
0xea, 0x0e, 0x2c, 0x5d,
0x15, 0x04, 0x82, 0x16,
0x00, 0x00, 0x00, 0x00,
0x04, 0x40, 0x79, 0x0e,
0x80, 0xff, 0xeb, 0x37,
0xdc, 0x9d, 0x5e, 0x9f,
0xc9, 0x6d, 0xb6, 0xda,
0x8c, 0x0e, 0x97, 0xc5,
0xdc, 0x0f, 0xfc, 0x00,
0xcc, 0xff, 0x03, 0xc0,
0x00, 0x00, 0x00, 0xfc,
0xf3, 0x0f, 0x00, 0xfc,
0x0f, 0xc0, 0x0f, 0x00,
0x00, 0x60, 0x45, 0x40,
0x18, 0xb2, 0x66, 0xff,
0x9a, 0x02, 0x38, 0xf5,
0x20, 0x08, 0x23, 0x1c,
0x20, 0xf8, 0xd8, 0x20,
0x91, 0xe3, 0x7f, 0xe7,
0x6a, 0x77, 0x31, 0x6c,
0x1d, 0x0a, 0x9c, 0x16,
0xc8, 0x37, 0xdc, 0x5f,
0xdf, 0x5b, 0x51, 0x02,
0x2f, 0xce, 0x46, 0x4f,
0xe1, 0xa0, 0xf0, 0x4d,
0xff, 0x3b, 0xfc, 0x1c,
0x37, 0x00, 0xa8, 0x07,
0x00, 0x80, 0x7f, 0x16,
0x04, 0xc0, 0x4f, 0x1b,
0xfe, 0x76, 0xc7, 0xcd,
0xe7, 0x32, 0x5b, 0xbc,
0x26, 0x87, 0xbf, 0x6d,
0x75, 0x1a, 0xed, 0xed,
0x8e, 0xc1, 0x7f, 0x05,
0x5c, 0x55, 0xbf, 0xff,
0xe3, 0x01, 0x00, 0x00,
0xa0, 0x3f, 0x00, 0xe0,
0x3f, 0x40, 0x55, 0xfd,
0xf5, 0x2f, 0x00, 0x00,
0x00, 0xa0, 0xbf, 0xc3,
0xe3, 0x73, 0xdc, 0x3a,
0x20, 0xbc, 0x07, 0x10,
0x75, 0xb8, 0x00, 0x7b,
0x46, 0x56, 0xd5, 0x90,
0xab, 0x5a, 0x99, 0x60,
0xd3, 0x01, 0x10, 0xc0,
0xbd, 0x69, 0x00, 0x01,
0xe0, 0xa7, 0x00, 0x40,
0xfb, 0xe4, 0x2d, 0x40,
0xe8, 0x58, 0x19, 0x03,
0x05, 0x6f, 0xd9, 0x5a,
0x03, 0x88, 0x5a, 0xf7,
0x9c, 0x75, 0x66, 0x02,
0x94, 0xf5, 0xb0, 0x92,
0x53, 0xf4, 0xff, 0x01,
0xc0, 0x63, 0x3a, 0x00,
0x08, 0x00, 0x00, 0x00,
0xc0, 0x79, 0x00, 0xf8,
0x67, 0xc3, 0xdf, 0xee,
0x38, 0x59, 0x9d, 0x2e,
0xaf, 0xd1, 0xec, 0xb3,
0x59, 0x3c, 0x06, 0x7b,
0xbb, 0xed, 0x0f, 0xa0,
0xae, 0xaa, 0xff, 0xbf,
0x00, 0xae, 0xaa, 0xff,
0xff, 0xab, 0xea, 0xff,
0x0b, 0x00, 0x00, 0x00,
0xa0, 0xaa, 0xfe, 0xfa,
0x1f, 0xa0, 0xaa, 0xfe,
0xfa, 0xbf, 0xea, 0xff,
0xab, 0xe0, 0x11, 0x60,
0x00, 0x34, 0x21, 0x40,
0x0c, 0xc1, 0x3c, 0x28,
0x09, 0x2c, 0x40, 0x71,
0xc5, 0x48, 0xaa, 0x38,
0xd0, 0x8f, 0x2b, 0x72,
0xb0, 0x10, 0xaa, 0x1a,
0x5a, 0x3e, 0xff, 0x43,
0x0a, 0x03, 0xac, 0x26,
0xfb, 0xf6, 0x50, 0xc1,
0x00, 0x90, 0x15, 0x04,
0x98, 0x6d, 0xbe, 0x9a,
0x4d, 0xdd, 0x55, 0xd9,
0x85, 0x7c, 0xfa, 0xbd,
0xce, 0x8c, 0x45, 0x54,
0x6a, 0xd1, 0x00, 0x17,
0x06, 0x80, 0x82, 0x00,
0x00, 0x00, 0x00, 0x00,
0x00, 0xeb, 0x01, 0xe0,
0x87, 0xfd, 0x86, 0xbb,
0xcf, 0x6d, 0x76, 0x1a,
0x5d, 0x26, 0x8b, 0xbf,
0x6b, 0xaf, 0x7a, 0x1c,
0x66, 0x82, 0x03, 0x00,
0x00, 0xfc, 0x3f, 0x00,
0xfc, 0x3f, 0x00, 0xfc,
0x03, 0x00, 0x00, 0x00,
0x00, 0xfc, 0x03, 0xfc,
0x2f, 0x80, 0x7e, 0x00,
0xf0, 0x20, 0x20, 0x90,
0xdb, 0x4f, 0x7a, 0xf7,
0x08, 0x3e, 0x0c, 0x8a,
0xc8, 0x09, 0xce, 0x7f,
0xbb, 0x1e, 0x89, 0x40,
0xc0, 0xbc, 0xf7, 0xb7,
0xdf, 0xaf, 0xfe, 0xae,
0xbe, 0x8d, 0x5f, 0xf8,
0x01, 0x35, 0x38, 0xef,
0xf6, 0x05, 0x72, 0xd2,
0x53, 0xff, 0x2c, 0x30,
0xc0, 0x6d, 0xda, 0x2b,
0xc0, 0x7b, 0xba, 0x0b,
0xcc, 0x2e, 0x07, 0x00,
0x00, 0x00, 0x00, 0x00,
0xb0, 0x1c, 0x00, 0x7e,
0xd9, 0x6f, 0xf7, 0x3a,
0xad, 0x66, 0x9f, 0xcd,
0x6d, 0x34, 0xbc, 0x1c,
0xfe, 0x92, 0xc7, 0x62,
0x70, 0x07, 0x00, 0xc0,
0x0f, 0x0c, 0x00, 0x00,
0x00, 0x00, 0x00, 0x00,
0xc0, 0xfc, 0x00, 0x00,
0x00, 0x00, 0xe0, 0x45,
0x40, 0x68, 0xfc, 0x79,
0xc0, 0xd9, 0x00, 0x2f,
0x0e, 0x90, 0xf7, 0xe3,
0x2b, 0x00, 0xee, 0xac,
0x1f, 0x6c, 0x7f, 0xff,
0x60, 0x74, 0x18, 0xe2,
0x38, 0x40, 0xde, 0x73,
0x46, 0x24, 0x43, 0x4f,
0xe3, 0x8a, 0x59, 0xb7,
0xc7, 0x7b, 0x0c, 0xfb,
0xba, 0x33, 0x36, 0xfe,
0x57, 0x95, 0xfd, 0x6d,
0x36, 0x4a, 0xff, 0xdf,
0x40, 0x43, 0x6f, 0x95,
0x00, 0x8f, 0x00, 0x00,
0x01, 0xbe, 0xe9, 0x00,
0xf0, 0xcf, 0x7e, 0xbb,
0xe1, 0xf1, 0xb6, 0x79,
0x7c, 0x66, 0xaf, 0xcb,
0x68, 0xf1, 0x57, 0x9d,
0x26, 0x83, 0xc3, 0xde,
0x01, 0xc2, 0xff, 0x79,
0x00, 0x50, 0xaf, 0x2a,
0x1f, 0x40, 0x00, 0xa0,
0x3f, 0x00, 0xe0, 0x1f,
0x00, 0xa0, 0x5e, 0x55,
0x3e, 0x00, 0x00, 0x80,
0x13, 0x01, 0x22, 0x3c,
0x76, 0x17, 0xa8, 0x81,
0xaa, 0x2d, 0x68, 0xc4,
0x06, 0x70, 0x61, 0x0d,
0x58, 0x55, 0x25, 0x15,
0x2d, 0xa8, 0x83, 0x0c,
0xab, 0xa2, 0xeb, 0x96,
0x15, 0x00, 0x82, 0x40,
0xf8, 0xa0, 0x19, 0x99,
0x67, 0x0e, 0xf3, 0x2f,
0x74, 0x3a, 0x08, 0x1a,
0x54, 0xe5, 0x6f, 0xa4,
0x6a, 0xa9, 0x20, 0x5b,
0xf9, 0x62, 0x75, 0x08,
0xcd, 0xc1, 0x00, 0x36,
0xc0, 0x01, 0x12, 0x00,
0x00, 0x80, 0xff, 0x7f,
0x55, 0xcf, 0x01, 0xe0,
0x8f, 0xfd, 0x86, 0xbb,
0xe3, 0x69, 0x32, 0x7b,
0xad, 0x3e, 0x9b, 0xdb,
0xe8, 0x71, 0x59, 0x0c,
0xee, 0xbe, 0x0a, 0xbe,
0xea, 0x1f, 0x1e, 0x00,
0x00, 0x00, 0x00, 0xfe,
0xbf, 0xaa, 0xfe, 0xbf,
0x00, 0xaa, 0xea, 0xaf,
0xff, 0x01, 0x00, 0x00,
0x00, 0x00, 0xc0, 0x8a,
0x80, 0xf0, 0x1e, 0xa0,
0x38, 0x7e, 0xbc, 0xfe,
0x0f, 0x38, 0x37, 0x18,
0xf3, 0xa2, 0xeb, 0xfe,
0xdf, 0x56, 0xf2, 0x4a,
0x3f, 0x65, 0xda, 0x83,
0x06, 0xbe, 0x83, 0xea,
0xc6, 0x07, 0x80, 0x06,
0xb3, 0xfb, 0x3f, 0x03,
0x3f, 0x20, 0xf0, 0xf1,
0x7f, 0xff, 0xc7, 0x04,
0xe8, 0x0c, 0x3f, 0x68,
0x0d, 0x5e, 0x01, 0x0f,
0x1e, 0x00, 0x00, 0x00,
0xfc, 0xc3, 0xfe, 0x80,
0xf8, 0x6b, 0xbf, 0xdd,
0xf0, 0x78, 0x5a, 0x7d,
0x6e, 0xaf, 0xcb, 0x62,
0xb4, 0x39, 0x4c, 0x1e,
0x7f, 0xb9, 0xec, 0xee,
0x56, 0x03, 0x7f, 0x40,
0x00, 0x00, 0x7f, 0x60,
0x28, 0xc0, 0x01, 0xe0,
0x0b, 0xc0, 0x0f, 0x00,
0xd0, 0x00, 0x03, 0x00,
0xfc, 0x00, 0x00, 0xc0,
0x1e, 0x70, 0x3f, 0x38,
0x98, 0x9f, 0xff, 0x03,
0x18, 0x10, 0xd8, 0x03,
0x10, 0xfb, 0xb7, 0x25,
0x00, 0x1c, 0x67, 0x03,
0xfe, 0x5d, 0xe0, 0xa0,
0xfa, 0xff, 0xdd, 0xdf,
0xe3, 0xfc, 0xd8, 0x93,
0xff, 0x78, 0xfa, 0xbd,
0x5f, 0x2c, 0xfe, 0xe5,
0xda, 0xbf, 0xe3, 0x4c,
0xef, 0x3f, 0xf8, 0x71,
0x4d, 0x7c, 0xff, 0xcd,
0x38, 0xe3, 0x35, 0xe8,
0xe0, 0x1f, 0xe9, 0x3b,
0x6f, 0x3e, 0x5e, 0xfd,
0x08, 0x78, 0x33, 0xd0,
0xfb, 0x23, 0x00, 0x90,
0x09, 0x38, 0x02, 0x00,
0x20, 0x00, 0x00, 0xd3,
0x01, 0xe0, 0x8f, 0xfd,
0x86, 0xbb, 0xd9, 0xed,
0xf4, 0x59, 0xbc, 0x46,
0x7f, 0xd5, 0x65, 0xf2,
0xd8, 0x1c, 0xf6, 0x80,
0xf7, 0xab, 0xea, 0x0f,
0x00, 0xe0, 0x0f, 0xf8,
0x0f, 0x00, 0x00, 0x00,
0xf8, 0xbf, 0xaa, 0xfc,
0x7a, 0xf8, 0x21, 0x68,
0xff, 0xef, 0xc3, 0xff,
0x02, 0x20, 0x00, 0x38,
0x11, 0x10, 0xb6, 0x2e,
0xff, 0xbc, 0x76, 0x11,
0xdf, 0xec, 0x03, 0xff,
0xaf, 0xb4, 0x42, 0xcf,
0xbb, 0x6f, 0x00, 0x02,
0x28, 0x02, 0x06, 0xc0,
0x16, 0xff, 0x77, 0xd7,
0x6f, 0xbb, 0x3e, 0x00,
0x1c, 0xc0, 0x30, 0x00,
0xc3, 0xed, 0xf1, 0x47,
0x19, 0x52, 0x28, 0x04,
0xee, 0x00, 0x14, 0xf0,
0xf3, 0x0f, 0x00, 0xfe,
0x00, 0xe0, 0x0f, 0xd0,
0x76, 0x00, 0xf8, 0x65,
0xc3, 0xdf, 0xee, 0xf8,
0x3a, 0x4d, 0x66, 0xb7,
0xd1, 0xe6, 0xf2, 0xf8,
0xab, 0x3e, 0x87, 0xbd,
0x1c, 0xe0, 0x83, 0x57,
0xc5, 0x57, 0xfd, 0x83,
0x03, 0x00, 0x00, 0xe0,
0x3f, 0x78, 0x3f, 0xd8,
0xf0, 0x1f, 0xf8, 0xab,
0xe6, 0xab, 0xfe, 0xc1,
0x01, 0xe3, 0x01, 0x08,
0x00, 0x7c, 0x08, 0x08,
0x8d, 0xb1, 0x81, 0xbd,
0x7b, 0xbf, 0x95, 0x35,
0x90, 0xfb, 0xf3, 0x54,
0x5d, 0xf7, 0xfd, 0x89,
0x04, 0x3e, 0x2e, 0x80,
0x75, 0x0e, 0x7f, 0x2b,
0x00, 0x7f, 0x7e, 0x3b,
0x08, 0xa0, 0x96, 0x00,
0x3b, 0x00, 0xe0, 0xfd,
0x07, 0xe5, 0x3d, 0x30,
0x10, 0x5c, 0xdb, 0x90,
0xfd, 0x0f, 0x80, 0x6f,
0xe7, 0xf0, 0xcb, 0x3f,
0x00, 0xec, 0x03, 0xd8,
0x1f, 0x10, 0xbf, 0x6c,
0xf8, 0xdb, 0x1d, 0x5f,
0x9f, 0xd1, 0x66, 0x76,
0x39, 0xdc, 0x56, 0x8b,
0xd3, 0xde, 0x2e, 0x79,
0x03, 0x00, 0xf8, 0x07,
0x00, 0x00, 0x80, 0x07,
0x00, 0xf8, 0x7f, 0x00,
0xf8, 0x07, 0x02, 0x00,
0xff, 0x00, 0x78, 0x1f,
0x00, 0x77, 0x00, 0xf0,
0x2f, 0x98, 0x01, 0x01,
0x7c, 0x80, 0xfe, 0xff,
0x0a, 0xf0, 0x07, 0xe1,
0xc9, 0xf3, 0x9f, 0xf9,
0x6b, 0x9e, 0x6c, 0x7e,
0xaf, 0x84, 0xe7, 0x0b,
0x6c, 0xfc, 0x25, 0x60,
0xbf, 0xbd, 0x31, 0xbc,
0xf7, 0xee, 0xcf, 0xbd,
0xfb, 0x4c, 0xfe, 0x03,
0x1c, 0xbd, 0x2f, 0x72,
0x00, 0xfa, 0xe7, 0xfd,
0xdd, 0x04, 0xf4, 0x33,
0xf0, 0x07, 0x98, 0xc0,
0x2f, 0x38, 0x83, 0xf7,
0x3f, 0x81, 0xaf, 0xff,
0x0e, 0x77, 0x7d, 0x2e,
0x58, 0x5f, 0x03, 0x3c,
0x00, 0x00, 0x10, 0x00,
0xec, 0x06, 0x80, 0x3f,
0xf6, 0x1b, 0xee, 0x3e,
0xa3, 0xd7, 0xe6, 0x31,
0xb8, 0xad, 0x4e, 0x97,
0xc9, 0x62, 0x6e, 0xf8,
0xfb, 0x0f, 0x00, 0x00,
0x00, 0x00, 0xe0, 0x0f,
0xf8, 0x7f, 0x00, 0xf8,
0x7f, 0x00, 0x08, 0x18,
0xc3, 0xff, 0x1a, 0xe0,
0x3f, 0x80, 0x87, 0x00,
0xe0, 0x47, 0x40, 0x38,
0x40, 0x0f, 0x0e, 0xf7,
0x3f, 0xc2, 0x96, 0xbb,
0x3d, 0x3c, 0xed, 0xef,
0xe3, 0x06, 0xe1, 0x47,
0x16, 0x88, 0xe7, 0xfb,
0x5a, 0x60, 0xb7, 0xfb,
0x91, 0x6b, 0xfa, 0xf4,
0xf7, 0xef, 0xbb, 0xfe,
0x1b, 0xdc, 0x05, 0x0f,
0x2b, 0xc0, 0xc3, 0x01,
0x61, 0xc0, 0x0e, 0x60,
0xff, 0x07, 0x2c, 0xa0,
0x40, 0x35, 0x20, 0x70,
0x2f, 0x01, 0x08, 0x00,
0x28, 0x00, 0x9c, 0x07,
0x80, 0x5f, 0xf6, 0xdb,
0x0d, 0x57, 0xb7, 0xc5,
0xe1, 0x31, 0x98, 0xbd,
0x4e, 0xa3, 0xcb, 0xe4,
0xef, 0xb9, 0xbb, 0x01,
0x00, 0x00, 0xf0, 0x0f,
0x00, 0x00, 0x00, 0x00,
0x0c, 0x8c, 0x0f, 0x0f,
0x00, 0xff, 0x07, 0x00,
0x0c, 0x68, 0x00, 0x32,
0x21, 0x20, 0xf4, 0x4c,
0x0b, 0x78, 0xfe, 0x84,
0x7f, 0xaf, 0x02, 0xd0,
0xfc, 0x1e, 0x38, 0x1a,
0x1f, 0xe1, 0xe1, 0x5f,
0xda, 0x5e, 0xbf, 0x3f,
0xd8, 0x7f, 0xf4, 0xf0,
0x7e, 0xc0, 0x3b, 0xdb,
0x02, 0x06, 0x20, 0x00,
0xee, 0xfe, 0x82, 0x0f,
0x16, 0xfd, 0x01, 0x10,
0xd0, 0x7f, 0x02, 0xf8,
0x00, 0xc0, 0x31, 0x00,
0x01, 0x00, 0x10, 0x00,
0xeb, 0x01, 0xe0, 0xaf,
0xfd, 0x76, 0xc3, 0xe3,
0xe6, 0x74, 0x9b, 0xad,
0x3e, 0x7f, 0xd1, 0xe3,
0x75, 0xd9, 0x4b, 0x16,
0x87, 0xc1, 0x5d, 0x0e,
0xff, 0x00, 0x00, 0x1f,
0x1c, 0x20, 0xaa, 0xea,
0x2f, 0x00, 0x01, 0x80,
0xff, 0x07, 0x08, 0x31,
0xff, 0x07, 0x00, 0xcf,
0xfa, 0x57, 0xd5, 0x1f,
0x04, 0x01, 0x80, 0x07,
0x01, 0xe2, 0x8f, 0x85,
0xb1, 0x41, 0x4f, 0x6c,
0xb4, 0xb4, 0xe6, 0xba,
0x0b, 0xaa, 0xfb, 0xb2,
0x4c, 0x78, 0x19, 0xbc,
0x83, 0x19, 0x40, 0x9e,
0x00, 0x8e, 0xb7, 0x4a,
0xaa, 0x0a, 0x10, 0x00,
0x01, 0xe2, 0x3c, 0xa0,
0x09, 0xfa, 0xff, 0x47,
0x2d, 0x43, 0x55, 0x25,
0x00, 0xb0, 0xba, 0xd2,
0x41, 0xa7, 0xaa, 0x01,
0x40, 0x80, 0x4c, 0x04,
0xc8, 0x10, 0x24, 0x00,
0xc0, 0x00, 0xf8, 0xdf,
0xbe, 0x80, 0xf8, 0x63,
0xbf, 0xe1, 0xee, 0xb8,
0xba, 0xcd, 0x4e, 0x8f,
0xd1, 0xe6, 0x32, 0x79,
0x7d, 0x06, 0x7f, 0xbb,
0x07, 0x80, 0x7f, 0x00,
0xf8, 0x7f, 0x00, 0x00,
0xf8, 0x0b, 0x3c, 0x0f,
0x00, 0x00, 0x01, 0xf0,
0x17, 0x08, 0x00, 0x80,
0xbb, 0xe0, 0xff, 0x07,
0xc0, 0x1f, 0x38, 0xe8,
0x81, 0xef, 0x0f, 0xb7,
0x43, 0x00, 0x00, 0x80,
0x78, 0x00, 0xc0, 0xdf,
0x0d, 0x0e, 0xf0, 0xf7,
0xeb, 0xfd, 0xc6, 0xdb,
0xb9, 0xb1, 0xcf, 0xe7,
0x2c, 0xbc, 0x65, 0x51,
0xdf, 0xe7, 0xcf, 0x86,
0xf5, 0xff, 0x5a, 0x6c,
0xe6, 0x1f, 0x30, 0xe6,
0xc6, 0x03, 0x6c, 0x82,
0x70, 0xfb, 0x00, 0xe0,
0x37, 0xfd, 0x76, 0xc7,
0xe1, 0x6d, 0xf6, 0xfa,
0x3f, 0x55, 0x21, 0x95,
0x57, 0xc5, 0x0f, 0x7e,
0x70, 0x07, 0x07, 0x60,
0x30, 0x87, 0xaf, 0x01,
0xc0, 0xbe, 0x80, 0xf8,
0x67, 0xbf, 0xe3, 0x6e,
0x78, 0x3b, 0x8d, 0x66,
0x9b, 0xc5, 0x6b, 0xf5,
0xb9, 0x4c, 0x1e, 0x83,
0xbd, 0xe1, 0xef, 0x07,
0x00, 0x00, 0xf8, 0x01,
0xe0, 0x07, 0xf8, 0x67,
0x00, 0x00, 0x00, 0x00,
0x00, 0x00, 0xbe, 0x87,
0x07, 0x00, 0x07, 0x9d,
0xf3, 0x06, 0x88, 0x82,
0xee, 0xfe, 0x9d, 0x3f,
0x6f, 0xef, 0x33, 0xf9,
0xdf, 0xe4, 0x22, 0x5b,
0xff, 0xe0, 0x35, 0x7c,
0xf8, 0xde, 0xff, 0x2d,
0xc0, 0xfc, 0xc7, 0xf7,
0xff, 0x47, 0xe4, 0x67,
0x80, 0x12, 0x04, 0xfe,
0xe0, 0xa0, 0x53, 0xec,
0xff, 0xff, 0x06, 0x02,
0xea, 0x83, 0x6f, 0xe0,
0x80, 0x3d, 0xb8, 0xa0,
0x6f, 0x00, 0x00, 0x04,
0xd8, 0x07, 0x00, 0x3f,
0xe9, 0x37, 0xdc, 0xcd,
0x6e, 0x09, 0xf0, 0x43,
0xf5, 0x57, 0xc5, 0x07,
0x00, 0xfc, 0x07, 0xf0,
0x07, 0x00, 0x00, 0x70,
0x11, 0x00, 0x7f, 0xd9,
0x6f, 0xb8, 0xbb, 0x9d,
0xfe, 0x9a, 0xc7, 0x71,
0xf6, 0x5a, 0x7d, 0x2e,
0x8b, 0xc3, 0x68, 0x32,
0x08, 0x00, 0xf0, 0xff,
0x0f, 0x00, 0xf0, 0x0f,
0xf0, 0x0f, 0x00, 0x00,
0x60, 0x3c, 0x40, 0xa8,
0xfa, 0xd2, 0xfe, 0x7f,
0xe0, 0xe4, 0x0e, 0xbb,
0x02, 0xc4, 0x6d, 0x1b,
0x7c, 0xc8, 0x46, 0x10,
0xf8, 0xab, 0xbe, 0xf7,
0xfc, 0xfb, 0x52, 0xa9,
0xa7, 0x01, 0xff, 0x34,
0xfe, 0x70, 0x03, 0xf8,
0x3f, 0x40, 0x07, 0x07,
0xbe, 0x03, 0x08, 0xa8,
0x0e, 0x0c, 0xf8, 0x07,
0xec, 0x99, 0xed, 0xff,
0x00, 0xe0, 0x02, 0xd8,
0x07, 0x00, 0x3f, 0x69,
0xf8, 0xdb, 0xdd, 0x4e,
0xff, 0x03, 0x00, 0xf8,
0x03, 0x56, 0xd5, 0xaf,
0xde, 0xb3, 0x0f, 0x00,
0x00, 0x00, 0x00, 0x0e,
0x02, 0xe0, 0x1f, 0x1b,
0xfe, 0x76, 0xb7, 0xcf,
0x69, 0x74, 0x79, 0x2c,
0x66, 0xaf, 0xd5, 0xe4,
0x30, 0xf8, 0xeb, 0xf1,
0x0f, 0x00, 0xf0, 0x03,
0xff, 0xcf, 0x3f, 0x3f,
0x00, 0x00, 0x00, 0x00,
0x98, 0x0f, 0x10, 0x1c,
0x77, 0x3e, 0xda, 0xfd,
0xcf, 0xa9, 0xd8, 0x41,
0xef, 0x7b, 0xa0, 0xfd,
0xa1, 0x5c, 0x81, 0x1b,
0x76, 0xf1, 0xf6, 0xc1,
0x3e, 0x68, 0xa0, 0x38,
0x98, 0x86, 0x27, 0x60,
0x04, 0xbe, 0xfc, 0x03,
0xd7, 0x01, 0xfa, 0xef,
0x00, 0xfe, 0x07, 0xf8,
0x80, 0x0b, 0x72, 0x7f,
0xc0, 0x7b, 0x87, 0x06,
0x40, 0x20, 0x58, 0x0b,
0x00, 0x7f, 0x6c, 0xb8,
0xfb, 0x1d, 0x2f, 0xa3,
0xc9, 0x69, 0x31, 0xb8,
0xbd, 0x56, 0x9f, 0xcd,
0x61, 0x2f, 0x07, 0x00,
0x00, 0x80, 0xff, 0x00,
0x55, 0xf5, 0xd7, 0xff,
0x00, 0xff, 0x5f, 0x55,
0x5f, 0x55, 0x5f, 0x05,
0x0e, 0x00, 0x00, 0xe0,
0x51, 0x40, 0x40, 0x78,
0xf0, 0x00, 0x70, 0x0f,
0xff, 0x0f, 0x00, 0xf0,
0xff, 0xf0, 0xb0, 0xff,
0x60, 0xa0, 0x0d, 0xa0,
0x87, 0xff, 0x05, 0xf3,
0x73, 0x37, 0x3c, 0x9b,
0x37, 0xfb, 0x7f, 0x67,
0xfe, 0xf7, 0xc0, 0x22,
0xf2, 0x1f, 0x50, 0xbe,
0xdf, 0xe1, 0xef, 0x7f,
0x07, 0x36, 0x84, 0x76,
0x1f, 0x01, 0x74, 0x1c,
0x08, 0x1a, 0x06, 0x81,
0xf7, 0x1f, 0x20, 0x5f,
0xc0, 0x7e, 0xb0, 0xbf,
0x01, 0xe9, 0x1f, 0x00,
0xfc, 0xc1, 0x3e, 0x00,
0xf8, 0x47, 0xbf, 0xe1,
0x6d, 0x16, 0xff, 0x03,
0xfc, 0x07, 0x00, 0x00,
0x00, 0x00, 0xe4, 0x0f,
0x7c, 0x00, 0x30, 0x15,
0x00, 0xfe, 0xd8, 0xf0,
0x77, 0x7b, 0x2d, 0x46,
0x93, 0xc3, 0xe6, 0xb2,
0x5b, 0x7d, 0x1e, 0x83,
0xbf, 0xde, 0x0e, 0x00,
0x00, 0x1c, 0xff, 0x0f,
0x00, 0xff, 0x0f, 0x00,
0x1f, 0x00, 0x00, 0x40,
0x1c, 0x1e, 0x00, 0x9c,
0x06, 0x08, 0xfc, 0x67,
0x14, 0x56, 0xfc, 0x08,
0x93, 0xfa, 0xe5, 0xfc,
0x7f, 0x7d, 0xbf, 0x07,
0xbe, 0x32, 0xf0, 0x0b,
0x01, 0x30, 0xc1, 0x01,
0x2f, 0x00, 0x1c, 0xc8,
0x04, 0x02, 0x9d, 0xf9,
0x1f, 0xdf, 0xfc, 0xdf,
0x23, 0x80, 0xd7, 0x01,
0x7e, 0x09, 0xb2, 0x3f,
0x00, 0x7e, 0xd8, 0x6f,
0x77, 0x1a, 0x0d, 0x2f,
0xb7, 0xd7, 0xe7, 0x71,
0x98, 0x6d, 0x26, 0x8b,
0xc1, 0xdf, 0x6d, 0xfb,
0x77, 0x88, 0x03, 0x00,
0x00, 0xf0, 0x0f, 0x00,
0x00, 0x00, 0xc7, 0x03,
0x00, 0x00, 0x00, 0x78,
0x78, 0x00, 0x00, 0x00,
0xf8, 0xfb, 0xfe, 0xdf,
0xf5, 0xff, 0xc1, 0xcf,
0x1f, 0xbe, 0x06, 0x90,
0xdf, 0xff, 0xfb, 0xf7,
0xf1, 0xfb, 0xb7, 0x7b,
0xc1, 0xff, 0x1f, 0xf8,
0xff, 0x7c, 0xf4, 0xfd,
0xdc, 0xfb, 0xf8, 0xff,
0x07, 0x98, 0xe0, 0xfb,
0x1d, 0xf4, 0xbe, 0xc1,
0xe7, 0xfd, 0xff, 0x81,
0x5f, 0xf8, 0xe3, 0x7f,
0xff, 0x07, 0x30, 0xfb,
0x00, 0xe0, 0x37, 0xfd,
0x76, 0xc3, 0xdb, 0x6c,
0xf5, 0xf8, 0x03, 0x3b,
0xc0, 0xc3, 0x07, 0x08,
0xdf, 0xc7, 0x32, 0x80,
0xae, 0xaa, 0x3f, 0x00,
0x5a, 0x09, 0x80, 0x7f,
0xec, 0xb7, 0x1b, 0x8e,
0x5e, 0xb7, 0xcf, 0xe4,
0x30, 0x5b, 0x9d, 0x36,
0x97, 0xc7, 0x62, 0x2f,
0x07, 0x00, 0xf0, 0x0f,
0x00, 0xf0, 0xf0, 0x00,
0xf0, 0x0f, 0xff, 0x00,
0x00, 0x00, 0x9e, 0x03,
0x84, 0xdc, 0xdc, 0xf2,
0xa3, 0x3e, 0xcd, 0xbd,
0xf7, 0xe6, 0x10, 0x18,
0xab, 0xbf, 0x73, 0xf6,
0xfb, 0x17, 0x30, 0x11,
0x0c, 0x1a, 0xc4, 0x99,
0xbf, 0x20, 0x38, 0x74,
0xbd, 0x5a, 0xf0, 0xaa,
0x20, 0xe0, 0xbf, 0x7f,
0x87, 0xde, 0x03, 0xf7,
0xe0, 0xe7, 0x63, 0xbf,
0x40, 0xd3, 0x01, 0x06,
0x80, 0x82, 0x7d, 0x00,
0xf0, 0x9b, 0x7e, 0xc3,
0xe3, 0xee, 0x36, 0x59,
0xe4, 0x8e, 0x8f, 0xaa,
0x7e, 0xf5, 0x1f, 0xf8,
0x7f, 0xaa, 0xf6, 0xff,
0x0a, 0x1c, 0x00, 0x0c,
0x60, 0x03, 0xd8, 0xbe,
0x80, 0xf8, 0x61, 0xbf,
0xe1, 0x71, 0x77, 0x9a,
0xbd, 0x3e, 0x93, 0xd5,
0x68, 0xb3, 0x38, 0x5c,
0x06, 0x7b, 0x00, 0xcc,
0x0f, 0x00, 0x00, 0xc0,
0x3f, 0x00, 0xc0, 0x0f,
0x00, 0xff, 0x0f, 0x00,
0x3f, 0x00, 0x00, 0x00,
0xc0, 0xf7, 0x90, 0x01,
0x20, 0x70, 0x37, 0x10,
0xff, 0x15, 0xce, 0x2f,
0x6f, 0xd5, 0xf7, 0xa7,
0xb1, 0xbf, 0xf5, 0xf2,
0xbd, 0x64, 0xbf, 0xdb,
0x46, 0xb9, 0xc4, 0x32,
0xe0, 0x2e, 0x39, 0xbe,
0x0f, 0x5c, 0x00, 0x80,
0xfb, 0x03, 0xb7, 0xff,
0xc1, 0x7f, 0x06, 0x6f,
0xfc, 0x37, 0xfc, 0xf6,
0x0b, 0x30, 0x03, 0x00,
0x10, 0x00, 0xd8, 0x1f,
0x10, 0xbf, 0xec, 0x77,
0x1c, 0xee, 0x66, 0xab,
0xd1, 0xed, 0x75, 0xb8,
0x7b, 0x1e, 0x8b, 0xd3,
0xe6, 0x32, 0x99, 0x43,
0x83, 0xf3, 0x0f, 0x00,
0x04, 0x00, 0x00, 0x00,
0x02, 0x06, 0xf0, 0xff,
0x00, 0x70, 0xc0, 0x18,
0xd0, 0x0f, 0x04, 0x7c,
0x40, 0xc0, 0x03, 0x41,
0x00, 0x1c, 0xf0, 0x02,
0x20, 0xc0, 0xc3, 0xff,
0x0e, 0x08, 0x80, 0x07,
0xfe, 0xcb, 0x01, 0x40,
0x7e, 0x00, 0x7f, 0x87,
0x3f, 0xd0, 0xcb, 0xb0,
0xd0, 0x79, 0xf8, 0x00,
0x80, 0x6f, 0xdf, 0x13,
0xdd, 0xff, 0xf0, 0xd7,
0xf9, 0x84, 0x6d, 0xff,
0x5f, 0x0f, 0x3c, 0xab,
0x49, 0xfe, 0x01, 0xf6,
0xf1, 0x45, 0xf4, 0x03,
0x40, 0x00, 0x00, 0x00,
0x00, 0xf0, 0x03, 0xfc,
0x33, 0x00, 0x00, 0xff,
0x00, 0x34, 0x00, 0xf9,
0x0b, 0x80, 0xbf, 0xeb,
0x37, 0xdc, 0xdd, 0x1e,
0xaf, 0xcb, 0x61, 0xf6,
0x99, 0xac, 0x36, 0xa7,
0x51, 0x00, 0x00, 0x00,
0xf8, 0xff, 0x07, 0x00,
0xf8, 0x07, 0xf8, 0x07,
0x00, 0x00, 0x09, 0xf0,
0x6f, 0x4f, 0x40, 0xd8,
0x8f, 0x35, 0x00, 0x10,
0x00, 0x00, 0x00, 0x40,
0x40, 0xff, 0x67, 0xbd,
0xce, 0x07, 0xf8, 0x7f,
0x25, 0xa2, 0x51, 0xfd,
0x68, 0xdb, 0x26, 0x17,
0xba, 0xcc, 0xbf, 0xca,
0xef, 0xec, 0x03, 0xd8,
0xf5, 0x08, 0x60, 0x98,
0x63, 0xd7, 0xfa, 0x5e,
0x07, 0x80, 0x08, 0xf9,
0x01, 0x00, 0x30, 0x00,
0x20, 0x80, 0x00, 0x04,
0x00, 0x00, 0x10, 0xfe,
0xef, 0x45, 0x00, 0xfc,
0xb0, 0xe1, 0x6f, 0x37,
0xbb, 0xbd, 0x46, 0xa7,
0xcd, 0xea, 0xb1, 0xf8,
0x5c, 0x26, 0x83, 0x3f,
0xf0, 0x85, 0xbf, 0x3f,
0x02, 0x01, 0x0e, 0xbf,
0x0a, 0x5e, 0xd5, 0xde,
0x1f, 0x00, 0x00, 0x00,
0xf8, 0xc1, 0x03, 0xc7,
0xf9, 0x17, 0xb0, 0xaa,
0xfe, 0xfa, 0x1f, 0x08,
0x00, 0xe0, 0xc0, 0x00,
0xc0, 0x72, 0x80, 0xf0,
0xcd, 0xfd, 0x1f, 0xbf,
0x5a, 0x03, 0xb8, 0x39,
0x76, 0x9f, 0x11, 0xb8,
0xb7, 0x76, 0x6e, 0xb0,
0xd7, 0x5f, 0x26, 0x37,
0xd8, 0x36, 0x27, 0xb4,
0x84, 0xfb, 0x75, 0x03,
0x00, 0x00, 0x0c, 0x60,
0xcd, 0x3f, 0xea, 0x5b,
0x08, 0xf8, 0x41, 0xe0,
0x20, 0x00, 0xe0, 0x1f,
0x00, 0x97, 0x01, 0xe0,
0x8f, 0x0d, 0x77, 0xbf,
0xe3, 0x6d, 0xb5, 0x78,
0x7d, 0x1e, 0xa7, 0xcd,
0xe5, 0x30, 0x18, 0x4d,
0xf6, 0x00, 0x24, 0x00,
0x00, 0x00, 0xfe, 0x03,
0x54, 0xd5, 0x5f, 0xff,
0x03, 0xfc, 0x7f, 0x55,
0x7d, 0x55, 0x7d, 0x15,
0xb8, 0x40, 0x00, 0x02,
0x8d, 0x09, 0x08, 0xd0,
0xff, 0xea, 0x97, 0xc0,
0x37, 0xca, 0x0b, 0x81,
0xfe, 0x3f, 0x80, 0xdd,
0xff, 0x7d, 0xb9, 0x7f,
0xa0, 0x0d, 0x3e, 0xeb,
0xdf, 0xf7, 0x23, 0xc0,
0x54, 0xe0, 0xed, 0x17,
0x00, 0xf9, 0x6b, 0x77,
0xef, 0xb6, 0xf8, 0x3d,
0x3f, 0x6f, 0xa2, 0xef,
0xa6, 0x67, 0xdf, 0x7e,
0xbf, 0xc6, 0x1a, 0x90,
0x0a, 0x00, 0x03, 0x00,
0x00, 0x00, 0xf0, 0x1d,
0x08, 0xf0, 0x07, 0x02,
0x21, 0xfe, 0x9b, 0x0f,
0x00, 0x3f, 0xec, 0x37,
0xdc, 0x1d, 0x67, 0xa7,
0xcd, 0xe4, 0xf5, 0x59,
0x0c, 0x6e, 0xab, 0xd1,
0x63, 0xef, 0xff, 0xab,
0x6a, 0x3c, 0x7a, 0xfe,
0x07, 0xe0, 0x17, 0x80,
0x00, 0x00, 0x00, 0xf8,
0x0f, 0xe0, 0xff, 0x01,
0xe0, 0xfb, 0x2c, 0x18,
0x00, 0xc0, 0xff, 0x1f,
0x00, 0x00, 0xc0, 0x81,
0x80, 0xf0, 0x00, 0x06,
0x02, 0xf8, 0x07, 0xbe,
0xf5, 0xbd, 0x58, 0xd7,
0xfd, 0x2c, 0xf7, 0xff,
0xa3, 0x1f, 0x96, 0xcd,
0xcf, 0xe9, 0x53, 0x30,
0xff, 0xb3, 0x81, 0xee,
0x7d, 0xa9, 0x19, 0xfe,
0x82, 0xdf, 0xe0, 0xfb,
0x01, 0x40, 0x1d, 0x6c,
0xfe, 0xff, 0x01, 0xa5,
0x03, 0x00, 0x0c, 0x00,
0x01, 0x08, 0x80, 0x61,
0x1f, 0x00, 0xfc, 0xa4,
0xdf, 0x70, 0x77, 0x7b,
0xfd, 0x7d, 0x00, 0xbc,
0x01, 0x0c, 0x00, 0x00,
0x40, 0x57, 0x7b, 0x65,
0x3c, 0x00, 0xb0, 0x2f,
0x00, 0xfe, 0xd6, 0x6f,
0x77, 0x9a, 0xbd, 0x56,
0xa3, 0xcb, 0xed, 0x73,
0xd8, 0x4c, 0x16, 0x01,
0x00, 0x00, 0x00, 0x80,
0x00, 0x9d, 0xff, 0x01,
0x00, 0x00, 0x00, 0x7c,
0xf7, 0xff, 0x07, 0x5c,
0xe0, 0xfa, 0xff, 0xef,
0x3e, 0x9e, 0xfa, 0xfd,
0x7d, 0xed, 0xff, 0xe7,
0x47, 0x2f, 0x7e, 0x1f,
0xeb, 0xf6, 0x1f, 0xf6,
0x7f, 0xfb, 0xdf, 0xfd,
0xe8, 0x02, 0x00, 0x00,
0x00, 0x7e, 0x60, 0x00,
0x70, 0x26, 0x00, 0xfe,
0xd7, 0x6f, 0x37, 0x9c,
0xdd, 0x56, 0xaf, 0xc9,
0x68, 0xb0, 0x39, 0xfc,
0x4d, 0x9f, 0x45, 0x00,
0x90, 0x01, 0xc3, 0x3f,
0x00, 0xc0, 0xc3, 0x0f,
0xc0, 0x54, 0xf5, 0x2b,
0xe0, 0x00, 0x00, 0xfc,
0xc0, 0x3b, 0xfc, 0xbe,
0x9f, 0x01, 0xc3, 0x4e,
0xef, 0xab, 0xf7, 0xaa,
0xf8, 0x38, 0x30, 0xfa,
0xd0, 0x01, 0xc0, 0x64,
0x80, 0xc0, 0xfe, 0xef,
0xe0, 0xc0, 0xcf, 0xdf,
0xdb, 0xbf, 0x40, 0x7c,
0xf7, 0xfe, 0xe8, 0xb4,
0x8c, 0x7f, 0x8f, 0x63,
0xf6, 0x18, 0x27, 0x84,
0x6f, 0x76, 0x31, 0xc0,
0x10, 0x26, 0x0a, 0x06,
0x60, 0x20, 0xe8, 0x03,
0x90, 0x03, 0xec, 0x07,
0x80, 0x20, 0xc0, 0xfe,
0x80, 0xf8, 0x61, 0xbf,
0xe1, 0xee, 0x38, 0x9a,
0x9d, 0x6e, 0xaf, 0xd5,
0x67, 0x33, 0xd9, 0x3b,
0x0e, 0x83, 0x00, 0x00,
0xf8, 0xe0, 0x00, 0x0e,
0x10, 0x00, 0xff, 0x0f,
0x00, 0xff, 0x07, 0x00,
0x80, 0x0f, 0x00, 0x07,
0x00, 0x80, 0x00, 0xe0,
0x0f, 0x00, 0x00, 0x68,
0xff, 0x0f, 0xfc, 0xff,
0x07, 0x9a, 0x03, 0x01,
0xee, 0xfa, 0x00, 0xe2,
0x00, 0x08, 0x08, 0x00,
0xbf, 0xaf, 0x01, 0x02,
0xaa, 0xc3, 0x8b, 0xc7,
0x57, 0xde, 0xba, 0x4e,
0xb7, 0xa3, 0x82, 0x7f,
0xb3, 0xd7, 0xff, 0x57,
0x27, 0x9e, 0x76, 0xfa,
0xbb, 0xf5, 0x03, 0x07,
0xb9, 0xe3, 0xff, 0xd6,
0x1a, 0xc4, 0x3f, 0x00,
0x18, 0xf8, 0x01, 0xfe,
0x1f, 0x00, 0x7e, 0x00,
0x00, 0xf8, 0x07, 0x00,
0xfb, 0x02, 0xe2, 0x8f,
0xfd, 0x76, 0xc7, 0xe1,
0x6c, 0x35, 0x19, 0x7d,
0x2e, 0x77, 0xd7, 0xe1,
0x76, 0x7a, 0x2c, 0xe6,
0x00, 0x21, 0x2e, 0x7d,
0x00, 0xf0, 0x0f, 0x00,
0x16, 0xf8, 0x01, 0xfe,
0x19, 0x00, 0x00, 0x00,
0x00, 0x00, 0x18, 0x00,
0x7e, 0x00, 0xd8, 0x21,
0x00, 0xf4, 0xc1, 0x05,
0x7c, 0xfc, 0x05, 0x56,
0x08, 0x86, 0x03, 0xc0,
0xfb, 0x7d, 0x03, 0x3a,
0x66, 0xfb, 0x36, 0xa6,
0x6f, 0x59, 0xe7, 0x2e,
0xc3, 0xdd, 0xee, 0x01,
0x7c, 0xff, 0x05, 0xc3,
0x0d, 0x3c, 0xff, 0xff,
0x01, 0x4c, 0x20, 0xf2,
0xfe, 0x00, 0x00, 0xde,
0x87, 0x02, 0xd0, 0x0f,
0x63, 0x02, 0xe0, 0x87,
0xfd, 0x86, 0xbb, 0xe3,
0xe9, 0x32, 0x99, 0xbd,
0x56, 0xa3, 0xc7, 0xe2,
0xb6, 0x39, 0xfc, 0x81,
0xef, 0xff, 0x03, 0xbf,
0x7b, 0xfc, 0xe1, 0x1f,
0x00, 0xe0, 0xeb, 0xff,
0xab, 0x0a, 0xa0, 0xae,
0xaa, 0xbf, 0x00, 0x06,
0xf6, 0x1f, 0x00, 0x00,
0xb0, 0xaa, 0xfe, 0x02,
0x10, 0xf0, 0xc1, 0xff,
0x01, 0x00, 0x00, 0x5c,
0x06, 0x08, 0x75, 0xf3,
0x83, 0xfd, 0x87, 0xf0,
0xff, 0xdc, 0x06, 0x52,
0x68, 0x9d, 0xdd, 0xea,
0x3f, 0x70, 0x6e, 0x78,
0x09, 0xa8, 0x06, 0x2f,
0x7a, 0xdf, 0x5f, 0x77,
0xbe, 0xf5, 0x14, 0xbc,
0x3d, 0xb9, 0xb0, 0x1b,
0x60, 0xff, 0x07, 0x15,
0xf4, 0x00, 0x1f, 0x04,
0x08, 0x00, 0x00, 0x1a,
0x13, 0x00, 0x7f, 0xec,
0x37, 0xdc, 0xdd, 0x66,
0x8f, 0xd7, 0xe6, 0x34,
0xba, 0x4c, 0x0e, 0xc7,
0xd5, 0xe7, 0xaf, 0xf7,
0xff, 0xc0, 0xf1, 0xff,
0xe0, 0x3b, 0xd0, 0x1f,
0xc0, 0x06, 0xae, 0xae,
0x8a, 0x0f, 0x00, 0xfc,
0x0f, 0xc0, 0xff, 0xe3,
0xc7, 0x04, 0x1c, 0xf0,
0xc1, 0x00, 0x52, 0xa5,
0x7e, 0x00, 0xe7, 0xff,
0x01, 0xe0, 0x7f, 0x00,
0x00, 0x00, 0x97, 0x01,
0xc2, 0xac, 0xae, 0x6f,
0x7e, 0x1d, 0x0e, 0x7b,
0xfb, 0xc7, 0xf9, 0x1f,
0x02, 0x3c, 0x9c, 0x27,
0xce, 0x99, 0xf7, 0x00,
0x0d, 0xe4, 0x38, 0x70,
0xee, 0x3f, 0x3d, 0x58,
0xbf, 0x1d, 0xc0, 0x07,
0x00, 0x5b, 0xf4, 0x7b,
0x01, 0x08, 0x10, 0x07,
0x38, 0x08, 0xb0, 0x0f,
0x00, 0xfe, 0xd3, 0xf0,
0xb7, 0xbb, 0xcd, 0x46,
0x8b, 0x43, 0x81, 0x3b,
0xe0, 0xbf, 0x03, 0xb6,
0x3e, 0x00, 0xf8, 0x1f,
0x81, 0x57, 0xd5, 0x6f,
0xff, 0x03, 0x7c, 0x04,
0xc0, 0x3f, 0x36, 0xfc,
0xed, 0x8e, 0xaf, 0xc9,
0xe1, 0x36, 0xba, 0x2c,
0x06, 0xb3, 0xd5, 0x67,
0xf3, 0x77, 0x03, 0x00,
0x00, 0x00, 0x00, 0x00,
0xf8, 0xff, 0x7f, 0xf8,
0x7f, 0xf8, 0xb7, 0x1d,
0x20, 0xfc, 0x03, 0x00,
0x40, 0xfd, 0xff, 0x87,
0xb2, 0x9f, 0x5c, 0xa0,
0x03, 0xda, 0xff, 0x29,
0x02, 0x78, 0xe4, 0x36,
0xa2, 0xff, 0x2d, 0xe7,
0xee, 0xef, 0x71, 0xde,
0x77, 0x40, 0xc5, 0xb4,
0xec, 0xb3, 0x1e, 0xf4,
0xfe, 0x03, 0x78, 0x0e,
0x00, 0xde, 0x7f, 0x80,
0x7e, 0x08, 0x80, 0x00,
0x00, 0xf8, 0xdb, 0x1f,
0x10, 0xbf, 0x6c, 0xf8,
0xdb, 0x1d, 0x57, 0xb3,
0xd7, 0x62, 0xf2, 0xf8,
0xdb, 0x46, 0x9b, 0xcf,
0xe5, 0x30, 0xd8, 0xf3,
0x3f, 0x80, 0xfb, 0x0e,
0x58, 0x00, 0x00, 0xf0,
0x2f, 0x00, 0x7c, 0x00,
0xf8, 0x03, 0x00, 0xa0,
0x03, 0x2d, 0x00, 0xf8,
0x3f, 0x00, 0xfc, 0x3f,
0x00, 0x00, 0x3c, 0x00,
0xfc, 0x3f, 0x00, 0x00,
0x00, 0x00, 0xc0, 0x3f,
0x00, 0xfc, 0x3f, 0x00,
0xfc, 0x3f, 0x80, 0x1f,
0x00, 0x18, 0xac, 0x00,
0x0c, 0x77, 0x3f, 0x80,
0xed, 0xfb, 0xf7, 0xb1,
0xef, 0x3d, 0xfe, 0x60,
0xf7, 0x75, 0xfd, 0x5f,
0x7f, 0xd2, 0x79, 0x3b,
0xbf, 0x9d, 0x3d, 0x80,
0xba, 0x80, 0x80, 0x31,
0xd8, 0x60, 0x72, 0x00,
0x50, 0xe3, 0xc0, 0xd3,
0xcb, 0x77, 0x1e, 0x00,
0xde, 0xdb, 0x07, 0x00,
0xbf, 0x69, 0xf8, 0x9b,
0xad, 0x76, 0xaf, 0xbd,
0xff, 0x67, 0x85, 0x27,
0x60, 0x17, 0x70, 0x00,
0x80, 0xfe, 0x01, 0xfb,
0x2f, 0x80, 0x01, 0xc0,
0xfe, 0x00, 0xf8, 0x5f,
0xbf, 0xdd, 0x70, 0x76,
0xfa, 0x3c, 0x6e, 0xaf,
0xd1, 0x5e, 0xb5, 0x19,
0x4c, 0x16, 0xe1, 0xe7,
0x83, 0xaa, 0xaf, 0xaa,
0xbf, 0xaa, 0x7e, 0x00,
0x00, 0x00, 0x80, 0x87,
0x07, 0x00, 0x00, 0x80,
0xe7, 0xef, 0xf7, 0xff,
0xdf, 0x3d, 0xdf, 0x78,
0x77, 0x3f, 0xf8, 0x3f,
0xfe, 0xfe, 0xe6, 0xff,
0xfe, 0xdd, 0x6f, 0xf8,
0x7b, 0xbf, 0xe3, 0xbb,
0x6f, 0xf6, 0xf3, 0xef,
0x01, 0xce, 0xff, 0xf7,
0xfb, 0xfc, 0xbf, 0x0f,
0x18, 0xc1, 0xff, 0xfb,
0xc0, 0xf7, 0x39, 0x78,
0x6f, 0xff, 0x83, 0x03,
0xf0, 0x01, 0x6e, 0x78,
0x38, 0x00, 0x00, 0x00,
0xf0, 0x00, 0x77, 0x01,
0xf0, 0x97, 0xfd, 0x76,
0xc3, 0xd5, 0xe9, 0x36,
0x7b, 0x6d, 0x2e, 0xa3,
0xcf, 0x63, 0x31, 0x39,
0x0c, 0xfe, 0x76, 0x0f,
0x00, 0x00, 0x00, 0x00,
0xff, 0x00, 0x00, 0xff,
0x00, 0x80, 0xef, 0x1f,
0xe0, 0x01, 0xc0, 0xa0,
0x80, 0x30, 0x9f, 0xf7,
0xcd, 0xb5, 0x47, 0xfb,
0xd0, 0xeb, 0x3c, 0x7a,
0x3c, 0xe0, 0x97, 0xbe,
0xfd, 0xc6, 0xfe, 0xbd,
0xff, 0x1a, 0x58, 0x84,
0x97, 0x93, 0x46, 0x3e,
0x3b, 0xa0, 0x6b, 0xe8,
0x08, 0x2f, 0x50, 0x13,
0x1e, 0x60, 0xed, 0x03,
0xe7, 0x08, 0x04, 0xdf,
0xed, 0xe7, 0xdf, 0x00,
0x0b, 0xc3, 0xbb, 0x3f,
0x00, 0x00, 0x00, 0x00,
0x00, 0x00, 0x80, 0x42,
0xfe, 0x41, 0x00, 0xc0,
0x7f, 0xcc, 0x05, 0x80,
0x9f, 0xf6, 0x1b, 0xee,
0x8e, 0xb7, 0xd9, 0xe8,
0xb3, 0x3a, 0x3d, 0x0e,
0x7f, 0xb9, 0x6b, 0x33,
0x59, 0x0c, 0xf6, 0x6e,
0xe0, 0x0f, 0x08, 0x00,
0xe0, 0x5f, 0xfd, 0x7f,
0x55, 0xf8, 0x55, 0xf0,
0xaa, 0xfe, 0xf8, 0x00,
0x00, 0x00, 0x00, 0x00,
0x00, 0x0e, 0x05, 0x84,
0xfe, 0xc5, 0x39, 0x18,
0xbb, 0xe5, 0xf7, 0x29,
0x7b, 0x0e, 0xc7, 0x1e,
0x39, 0xdc, 0xef, 0xfb,
0x39, 0xfc, 0x00, 0x0f,
0xd6, 0xa2, 0x7f, 0xbc,
0x33, 0xd0, 0xfc, 0x3e,
0xd2, 0xfd, 0x09, 0x22,
0x03, 0x1e, 0xee, 0xff,
0x3f, 0xb8, 0xed, 0x63,
0xe0, 0x7f, 0x50, 0x8b,
0xce, 0xff, 0x85, 0x97,
0x00, 0x0f, 0xe2, 0x02,
0x0e, 0xfd, 0x00, 0xc0,
0x03, 0x00, 0xf0, 0xff,
0x00, 0xf0, 0xff, 0x00,
0x00, 0xf0, 0x8f, 0x7d,
0x01, 0xf1, 0xcf, 0x7e,
0xc7, 0xe1, 0xee, 0x35,
0xb8, 0xad, 0x4e, 0x9f,
0xcd, 0xe5, 0xee, 0x96,
0x4d, 0x1e, 0x87, 0xbf,
0xde, 0xc0, 0x14, 0x00,
0x00, 0x20, 0xe0, 0x01,
0x00, 0x7f, 0x48, 0x02,
0x00, 0x00, 0x20, 0x10,
0xfe, 0x33, 0xf0, 0xef,
0x07, 0x81, 0xb0, 0x15,
0xac, 0x7e, 0x00, 0xb0,
0x23, 0xe0, 0xbf, 0x0d,
0x0c, 0xd0, 0xf0, 0x7c,
0x01, 0x39, 0x6c, 0x05,
0x4c, 0xf3, 0xf1, 0xbf,
0xfa, 0x6f, 0x30, 0xfb,
0xd7, 0x7b, 0x7e, 0x87,
0xff, 0xe1, 0x73, 0xf7,
0xe3, 0x23, 0xde, 0xf3,
0xca, 0x3f, 0x91, 0x1f,
0x00, 0x04, 0x00, 0x00,
0x00, 0x20, 0xc0, 0x3f,
0x40, 0x0f, 0x02, 0xe0,
0x8f, 0xfd, 0x76, 0xc3,
0xe3, 0x6c, 0xf5, 0xd9,
0xdc, 0x5e, 0xa7, 0xcb,
0xe4, 0x71, 0x18, 0xfc,
0x45, 0x7f, 0xdf, 0x07,
0xf8, 0xf0, 0x00, 0xd9,
0x71, 0x7a, 0xab, 0xca,
0x07, 0xf8, 0xfa, 0xff,
0xaa, 0x02, 0x78, 0x78,
0x00, 0x00, 0x00, 0x7c,
0x78, 0x0c, 0x30, 0xbf,
0xc3, 0x1e, 0x10, 0x00,
0x80, 0xaf, 0x00, 0xe2,
0x02, 0x1c, 0x00, 0x6a,
0x55, 0x85, 0xf6, 0x56,
0x55, 0x53, 0x61, 0xf8,
0xa9, 0x00, 0x3c, 0x9b,
0x5f, 0x34, 0x03, 0x94,
0x9c, 0xd8, 0x0b, 0xc0,
0x09, 0x32, 0x04, 0x09,
0xa0, 0xb2, 0x01, 0x40,
0xa8, 0x03, 0x19, 0xa8,
0xb3, 0x2e, 0x40, 0x16,
0x54, 0x61, 0xb4, 0x08,
0x00, 0x00, 0x81, 0x01,
0x1f, 0x1f, 0x0c, 0x00,
0x00, 0x9f, 0x02, 0xe0,
0x7f, 0xfd, 0x86, 0xbb,
0xd1, 0xea, 0xf6, 0x3a,
0xce, 0x4e, 0x9f, 0xcd,
0x63, 0x71, 0xb8, 0x04,
0x78, 0xf8, 0x7f, 0x38,
0xf8, 0x01, 0x07, 0x00,
0x80, 0xea, 0x55, 0xf1,
0x01, 0x80, 0xff, 0x01,
0xf8, 0x01, 0x00, 0x80,
0x79, 0x0f, 0x74, 0x1e,
0xfb, 0xab, 0xea, 0x7f,
0xe0, 0x3d, 0x7f, 0x01,
0xfc, 0x3f, 0x00, 0xfc,
0x30, 0x3f, 0x00, 0xd8,
0x0a, 0x10, 0xf8, 0xff,
0x1c, 0xec, 0xf6, 0x9f,
0xf0, 0x9b, 0x5b, 0xee,
0xfe, 0xd8, 0xa0, 0x07,
0x4e, 0xc2, 0x41, 0xcf,
0x8c, 0x3c, 0xdc, 0x3d,
0x9f, 0x7a, 0xf8, 0x1a,
0x00, 0xc8, 0x00, 0x30,
0xc0, 0xff, 0x01, 0x60,
0x00, 0x80, 0x11, 0x01,
0xf0, 0xd3, 0x86, 0xbf,
0xdd, 0xf1, 0x75, 0x9b,
0xad, 0x4e, 0x87, 0xc1,
0xe8, 0xb3, 0xb9, 0x4c,
0x16, 0x7f, 0xc7, 0x5e,
0xae, 0xf7, 0x33, 0x00,
0x00, 0x00, 0xf8, 0x07,
0x40, 0xf0, 0x07, 0xac,
0xaa, 0x5f, 0xff, 0x0f,
0x18, 0x00, 0x00, 0x00,
0x20, 0x82, 0xff, 0x37,
0xa0, 0x7f, 0x55, 0xff,
0xba, 0xfe, 0xf1, 0x01,
0xc0, 0x52, 0x00, 0x01,
0x1f, 0x04, 0x42, 0xa1,
0x4a, 0xfb, 0xcb, 0xc8,
0xfd, 0x5f, 0x65, 0x64,
0xc3, 0x0e, 0x44, 0x20,
0x2d, 0xdc, 0x4c, 0x40,
0x6b, 0x3e, 0x05, 0x09,
0xec, 0x95, 0xba, 0x57,
0xca, 0xc1, 0xaa, 0x95,
0x9a, 0xc7, 0x6b, 0x8e,
0xaa, 0xee, 0x80, 0xa3,
0xf8, 0x0b, 0x8b, 0x00,
0x40, 0x0f, 0x04, 0x00,
0x00, 0xaa, 0xd7, 0xc0,
0xdb, 0x1f, 0x10, 0xbf,
0x6c, 0xf8, 0xdb, 0x1d,
0x6f, 0x9b, 0xd3, 0xe8,
0x33, 0x59, 0xbc, 0x56,
0x97, 0xbf, 0x61, 0x70,
0x77, 0x2b, 0xf0, 0xe6,
0xff, 0x00, 0xe0, 0xff,
0x81, 0x40, 0x80, 0x03,
0xc0, 0xff, 0x01, 0x40,
0x00, 0xf8, 0x07, 0x00,
0x00, 0x40, 0x7f, 0x00,
0xc0, 0xf7, 0x4f, 0x80,
0x07, 0x00, 0x00, 0xff,
0x01, 0xee, 0x7f, 0x10,
0xc0, 0x03, 0x00, 0x36,
0xc7, 0x1f, 0x00, 0x7c,
0x5f, 0x80, 0xfe, 0xff,
0x80, 0xfc, 0x80, 0x71,
0x78, 0x80, 0xe0, 0xe1,
0x13, 0xfa, 0xef, 0x3d,
0x00, 0xe3, 0x6a, 0x12,
0x39, 0xbe, 0xeb, 0x70,
0xff, 0xff, 0x7f, 0xbf,
0xbf, 0x2e, 0xec, 0xbf,
0x1e, 0xfc, 0xdb, 0x15,
0x03, 0x2b, 0x00, 0x00,
0x02, 0x00, 0x00, 0x00,
0x00, 0xf0, 0xff, 0xed,
0x03, 0x80, 0x9f, 0x34,
0xfc, 0xed, 0x66, 0xab,
0xff, 0x0f, 0x02, 0x7f,
0x03, 0x06, 0x20, 0x02,
0x00, 0xf0, 0x03, 0x7f,
0x00, 0x70, 0x18, 0x00,
0xfe, 0xd8, 0x6f, 0xb8,
0x5b, 0x7d, 0x2e, 0xa7,
0xd1, 0xe4, 0x36, 0x7b,
0x6d, 0x1e, 0x8b, 0xc3,
0x5f, 0x0f, 0x00, 0x00,
0x1e, 0xfe, 0x1f, 0x00,
0x00, 0x00, 0x01, 0x7f,
0x80, 0x53, 0xd5, 0xff,
0xfd, 0xbe, 0x03, 0xbf,
0x0f, 0x18, 0x06, 0x00,
0xff, 0x00, 0xc4, 0xbc,
0xc5, 0xd0, 0xa3, 0x00,
0x54, 0x69, 0xa6, 0x6b,
0x61, 0x1a, 0xc0, 0x40,
0x55, 0x41, 0x70, 0x43,
0x7b, 0x3f, 0x20, 0x08,
0x70, 0x05, 0x7d, 0x47,
0x0f, 0x09, 0x00, 0x18,
0x40, 0x43, 0xe6, 0x00,
0xa0, 0x80, 0x18, 0x00,
0x00, 0xc0, 0x3e, 0x00,
0xf8, 0x4b, 0xbf, 0xdd,
0x6b, 0x75, 0x1a, 0x05,
0x7f, 0xc2, 0x1c, 0x30,
0x06, 0x38, 0x00, 0x02,
0x00, 0x10, 0xb0, 0x19,
0x00, 0x7e, 0xd8, 0x6f,
0x37, 0x5c, 0x3d, 0x66,
0xb7, 0xd3, 0xe8, 0xb3,
0xb9, 0x2c, 0x5e, 0x87,
0xc1, 0x1d, 0xf0, 0x03,
0x03, 0x00, 0x00, 0x00,
0x30, 0x3f, 0x00, 0xf0,
0x0f, 0x00, 0x9e, 0xbd,
0x55, 0xff, 0xeb, 0xc0,
0x7f, 0x00, 0x02, 0x00,
0x5f, 0x01, 0xc2, 0xdf,
0x6c, 0xa2, 0xa0, 0x1d,
0xc6, 0xe1, 0xcf, 0xdf,
0xbd, 0xff, 0x93, 0x47,
0xbe, 0x8f, 0x0f, 0xdf,
0xff, 0xf7, 0x67, 0x20,
0x30, 0x43, 0x95, 0xe0,
0x02, 0x8c, 0x01, 0x00,
0x08, 0x00, 0x00, 0xf0,
0x0f, 0xd0, 0xa3, 0x00,
0xf8, 0x63, 0xbf, 0xe1,
0xee, 0x38, 0x7b, 0xdc,
0x56, 0x97, 0xcf, 0xe2,
0x75, 0xba, 0x8b, 0x36,
0x87, 0xc1, 0xaa, 0xfa,
0x03, 0x72, 0x7f, 0x06,
0x98, 0x03, 0x0e, 0x80,
0x57, 0xf5, 0xaf, 0x06,
0x0f, 0x55, 0x5f, 0x05,
0x8f, 0xfd, 0x03, 0x03,
0x00, 0xf0, 0x57, 0xff,
0x5f, 0x15, 0x7f, 0x05,
0xbc, 0xaa, 0x3f, 0xff,
0x8f, 0xef, 0x87, 0x91,
0x01, 0xef, 0x81, 0xfe,
0x3f, 0xc0, 0x59, 0x0b,
0x20, 0x62, 0x03, 0xd1,
0x99, 0x38, 0xc8, 0xf3,
0x6f, 0x94, 0x1e, 0x01,
0xb5, 0x36, 0xb2, 0x30,
0x14, 0x09, 0x0d, 0xaa,
0x4a, 0xf0, 0x46, 0x92,
0x08, 0x12, 0xc9, 0xdd,
0xb4, 0xd3, 0x11, 0x30,
0x00, 0x58, 0x03, 0x40,
0xe0, 0xff, 0xbf, 0x02,
0x80, 0xaa, 0x54, 0x55,
0xed, 0x0f, 0x88, 0x5f,
0xf6, 0x1b, 0x1e, 0x77,
0xb3, 0xdb, 0xe8, 0xb5,
0x3a, 0x6d, 0x2e, 0x8f,
0xc5, 0xe1, 0x33, 0xb9,
0xbb, 0x01, 0xf0, 0x02,
0xf4, 0x3f, 0x42, 0x01,
0x00, 0x09, 0x3c, 0x84,
0xe2, 0x03, 0x00, 0x01,
0xfc, 0x03, 0x00, 0xfc,
0x01, 0xe0, 0xff, 0x01,
0xa6, 0x0f, 0x00, 0x00,
0x80, 0xc0, 0x69, 0x07,
0x80, 0xa1, 0xdf, 0x31,
0xfd, 0xde, 0x06, 0x93,
0x37, 0xc7, 0x0f, 0xf8,
0xce, 0xfe, 0x31, 0xbf,
0x87, 0x9d, 0x8e, 0x5e,
0xdb, 0xfb, 0xcb, 0xed,
0x03, 0xfd, 0xa7, 0xfd,
0x7b, 0xf9, 0xef, 0x79,
0xf2, 0xdd, 0x11, 0xf0,
0x37, 0x02, 0xe8, 0xe0,
0xf7, 0x0b, 0xb8, 0x80,
0xe0, 0xfe, 0x82, 0x18,
0xfa, 0xc0, 0xa3, 0xdf,
0x0d, 0x5f, 0x00, 0x06,
0x0c, 0x00, 0x00, 0x04,
0xe0, 0x0f, 0xf0, 0x0f,
0x00, 0xb0, 0x7f, 0x20,
0x7e, 0xd9, 0x6f, 0xb8,
0xbb, 0x8d, 0x5e, 0xa7,
0xe3, 0xec, 0xb3, 0x59,
0x5d, 0x1e, 0x93, 0xc5,
0x61, 0xf0, 0x37, 0xc0,
0xf1, 0x1b, 0xc0, 0x01,
0x00, 0x00, 0x00, 0x0a,
0x00, 0x00, 0x18, 0x80,
0x01, 0x9e, 0xff, 0xab,
0x72, 0xe0, 0x03, 0x2b,
0xfe, 0xfd, 0x0f, 0x76,
0xa0, 0x81, 0x11, 0x00,
0x1e, 0x3a, 0x00, 0xf0,
0x75, 0x81, 0xc0, 0x8d,
0x1f, 0xf4, 0xff, 0xed,
0x8c, 0x71, 0xfe, 0x87,
0x60, 0x43, 0x12, 0xc0,
0x61, 0x07, 0x80, 0xc8,
0x65, 0x01, 0x91, 0x07,
0x63, 0xcf, 0xf5, 0xff,
0x1b, 0x99, 0xcf, 0x9e,
0x91, 0xf7, 0xdd, 0x80,
0xd7, 0xa3, 0xf6, 0x6d,
0x30, 0x30, 0xf0, 0xf7,
0xa0, 0x01, 0xef, 0x01,
0x80, 0x10, 0x10, 0x04,
0xfa, 0xdf, 0x00, 0x78,
0x01, 0xf8, 0x03, 0x0c,
0x20, 0x80, 0x00, 0x00,
0x00, 0x00, 0x00, 0x03,
0x08, 0xfc, 0x03, 0xcc,
0xff, 0x69, 0x87, 0x17,
0x00, 0xf0, 0x07, 0x0f,
0x3c, 0xc0, 0x01, 0x00,
0x25, 0x05, 0x00, 0x01,
0x20, 0xf6, 0x81, 0xfd,
0xfd, 0xb0, 0xd1, 0x01,
0x82, 0xf7, 0x81, 0xb8,
0xfc, 0x3a, 0xef, 0xff,
0xdc, 0xd5, 0xfc, 0x3f,
0x6d, 0x98, 0xb3, 0xf3,
0xc9, 0x01, 0xce, 0x41,
0x00, 0x40, 0xdf, 0x3d,
0xb6, 0xff, 0x0f, 0x24,
0x77, 0xc0, 0xe1, 0x80,
0xe3, 0x3d, 0xc3, 0x8b,
0x76, 0xf0, 0x41, 0x40,
0x80, 0x04, 0xc0, 0x7e,
0xfa, 0xff, 0xc0, 0xf6,
0x07, 0x00, 0x7e, 0xb0,
0x30, 0xc0, 0x3f, 0x60,
0x7f, 0x40, 0xfc, 0xb2,
0xe1, 0x6f, 0x77, 0x5c,
0x6d, 0x4e, 0xb3, 0xc5,
0x6d, 0xf4, 0xb9, 0x0c,
0x1e, 0xaf, 0xc9, 0x61,
0x8d, 0x7f, 0x00, 0x00,
0x60, 0x80, 0x01, 0xe0,
0x07, 0x00, 0x28, 0x00,
0x74, 0x58, 0x0d, 0x3c,
0x20, 0x3d, 0xa0, 0xfd,
0x0f, 0x80, 0x1b, 0xb8,
0x7f, 0x00, 0xc3, 0x57,
0xfd, 0x01, 0x00, 0xa0,
0x1a, 0x77, 0x00, 0xc0,
0x07, 0x1b, 0xd2, 0x93,
0x3a, 0x00, 0xd4, 0x1b,
0x21, 0xfe, 0xfd, 0xde,
0x00, 0x63, 0xc7, 0x17,
0xff, 0x93, 0xe8, 0xfe,
0xf7, 0xc1, 0x4c, 0x39,
0xfc, 0xef, 0xbf, 0x5c,
0xf8, 0x0e, 0x4c, 0xfe,
0x80, 0x8f, 0x06, 0x02,
0x6f, 0xff, 0x30, 0xfe,
0x3e, 0xf0, 0xe0, 0xe0,
0x35, 0xc1, 0xfb, 0x3f,
0x22, 0xbf, 0x7c, 0x0d,
0x02, 0x02, 0x40, 0x3f,
0x00, 0xf0, 0x01, 0x00,
0x00, 0x00, 0xd8, 0x17,
0x10, 0xbf, 0x6c, 0xf8,
0xdb, 0x1d, 0x67, 0xb7,
0xcb, 0xe4, 0x30, 0x7a,
0x2c, 0x5e, 0xa7, 0xcf,
0x66, 0x35, 0xf8, 0xc3,
0x7f, 0x00, 0x80, 0xe7,
0x00, 0xf0, 0xff, 0x00,
0xf0, 0x67, 0x00, 0x00,
0x7e, 0xf0, 0xf8, 0xff,
0x01, 0x83, 0x01, 0xe0,
0x1f, 0x44, 0x84, 0x30,
0x71, 0x00, 0xfc, 0x3f,
0x00, 0xf8, 0xdf, 0x05,
0x1f, 0xe0, 0xa3, 0xf0,
0xe3, 0xff, 0xbf, 0x5a,
0x07, 0x60, 0xd7, 0x3e,
0xdf, 0xef, 0x03, 0x39,
0x70, 0xef, 0x0e, 0xef,
0xf7, 0xf7, 0x59, 0xb6,
0x6e, 0x7f, 0x7f, 0x67,
0x7d, 0xf0, 0x1f, 0x38,
0xe2, 0x0f, 0xef, 0xc0,
0x97, 0x01, 0xcf, 0x12,
0xa0, 0x60, 0x40, 0xc0,
0xf6, 0x09, 0xc4, 0x2f,
0xfb, 0x0d, 0x77, 0xaf,
0xdb, 0x69, 0x34, 0xbb,
0xac, 0x3e, 0x9b, 0xc3,
0x60, 0x2f, 0x59, 0xdc,
0xe5, 0x90, 0xa0, 0x3d,
0xd8, 0x51, 0x00, 0x10,
0x07, 0x00, 0x01, 0xa0,
0x00, 0xf0, 0xef, 0x00,
0xf0, 0xff, 0x00, 0xf0,
0x07, 0x00, 0x00, 0x00,
0x00, 0x00, 0x00, 0x00,
0x80, 0xff, 0x19, 0xb0,
0xff, 0x1f, 0xcb, 0xdc,
0x7f, 0xf0, 0xe0, 0x38,
0xd4, 0x68, 0x30, 0xf0,
0xa3, 0x06, 0x02, 0x03,
0x60, 0xbf, 0xbf, 0xb8,
0x9f, 0xdf, 0xbb, 0xfe,
0xc0, 0xe6, 0x71, 0x09,
0xf8, 0xb4, 0x21, 0x02,
0x9f, 0x01, 0xe9, 0xfe,
0xb7, 0x01, 0x09, 0x46,
0x16, 0x7e, 0x6d, 0x02,
0x04, 0xbe, 0xef, 0x49,
0x65, 0x78, 0x81, 0x3c,
0x78, 0x00, 0x00, 0x46,
0x00, 0x78, 0xff, 0x00,
0xd2, 0xff, 0x81, 0x06,
0x7e, 0x60, 0x0b, 0x00,
0xac, 0x09, 0x00, 0x00,
0x40, 0x00, 0x00, 0x00,
0x00, 0x60, 0x34, 0x00,
0xfc, 0xb1, 0xdf, 0x6e,
0x78, 0xfb, 0xcc, 0x56,
0x9b, 0xd3, 0x65, 0x34,
0x59, 0xbc, 0x06, 0x7f,
0xbd, 0x1b, 0x00, 0xf8,
