0x7f,0x00,0x00,0x00,0x00,0x00,0x00,0x00,0x00,0x00,0x00,0x00,0x00,0x00,0x00,0x00,0x00,0x00,0x00,0x00,0x00,0x00,0x00,0x00,0x00,0x00,0x00,0x00,0x00,0x00,0x00,0x00,0x00,0x00,0x00,0x00,0x00,0x00,0x00,0x00,0x00,0x00,0x00,0x00,0x00,0x00,0x00,0x00,0x00,0x00,0x00,0x00,0x00,0x00,0x00,0x00,0x00,0x00,0x00,0x00,0x00,0x00,0x00,0x00,0x00,0x00,0x00,0x00,0x00,0x00,0x00,0x00,0x00,0x00,0x00,0x00,0x00,0x00,0x00,0x00,0x00,0x00,0x00,0x00,0x00,0x00,0x00,0x00,0x00,0x00,0x00,0x00,0x00,0x00,0x00,0x00,0x00,0x00,0x00,0x00,0x00,0x00,0x00,0x00,0x00,0x00,0x00,0x00,0x00,0x00,0x00,0x00,0x00,0x00,0x00,0x00,0x00,0x00,0x00,0x00,0x00,0x00,0x00,0x00,0x00,0x00,0x00,0x00,0x00,0x00,0x00,0x00,0x00,0x00,0x00,0x00,0x00,0x00,0x00,0x00,0x00,0x00,0x00,0x00,0x00,0x00,0x00,0x00,0x00,0x00,0x00,0x00,0x00,0x00,0x00,0x00,0x00,0x00,0x00,0x00,0x00,0x00,0x00,0x00,0x00,0x00,0x00,0x00,0x00,0x00,0x00,0x00,0x00,0x00,0x00,0x00,0x00,0x00,0x00,0x00,0x00,0x00,0x00,0x00,0x00,0x00,0x00,0x00,0x00,0x00,0x00,0x00,0x00,0x00,0x00,0x00,0x00,0x00,0x00,0x00,0x00,0x00,0x00,0x00,0x00,0x00,0x00,0x00,0x00,0x00,0x00,0x00,0x00,0x00,0x00,0x00,0x00,0x00,0x00,0x00,0x00,0x00,0x00,0x00,0x00,0x00,0x00,0x00,0x00,0x00,0x00,0x00,0x00,0x00,0x00,0x00,0x00,0x00,0x00,0x00,0x00,0x00,0x00,0x00,0x00,0x00,0x00,0x00,0x00,0x00,0x00,0x00,0x00,0x00,0x00,0x00,0x00,0x00,0x00,0x00,0x00,0x00,0x00,0x00,0x00,0x00,0x00,0x00,0x00,0x00,0x00,0x00,0x00,0x00,0x00,0x00,0x00,0x00,0x00,0x00,0x00,0x00,0x00,0x00,0x00,0x00,0x00,0x00,0x00,0x00,0x00,0x00,0x00,0x00,0x00,0x00,0x00,0x00,0x00,0x00,0x00,0x00,0x00,0x00,0x00,0x00,0x00,0x00,0x00,0x00,0x00,0x00,0x00,0x00,0x00,0x00,0x00,0x00,0x00,0x00,0x00,0x00,0x00,0x00,0x00,0x00,0x00,0x00,0x00,0x00,0x00,0x00,0x00,0x00,0x00,0x00,0x00,0x00,0x00,0x00,0x00,0x00,0x00,0x00,0x00,0x00,0x00,0x00,0x00,0x00,0x00,0x00,0x00,0x00,0x00,0x00,0x00,0x00,0x00,0x00,0x00,0x00,0x00,0x00,0x00,0x00,0x00,0x00,0x00,0x00,0x00,0x00,0x00,0x00,0x00,0x00,0x00,0x00,0x00,0x00,0x00,0x00,0x00,0x00,0x00,0x00,0x00,0x00,0x00,0x00,0x00,0x00,0x00,0x00,0x00,0x00,0x00,0x00,0x00,0x00,0x00,0x00,0x00,0x00,0x00,0x00,0x00,0x00,0x00,0x00,0x00,0x00,0x00,0x00,0x00,0x00,0x00,0x00,0x00,0x00,0x00,0x00,0x00,0x00,0x00,0x00,0x00,0x00,0x00,0x00,0x00,0x00,0x00,0x00,0x00,0x00,0x00,0x00,0x00,0x00,0x00,0x00,0x00,0x00,0x00,0x00,0x00,0x00,0x00,0x00,0x00,0x00,0x00,0x00,0x00,0x00,0x00,0x00,0x00,0x00,0x00,0x00,0x00,0x00,0x00,0x00,0x00,0x00,0x00,0x00,0x00,0x00,0x00,0x00,0x00,0x00,0x00,0x00,0x00,0x00,0x00,0x00,0x00,0x00,0x00,0x00,0x00,0x00,0x00,0x00,0x00,0x00,0x00,0x00,0x00,0x00,0x00,0x00,0x00,0x00,0x00,0x00,0x00,0x00,0x00,0x00,0x00,0x00,0x00,0x00,0x00,0x00,0x00,0x00,0x00,0x00,0x00,0x00,0x00,0x00,0x00,0x00,0x00,0x00,0x00,0x00,0x00,0x00,0x00,0x00,0x00,0x00,0x00,0x00,0x00,0x00,0x00,0x00,0x00,0x00,0x00,0x00,0x00,0x00,0x00,0x00,0x00,0x00,0x00,0x00,0x00,0x00,0x00,0x00,0x00,0x00,0x00,0x00,0x00,0x00,0x00,0x00,0x00,0x00,0x00,0x00,0x00,0x00,0x00,0x00,0x00,0x00,0x00,0x00,0x00,0x00,0x00,0x00,0x00,0x00,0x00,0x00,0x00,0x00,0x00,0x00,0x00,0x00,0x00,0x00,0x00,0x00,0x00,0x00,0x00,0x00,0x00,0x00,0x00,0x00,0x00,0x00,0x00,0x00,0x00,0x00,0x00,0x00,0x00,0x00,0x00,0x00,0x00,0x00,0x00,0x00,0x00,0x00,0x00,0x00,0x00,0x00,0x00,0x00,0x00,0x00,0x00,0x00,0x00,0x00,0x00,0x00,0x00,0x00,0x00,0x00,0x00,0x00,0x00,0x00,0x00,0x00,0x00,0x00,0x00,0x00,0x00,0x00,0x00,0x00,0x00,0x00,0x00,0x00,0x00,0x00,0x00,0x00,0x00,0x00,0x00,0x00,0x00,0x00,0x00,0x00,0x00,0x00,0x00,0x00,0x00,0x00,0x00,0x00,0x00,0x00,0x00,0x00,0x00,0x00,0x00,0x00,0x00,0x00,0x00,0x00,0x00,0x00,0x00,0x00,0x00,0x00,0x00,0x00,0x00,0x00,0x00,0x00,0x00,0x00,0x00,0x00,0x00,0x00,0x00,0x00,0x00,0x00,0x00,0x00,0x00,0x00,0x00,0x00,0x00,0x00,0x00,0x00,0x00,0x00,0x00,0x00,0x00,0x00,0x00,0x00,0x00,0x00,0x00,0x00,0x00,0x00,0x00,0x00,0x00,0x00,0x00,0x00,0x00,0x00,0x00,0x00,0x00,0x00,0x00,0x00,0x00,0x00,0x00,0x00,0x00,0x00,0x00,0x00,0x00,0x00,0x00,0x00,0x00,0x00,0x00,0x00,0x00,0x00,0x00,0x00,0x00,0x00,0x00,0x00,0x00,0x00,0x00,0x00,0x00,0x00,0x00,0x00,0x00,0x00,0x00,0x00,0x00,0x00,0x00,0x00,0x00,0x00,0x00,0x00,0x00,0x00,0x00,0x00,0x00,0x00,0x00,0x00,0x00,0x00,0x00,0x00,0x00,0x00,0x00,0x00,0x00,0x00,0x00,0x00,0x00,0x00,0x00,0x00,0x00,0x00,0x00,0x00,0x00,0x00,0x00,0x00,0x00,0x00,0x00,0x00,0x00,0x00,0x00,0x00,0x00,0x00,0x00,0x00,0x00,0x00,0x00,0x00,0x00,0x00,0x00,0x00,0x00,0x00,0x00,0x00,0x00,0x00,0x00,0x00,0x00,0x00,0x00,0x00,0x00,0x00,0x00,0x00,0x00,0x00,0x00,0x00,0x00,0x00,0x00,0x00,0x00,0x00,0x00,0x00,0x00,0x00,0x00,0x00,0x00,0x00,0x00,0x00,0x00,0x00,0x00,0x00,0x00,0x00,0x00,0x00,0x00,0x00,0x00,0x00,0x00,0x00,0x00,0x00,0x00,0x00,0x00,0x00,0x00,0x00,0x00,0x00,0x00,0x00,0x00,0x00,0x00,0x00,0x00,0x00,0x00,0x00,0x00,0x00,0x00,0x00,0x00,0x00,0x00,0x00,0x00,0x00,0x00,0x00,0x00,0x00,0x00,0x00,0x00,0x00,0x00,0x00,0x00,0x00,0x00,0x00,0x00,0x00,0x00,0x00,0x00,0x00,0x00,0x00,0x00,0x00,0x00,0x00,0x00,0x00,0x00,0x00,0x00,0x00,0x00,0x00,0x00,0x00,0x00,0x00,0x00,0x00,0x00,0x00,0x00,0x00,0x00,0x00,0x00,0x00,0x00,0x00,0x00,0x00,0x00,0x00,0x00,0x00,0x00,0x00,0x00,0x00,0x00,0x00,0x00,0x00,0x00,0x00,0x00,0x00,0x00,0x00,0x00,0x00,0x00,0x00,0x00,0x00,0x00,0x00,0x00,0x00,0x00,0x00,0x00,0x00,0x00,0x00,0x00,0x00,0x00,0x00,0x00,0x00,0x00,0x00,0x00,0x00,0x00,0x00,0x00,0x00,0x00,0x00,0x00,0x00,0x00,0x00,0x00,0x00,0x00,0x00,0x00,0x00,0x00,0x00,0x00,0x00,0x00,0x00,0x00,0x00,0x00,0x00,0x00,0x00,0x00,0x00,0x00,0x00,0x00,0x00,0x00,0x00,0x00,0x00,0x00,0x00,0x00,0x00,0x00,0x00,0x00,0x00,0x00,0x00,0x00,0x00,0x00,0x00,0x00,0x00,0x00,0x00,0x00,0x00,0x00,0x00,0x00,0x00,0x00,0x00,0x00,0x00,0x00,0x00,0x00,0x00,0x00,0x00,0x00,0x00,0x00,0x00,0x00,0x00,0x00,0x00,0x00,0x00,0x00,0x00,0x00,0x00,0x00,0x00,0x00,0x00,0x00,0x00,0x00,0x00,0x00,0x00,0x00,0x00,0x00,0x00,0x00,0x00,0x00,0x00,0x00,0x00,0x00,0x00,0x00,0x00,0x00,0x00,0x00,0x00,0x00,0x00,0x00,0x00,0x00,0x00,0x00,0x00,0x00,0x00,0x00,0x00,0x00,0x00,0x00,0x00,0x00,0x00,0x00,0x00,0x00,0x00,0x00,0x00,0x00,0x00,0x00,0x00,0x00,0x00,0x00,0x00,0x00,0x00,0x00,0x00,0x00,0x00,0x00,0x00,0x00,0x00,0x00,0x00,0x00,0x00,0x00,0x00,0x00,0x00,0x00,0x00,0x00,0x00,0x00,0x00,0x00,0x00,0x00,0x00,0x00,0x00,0x00,0x00,0x00,0x00,0x00,0x00,0x00,0x00,0x00,0x00,0x00,0x00,0x00,0x00,0x00,0x00,0x00,0x00,0x00,0x00,0x00,0x00,0x00,0x00,0x00,0x00,0x00,0x00,0x00,0x00,0x00,0x00,0x00,0x00,0x00,0x00,0x00,0x00,0x00,0x00,0x00,0x00,0x00,0x00,0x00,0x00,0x00,0x00,0x00,0x00,0x00,0x00,0x00,0x00,0x00,0x00,0x00,0x00,0x00,0x00,0x00,0x00,0x00,0x00,0x00,0x00,0x00,0x00,0x00,0x00,0x00,0x00,0x00,0x00,0x00,0x00,0x00,0x00,0x00,0x00,0x00,0x00,0x00,0x00,0x00,0x00,0x00,0x00,0x00,0x00,0x00,0x00,0x00,0x00,0x00,0x00,0x00,0x00,0x00,0x00,0x00,0x00,0x00,0x00,0x00,0x00,0x00,0x00,0x00,0x00,0x00,0x00,0x00,0x00,0x00,0x00,0x00,0x00,0x00,0x00,0x00,0x00,0x00,0x00,0x00,0x00,0x00,0x00,0x00,0x00,0x00,0x00,0x00,0x00,0x00,0x00,0x00,0x00,0x00,0x00,0x00,0x00,0x00,0x00,0x00,0x00,0x00,0x00,0x00,0x00,0x00,0x00,0x00,0x00,0x00,0x00,0x00,0x00,0x00,0x00,0x00,0x00,0x00,0x00,0x00,0x00,0x00,0x00,0x00,0x00,0x00,0x00,0x00,0x00,0x00,0x00,0x00,0x00,0x00,0x00,0x00,0x00,0x00,0x00,0x00,0x00,0x00,0x00,0x00,0x00,0x00,0x00,0x00,0x00,0x00,0x00,0x00,0x00,0x00,0x00,0x00,0x00,0x00,0x00,0x00,0x00,0x00,0x00,0x00,0x00,0x00,0x00,0x00,0x00,0x00,0x00,0x00,0x00,0x00,0x00,0x00,0x00,0x00,0x00,0x00,0x00,0x00,0x00,0x00,0x00,0x00,0x00,0x00,0x00,0x00,0x00,0x00,0x00,0x00,0x00,0x00,0x00,0x00,0x00,0x00,0x00,0x00,0x00,0x00,0x00,0x00,0x00,0x00,0x00,0x00,0x00,0x00,0x00,0x00,0x00,0x00,0x00,0x00,0x00,0x00,0x00,0x00,0x00,0x00,0x00,0x00,0x00,0x00,0x00,0x00,0x00,0x00,0x00,0x00,0x00,0x00,0x00,0x00,0x00,0x00,0x00,0x00,0x00,0x00,0x00,0x00,0x00,0x00,0x00,0x00,0x00,0x00,0x00,0x00,0x00,0x00,0x00,0x00,0x00,0x00,0x00,0x00,0x00,0x00,0x00,0x00,0x00,0x00,0x00,0x00,0x00,0x00,0x00,0x00,0x00,0x00,0x00,0x00,0x00,0x00,0x00,0x00,0x00,0x00,0x00,0x00,0x00,0x00,0x00,0x00,0x00,0x00,0x00,0x00,0x00,0x00,0x00,0x00,0x00,0x00,0x00,0x00,0x00,0x00,0x00,0x00,0x00,0x00,0x00,0x00,0x00,0x00,0x00,0x00,0x00,0x00,0x00,0x00,0x00,0x00,0x00,0x00,0x00,0x00,0x00,0x00,0x00,0x00,0x00,0x00,0x00,0x00,0x00,0x00,0x00,0x00,0x00,0x00,0x00,0x00,0x00,0x00,0x00,0x00,0x00,0x00,0x00,0x00,0x00,0x00,0x00,0x00,0x00,0x00,0x00,0x00,0x00,0x00,0x00,0x00,0x00,0x00,0x00,0x00,0x00,0x00,0x00,0x00,0x00,0x00,0x00,0x00,0x00,0x00,0x00,0x00,0x00,0x00,0x00,0x00,0x00,0x00,0x00,0x00,0x00,0x00,0x00,0x00,0x00,0x00,0x00,0x00,0x00,0x00,0x00,0x00,0x00,0x00,0x00,0x00,0x00,0x00,0x00,0x00,0x00,0x00,0x00,0x00,0x00,0x00,0x00,0x00,0x00,0x00,0x00,0x00,0x00,0x00,0x00,0x00,0x00,0x00,0x00,0x00,0x00,0x00,0x00,0x00,0x00,0x00,0x00,0x00,0x00,0x00,0x00,0x00,0x00,0x00,0x00,0x00,0x00,0x00,0x00,0x00,0x00,0x00,0x00,0x00,0x00,0x00,0x00,0x00,0x00,0x00,0x00,0x00,0x00,0x00,0x00,0x00,0x00,0x00,0x00,0x00,0x00,0x00,0x00,0x00,0x00,0x00,0x00,0x00,0x00,0x00,0x00,0x00,0x00,0x00,0x00,0x00,0x00,0x00,0x00,0x00,0x00,0x00,0x00,0x00,0x00,0x00,0x00,0x00,0x00,0x00,0x00,0x00,0x00,0x00,0x00,0x00,0x00,0x00,0x00,0x00,0x00,0x00,0x00,0x00,0x00,0x00,0x00,0x00,0x00,0x00,0x00,0x00,0x00,0x00,0x00,0x00,0x00,0x00,0x00,0x00,0x00,0x00,0x00,0x00,0x00,0x00,0x00,0x00,0x00,0x00,0x00,0x00,0x00,0x00,0x00,0x00,0x00,0x00,0x00,0x00,0x00,0x00,0x00,0x00,0x00,0x00,0x00,0x00,0x00,0x00,0x00,0x00,0x00,0x00,0x00,0x00,0x00,0x00,0x00,0x00,0x00,0x00,0x00,0x00,0x00,0x00,0x00,0x00,0x00,0x00,0x00,0x00,0x00,0x00,0x00,0x00,0x00,0x00,0x00,0x00,0x00,0x00,0x00,0x00,0x00,0x00,0x00,0x00,0x00,0x00,0x00,0x00,0x00,0x00,0x00,0x00,0x00,0x00,0x00,0x00,0x00,0x00,0x00,0x00,0x00,0x00,0x00,0x00,0x00,0x00,0x00,0x00,0x00,0x00,0x00,0x00,0x00,0x00,0x00,0x00,0x00,0x00,0x00,0x00,0x00,0x00,0x00,0x00,0x00,0x00,0x00,0x00,0x00,0x00,0x00,0x00,0x00,0x00,0x00,0x00,0x00,0x00,0x00,0x00,0x00,0x00,0x00,0x00,0x00,0x00,0x00,0x00,0x00,0x00,0x00,0x00,0x00,0x00,0x00,0x00,0x00,0x00,0x00,0x00,0x00,0x00,0x00,0x00,0x00,0x00,0x00,0x00,0x00,0x00,0x00,0x00,0x00,0x00,0x00,0x00,0x00,0x00,0x00,0x00,0x00,0x00,0x00,0x00,0x00,0x00,0x00,0x00,0x00,0x00,0x00,0x00,0x00,0x00,0x00,0x00,0x00,0x00,0x00,0x00,0x00,0x00,0x00,0x00,0x00,0x00,0x00,0x00,0x00,0x00,0x00,0x00,0x00,0x00,0x00,0x00,0x00,0x00,0x00,0x00,0x00,0x00,0x00,0x00,0x00,0x00,0x00,0x00,0x00,0x00,0x00,0x00,0x00,0x00,0x00,0x00,0x00,0x00,0x00,0x00,0x00,0x00,0x00,0x00,0x00,0x00,0x00,0x00,0x00,0x00,0x00,0x00,0x00,0x00,0x00,0x00,0x00,0x00,0x00,0x00,0x00,0x00,0x00,0x00,0x00,0x00,0x00,0x00,0x00,0x00,0x00,0x00,0x00,0x00,0x00,0x00,0x00,0x00,0x00,0x00,0x00,0x00,0x00,0x00,0x00,0x00,0x00,0x00,0x00,0x00,0x00,0x00,0x00,0x00,0x00,0x00,0x00,0x00,0x00,0x00,0x00,0x00,0x00,0x00,0x00,0x00,0x00,0x00,0x00,0x00,0x00,0x00,0x00,0x00,0x00,0x00,0x00,0x00,0x00,0x00,0x00,0x00,0x00,0x00,0x00,0x00,0x00,0x00,0x00,0x00,0x00,0x00,0x00,0x00,0x00,0x00,0x00,0x00,0x00,0x00,0x00,0x00,0x00,0x00,0x00,0x00,0x00,0x00,0x00,0x00,0x00,0x00,0x00,0x00,0x00,0x00,0x00,0x00,0x00,0x00,0x00,0x00,0x00,0x00,0x00,0x00,0x00,0x00,0x00,0x00,0x00,0x00,0x00,0x00,0x00,0x00,0x00,0x00,0x00,0x00,0x00,0x00,0x00,0x00,0x00,0x00,0x00,0x00,0x00,0x00,0x00,0x00,0x00,0x00,0x00,0x00,0x00,0x00,0x00,0x00,0x00,0x00,0x00,0x00,0x00,0x00,0x00,0x00,0x00,0x00,0x00,0x00,0x00,0x00,0x00,0x00,0x00,0x00,0x00,0x00,0x00,0x00,0x00,0x00,0x00,0x00,0x00,0x00,0x00,0x00,0x00,0x00,0x00,0x00,0x00,0x00,0x00,0x00,0x00,0x00,0x00,0x00,0x00,0x00,0x00,0x00,0x00,0x00,0x00,0x00,0x00,0x00,0x00,0x00,0x00,0x00,0x00,0x00,0x00,0x00,0x00,0x00,0x00,0x00,0x00,0x00,0x00,0x00,0x00,0x00,0x00,0x00,0x00,0x00,0x00,0x00,0x00,0x00,0x00,0x00,0x00,0x00,0x00,0x00,0x00,0x00,0x00,0x00,0x00,0x00,0x00,0x00,0x00,0x00,0x00,0x00,0x00,0x00,0x00,0x00,0x00,0x00,0x00,0x00,0x00,0x00,0x00,0x00,0x00,0x00,0x00,0x00,0x00,0x00,0x00,0x00,0x00,0x00,0x00,0x00,0x00,0x00,0x00,0x00,0x00,0x00,0x00,0x00,0x00,0x00,0x00,0x00,0x00,0x00,0x00,0x00,0x00,0x00,0x00,0x00,0x00,0x00,0x00,0x00,0x00,0x00,0x00,0x00,0x00,0x00,0x00,0x00,0x00,0x00,0x00,0x00,0x00,0x00,0x00,0x00,0x00,0x00,0x00,0x00,0x00,0x00,0x00,0x00,0x00,0x00,0x00,0x00,0x00,0x00,0x00,0x00,0x00,0x00,0x00,0x00,0x00,0x00,0x00,0x00,0x00,0x00,0x00,0x00,0x00,0x00,0x00,0x00,0x00,0x00,0x00,0x00,0x00,0x00,0x00,0x00,0x00,0x00,0x00,0x00,0x00,0x00,0x00,0x00,0x00,0x00,0x00,0x00,0x00,0x00,0x00,0x00,0x00,0x00,0x00,0x00,0x00,0x00,0x00,0x00,0x00,0x00,0x00,0x00,0x00,0x00,0x00,0x00,0x00,0x00,0x00,0x00,0x00,0x00,0x00,0x00,0x00,0x00,0x00,0x00,0x00,0x00,0x00,0x00,0x00,0x00,0x00,0x00,0x00,0x00,0x00,0x00,0x00,0x00,0x00,0x00,0x00,0x00,0x00,0x00,0x00,0x00,0x00,0x00,0x00,0x00,0x00,0x00,0x00,0x00,0x00,0x00,0x00,0x00,0x00,0x00,0x00,0x00,0x00,0x00,0x00,0x00,0x00,0x00,0x00,0x00,0x00,0x00,0x00,0x00,0x00,0x00,0x00,0x00,0x00,0x00,0x00,0x00,0x00,0x00,0x00,0x00,0x00,0x00,0x00,0x00,0x00,0x00,0x00,0x00,0x00,0x00,0x00,0x00,0x00,0x00,0x00,0x00,0x00,0x00,0x00,0x00,0x00,0x00,0x00,0x00,0x00,0x00,0x00,0x00,0x00,0x00,0x00,0x00,0x00,0x00,0x00,0x00,0x00,0x00,0x00,0x00,0x00,0x00,0x00,0x00,0x00,0x00,0x00,0x00,0x00,0x00,0x00,0x00,0x00,0x00,0x00,0x00,0x00,0x00,0x00,0x00,0x00,0x00,0x00,0x00,0x00,0x00,0x00,0x00,0x00,0x00,0x00,0x00,0x00,0x00,0x00,0x00,0x00,0x00,0x00,0x00,0x00,0x00,0x00,0x00,0x00,0x00,0x00,0x00,0x00,0x00,0x00,0x00,0x00,0x00,0x00,0x00,0x00,0x00,0x00,0x00,0x00,0x00,0x00,0x00,0x00,0x00,0x00,0x00,0x00,0x00,0x00,0x00,0x00,0x00,0x00,0x00,0x00,0x00,0x00,0x00,0x00,0x00,0x00,0x00,0x00,0x00,0x00,0x00,0x00,0x00,0x00,0x00,0x00,0x00,0x00,0x00,0x00,0x00,0x00,0x00,0x00,0x00,0x00,0x00,0x00,0x00,0x00,0x00,0x00,0x00,0x00,0x00,0x00,0x00,0x00,0x00,0x00,0x00,0x00,0x00,0x00,0x00,0x00,0x00,0x00,0x00,0x00,0x00,0x00,0x00,0x00,0x00,0x00,0x00,0x00,0x00,0x00,0x00,0x00,0x00,0x00,0x00,0x00,0x00,0x00,0x00,0x00,0x00,0x00,0x00,0x00,0x00,0x00,0x00,0x00,0x00,0x00,0x00,0x00,0x00,0x00,0x00,0x00,0x00,0x00,0x00,0x00,0x00,0x00,0x00,0x00,0x00,0x00,0x00,0x00,0x00,0x00,0x00,0x00,0x00,0x00,0x00,0x00,0x00,0x00,0x00,0x00,0x00,0x00,0x00,0x00,0x00,0x00,0x00,0x00,0x00,0x00,0x00,0x00,0x00,0x00,0x00,0x00,0x00,0x00,0x00,0x00,0x00,0x00,0x00,0x00,0x00,0x00,0x00,0x00,0x00,0x00,0x00,0x00,0x00,0x00,0x00,0x00,0x00,0x00,0x00,0x00,0x00,0x00,0x00,0x00,0x00,0x00,0x00,0x00,0x00,0x00,0x00,0x00,0x00,0x00,0x00,0x00,0x00,0x00,0x00,0x00,0x00,0x00,0x00,0x00,0x00,0x00,0x00,0x00,0x00,0x00,0x00,0x00,0x00,0x00,0x00,0x00,0x00,0x00,0x00,0x00,0x00,0x00,0x00,0x00,0x00,0x00,0x00,0x00,0x00,0x00,0x00,0x00,0x00,0x00,0x00,0x00,0x00,0x00,0x00,0x00,0x00,0x00,0x00,0x00,0x00,0x00,0x00,0x00,0x00,0x00,0x00,0x00,0x00,0x00,0x00,0x00,0x00,0x00,0x00,0x00,0x00,0x00,0x00,0x00,0x00,0x00,0x00,0x00,0x00,0x00,0x00,0x00,0x00,0x00,0x00,0x00,0x00,0x00,0x00,0x00,0x00,0x00,0x00,0x00,0x00,0x00,0x00,0x00,0x00,0x00,0x00,0x00,0x00,0x00,0x00,0x00,0x00,0x00,0x00,0x00,0x00,0x00,0x00,0x00,0x00,0x00,0x00,0x00,0x00,0x00,0x00,0x00,0x00,0x00,0x00,0x00,0x00,0x00,0x00,0x00,0x00,0x00,0x00,0x00,0x00,0x00,0x00,0x00,0x00,0x00,0x00,0x00,0x00,0x00,0x00,0x00,0x00,0x00,0x00,0x00,0x00,0x00,0x00,0x00,0x00,0x00,0x00,0x00,0x00,0x00,0x00,0x00,0x00,0x00,0x00,0x00,0x00,0x00,0x00,0x00,0x00,0x00,0x00,0x00,0x00,0x00,0x00,0x00,0x00,0x00,0x00,0x00,0x00,0x00,0x00,0x00,0x00,0x00,0x00,0x00,0x00,0x00,0x00,0x00,0x00,0x00,0x00,0x00,0x00,0x00,0x00,0x00,0x00,0x00,0x00,0x00,0x00,0x00,0x00,0x00,0x00,0x00,0x00,0x00,0x00,0x00,0x00,0x00,0x00,0x00,0x00,0x00,0x00,0x00,0x00,0x00,0x00,0x00,0x00,0x00,0x00,0x00,0x00,0x00,0x00,0x00,0x00,0x00,0x00,0x00,0x00,0x00,0x00,0x00,0x00,0x00,0x00,0x00,0x00,0x00,0x00,0x00,0x00,0x00,0x00,0x00,0x00,0x00,0x00,0x00,0x00,0x00,0x00,0x00,0x00,0x00,0x00,0x00,0x00,0x00,0x00,0x00,0x00,0x00,0x00,0x00,0x00,0x00,0x00,0x00,0x00,0x00,0x00,0x00,0x00,0x00,0x00,0x00,0x00,0x00,0x00,0x00,0x00,0x00,0x00,0x00,0x00,0x00,0x00,0x00,0x00,0x00,0x00,0x00,0x00,0x00,0x00,0x00,0x00,0x00,0x00,0x00,0x00,0x00,0x00,0x00,0x00,0x00,0x00,0x00,0x00,0x00,0x00,0x00,0x00,0x00,0x00,0x00,0x00,0x00,0x00,0x00,0x00,0x00,0x00,0x00,0x00,0x00,0x00,0x00,0x00,0x00,0x00,0x00,0x00,0x00,0x00,0x00,0x00,0x00,0x00,0x00,0x00,0x00,0x00,0x00,0x00,0x00,0x00,0x00,0x00,0x00,0x00,0x00,0x00,0x00,0x00,0x00,0x00,0x00,0x00,0x00,0x00,0x00,0x00,0x00,0x00,0x00,0x00,0x00,0x00,0x00,0x00,0x00,0x00,0x00,0x00,0x00,0x00,0x00,0x00,0x00,0x00,0x00,0x00,0x00,0x00,0x00,0x00,0x00,0x00,0x00,0x00,0x00,0x00,0x00,0x00,0x00,0x00,0x00,0x00,0x00,0x00,0x00,0x00,0x00,0x00,0x00,0x00,0x00,0x00,0x00,0x00,0x00,0x00,0x00,0x00,0x00,0x00,0x00,0x00,0x00,0x00,0x00,0x00,0x00,0x00,0x00,0x00,0x00,0x00,0x00,0x00,0x00,0x00,0x00,0x00,0x00,0x00,0x00,0x00,0x00,0x00,0x00,0x00,0x00,0x00,0x00,0x00,0x00,0x00,0x00,0x00,0x00,0x00,0x00,0x00,0x00,0x00,0x00,0x00,0x00,0x00,0x00,0x00,0x00,0x00,0x00,0x00,0x00,0x00,0x00,0x00,0x00,0x00,0x00,0x00,0x00,0x00,0x00,0x00,0x00,0x00,0x00,0x00,0x00,0x00,0x00,0x00,0x00,0x00,0x00,0x00,0x00,0x00,0x00,0x00,0x00,0x00,0x00,0x00,0x00,0x00,0x00,0x00,0x00,0x00,0x00,0x00,0x00,0x00,0x00,0x00,0x00,0x00,0x00,0x00,0x00,0x00,0x00,0x00,0x00,0x00,0x00,0x00,0x00,0x00,0x00,0x00,0x00,0x00,0x00,0x00,0x00,0x00,0x00,0x00,0x00,0x00,0x00,0x00,0x00,0x00,0x00,0x00,0x00,0x00,0x00,0x00,0x00,0x00,0x00,0x00,0x00,0x00,0x00,0x00,0x00,0x00,0x00,0x00,0x00,0x00,0x00,0x00,0x00,0x00,0x00,0x00,0x00,0x00,0x00,0x00,0x00,0x00,0x00,0x00,0x00,0x00,0x00,0x00,0x00,0x00,0x00,0x00,0x00,0x00,0x00,0x00,0x00,0x00,0x00,0x00,0x00,0x00,0x00,0x00,0x00,0x00,0x00,0x00,0x00,0x00,0x00,0x00,0x00,0x00,0x00,0x00,0x00,0x00,0x00,0x00,0x00,0x00,0x00,0x00,0x00,0x00,0x00,0x00,0x00,0x00,0x00,0x00,0x00,0x00,0x00,0x00,0x00,0x00,0x00,0x00,0x00,0x00,0x00,0x00,0x00,0x00,0x00,0x00,0x00,0x00,0x00,0x00,0x00,0x00,0x00,0x00,0x00,0x00,0x00,0x00,0x00,0x00,0x00,0x00,0x00,0x00,0x00,0x00,0x00,0x00,0x00,0x00,0x00,0x00,0x00,0x00,0x00,0x00,0x00,0x00,0x00,0x00,0x00,0x00,0x00,0x00,0x00,0x00,0x00,0x00,0x00,0x00,0x00,0x00,0x00,0x00,0x00,0x00,0x00,0x00,0x00,0x00,0x00,0x00,0x00,0x00,0x00,0x00,0x00,0x00,0x00,0x00,0x00,0x00,0x00,0x00,0x00,0x00,0x00,0x00,0x00,0x00,0x00,0x00,0x00,0x00,0x00,0x00,0x00,0x00,0x00,0x00,0x00,0x00,0x00,0x00,0x00,0x00,0x00,0x00,0x00,0x00,0x00,0x00,0x00,0x00,0x00,0x00,0x00,0x00,0x00,0x00,0x00,0x00,0x00,0x00,0x00,0x00,0x00,0x00,0x00,0x00,0x00,0x00,0x00,0x00,0x00,0x00,0x00,0x00,0x00,0x00,0x00,0x00,0x00,0x00,0x00,0x00,0x00,0x00,0x00,0x00,0x00,0x00,0x00,0x00,0x00,0x00,0x00,0x00,0x00,0x00,0x00,0x00,0x00,0x00,0x00,0x00,0x00,0x00,0x00,0x00,0x00,0x00,0x00,0x00,0x00,0x00,0x00,0x00,0x00,0x00,0x00,0x00,0x00,0x00,0x00,0x00,0x00,0x00,0x00,0x00,0x00,0x00,0x00,0x00,0x00,0x00,0x00,0x00,0x00,0x00,0x00,0x00,0x00,0x00,0x00,0x00,0x00,0x00,0x00,0x00,0x00,0x00,0x00,0x00,0x00,0x00,0x00,0x00,0x00,0x00,0x00,0x00,0x00,0x00,0x00,0x00,0x00,0x00,0x00,0x00,0x00,0x00,0x00,0x00,0x00,0x00,0x00,0x00,0x00,0x00,0x00,0x00,0x00,0x00,0x00,0x00,0x00,0x00,0x00,0x00,0x00,0x00,0x00,0x00,0x00,0x00,0x00,0x00,0x00,0x00,0x00,0x00,0x00,0x00,0x00,0x00,0x00,0x00,0x00,0x00,0x00,0x00,0x00,0x00,0x00,0x00,0x00,0x00,0x00,0x00,0x00,0x00,0x00,0x00,0x00,0x00,0x00,0x00,0x00,0x00,0x00,0x00,0x00,0x00,0x00,0x00,0x00,0x00,0x00,0x00,0x00,0x00,0x00,0x00,0x00,0x00,0x00,0x00,0x00,0x00,0x00,0x00,0x00,0x00,0x00,0x00,0x00,0x00,0x00,0x00,0x00,0x00,0x00,0x00,0x00,0x00,0x00,0x00,0x00,0x00,0x00,0x00,0x00,0x00,0x00,0x00,0x00,0x00,0x00,0x00,0x00,0x00,0x00,0x00,0x00,0x00,0x00,0x00,0x00,0x00,0x00,0x00,0x00,0x00,0x00,0x00,0x00,0x00,0x00,0x00,0x00,0x00,0x00,0x00,0x00,0x00,0x00,0x00,0x00,0x00,0x00,0x00,0x00,0x00,0x00,0x00,0x00,0x00,0x00,0x00,0x00,0x00,0x00,0x00,0x00,0x00,0x00,0x00,0x00,0x00,0x00,0x00,0x00,0x00,0x00,0x00,0x00,0x00,0x00,0x00,0x00,0x00,0x00,0x00,0x00,0x00,0x00,0x00,0x00,0x00,0x00,0x00,0x00,0x00,0x00,0x00,0x00,0x00,0x00,0x00,0x00,0x00,0x00,0x00,0x00,0x00,0x00,0x00,0x00,0x00,0x00,0x00,0x00,0x00,0x00,0x00,0x00,0x00,0x00,0x00,0x00,0x00,0x00,0x00,0x00,0x00,0x00,0x00,0x00,0x00,0x00,0x00,0x00,0x00,0x00,0x00,0x00,0x00,0x00,0x00,0x00,0x00,0x00,0x00,0x00,0x00,0x00,0x00,0x00,0x00,0x00,0x00,0x00,0x00,0x00,0x00,0x00,0x00,0x00,0x00,0x00,0x00,0x00,0x00,0x00,0x00,0x00,0x00,0x00,0x00,0x00,0x00,0x00,0x00,0x00,0x00,0x00,0x00,0x00,0x00,0x00,0x00,0x00,0x00,0x00,0x00,0x00,0x00,0x00,0x00,0x00,0x00,0x00,0x00,0x00,0x00,0x00,0x00,0x00,0x00,0x00,0x00,0x00,0x00,0x00,0x00,0x00,0x00,0x00,0x00,0x00,0x00,0x00,0x00,0x00,0x00,0x00,0x00,0x00,0x00,0x00,0x00,0x00,0x00,0x00,0x00,0x00,0x00,0x00,0x00,0x00,0x00,0x00,0x00,0x00,0x00,0x00,0x00,0x00,0x00,0x00,0x00,0x00,0x00,0x00,0x00,0x00,0x00,0x00,0x00,0x00,0x00,0x00,0x00,0x00,0x00,0x00,0x00,0x00,0x00,0x00,0x00,0x00,0x00,0x00,0x00,0x00,0x00,0x00,0x00,0x00,0x00,0x00,0x00,0x00,0x00,0x00,0x00,0x00,0x00,0x00,0x00,0x00,0x00,0x00,0x00,0x00,0x00,0x00,0x00,0x00,0x00,0x00,0x00,0x00,0x00,0x00,0x00,0x00,0x00,0x00,0x00,0x00,0x00,0x00,0x00,0x00,0x00,0x00,0x00,0x00,0x00,0x00,0x00,0x00,0x00,0x00,0x00,0x00,0x00,0x00,0x00,0x00,0x00,0x00,0x00,0x00,0x00,0x00,0x00,0x00,0x00,0x00,0x00,0x00,0x00,0x00,0x00,0x00,0x00,0x00,0x00,0x00,0x00,0x00,0x00,0x00,0x00,0x00,0x00,0x00,0x00,0x00,0x00,0x00,0x00,0x00,0x00,0x00,0x00,0x00,0x00,0x00,0x00,0x00,0x00,0x00,0x00,0x00,0x00,0x00,0x00,0x00,0x00,0x00,0x00,0x00,0x00,0x00,0x00,0x00,0x00,0x00,0x00,0x00,0x00,0x00,0x00,0x00,0x00,0x00,0x00,0x00,0x00,0x00,0x00,0x00,0x00,0x00,0x00,0x00,0x00,0x00,0x00,0x00,0x00,0x00,0x00,0x00,0x00,0x00,0x00,0x00,0x00,0x00,0x00,0x00,0x00,0x00,0x00,0x00,0x00,0x00,0x00,0x00,0x00,0x00,0x00,0x00,0x00,0x00,0x00,0x00,0x00,0x00,0x00,0x00,0x00,0x00,0x00,0x00,0x00,0x00,0x00,0x00,0x00,0x00,0x00,0x00,0x00,0x00,0x00,0x00,0x00,0x00,0x00,0x00,0x00,0x00,0x00,0x00,0x00,0x00,0x00,0x00,0x00,0x00,0x00,0x00,0x00,0x00,0x00,0x00,0x00,0x00,0x00,0x00,0x00,0x00,0x00,0x00,0x00,0x00,0x00,0x00,0x00,0x00,0x00,0x00,0x00,0x00,0x00,0x00,0x00,0x00,0x00,0x00,0x00,0x00,0x00,0x00,0x00,0x00,0x00,0x00,0x00,0x00,0x00,0x00,0x00,0x00,0x00,0x00,0x00,0x00,0x00,0x00,0x00,0x00,0x00,0x00,0x00,0x00,0x00,0x00,0x00,0x00,0x00,0x00,0x00,0x00,0x00,0x00,0x00,0x00,0x00,0x00,0x00,0x00,0x00,0x00,0x00,0x00,0x00,0x00,0x00,0x00,0x00,0x00,0x00,0x00,0x00,0x00,0x00,0x00,0x00,0x00,0x00,0x00,0x00,0x00,0x00,0x00,0x00,0x00,0x00,0x00,0x00,0x00,0x00,0x00,0x00,0x00,0x00,0x00,0x00,0x00,0x00,0x00,0x00,0x00,0x00,0x00,0x00,0x00,0x00,0x00,0x00,0x00,0x00,0x00,0x00,0x00,0x00,0x00,0x00,0x00,0x00,0x00,0x00,0x00,0x00,0x00,0x00,0x00,0x00,0x00,0x00,0x00,0x00,0x00,0x00,0x00,0x00,0x00,0x00,0x00,0x00,0x00,0x00,0x00,0x00,0x00,0x00,0x00,0x00,0x00,0x00,0x00,0x00,0x00,0x00,0x00,0x00,0x00,0x00,0x00,0x00,0x00,0x00,0x00,0x00,0x00,0x00,0x00,0x00,0x00,0x00,0x00,0x00,0x00,0x00,0x00,0x00,0x00,0x00,0x00,0x00,0x00,0x00,0x00,0x00,0x00,0x00,0x00,0x00,0x00,0x00,0x00,0x00,0x00,0x00,0x00,0x00,0x00,0x00,0x00,0x00,0x00,0x00,0x00,0x00,0x00,0x00,0x00,0x00,0x00,0x00,0x00,0x00,0x00,0x00,0x00,0x00,0x00,0x00,0x00,0x00,0x00,0x00,0x00,0x00,0x00,0x00,0x00,0x00,0x00,0x00,0x00,0x00,0x00,0x00,0x00,0x00,0x00,0x00,0x00,0x00,0x00,0x00,0x00,0x00,0x00,0x00,0x00,0x00,0x00,0x00,0x00,0x00,0x00,0x00,0x00,0x00,0x00,0x00,0x00,0x00,0x00,0x00,0x00,0x00,0x00,0x00,0x00,0x00,0x00,0x00,0x00,0x00,0x00,0x00,0x00,0x00,0x00,0x00,0x00,0x00,0x00,0x00,0x00,0x00,0x00,0x00,0x00,0x00,0x00,0x00,0x00,0x00,0x00,0x00,0x00,0x00,0x00,0x00,0x00,0x00,0x00,0x00,0x00,0x00,0x00,0x00,0x00,0x00,0x00,0x00,0x00,0x00,0x00,0x00,0x00,0x00,0x00,0x00,0x00,0x00,0x00,0x00,0x00,0x00,0x00,0x00,0x00,0x00,0x00,0x00,0x00,0x00,0x00,0x00,0x00,0x00,0x00,0x00,0x00,0x00,0x00,0x00,0x00,0x00,0x00,0x00,0x00,0x00,0x00,0x00,0x00,0x00,0x00,0x00,0x00,0x00,0x00,0x00,0x00,0x00,0x00,0x00,0x00,0x00,0x00,0x00,0x00,0x00,0x00,0x00,0x00,0x00,0x00,0x00,0x00,0x00,0x00,0x00,0x00,0x00,0x00,0x00,0x00,0x00,0x00,0x00,0x00,0x00,0x00,0x00,0x00,0x00,0x00,0x00,0x00,0x00,0x00,0x00,0x00,0x00,0x00,0x00,0x00,0x00,0x00,0x00,0x00,0x00,0x00,0x00,0x00,0x00,0x00,0x00,0x00,0x00,0x00,0x00,0x00,0x00,0x00,0x00,0x00,0x00,0x00,0x00,0x00,0x00,0x00,0x00,0x00,0x00,0x00,0x00,0x00,0x00,0x00,0x00,0x00,0x00,0x00,0x00,0x00,0x00,0x00,0x00,0x00,0x00,0x00,0x00,0x00,0x00,0x00,0x00,0x00,0x00,0x00,0x00,0x00,0x00,0x00,0x00,0x00,0x00,0x00,0x00,0x00,0x00,0x00,0x00,0x00,0x00,0x00,0x00,0x00,0x00,0x00,0x00,0x00,0x00,0x00,0x00,0x00,0x00,0x00,0x00,0x00,0x00,0x00,0x00,0x00,0x00,0x00,0x00,0x00,0x00,0x00,0x00,0x00,0x00,0x00,0x00,0x00,0x00,0x00,0x00,0x00,0x00,0x00,0x00,0x00,0x00,0x00,0x00,0x00,0x00,0x00,0x00,0x00,0x00,0x00,0x00,0x00,0x00,0x00,0x00,0x00,0x00,0x00,0x00,0x00,0x00,0x00,0x00,0x00,0x00,0x00,0x00,0x00,0x00,0x00,0x00,0x00,0x00,0x00,0x00,0x00,0x00,0x00,0x00,0x00,0x00,0x00,0x00,0x00,0x00,0x00,0x00,0x00,0x00,0x00,0x00,0x00,0x00,0x00,0x00,0x00,0x00,0x00,0x00,0x00,0x00,0x00,0x00,0x00,0x00,0x00,0x00,0x00,0x00,0x00,0x00,0x00,0x00,0x00,0x00,0x00,0x00,0x00,0x00,0x00,0x00,0x00,0x00,0x00,0x00,0x00,0x00,0x00,0x00,0x00,0x00,0x00,0x00,0x00,0x00,0x00,0x00,0x00,0x00,0x00,0x00,0x00,0x00,0x00,0x00,0x00,0x00,0x00,0x00,0x00,0x00,0x00,0x00,0x00,0x00,0x00,0x00,0x00,0x00,0x00,0x00,0x00,0x00,0x00,0x00,0x00,0x00,0x00,0x00,0x00,0x00,0x00,0x00,0x00,0x00,0x00,0x00,0x00,0x00,0x00,0x00,0x00,0x00,0x00,0x00,0x00,0x00,0x00,0x00,0x00,0x00,0x00,0x00,0x00,0x00,0x00,0x00,0x00,0x00,0x00,0x00,0x00,0x00,0x00,0x00,0x00,0x00,0x00,0x00,0x00,0x00,0x00,0x00,0x00,0x00,0x00,0x00,0x00,0x00,0x00,0x00,0x00,0x00,0x00,0x00,0x00,0x00,0x00,0x00,0x00,0x00,0x00,0x00,0x00,0x00,0x00,0x00,0x00,0x00,0x00,0x00,0x00,0x00,0x00,0x00,0x00,0x00,0x00,0x00,0x00,0x00,0x00,0x00,0x00,0x00,0x00,0x00,0x00,0x00,0x00,0x00,0x00,0x00,0x00,0x00,0x00,0x00,0x00,0x00,0x00,0x00,0x00,0x00,0x00,0x00,0x00,0x00,0x00,0x00,0x00,0x00,0x00,0x00,0x00,0x00,0x00,0x00,0x00,0x00,0x00,0x00,0x00,0x00,0x00,0x00,0x00,0x00,0x00,0x00,0x00,0x00,0x00,0x00,0x00,0x00,0x00,0x00,0x00,0x00,0x00,0x00,0x00,0x00,0x00,0x00,0x00,0x00,0x00,0x00,0x00,0x00,0x00,0x00,0x00,0x00,0x00,0x00,0x00,0x00,0x00,0x00,0x00,0x00,0x00,0x00,0x00,0x00,0x00,0x00,0x00,0x00,0x00,0x00,0x00,0x00,0x00,0x00,0x00,0x00,0x00,0x00,0x00,0x00,0x00,0x00,0x00,0x00,0x00,0x00,0x00,0x00,0x00,0x00,0x00,0x00,0x00,0x00,0x00,0x00,0x00,0x00,0x00,0x00,0x00,0x00,0x00,0x00,0x00,0x00,0x00,0x00,0x00,0x00,0x00,0x00,0x00,0x00,0x00,0x00,0x00,0x00,0x00,0x00,0x00,0x00,0x00,0x00,0x00,0x00,0x00,0x00,0x00,0x00,0x00,0x00,0x00,0x00,0x00,0x00,0x00,0x00,0x00,0x00,0x00,0x00,0x00,0x00,0x00,0x00,0x00,0x00,0x00,0x00,0x00,0x00,0x00,0x00,0x00,0x00,0x00,0x00,0x00,0x00,0x00,0x00,0x00,0x00,0x00,0x00,0x00,0x00,0x00,0x00,0x00,0x00,0x00,0x00,0x00,0x00,0x00,0x00,0x00,0x00,0x00,0x00,0x00,0x00,0x00,0x00,0x00,0x00,0x00,0x00,0x00,0x00,0x00,0x00,0x00,0x00,0x00,0x00,0x00,0x00,0x00,0x00,0x00,0x00,0x00,0x00,0x00,0x00,0x00,0x00,0x00,0x00,0x00,0x00,0x00,0x00,0x00,0x00,0x00,0x00,0x00,0x00,0x00,0x00,0x00,0x00,0x00,0x00,0x00,0x00,0x00,0x00,0x00,0x00,0x00,0x00,0x00,0x00,0x00,0x00,0x00,0x00,0x00,0x00,0x00,0x00,0x00,0x00,0x00,0x00,0x00,0x00,0x00,0x00,0x00,0x00,0x00,0x00,0x00,0x00,0x00,0x00,0x00,0x00,0x00,0x00,0x00,0x00,0x00,0x00,0x00,0x00,0x00,0x00,0x00,0x00,0x00,0x00,0x00,0x00,0x00,0x00,0x00,0x00,0x00,0x00,0x00,0x00,0x00,0x00,0x00,0x00,0x00,0x00,0x00,0x00,0x00,0x00,0x00,0x00,0x00,0x00,0x00,0x00,0x00,0x00,0x00,0x00,0x00,0x00,0x00,0x00,0x00,0x00,0x00,0x00,0x00,0x00,0x00,0x00,0x00,0x00,0x00,0x00,0x00,0x00,0x00,0x00,0x00,0x00,0x00,0x00,0x00,0x00,0x00,0x00,0x00,0x00,0x00,0x00,0x00,0x00,0x00,0x00,0x00,0x00,0x00,0x00,0x00,0x00,0x00,0x00,0x00,0x00,0x00,0x00,0x00,0x00,0x00,0x00,0x00,0x00,0x00,0x00,0x00,0x00,0x00,0x00,0x00,0x00,0x00,0x00,0x00,0x00,0x00,0x00,0x00,0x00,0x00,0x00,0x00,0x00,0x00,0x00,0x00,0x00,0x00,0x00,0x00,0x00,0x00,0x00,0x00,0x00,0x00,0x00,0x00,0x00,0x00,0x00,0x00,0x00,0x00,0x00,0x00,0x00,0x00,0x00,0x00,0x00,0x00,0x00,0x00,0x00,0x00,0x00,0x00,0x00,0x00,0x00,0x00,0x00,0x00,0x00,0x00,0x00,0x00,0x00,0x00,0x00,0x00,0x00,0x00,0x00,0x00,0x00,0x00,0x00,0x00,0x00,0x00,0x00,0x00,0x00,0x00,0x00,0x00,0x00,0x00,0x00,0x00,0x00,0x00,0x00,0x00,0x00,0x00,0x00,0x00,0x00,0x00,0x00,0x00,0x00,0x00,0x00,0x00,0x00,0x00,0x00,0x00,0x00,0x00,0x00,0x00,0x00,0x00,0x00,0x00,0x00,0x00,0x00,0x00,0x00,0x00,0x00,0x00,0x00,0x00,0x00,0x00,0x00,0x00,0x00,0x00,0x00,0x00,0x00,0x00,0x00,0x00,0x00,0x00,0x00,0x00,0x00,0x00,0x00,0x00,0x00,0x00,0x00,0x00,0x00,0x00,0x00,0x00,0x00,0x00,0x00,0x00,0x00,0x00,0x00,0x00,0x00,0x00,0x00,0x00,0x00,0x00,0x00,0x00,0x00,0x00,0x00,0x00,0x00,0x00,0x00,0x00,0x00,0x00,0x00,0x00,0x00,0x00,0x00,0x00,0x00,0x00,0x00,0x00,0x00,0x00,0x00,0x00,0x00,0x00,0x00,0x00,0x00,0x00,0x00,0x00,0x00,0x00,0x00,0x00,0x00,0x00,0x00,0x00,0x00,0x00,0x00,0x00,0x00,0x00,0x00,0x00,0x00,0x00,0x00,0x00,0x00,0x00,0x00,0x00,0x00,0x00,0x00,0x00,0x00,0x00,0x00,0x00,0x00,0x00,0x00,0x00,0x00,0x00,0x00,0x00,0x00,0x00,0x00,0x00,0x00,0x00,0x00,0x00,0x00,0x00,0x00,0x00,0x00,0x00,0x00,0x00,0x00,0x00,0x00,0x00,0x00,0x00,0x00,0x00,0x00,0x00,0x00,0x00,0x00,0x00,0x00,0x00,0x00,0x00,0x00,0x00,0x00,0x00,0x00,0x00,0x00,0x00,0x00,0x00,0x00,0x00,0x00,0x00,0x00,0x00,0x00,0x00,0x00,0x00,0x00,0x00,0x00,0x00,0x00,0x00,0x00,0x00,0x00,0x00,0x00,0x00,0x00,0x00,0x00,0x00,0x00,0x00,0x00,0x00,0x00,0x00,0x00,0x00,0x00,0x00,0x00,0x00,0x00,0x00,0x00,0x00,0x00,0x00,0x00,0x00,0x00,0x00,0x00,0x00,0x00,0x00,0x00,0x00,0x00,0x00,0x00,0x00,0x00,0x00,0x00,0x00,0x00,0x00,0x00,0x00,0x00,0x00,0x00,0x00,0x00,0x00,0x00,0x00,0x00,0x00,0x00,0x00,0x00,0x00,0x00,0x00,0x00,0x00,0x00,0x00,0x00,0x00,0x00,0x00,0x00,0x00,0x00,0x00,0x00,0x00,0x00,0x00,0x00,0x00,0x00,0x00,0x00,0x00,0x00,0x00,0x00,0x00,0x00,0x00,0x00,0x00,0x00,0x00,0x00,0x00,0x00,0x00,0x00,0x00,0x00,0x00,0x00,0x00,0x00,0x00,0x00,0x00,0x00,0x00,0x00,0x00,0x00,0x00,0x00,0x00,0x00,0x00,0x00,0x00,0x00,0x00,0x00,0x00,0x00,0x00,0x00,0x00,0x00,0x00,0x00,0x00,0x00,0x00,0x00,0x00,0x00,0x00,0x00,0x00,0x00,0x00,0x00,0x00,0x00,0x00,0x00,0x00,0x00,0x00,0x00,0x00,0x00,0x00,0x00,0x00,0x00,0x00,0x00,0x00,0x00,0x00,0x00,0x00,0x00,0x00,0x00,0x00,0x00,0x00,0x00,0x00,0x00,0x00,0x00,0x00,0x00,0x00,0x00,0x00,0x00,0x00,0x00,0x00,0x00,0x00,0x00,0x00,0x00,0x00,0x00,0x00,0x00,0x00,0x00,0x00,0x00,0x00,0x00,0x00,0x00,0x00,0x00,0x00,0x00,0x00,0x00,0x00,0x00,0x00,0x00,0x00,0x00,0x00,0x00,0x00,0x00,0x00,0x00,0x00,0x00,0x00,0x00,0x00,0x00,0x00,0x00,0x00,0x00,0x00,0x00,0x00,0x00,0x00,0x00,0x00,0x00,0x00,0x00,0x00,0x00,0x00,0x00,0x00,0x00,0x00,0x00,0x00,0x00,0x00,0x00,0x00,0x00,0x00,0x00,0x00,0x00,0x00,0x00,0x00,0x00,0x00,0x00,0x00,0x00,0x00,0x00,0x00,0x00,0x00,0x00,0x00,0x00,0x00,0x00,0x00,0x00,0x00,0x00,0x00,0x00,0x00,0x00,0x00,0x00,0x00,0x00,0x00,0x00,0x00,0x00,0x00,0x00,0x00,0x00,0x00,0x00,0x00,0x00,0x00,0x00,0x00,0x00,0x00,0x00,0x00,0x00,0x00,0x00,0x00,0x00,0x00,0x00,0x00,0x00,0x00,0x00,0x00,0x00,0x00,0x00,0x00,0x00,0x00,0x00,0x00,0x00,0x00,0x00,0x00,0x00,0x00,0x00,0x00,0x00,0x00,0x00,0x00,0x00,0x00,0x00,0x00,0x00,0x00,0x00,0x00,0x00,0x00,0x00,0x00,0x00,0x00,0x00,0x00,0x00,0x00,0x00,0x00,0x00,0x00,0x00,0x00,0x00,0x00,0x00,0x00,0x00,0x00,0x00,0x00,0x00,0x00,0x00,0x00,0x00,0x00,0x00,0x00,0x00,0x00,0x00,0x00,0x00,0x00,0x00,0x00,0x00,0x00,0x00,0x00,0x00,0x00,0x00,0x00,0x00,0x00,0x00,0x00,0x00,0x00,0x00,0x00,0x00,0x00,0x00,0x00,0x00,0x00,0x00,0x00,0x00,0x00,0x00,0x00,0x00,0x00,0x00,0x00,0x00,0x00,0x00,0x00,0x00,0x00,0x00,0x00,0x00,0x00,0x00,0x00,0x00,0x00,0x00,0x00,0x00,0x00,0x00,0x00,0x00,0x00,0x00,0x00,0x00,0x00,0x00,0x00,0x00,0x00,0x00,0x00,0x00,0x00,0x00,0x00,0x00,0x00,0x00,0x00,0x00,0x00,0x00,0x00,0x00,0x00,0x00,0x00,0x00,0x00,0x00,0x00,0x00,0x00,0x00,0x00,0x00,0x00,0x00,0x00,0x00,0x00,0x00,0x00,0x00,0x00,0x00,0x00,0x00,0x00,0x00,0x00,0x00,0x00,0x00,0x00,0x00,0x00,0x00,0x00,0x00,0x00,0x00,0x00,0x00,0x00,0x00,0x00,0x00,0x00,0x00,0x00,0x00,0x00,0x00,0x00,0x00,0x00,0x00,0x00,0x00,0x00,0x00,0x00,0x00,0x00,0x00,0x00,0x00,0x00,0x00,0x00,0x00,0x00,0x00,0x00,0x00,0x00,0x00,0x00,0x00,0x00,0x00,0x00,0x00,0x00,0x00,0x00,0x00,0x00,0x00,0x00,0x00,0x00,0x00,0x00,0x00,0x00,0x00,0x00,0x00,0x00,0x00,0x00,0x00,0x00,0x00,0x00,0x00,0x00,0x00,0x00,0x00,0x00,0x00,0x00,0x00,0x00,0x00,0x00,0x00,0x00,0x00,0x00,0x00,0x00,0x00,0x00,0x00,0x00,0x00,0x00,0x00,0x00,0x00,0x00,0x00,0x00,0x00,0x00,0x00,0x00,0x00,0x00,0x00,0x00,0x00,0x00,0x00,0x00,0x00,0x00,0x00,0x00,0x00,0x00,0x00,0x00,0x00,0x00,0x00,0x00,0x00,0x00,0x00,0x00,0x00,0x00,0x00,0x00,0x00,0x00,0x00,0x00,0x00,0x00,0x00,0x00,0x00,0x00,0x00,0x00,0x00,0x00,0x00,0x00,0x00,0x00,0x00,0x00,0x00,0x00,0x00,0x00,0x00,0x00,0x00,0x00,0x00,0x00,0x00,0x00,0x00,0x00,0x00,0x00,0x00,0x00,0x00,0x00,0x00,0x00,0x00,0x00,0x00,0x00,0x00,0x00,0x00,0x00,0x00,0x00,0x00,0x00,0x00,0x00,0x00,0x00,0x00,0x00,0x00,0x00,0x00,0x00,0x00,0x00,0x00,0x00,0x00,0x00,0x00,0x00,0x00,0x00,0x00,0x00,0x00,0x00,0x00,0x00,0x00,0x00,0x00,0x00,0x00,0x00,0x00,0x00,0x00,0x00,0x00,0x00,0x00,0x00,0x00,0x00,0x00,0x00,0x00,0x00,0x00,0x00,0x00,0x00,0x00,0x00,0x00,0x00,0x00,0x00,0x00,0x00,0x00,0x00,0x00,0x00,0x00,0x00,0x00,0x00,0x00,0x00,0x00,0x00,0x00,0x00,0x00,0x00,0x00,0x00,0x00,0x00,0x00,0x00,0x00,0x00,0x00,0x00,0x00,0x00,0x00,0x00,0x00,0x00,0x00,0x00,0x00,0x00,0x00,0x00,0x00,0x00,0x00,0x00,0x00,0x00,0x00,0x00,0x00,0x00,0x00,0x00,0x00,0x00,0x00,0x00,0x00,0x00,0x00,0x00,0x00,0x00,0x00,0x00,0x00,0x00,0x00,0x00,0x00,0x00,0x00,0x00,0x00,0x00,0x00,0x00,0x00,0x00,0x00,0x00,0x00,0x00,0x00,0x00,0x00,0x00,0x00,0x00,0x00,0x00,0x00,0x00,0x00,0x00,0x00,0x00,0x00,0x00,0x00,0x00,0x00,0x00,0x00,0x00,0x00,0x00,0x00,0x00,0x00,0x00,0x00,0x00,0x00,0x00,0x00,0x00,0x00,0x00,0x00,0x00,0x00,0x00,0x00,0x00,0x00,0x00,0x00,0x00,0x00,0x00,0x00,0x00,0x00,0x00,0x00,0x00,0x00,0x00,0x00,0x00,0x00,0x00,0x00,0x00,0x00,0x00,0x00,0x00,0x00,0x00,0x00,0x00,0x00,0x00,0x00,0x00,0x00,0x00,0x00,0x00,0x00,0x00,0x00,0x00,0x00,0x00,0x00,0x00,0x00,0x00,0x00,0x00,0x00,0x00,0x00,0x00,0x00,0x00,0x00,0x00,0x00,0x00,0x00,0x00,0x00,0x00,0x00,0x00,0x00,0x00,0x00,0x00,0x00,0x00,0x00,0x00,0x00,0x00,0x00,0x00,0x00,0x00,0x00,0x00,0x00,0x00,0x00,0x00,0x00,0x00,0x00,0x00,0x00,0x00,0x00,0x00,0x00,0x00,0x00,0x00,0x00,0x00,0x00,0x00,0x00,0x00,0x00,0x00,0x00,0x00,0x00,0x00,0x00,0x00,0x00,0x00,0x00,0x00,0x00,0x00,0x00,0x00,0x00,0x00,0x00,0x00,0x00,0x00,0x00,0x00,0x00,0x00,0x00,0x00,0x00,0x00,0x00,0x00,0x00,0x00,0x00,0x00,0x00,0x00,0x00,0x00,0x00,0x00,0x00,0x00,0x00,0x00,0x00,0x00,0x00,0x00,0x00,0x00,0x00,0x00,0x00,0x00,0x00,0x00,0x00,0x00,0x00,0x00,0x00,0x00,0x00,0x00,0x00,0x00,0x00,0x00,0x00,0x00,0x00,0x00,0x00,0x00,0x00,0x00,0x00,0x00,0x00,0x00,0x00,0x00,0x00,0x00,0x00,0x00,0x00,0x00,0x00,0x00,0x00,0x00,0x00,0x00,0x00,0x00,0x00,0x00,0x00,0x00,0x00,0x00,0x00,0x00,0x00,0x00,0x00,0x00,0x00,0x00,0x00,0x00,0x00,0x00,0x00,0x00,0x00,0x00,0x00,0x00,0x00,0x00,0x00,0x00,0x00,0x00,0x00,0x00,0x00,0x00,0x00,0x00,0x00,0x00,0x00,0x00,0x00,0x00,0x00,0x00,0x00,0x00,0x00,0x00,0x00,0x00,0x00,0x00,0x00,0x00,0x00,0x00,0x00,0x00,0x00,0x00,0x00,0x00,0x00,0x00,0x00,0x00,0x00,0x00,0x00,0x00,0x00,0x00,0x00,0x00,0x00,0x00,0x00,0x00,0x00,0x00,0x00,0x00,0x00,0x00,0x00,0x00,0x00,0x00,0x00,0x00,0x00,0x00,0x00,0x00,0x00,0x00,0x00,0x00,0x00,0x00,0x00,0x00,0x00,0x00,0x00,0x00,0x00,0x00,0x00,0x00,0x00,0x00,0x00,0x00,0x00,0x00,0x00,0x00,0x00,0x00,0x00,0x00,0x00,0x00,0x00,0x00,0x00,0x00,0x00,0x00,0x00,0x00,0x00,0x00,0x00,0x00,0x00,0x00,0x00,0x00,0x00,0x00,0x00,0x00,0x00,0x00,0x00,0x00,0x00,0x00,0x00,0x00,0x00,0x00,0x00,0x00,0x00,0x00,0x00,0x00,0x00,0x00,0x00,0x00,0x00,0x00,0x00,0x00,0x00,0x00,0x00,0x00,0x00,0x00,0x00,0x00,0x00,0x00,0x00,0x00,0x00,0x00,0x00,0x00,0x00,0x00,0x00,0x00,0x00,0x00,0x00,0x00,0x00,0x00,0x00,0x00,0x00,0x00,0x00,0x00,0x00,0x00,0x00,0x00,0x00,0x00,0x00,0x00,0x00,0x00,0x00,0x00,0x00,0x00,0x00,0x00,0x00,0x00,0x00,0x00,0x00,0x00,0x00,0x00,0x00,0x00,0x00,0x00,0x00,0x00,0x00,0x00,0x00,0x00,0x00,0x00,0x00,0x00,0x00,0x00,0x00,0x00,0x00,0x00,0x00,0x00,0x00,0x00,0x00,0x00,0x00,0x00,0x00,0x00,0x00,0x00,0x00,0x00,0x00,0x00,0x00,0x00,0x00,0x00,0x00,0x00,0x00,0x00,0x00,0x00,0x00,0x00,0x00,0x00,0x00,0x00,0x00,0x00,0x00,0x00,0x00,0x00,0x00,0x00,0x00,0x00,0x00,0x00,0x00,0x00,0x00,0x00,0x00,0x00,0x00,0x00,0x00,0x00,0x00,0x00,0x00,0x00,0x00,0x00,0x00,0x00,0x00,0x00,0x00,0x00,0x00,0x00,0x00,0x00,0x00,0x00,0x00,0x00,0x00,0x00,0x00,0x00,0x00,0x00,0x00,0x00,0x00,0x00,0x00,0x00,0x00,0x00,0x00,0x00,0x00,0x00,0x00,0x00,0x00,0x00,0x00,0x00,0x00,0x00,0x00,0x00,0x00,0x00,0x00,0x00,0x00,0x00,0x00,0x00,0x00,0x00,0x00,0x00,0x00,0x00,0x00,0x00,0x00,0x00,0x00,0x00,0x00,0x00,0x00,0x00,0x00,0x00,0x00,0x00,0x00,0x00,0x00,0x00,0x00,0x00,0x00,0x00,0x00,0x00,0x00,0x00,0x00,0x00,0x00,0x00,0x00,0x00,0x00,0x00,0x00,0x00,0x00,0x00,0x00,0x00,0x00,0x00,0x00,0x00,0x00,0x00,0x00,0x00,0x00,0x00,0x00,0x00,0x00,0x00,0x00,0x00,0x00,0x00,0x00,0x00,0x00,0x00,0x00,0x00,0x00,0x00,0x00,0x00,0x00,0x00,0x00,0x00,0x00,0x00,0x00,0x00,0x00,0x00,0x00,0x00,0x00,0x00,0x00,0x00,0x00,0x00,0x00,0x00,0x00,0x00,0x00,0x00,0x00,0x00,0x00,0x00,0x00,0x00,0x00,0x00,0x00,0x00,0x00,0x00,0x00,0x00,0x00,0x00,0x00,0x00,0x00,0x00,0x00,0x00,0x00,0x00,0x00,0x00,0x00,0x00,0x00,0x00,0x00,0x00,0x00,0x00,0x00,0x00,0x00,0x00,0x00,0x00,0x00,0x00,0x00,0x00,0x00,0x00,0x00,0x00,0x00,0x00,0x00,0x00,0x00,0x00,0x00,0x00,0x00,0x00,0x00,0x00,0x00,0x00,0x00,0x00,0x00,0x00,0x00,0x00,0x00,0x00,0x00,0x00,0x00,0x00,0x00,0x00,0x00,0x00,0x00,0x00,0x00,0x00,0x00,0x00,0x00,0x00,0x00,0x00,0x00,0x00,0x00,0x00,0x00,0x00,0x00,0x00,0x00,0x00,0x00,0x00,0x00,0x00,0x00,0x00,0x00,0x00,0x00,0x00,0x00,0x00,0x00,0x00,0x00,0x00,0x00,0x00,0x00,0x00,0x00,0x00,0x00,0x00,0x00,0x00,0x00,0x00,0x00,0x00,0x00,0x00,0x00,0x00,0x00,0x00,0x00,0x00,0x00,0x00,0x00,0x00,0x00,0x00,0x00,0x00,0x00,0x00,0x00,0x00,0x00,0x00,0x00,0x00,0x00,0x00,0x00,0x00,0x00,0x00,0x00,0x00,0x00,0x00,0x00,0x00,0x00,0x00,0x00,0x00,0x00,0x00,0x00,0x00,0x00,0x00,0x00,0x00,0x00,0x00,0x00,0x00,0x00,0x00,0x00,0x00,0x00,0x00,0x00,0x00,0x00,0x00,0x00,0x00,0x00,0x00,0x00,0x00,0x00,0x00,0x00,0x00,0x00,0x00,0x00,0x00,0x00,0x00,0x00,0x00,0x00,0x00,0x00,0x00,0x00,0x00,0x00,0x00,0x00,0x00,0x00,0x00,0x00,0x00,0x00,0x00,0x00,0x00,0x00,0x00,0x00,0x00,0x00,0x00,0x00,0x00,0x00,0x00,0x00,0x00,0x00,0x00,0x00,0x00,0x00,0x00,0x00,0x00,0x00,0x00,0x00,0x00,0x00,0x00,0x00,0x00,0x00,0x00,0x00,0x00,0x00,0x00,0x00,0x00,0x00,0x00,0x00,0x00,0x00,0x00,0x00,0x00,0x00,0x00,0x00,0x00,0x00,0x00,0x00,0x00,0x00,0x00,0x00,0x00,0x00,0x00,0x00,0x00,0x00,0x00,0x00,0x00,0x00,0x00,0x00,0x00,0x00,0x00,0x00,0x00,0x00,0x00,0x00,0x00,0x00,0x00,0x00,0x00,0x00,0x00,0x00,0x00,0x00,0x00,0x00,0x00,0x00,0x00,0x00,0x00,0x00,0x00,0x00,0x00,0x00,0x00,0x00,0x00,0x00,0x00,0x00,0x00,0x00,0x00,0x00,0x00,0x00,0x00,0x00,0x00,0x00,0x00,0x00,0x00,0x00,0x00,0x00,0x00,0x00,0x00,0x00,0x00,0x00,0x00,0x00,0x00,0x00,0x00,0x00,0x00,0x00,0x00,0x00,0x00,0x00,0x00,0x00,0x00,0x00,0x00,0x00,0x00,0x00,0x00,0x00,0x00,0x00,0x00,0x00,0x00,0x00,0x00,0x00,0x00,0x00,0x00,0x00,0x00,0x00,0x00,0x00,0x00,0x00,0x00,0x00,0x00,0x00,0x00,0x00,0x00,0x00,0x00,0x00,0x00,0x00,0x00,0x00,0x00,0x00,0x00,0x00,0x00,0x00,0x00,0x00,0x00,0x00,0x00,0x00,0x00,0x00,0x00,0x00,0x00,0x00,0x00,0x00,0x00,0x00,0x00,0x00,0x00,0x00,0x00,0x00,0x00,0x00,0x00,0x00,0x00,0x00,0x00,0x00,0x00,0x00,0x00,0x00,0x00,0x00,0x00,0x00,0x00,0x00,0x00,0x00,0x00,0x00,0x00,0x00,0x00,0x00,0x00,0x00,0x00,0x00,0x00,0x00,0x00,0x00,0x00,0x00,0x00,0x00,0x00,0x00,0x00,0x00,0x00,0x00,0x00,0x00,0x00,0x00,0x00,0x00,0x00,0x00,0x00,0x00,0x00,0x00,0x00,0x00,0x00,0x00,0x00,0x00,0x00,0x00,0x00,0x00,0x00,0x00,0x00,0x00,0x00,0x00,0x00,0x00,0x00,0x00,0x00,0x00,0x00,0x00,0x00,0x00,0x00,0x00,0x00,0x00,0x00,0x00,0x00,0x00,0x00,0x00,0x00,0x00,0x00,0x00,0x00,0x00,0x00,0x00,0x00,0x00,0x00,0x00,0x00,0x00,0x00,0x00,0x00,0x00,0x00,0x00,0x00,0x00,0x00,0x00,0x00,0x00,0x00,0x00,0x00,0x00,0x00,0x00,0x00,0x00,0x00,0x00,0x00,0x00,0x00,0x00,0x00,0x00,0x00,0x00,0x00,0x00,0x00,0x00,0x00,0x00,0x00,0x00,0x00,0x00,0x00,0x00,0x00,0x00,0x00,0x00,0x00,0x00,0x00,0x00,0x00,0x00,0x00,0x00,0x00,0x00,0x00,0x00,0x00,0x00,0x00,0x00,0x00,0x00,0x00,0x00,0x00,0x00,0x00,0x00,0x00,0x00,0x00,0x00,0x00,0x00,0x00,0x00,0x00,0x00,0x00,0x00,0x00,0x00,0x00,0x00,0x00,0x00,0x00,0x00,0x00,0x00,0x00,0x00,0x00,0x00,0x00,0x00,0x00,0x00,0x00,0x00,0x00,0x00,0x00,0x00,0x00,0x00,0x00,0x00,0x00,0x00,0x00,0x00,0x00,0x00,0x00,0x00,0x00,0x00,0x00,0x00,0x00,0x00,0x00,0x00,0x00,0x00,0x00,0x00,0x00,0x00,0x00,0x00,0x00,0x00,0x00,0x00,0x00,0x00,0x00,0x00,0x00,0x00,0x00,0x00,0x00,0x00,0x00,0x00,0x00,0x00,0x00,0x00,0x00,0x00,0x00,0x00,0x00,0x00,0x00,0x00,0x00,0x00,0x00,0x00,0x00,0x00,0x00,0x00,0x00,0x00,0x00,0x00,0x00,0x00,0x00,0x00,0x00,0x00,0x00,0x00,0x00,0x00,0x00,0x00,0x00,0x00,0x00,0x00,0x00,0x00,0x00,0x00,0x00,0x00,0x00,0x00,0x00,0x00,0x00,0x00,0x00,0x00,0x00,0x00,0x00,0x00,0x00,0x00,0x00,0x00,0x00,0x00,0x00,0x00,0x00,0x00,0x00,0x00,0x00,0x00,0x00,0x00,0x00,0x00,0x00,0x00,0x00,0x00,0x00,0x00,0x00,0x00,0x00,0x00,0x00,0x00,0x00,0x00,0x00,0x00,0x00,0x00,0x00,0x00,0x00,0x00,0x00,0x00,0x00,0x00,0x00,0x00,0x00,0x00,0x00,0x00,0x00,0x00,0x00,0x00,0x00,0x00,0x00,0x00,0x00,0x00,0x00,0x00,0x00,0x00,0x00,0x00,0x00,0x00,0x00,0x00,0x00,0x00,0x00,0x00,0x00,0x00,0x00,0x00,0x00,0x00,0x00,0x00,0x00,0x00,0x00,0x00,0x00,0x00,0x00,0x00,0x00,0x00,0x00,0x00,0x00,0x00,0x00,0x00,0x00,0x00,0x00,0x00,0x00,0x00,0x00,0x00,0x00,0x00,0x00,0x00,0x00,0x00,0x00,0x00,0x00,0x00,0x00,0x00,0x00,0x00,0x00,0x00,0x00,0x00,0x00,0x00,0x00,0x00,0x00,0x00,0x00,0x00,0x00,0x00,0x00,0x00,0x00,0x00,0x00,0x00,0x00,0x00,0x00,0x00,0x00,0x00,0x00,0x00,0x00,0x00,0x00,0x00,0x00,0x00,0x00,0x00,0x00,0x00,0x00,0x00,0x00,0x00,0x00,0x00,0x00,0x00,0x00,0x00,0x00,0x00,0x00,0x00,0x00,0x00,0x00,0x00,0x00,0x00,0x00,0x00,0x00,0x00,0x00,0x00,0x00,0x00,0x00,0x00,0x00,0x00,0x00,0x00,0x00,0x00,0x00,0x00,0x00,0x00,0x00,0x00,0x00,0x00,0x00,0x00,0x00,0x00,0x00,0x00,0x00,0x00,0x00,0x00,0x00,0x00,0x00,0x00,0x00,0x00,0x00,0x00,0x00,0x00,0x00,0x00,0x00,0x00,0x00,0x00,0x00,0x00,0x00,0x00,0x00,0x00,0x00,0x00,0x00,0x00,0x00,0x00,0x00,0x00,0x00,0x00,0x00,0x00,0x00,0x00,0x00,0x00,0x00,0x00,0x00,0x00,0x00,0x00,0x00,0x00,0x00,0x00,0x00,0x00,0x00,0x00,0x00,0x00,0x00,0x00,0x00,0x00,0x00,0x00,0x00,0x00,0x00,0x00,0x00,0x00,0x00,0x00,0x00,0x00,0x00,0x00,0x00,0x00,0x00,0x00,0x00,0x00,0x00,0x00,0x00,0x00,0x00,0x00,0x00,0x00,0x00,0x00,0x00,0x00,0x00,0x00,0x00,0x00,0x00,0x00,0x00,0x00,0x00,0x00,0x00,0x00,0x00,0x00,0x00,0x00,0x00,0x00,0x00,0x00,0x00,0x00,0x00,0x00,0x00,0x00,0x00,0x00,0x00,0x00,0x00,0x00,0x00,0x00,0x00,0x00,0x00,0x00,0x00,0x00,0x00,0x00,0x00,0x00,0x00,0x00,0x00,0x00,0x00,0x00,0x00,0x00,0x00,0x00,0x00,0x00,0x00,0x00,0x00,0x00,0x00,0x00,0x00,0x00,0x00,0x00,0x00,0x00,0x00,0x00,0x00,0x00,0x00,0x00,0x00,0x00,0x00,0x00,0x00,0x00,0x00,0x00,0x00,0x00,0x00,0x00,0x00,0x00,0x00,0x00,0x00,0x00,0x00,0x00,0x00,0x00,0x00,0x00,0x00,0x00,0x00,0x00,0x00,0x00,0x00,0x00,0x00,0x00,0x00,0x00,0x00,0x00,0x00,0x00,0x00,0x00,0x00,0x00,0x00,0x00,0x00,0x00,0x00,0x00,0x00,0x00,0x00,0x00,0x00,0x00,0x00,0x00,0x00,0x00,0x00,0x00,0x00,0x00,0x00,0x00,0x00,0x00,0x00,0x00,0x00,0x00,0x00,0x00,0x00,0x00,0x00,0x00,0x00,0x00,0x00,0x00,0x00,0x00,0x00,0x00,0x00,0x00,0x00,0x00,0x00,0x00,0x00,0x00,0x00,0x00,0x00,0x00,0x00,0x00,0x00,0x00,0x00,0x00,0x00,0x00,0x00,0x00,0x00,0x00,0x00,0x00,0x00,0x00,0x00,0x00,0x00,0x00,0x00,0x00,0x00,0x00,0x00,0x00,0x00,0x00,0x00,0x00,0x00,0x00,0x00,0x00,0x00,0x00,0x00,0x00,0x00,0x00,0x00,0x00,0x00,0x00,0x00,0x00,0x00,0x00,0x00,0x00,0x00,0x00,0x00,0x00,0x00,0x00,0x00,0x00,0x00,0x00,0x00,0x00,0x00,0x00,0x00,0x00,0x00,0x00,0x00,0x00,0x00,0x00,0x00,0x00,0x00,0x00,0x00,0x00,0x00,0x00,0x00,0x00,0x00,0x00,0x00,0x00,0x00,0x00,0x00,0x00,0x00,0x00,0x00,0x00,0x00,0x00,0x00,0x00,0x00,0x00,0x00,0x00,0x00,0x00,0x00,0x00,0x00,0x00,0x00,0x00,0x00,0x00,0x00,0x00,0x00,0x00,0x00,0x00,0x00,0x00,0x00,0x00,0x00,0x00,0x00,0x00,0x00,0x00,0x00,0x00,0x00,0x00,0x00,0x00,0x00,0x00,0x00,0x00,0x00,0x00,0x00,0x00,0x00,0x00,0x00,0x00,0x00,0x00,0x00,0x00,0x00,0x00,0x00,0x00,0x00,0x00,0x00,0x00,0x00,0x00,0x00,0x00,0x00,0x00,0x00,0x00,0x00,0x00,0x00,0x00,0x00,0x00,0x00,0x00,0x00,0x00,0x00,0x00,0x00,0x00,0x00,0x00,0x00,0x00,0x00,0x00,0x00,0x00,0x00,0x00,0x00,0x00,0x00,0x00,0x00,0x00,0x00,0x00,0x00,0x00,0x00,0x00,0x00,0x00,0x00,0x00,0x00,0x00,0x00,0x00,0x00,0x00,0x00,0x00,0x00,0x00,0x00,0x00,0x00,0x00,0x00,0x00,0x00,0x00,0x00,0x00,0x00,0x00,0x00,0x00,0x00,0x00,0x00,0x00,0x00,0x00,0x00,0x00,0x00,0x00,0x00,0x00,0x00,0x00,0x00,0x00,0x00,0x00,0x00,0x00,0x00,0x00,0x00,0x00,0x00,0x00,0x00,0x00,0x00,0x00,0x00,0x00,0x00,0x00,0x00,0x00,0x00,0x00,0x00,0x00,0x00,0x00,0x00,0x00,0x00,0x00,0x00,0x00,0x00,0x00,0x00,0x00,0x00,0x00,0x00,0x00,0x00,0x00,0x00,0x00,0x00,0x00,0x00,0x00,0x00,0x00,0x00,0x00,0x00,0x00,0x00,0x00,0x00,0x00,0x00,0x00,0x00,0x00,0x00,0x00,0x00,0x00,0x00,0x00,0x00,0x00,0x00,0x00,0x00,0x00,0x00,0x00,0x00,0x00,0x00,0x00,0x00,0x00,0x00,0x00,0x00,0x00,0x00,0x00,0x00,0x00,0x00,0x00,0x00,0x00,0x00,0x00,0x00,0x00,0x00,0x00,0x00,0x00,0x00,0x00,0x00,0x00,0x00,0x00,0x00,0x00,0x00,0x00,0x00,0x00,0x00,0x00,0x00,0x00,0x00,0x00,0x00,0x00,0x00,0x00,0x00,0x00,0x00,0x00,0x00,0x00,0x00,0x00,0x00,0x00,0x00,0x00,0x00,0x00,0x00,0x00,0x00,0x00,0x00,0x00,0x00,0x00,0x00,0x00,0x00,0x00,0x00,0x00,0x00,0x00,0x00,0x00,0x00,0x00,0x00,0x00,0x00,0x00,0x00,0x00,0x00,0x00,0x00,0x00,0x00,0x00,0x00,0x00,0x00,0x00,0x00,0x00,0x00,0x00,0x00,0x00,0x00,0x00,0x00,0x00,0x00,0x00,0x00,0x00,0x00,0x00,0x00,0x00,0x00,0x00,0x00,0x00,0x00,0x00,0x00,0x00,0x00,0x00,0x00,0x00,0x00,0x00,0x00,0x00,0x00,0x00,0x00,0x00,0x00,0x00,0x00,0x00,0x00,0x00,0x00,0x00,0x00,0x00,0x00,0x00,0x00,0x00,0x00,0x00,0x00,0x00,0x00,0x00,0x00,0x00,0x00,0x00,0x00,0x00,0x00,0x00,0x00,0x00,0x00,0x00,0x00,0x00,0x00,0x00,0x00,0x00,0x00,0x00,0x00,0x00,0x00,0x00,0x00,0x00,0x00,0x00,0x00,0x00,0x00,0x00,0x00,0x00,0x00,0x00,0x00,0x00,0x00,0x00,0x00,0x00,0x00,0x00,0x00,0x00,0x00,0x00,0x00,0x00,0x00,0x00,0x00,0x00,0x00,0x00,0x00,0x00,0x00,0x00,0x00,0x00,0x00,0x00,0x00,0x00,0x00,0x00,0x00,0x00,0x00,0x00,0x00,0x00,0x00,0x00,0x00,0x00,0x00,0x00,0x00,0x00,0x00,0x00,0x00,0x00,0x00,0x00,0x00,0x00,0x00,0x00,0x00,0x00,0x00,0x00,0x00,0x00,0x00,0x00,0x00,0x00,0x00,0x00,0x00,0x00,0x00,0x00,0x00,0x00,0x00,0x00,0x00,0x00,0x00,0x00,0x00,0x00,0x00,0x00,0x00,0x00,0x00,0x00,0x00,0x00,0x00,0x00,0x00,0x00,0x00,0x00,0x00,0x00,0x00,0x00,0x00,0x00,0x00,0x00,0x00,0x00,0x00,0x00,0x00,0x00,0x00,0x00,0x00,0x00,0x00,0x00,0x00,0x00,0x00,0x00,0x00,0x00,0x00,0x00,0x00,0x00,0x00,0x00,0x00,0x00,0x00,0x00,0x00,0x00,0x00,0x00,0x00,0x00,0x00,0x00,0x00,0x00,0x00,0x00,0x00,0x00,0x00,0x00,0x00,0x00,0x00,0x00,0x00,0x00,0x00,0x00,0x00,0x00,0x00,0x00,0x00,0x00,0x00,0x00,0x00,0x00,0x00,0x00,0x00,0x00,0x00,0x00,0x00,0x00,0x00,0x00,0x00,0x00,0x00,0x00,0x00,0x00,0x00,0x00,0x00,0x00,0x00,0x00,0x00,0x00,0x00,0x00,0x00,0x00,0x00,0x00,0x00,0x00,0x00,0x00,0x00,0x00,0x00,0x00,0x00,0x00,0x00,0x00,0x00,0x00,0x00,0x00,0x00,0x00,0x00,0x00,0x00,0x00,0x00,0x00,0x00,0x00,0x00,0x00,0x00,0x00,0x00,0x00,0x00,0x00,0x00,0x00,0x00,0x00,0x00,0x00,0x00,0x00,0x00,0x00,0x00,0x00,0x00,0x00,0x00,0x00,0x00,0x00,0x00,0x00,0x00,0x00,0x00,0x00,0x00,0x00,0x00,0x00,0x00,0x00,0x00,0x00,0x00,0x00,0x00,0x00,0x00,0x00,0x00,0x00,0x00,0x00,0x00,0x00,0x00,0x00,0x00,0x00,0x00,0x00,0x00,0x00,0x00,0x00,0x00,0x00,0x00,0x00,0x00,0x00,0x00,0x00,0x00,0x00,0x00,0x00,0x00,0x00,0x00,0x00,0x00,0x00,0x00,0x00,0x00,0x00,0x00,0x00,0x00,0x00,0x00,0x00,0x00,0x00,0x00,0x00,0x00,0x00,0x00,0x00,0x00,0x00,0x00,0x00,0x00,0x00,0x00,0x00,0x00,0x00,0x00,0x00,0x00,0x00,0x00,0x00,0x00,0x00,0x00,0x00,0x00,0x00,0x00,0x00,0x00,0x00,0x00,0x00,0x00,0x00,0x00,0x00,0x00,0x00,0x00,0x00,0x00,0x00,0x00,0x00,0x00,0x00,0x00,0x00,0x00,0x00,0x00,0x00,0x00,0x00,0x00,0x00,0x00,0x00,0x00,0x00,0x00,0x00,0x00,0x00,0x00,0x00,0x00,0x00,0x00,0x00,0x00,0x00,0x00,0x00,0x00,0x00,0x00,0x00,0x00,0x00,0x00,0x00,0x00,0x00,0x00,0x00,0x00,0x00,0x00,0x00,0x00,0x00,0x00,0x00,0x00,0x00,0x00,0x00,0x00,0x00,0x00,0x00,0x00,0x00,0x00,0x00,0x00,0x00,0x00,0x00,0x00,0x00,0x00,0x00,0x00,0x00,0x00,0x00,0x00,0x00,0x00,0x00,0x00,0x00,0x00,0x00,0x00,0x00,0x00,0x00,0x00,0x00,0x00,0x00,0x00,0x00,0x00,0x00,0x00,0x00,0x00,0x00,0x00,0x00,0x00,0x00,0x00,0x00,0x00,0x00,0x00,0x00,0x00,0x00,0x00,0x00,0x00,0x00,0x00,0x00,0x00,0x00,0x00,0x00,0x00,0x00,0x00,0x00,0x00,0x00,0x00,0x00,0x00,0x00,0x00,0x00,0x00,0x00,0x00,0x00,0x00,0x00,0x00,0x00,0x00,0x00,0x00,0x00,0x00,0x00,0x00,0x00,0x00,0x00,0x00,0x00,0x00,0x00,0x00,0x00,0x00,0x00,0x00,0x00,0x00,0x00,0x00,0x00,0x00,0x00,0x00,0x00,0x00,0x00,0x00,0x00,0x00,0x00,0x00,0x00,0x00,0x00,0x00,0x00,0x00,0x00,0x00,0x00,0x00,0x00,0x00,0x00,0x00,0x00,0x00,0x00,0x00,0x00,0x00,0x00,0x00,0x00,0x00,0x00,0x00,0x00,0x00,0x00,0x00,0x00,0x00,0x00,0x00,0x00,0x00,0x00,0x00,0x00,0x00,0x00,0x00,0x00,0x00,0x00,0x00,0x00,0x00,0x00,0x00,0x00,0x00,0x00,0x00,0x00,0x00,0x00,0x00,0x00,0x00,0x00,0x00,0x00,0x00,0x00,0x00,0x00,0x00,0x00,0x00,0x00,0x00,0x00,0x00,0x00,0x00,0x00,0x00,0x00,0x00,0x00,0x00,0x00,0x00,0x00,0x00,0x00,0x00,0x00,0x00,0x00,0x00,0x00,0x00,0x00,0x00,0x00,0x00,0x00,0x00,0x00,0x00,0x00,0x00,0x00,0x00,0x00,0x00,0x00,0x00,0x00,0x00,0x00,0x00,0x00,0x00,0x00,0x00,0x00,0x00,0x00,0x00,0x00,0x00,0x00,0x00,0x00,0x00,0x00,0x00,0x00,0x00,0x00,0x00,0x00,0x00,0x00,0x00,0x00,0x00,0x00,0x00,0x00,0x00,0x00,0x00,0x00,0x00,0x00,0x00,0x00,0x00,0x00,0x00,0x00,0x00,0x00,0x00,0x00,0x00,0x00,0x00,0x00,0x00,0x00,0x00,0x00,0x00,0x00,0x00,0x00,0x00,0x00,0x00,0x00,0x00,0x00,0x00,0x00,0x00,0x00,0x00,0x00,0x00,0x00,0x00,0x00,0x00,0x00,0x00,0x00,0x00,0x00,0x00,0x00,0x00,0x00,0x00,0x00,0x00,0x00,0x00,0x00,0x00,0x00,0x00,0x00,0x00,0x00,0x00,0x00,0x00,0x00,0x00,0x00,0x00,0x00,0x00,0x00,0x00,0x00,0x00,0x00,0x00,0x00,0x00,0x00,0x00,0x00,0x00,0x00,0x00,0x00,0x00,0x00,0x00,0x00,0x00,0x00,0x00,0x00,0x00,0x00,0x00,0x00,0x00,0x00,0x00,0x00,0x00,0x00,0x00,0x00,0x00,0x00,0x00,0x00,0x00,0x00,0x00,0x00,0x00,0x00,0x00,0x00,0x00,0x00,0x00,0x00,0x00,0x00,0x00,0x00,0x00,0x00,0x00,0x00,0x00,0x00,0x00,0x00,0x00,0x00,0x00,0x00,0x00,0x00,0x00,0x00,0x00,0x00,0x00,0x00,0x00,0x00,0x00,0x00,0x00,0x00,0x00,0x00,0x00,0x00,0x00,0x00,0x00,0x00,0x00,0x00,0x00,0x00,0x00,0x00,0x00,0x00,0x00,0x00,0x00,0x00,0x00,0x00,0x00,0x00,0x00,0x00,0x00,0x00,0x00,0x00,0x00,0x00,0x00,0x00,0x00,0x00,0x00,0x00,0x00,0x00,0x00,0x00,0x00,0x00,0x00,0x00,0x00,0x00,0x00,0x00,0x00,0x00,0x00,0x00,0x00,0x00,0x00,0x00,0x00,0x00,0x00,0x00,0x00,0x00,0x00,0x00,0x00,0x00,0x00,0x00,0x00,0x00,0x00,0x00,0x00,0x00,0x00,0x00,0x00,0x00,0x00,0x00,0x00,0x00,0x00,0x00,0x00,0x00,0x00,0x00,0x00,0x00,0x00,0x00,0x00,0x00,0x00,0x00,0x00,0x00,0x00,0x00,0x00,0x00,0x00,0x00,0x00,0x00,0x00,0x00,0x00,0x00,0x00,0x00,0x00,0x00,0x00,0x00,0x00,0x00,0x00,0x00,0x00,0x00,0x00,0x00,0x00,0x00,0x00,0x00,0x00,0x00,0x00,0x00,0x00,0x00,0x00,0x00,0x00,0x00,0x00,0x00,0x00,0x00,0x00,0x00,0x00,0x00,0x00,0x00,0x00,0x00,0x00,0x00,0x00,0x00,0x00,0x00,0x00,0x00,0x00,0x00,0x00,0x00,0x00,0x00,0x00,0x00,0x00,0x00,0x00,0x00,0x00,0x00,0x00,0x00,0x00,0x00,0x00,0x00,0x00,0x00,0x00,0x00,0x00,0x00,0x00,0x00,0x00,0x00,0x00,0x00,0x00,0x00,0x00,0x00,0x00,0x00,0x00,0x00,0x00,0x00,0x00,0x00,0x00,0x00,0x00,0x00,0x00,0x00,0x00,0x00,0x00,0x00,0x00,0x00,0x00,0x00,0x00,0x00,0x00,0x00,0x00,0x00,0x00,0x00,0x00,0x00,0x00,0x00,0x00,0x00,0x00,0x00,0x00,0x00,0x00,0x00,0x00,0x00,0x00,0x00,0x00,0x00,0x00,0x00,0x00,0x00,0x00,0x00,0x00,0x00,0x00,0x00,0x00,0x00,0x00,0x00,0x00,0x00,0x00,0x00,0x00,0x00,0x00,0x00,0x00,0x00,0x00,0x00,0x00,0x00,0x00,0x00,0x00,0x00,0x00,0x00,0x00,0x00,0x00,0x00,0x00,0x00,0x00,0x00,0x00,0x00,0x00,0x00,0x00,0x00,0x00,0x00,0x00,0x00,0x00,0x00,0x00,0x00,0x00,0x00,0x00,0x00,0x00,0x00,0x00,0x00,0x00,0x00,0x00,0x00,0x00,0x00,0x00,0x00,0x00,0x00,0x00,0x00,0x00,0x00,0x00,0x00,0x00,0x00,0x00,0x00,0x00,0x00,0x00,0x00,0x00,0x00,0x00,0x00,0x00,0x00,0x00,0x00,0x00,0x00,0x00,0x00,0x00,0x00,0x00,0x00,0x00,0x00,0x00,0x00,0x00,0x00,0x00,0x00,0x00,0x00,0x00,0x00,0x00,0x00,0x00,0x00,0x00,0x00,0x00,0x00,0x00,0x00,0x00,0x00,0x00,0x00,0x00,0x00,0x00,0x00,0x00,0x00,0x00,0x00,0x00,0x00,0x00,0x00,0x00,0x00,0x00,0x00,0x00,0x00,0x00,0x00,0x00,0x00,0x00,0x00,0x00,0x00,0x00,0x00,0x00,0x00,0x00,0x00,0x00,0x00,0x00,0x00,0x00,0x00,0x00,0x00,0x00,0x00,0x00,0x00,0x00,0x00,0x00,0x00,0x00,0x00,0x00,0x00,0x00,0x00,0x00,0x00,0x00,0x00,0x00,0x00,0x00,0x00,0x00,0x7f,0x00,0x00,0x00,0x00,0x00,0x00,0x00,0x00,0x00,0x00,0x00,0x00,0x00,0x00,0x00,0x00,0x00,0x00,0x00,0x00,0x00,0x00,0x00,0x00,0x00,0x00,0x00,0x00,0x00,0x00,0x00,0x00,0x00,0x00,0x00,0x00,0x00,0x00,0x00,0x00,0x00,0x00,0x00,0x00,0x00,0x00,0x00,0x00,0x00,0x00,0x00,0x00,0x00,0x00,0x00,0x00,0x00,0x00,0x00,0x00,0x00,0x00,0x00,0x00,0x00,0x00,0x00,0x00,0x00,0x00,0x00,0x00,0x00,0x00,0x00,0x00,0x00,0x00,0x00,0x00,0x00,0x00,0x00,0x00,0x00,0x00,0x00,0x00,0x00,0x00,0x00,0x00,0x00,0x00,0x00,0x00,0x00,0x00,0x00,0x00,0x00,0x00,0x00,0x00,0x00,0x00,0x00,0x00,0x00,0x00,0x00,0x00,0x00,0x00,0x00,0x00,0x00,0x00,0x00,0x00,0x00,0x00,0x00,0x00,0x00,0x00,0x00,0x00,0x00,0x00,0x00,0x00,0x00,0x00,0x00,0x00,0x00,0x00,0x00,0x00,0x00,0x00,0x00,0x00,0x00,0x00,0x00,0x00,0x00,0x00,0x00,0x00,0x00,0x00,0x00,0x00,0x00,0x00,0x00,0x00,0x00,0x00,0x00,0x00,0x00,0x00,0x00,0x00,0x00,0x00,0x00,0x00,0x00,0x00,0x00,0x00,0x00,0x00,0x00,0x00,0x00,0x00,0x00,0x00,0x00,0x00,0x00,0x00,0x00,0x00,0x00,0x00,0x00,0x00,0x00,0x00,0x00,0x00,0x00,0x00,0x00,0x00,0x00,0x00,0x00,0x00,0x00,0x00,0x00,0x00,0x00,0x00,0x00,0x00,0x00,0x00,0x00,0x00,0x00,0x00,0x00,0x00,0x00,0x00,0x00,0x00,0x00,0x00,0x00,0x00,0x00,0x00,0x00,0x00,0x00,0x00,0x00,0x00,0x00,0x00,0x00,0x00,0x00,0x00,0x00,0x00,0x00,0x00,0x00,0x00,0x00,0x00,0x00,0x00,0x00,0x00,0x00,0x00,0x00,0x00,0x00,0x00,0x00,0x00,0x00,0x00,0x00,0x00,0x00,0x00,0x00,0x00,0x00,0x00,0x00,0x00,0x00,0x00,0x00,0x00,0x00,0x00,0x00,0x00,0x00,0x00,0x00,0x00,0x00,0x00,0x00,0x00,0x00,0x00,0x00,0x00,0x00,0x00,0x00,0x00,0x00,0x00,0x00,0x00,0x00,0x00,0x00,0x00,0x00,0x00,0x00,0x00,0x00,0x00,0x00,0x00,0x00,0x00,0x00,0x00,0x00,0x00,0x00,0x00,0x00,0x00,0x00,0x00,0x00,0x00,0x00,0x00,0x00,0x00,0x00,0x00,0x00,0x00,0x00,0x00,0x00,0x00,0x00,0x00,0x00,0x00,0x00,0x00,0x00,0x00,0x00,0x00,0x00,0x00,0x00,0x00,0x00,0x00,0x00,0x00,0x00,0x00,0x00,0x00,0x00,0x00,0x00,0x00,0x00,0x00,0x00,0x00,0x00,0x00,0x00,0x00,0x00,0x00,0x00,0x00,0x00,0x00,0x00,0x00,0x00,0x00,0x00,0x00,0x00,0x00,0x00,0x00,0x00,0x00,0x00,0x00,0x00,0x00,0x00,0x00,0x00,0x00,0x00,0x00,0x00,0x00,0x00,0x00,0x00,0x00,0x00,0x00,0x00,0x00,0x00,0x00,0x00,0x00,0x00,0x00,0x00,0x00,0x00,0x00,0x00,0x00,0x00,0x00,0x00,0x00,0x00,0x00,0x00,0x00,0x00,0x00,0x00,0x00,0x00,0x00,0x00,0x00,0x00,0x00,0x00,0x00,0x00,0x00,0x00,0x00,0x00,0x00,0x00,0x00,0x00,0x00,0x00,0x00,0x00,0x00,0x00,0x00,0x00,0x00,0x00,0x00,0x00,0x00,0x00,0x00,0x00,0x00,0x00,0x00,0x00,0x00,0x00,0x00,0x00,0x00,0x00,0x00,0x00,0x00,0x00,0x00,0x00,0x00,0x00,0x00,0x00,0x00,0x00,0x00,0x00,0x00,0x00,0x00,0x00,0x00,0x00,0x00,0x00,0x00,0x00,0x00,0x00,0x00,0x00,0x00,0x00,0x00,0x00,0x00,0x00,0x00,0x00,0x00,0x00,0x00,0x00,0x00,0x00,0x00,0x00,0x00,0x00,0x00,0x00,0x00,0x00,0x00,0x00,0x00,0x00,0x00,0x00,0x00,0x00,0x00,0x00,0x00,0x00,0x00,0x00,0x00,0x00,0x00,0x00,0x00,0x00,0x00,0x00,0x00,0x00,0x00,0x00,0x00,0x00,0x00,0x00,0x00,0x00,0x00,0x00,0x00,0x00,0x00,0x00,0x00,0x00,0x00,0x00,0x00,0x00,0x00,0x00,0x00,0x00,0x00,0x00,0x00,0x00,0x00,0x00,0x00,0x00,0x00,0x00,0x00,0x00,0x00,0x00,0x00,0x00,0x00,0x00,0x00,0x00,0x00,0x00,0x00,0x00,0x00,0x00,0x00,0x00,0x00,0x00,0x00,0x00,0x00,0x00,0x00,0x00,0x00,0x00,0x00,0x00,0x00,0x00,0x00,0x00,0x00,0x00,0x00,0x00,0x00,0x00,0x00,0x00,0x00,0x00,0x00,0x00,0x00,0x00,0x00,0x00,0x00,0x00,0x00,0x00,0x00,0x00,0x00,0x00,0x00,0x00,0x00,0x00,0x00,0x00,0x00,0x00,0x00,0x00,0x00,0x00,0x00,0x00,0x00,0x00,0x00,0x00,0x00,0x00,0x00,0x00,0x00,0x00,0x00,0x00,0x00,0x00,0x00,0x00,0x00,0x00,0x00,0x00,0x00,0x00,0x00,0x00,0x00,0x00,0x00,0x00,0x00,0x00,0x00,0x00,0x00,0x00,0x00,0x00,0x00,0x00,0x00,0x00,0x00,0x00,0x00,0x00,0x00,0x00,0x00,0x00,0x00,0x00,0x00,0x00,0x00,0x00,0x00,0x00,0x00,0x00,0x00,0x00,0x00,0x00,0x00,0x00,0x00,0x00,0x00,0x00,0x00,0x00,0x00,0x00,0x00,0x00,0x00,0x00,0x00,0x00,0x00,0x00,0x00,0x00,0x00,0x00,0x00,0x00,0x00,0x00,0x00,0x00,0x00,0x00,0x00,0x00,0x00,0x00,0x00,0x00,0x00,0x00,0x00,0x00,0x00,0x00,0x00,0x00,0x00,0x00,0x00,0x00,0x00,0x00,0x00,0x00,0x00,0x00,0x00,0x00,0x00,0x00,0x00,0x00,0x00,0x00,0x00,0x00,0x00,0x00,0x00,0x00,0x00,0x00,0x00,0x00,0x00,0x00,0x00,0x00,0x00,0x00,0x00,0x00,0x00,0x00,0x00,0x00,0x00,0x00,0x00,0x00,0x00,0x00,0x00,0x00,0x00,0x00,0x00,0x00,0x00,0x00,0x00,0x00,0x00,0x00,0x00,0x00,0x00,0x00,0x00,0x00,0x00,0x00,0x00,0x00,0x00,0x00,0x00,0x00,0x00,0x00,0x00,0x00,0x00,0x00,0x00,0x00,0x00,0x00,0x00,0x00,0x00,0x00,0x00,0x00,0x00,0x00,0x00,0x00,0x00,0x00,0x00,0x00,0x00,0x00,0x00,0x00,0x00,0x00,0x00,0x00,0x00,0x00,0x00,0x00,0x00,0x00,0x00,0x00,0x00,0x00,0x00,0x00,0x00,0x00,0x00,0x00,0x00,0x00,0x00,0x00,0x00,0x00,0x00,0x00,0x00,0x00,0x00,0x00,0x00,0x00,0x00,0x00,0x00,0x00,0x00,0x00,0x00,0x00,0x00,0x00,0x00,0x00,0x00,0x00,0x00,0x00,0x00,0x00,0x00,0x00,0x00,0x00,0x00,0x00,0x00,0x00,0x00,0x00,0x00,0x00,0x00,0x00,0x00,0x00,0x00,0x00,0x00,0x00,0x00,0x00,0x00,0x00,0x00,0x00,0x00,0x00,0x00,0x00,0x00,0x00,0x00,0x00,0x00,0x00,0x00,0x00,0x00,0x00,0x00,0x00,0x00,0x00,0x00,0x00,0x00,0x00,0x00,0x00,0x00,0x00,0x00,0x00,0x00,0x00,0x00,0x00,0x00,0x00,0x00,0x00,0x00,0x00,0x00,0x00,0x00,0x00,0x00,0x00,0x00,0x00,0x00,0x00,0x00,0x00,0x00,0x00,0x00,0x00,0x00,0x00,0x00,0x00,0x00,0x00,0x00,0x00,0x00,0x00,0x00,0x00,0x00,0x00,0x00,0x00,0x00,0x00,0x00,0x00,0x00,0x00,0x00,0x00,0x00,0x00,0x00,0x00,0x00,0x71,0x81,0x40,0x40,0x1f,0x00,0x00,0x00,0x00,0x00,0x71,0x81,0x40,0x40,0x1f,0x00,0x00,0x00,0x00,0x00,0x71,0x81,0x40,0x40,0x1f,0x00,0x00,0x00,0x00,0x00,0x71,0x81,0x40,0x40,0x1f,0x00,0x00,0x00,0x00,0x00,0x71,0x81,0x40,0x40,0x1f,0x00,0x00,0x00,0x00,0x00,0x71,0x81,0x40,0x40,0x1f,0x00,0x00,0x00,0x00,0x00,0x71,0x81,0x40,0x40,0x1f,0x00,0x00,0x00,0x00,0x00,0x71,0x81,0x40,0x40,0x1f,0x00,0x00,0x00,0x00,0x00,0x71,0x81,0x40,0x40,0x1f,0x00,0x00,0x00,0x00,0x00,0x71,0x81,0x40,0x40,0x1f,0x00,0x00,0x00,0x00,0x00,0x71,0x81,0x40,0x40,0x1f,0x00,0x00,0x00,0x00,0x00,0x71,0x81,0x40,0x40,0x1f,0x00,0x00,0x00,0x00,0x00,0x71,0x81,0x40,0x40,0x1f,0x00,0x00,0x00,0x00,0x00,0x71,0x81,0x40,0x40,0x1f,0x00,0x00,0x00,0x00,0x00,0x71,0x81,0x40,0x40,0x1f,0x00,0x00,0x00,0x00,0x00,0x71,0x81,0x40,0x40,0x1f,0x00,0x00,0x00,0x00,0x00,0x71,0x81,0x40,0x40,0x1f,0x00,0x00,0x00,0x00,0x00,0x71,0x81,0x40,0x40,0x1f,0x00,0x00,0x00,0x00,0x00,0x71,0x81,0x40,0x40,0x1f,0x00,0x00,0x00,0x00,0x00,0x71,0x81,0x40,0x40,0x1f,0x00,0x00,0x00,0x00,0x00,0x71,0x81,0x40,0x40,0x1f,0x00,0x00,0x00,0x00,0x00,0x71,0x81,0x40,0x40,0x1f,0x00,0x00,0x00,0x00,0x00,0x71,0x81,0x40,0x40,0x1f,0x00,0x00,0x00,0x00,0x00,0x71,0x81,0x40,0x40,0x1f,0x00,0x00,0x00,0x00,0x00,0x71,0x81,0x40,0x40,0x1f,0x00,0x00,0x00,0x00,0x00,0x71,0x81,0x40,0x40,0x1f,0x00,0x00,0x00,0x00,0x00,0x71,0x81,0x40,0x40,0x1f,0x00,0x00,0x00,0x00,0x00,0x71,0x81,0x40,0x40,0x1f,0x00,0x00,0x00,0x00,0x00,0x71,0x81,0x40,0x40,0x1f,0x00,0x00,0x00,0x00,0x00,0x71,0x81,0x40,0x40,0x1f,0x00,0x00,0x00,0x00,0x00,0x71,0x81,0x40,0x40,0x1f,0x00,0x00,0x00,0x00,0x00,0x71,0x81,0x40,0x40,0x1f,0x00,0x00,0x00,0x00,0x00,0x71,0x81,0x40,0x40,0x1f,0x00,0x00,0x00,0x00,0x00,0x71,0x81,0x40,0x40,0x1f,0x00,0x00,0x00,0x00,0x00,0x71,0x81,0x40,0x40,0x1f,0x00,0x00,0x00,0x00,0x00,0x71,0x81,0x40,0x40,0x1f,0x00,0x00,0x00,0x00,0x00,0x71,0x81,0x40,0x40,0x1f,0x00,0x00,0x00,0x00,0x00,0x71,0x81,0x40,0x40,0x1f,0x00,0x00,0x00,0x00,0x00,0x71,0x81,0x40,0x40,0x1f,0x00,0x00,0x00,0x00,0x00,0x71,0x81,0x40,0x40,0x1f,0x00,0x00,0x00,0x00,0x00,0x71,0x81,0x40,0x40,0x1f,0x00,0x00,0x00,0x00,0x00,0x71,0x81,0x40,0x40,0x1f,0x00,0x00,0x00,0x00,0x00,0x71,0x81,0x40,0x40,0x1f,0x00,0x00,0x00,0x00,0x00,0x71,0x81,0x40,0x40,0x1f,0x00,0x00,0x00,0x00,0x00,0x71,0x81,0x40,0x40,0x1f,0x00,0x00,0x00,0x00,0x00,0x71,0x81,0x40,0x40,0x1f,0x00,0x00,0x00,0x00,0x00,0x71,0x81,0x40,0x40,0x1f,0x00,0x00,0x00,0x00,0x00,0x71,0x81,0x40,0x40,0x1f,0x00,0x00,0x00,0x00,0x00,0x71,0x81,0x40,0x40,0x1f,0x00,0x00,0x00,0x00,0x00,0x71,0x81,0x40,0x40,0x1f,0x00,0x00,0x00,0x00,0x00,0x71,0x81,0x40,0x40,0x1f,0x00,0x00,0x00,0x00,0x00,0x71,0x81,0x40,0x40,0x1f,0x00,0x00,0x00,0x00,0x00,0x71,0x81,0x40,0x40,0x1f,0x00,0x00,0x00,0x00,0x00,0x71,0x81,0x40,0x40,0x1f,0x00,0x00,0x00,0x00,0x00,0x71,0x81,0x40,0x40,0x1f,0x00,0x00,0x00,0x00,0x00,0x71,0x81,0x40,0x40,0x1f,0x00,0x00,0x00,0x00,0x00,0x71,0x81,0x40,0x40,0x1f,0x00,0x00,0x00,0x00,0x00,0x71,0x81,0x40,0x40,0x1f,0x00,0x00,0x00,0x00,0x00,0x71,0x81,0x40,0x40,0x1f,0x00,0x00,0x00,0x00,0x00,0x71,0x81,0x40,0x40,0x1f,0x00,0x00,0x00,0x00,0x00,0x71,0x81,0x40,0x40,0x1f,0x00,0x00,0x00,0x00,0x00,0x71,0x81,0x40,0x40,0x1f,0x00,0x00,0x00,0x00,0x00,0x71,0x81,0x40,0x40,0x1f,0x00,0x00,0x00,0x00,0x00,0x71,0x81,0x40,0x40,0x1f,0x00,0x00,0x00,0x00,0x00,0x71,0x81,0x40,0x40,0x1f,0x00,0x00,0x00,0x00,0x00,0x71,0x81,0x40,0x40,0x1f,0x00,0x00,0x00,0x00,0x00,0x71,0x81,0x40,0x40,0x1f,0x00,0x00,0x00,0x00,0x00,0x71,0x81,0x40,0x40,0x1f,0x00,0x00,0x00,0x00,0x00,0x71,0x81,0x40,0x40,0x1f,0x00,0x00,0x00,0x00,0x00,0x71,0x81,0x40,0x40,0x1f,0x00,0x00,0x00,0x00,0x00,0x71,0x81,0x40,0x40,0x1f,0x00,0x00,0x00,0x00,0x00,0x71,0x81,0x40,0x40,0x1f,0x00,0x00,0x00,0x00,0x00,0x71,0x81,0x40,0x40,0x1f,0x00,0x00,0x00,0x00,0x00,0x71,0x81,0x40,0x40,0x1f,0x00,0x00,0x00,0x00,0x00,0x71,0x81,0x40,0x40,0x1f,0x00,0x00,0x00,0x00,0x00,0x71,0x81,0x40,0x40,0x1f,0x00,0x00,0x00,0x00,0x00,0x71,0x81,0x40,0x40,0x1f,0x00,0x00,0x00,0x00,0x00,0x71,0x81,0x40,0x40,0x1f,0x00,0x00,0x00,0x00,0x00,0x71,0x81,0x40,0x40,0x1f,0x00,0x00,0x00,0x00,0x00,0x71,0x81,0x40,0x40,0x1f,0x00,0x00,0x00,0x00,0x00,0x71,0x81,0x40,0x40,0x1f,0x00,0x00,0x00,0x00,0x00,0x71,0x81,0x40,0x40,0x1f,0x00,0x00,0x00,0x00,0x00,0x71,0x81,0x40,0x40,0x1f,0x00,0x00,0x00,0x00,0x00,0x71,0x81,0x40,0x40,0x1f,0x00,0x00,0x00,0x00,0x00,0x71,0x81,0x40,0x40,0x1f,0x00,0x00,0x00,0x00,0x00,0x71,0x81,0x40,0x40,0x1f,0x00,0x00,0x00,0x00,0x00,0x71,0x81,0x40,0x40,0x1f,0x00,0x00,0x00,0x00,0x00,0x71,0x81,0x40,0x40,0x1f,0x00,0x00,0x00,0x00,0x00,0x71,0x81,0x40,0x40,0x1f,0x00,0x00,0x00,0x00,0x00,0x71,0x81,0x40,0x40,0x1f,0x00,0x00,0x00,0x00,0x00,0x71,0x81,0x40,0x40,0x1f,0x00,0x00,0x00,0x00,0x00,0x71,0x81,0x40,0x40,0x1f,0x00,0x00,0x00,0x00,0x00,0x71,0x81,0x40,0x40,0x1f,0x00,0x00,0x00,0x00,0x00,0x71,0x81,0x40,0x40,0x1f,0x00,0x00,0x00,0x00,0x00,0x71,0x81,0x40,0x40,0x1f,0x00,0x00,0x00,0x00,0x00,0x71,0x81,0x40,0x40,0x1f,0x00,0x00,0x00,0x00,0x00,0x71,0x81,0x40,0x40,0x1f,0x00,0x00,0x00,0x00,0x00,0x71,0x81,0x40,0x40,0x1f,0x00,0x00,0x00,0x00,0x00,0x71,0x81,0x40,0x40,0x1f,0x00,0x00,0x00,0x00,0x00,0x71,0x81,0x40,0x40,0x1f,0x00,0x00,0x00,0x00,0x00,0x71,0x81,0x40,0x40,0x1f,0x00,0x00,0x00,0x00,0x00,0x71,0x81,0x40,0x40,0x1f,0x00,0x00,0x00,0x00,0x00,0x71,0x81,0x40,0x40,0x1f,0x00,0x00,0x00,0x00,0x00,0x71,0x81,0x40,0x40,0x1f,0x00,0x00,0x00,0x00,0x00,0x71,0x81,0x40,0x40,0x1f,0x00,0x00,0x00,0x00,0x00,0x71,0x81,0x40,0x40,0x1f,0x00,0x00,0x00,0x00,0x00,0x71,0x81,0x40,0x40,0x1f,0x00,0x00,0x00,0x00,0x00,0x71,0x81,0x40,0x40,0x1f,0x00,0x00,0x00,0x00,0x00,0x71,0x81,0x40,0x40,0x1f,0x00,0x00,0x00,0x00,0x00,0x71,0x81,0x40,0x40,0x1f,0x00,0x00,0x00,0x00,0x00,0x71,0x81,0x40,0x40,0x1f,0x00,0x00,0x00,0x00,0x00,0x71,0x81,0x40,0x40,0x1f,0x00,0x00,0x00,0x00,0x00,0x71,0x81,0x40,0x40,0x1f,0x00,0x00,0x00,0x00,0x00,0x71,0x81,0x40,0x40,0x1f,0x00,0x00,0x00,0x00,0x00,0x71,0x81,0x40,0x40,0x1f,0x00,0x00,0x00,0x00,0x00,0x71,0x81,0x40,0x40,0x1f,0x00,0x00,0x00,0x00,0x00,0x71,0x81,0x40,0x40,0x1f,0x00,0x00,0x00,0x00,0x00,0x71,0x81,0x40,0x40,0x1f,0x00,0x00,0x00,0x00,0x00,0x71,0x81,0x40,0x40,0x1f,0x00,0x00,0x00,0x00,0x00,0x71,0x81,0x40,0x40,0x1f,0x00,0x00,0x00,0x00,0x00,0x71,0x81,0x40,0x40,0x1f,0x00,0x00,0x00,0x00,0x00,0x71,0x81,0x40,0x40,0x1f,0x00,0x00,0x00,0x00,0x00,0x71,0x81,0x40,0x40,0x1f,0x00,0x00,0x00,0x00,0x00,0x71,0x81,0x40,0x40,0x1f,0x00,0x00,0x00,0x00,0x00,0x71,0x81,0x40,0x40,0x1f,0x00,0x00,0x00,0x00,0x00,0x71,0x81,0x40,0x40,0x1f,0x00,0x00,0x00,0x00,0x00,0x71,0x81,0x40,0x40,0x1f,0x00,0x00,0x00,0x00,0x00,0x71,0x81,0x40,0x40,0x1f,0x00,0x00,0x00,0x00,0x00,0x71,0x81,0x40,0x40,0x1f,0x00,0x00,0x00,0x00,0x00,0x71,0x81,0x40,0x40,0x1f,0x00,0x00,0x00,0x00,0x00,0x71,0x81,0x40,0x40,0x1f,0x00,0x00,0x00,0x00,0x00,0x71,0x81,0x40,0x40,0x1f,0x00,0x00,0x00,0x00,0x00,0x71,0x81,0x40,0x40,0x1f,0x00,0x00,0x00,0x00,0x00,0x71,0x81,0x40,0x40,0x1f,0x00,0x00,0x00,0x00,0x00,0x71,0x81,0x40,0x40,0x1f,0x00,0x00,0x00,0x00,0x00,0x71,0x81,0x40,0x40,0x1f,0x00,0x00,0x00,0x00,0x00,0x71,0x81,0x40,0x40,0x1f,0x00,0x00,0x00,0x00,0x00,0x71,0x81,0x40,0x40,0x1f,0x00,0x00,0x00,0x00,0x00,0x71,0x81,0x40,0x40,0x1f,0x00,0x00,0x00,0x00,0x00,0x71,0x81,0x40,0x40,0x1f,0x00,0x00,0x00,0x00,0x00,0x71,0x81,0x40,0x40,0x1f,0x00,0x00,0x00,0x00,0x00,0x71,0x81,0x40,0x40,0x1f,0x00,0x00,0x00,0x00,0x00,0x71,0x81,0x40,0x40,0x1f,0x00,0x00,0x00,0x00,0x00,0x71,0x81,0x40,0x40,0x1f,0x00,0x00,0x00,0x00,0x00,0x71,0x81,0x40,0x40,0x1f,0x00,0x00,0x00,0x00,0x00,0x71,0x81,0x40,0x40,0x1f,0x00,0x00,0x00,0x00,0x00,0x71,0x81,0x40,0x40,0x1f,0x00,0x00,0x00,0x00,0x00,0x71,0x81,0x40,0x40,0x1f,0x00,0x00,0x00,0x00,0x00,0x71,0x81,0x40,0x40,0x1f,0x00,0x00,0x00,0x00,0x00,0x71,0x81,0x40,0x40,0x1f,0x00,0x00,0x00,0x00,0x00,0x71,0x81,0x40,0x40,0x1f,0x00,0x00,0x00,0x00,0x00,0x71,0x81,0x40,0x40,0x1f,0x00,0x00,0x00,0x00,0x00,0x71,0x81,0x40,0x40,0x1f,0x00,0x00,0x00,0x00,0x00,0x71,0x81,0x40,0x40,0x1f,0x00,0x00,0x00,0x00,0x00,0x71,0x81,0x40,0x40,0x1f,0x00,0x00,0x00,0x00,0x00,0x71,0x81,0x40,0x40,0x1f,0x00,0x00,0x00,0x00,0x00,0x71,0x81,0x40,0x40,0x1f,0x00,0x00,0x00,0x00,0x00,0x71,0x81,0x40,0x40,0x1f,0x00,0x00,0x00,0x00,0x00,0x71,0x81,0x40,0x40,0x1f,0x00,0x00,0x00,0x00,0x00,0x71,0x81,0x40,0x40,0x1f,0x00,0x00,0x00,0x00,0x00,0x71,0x81,0x40,0x40,0x1f,0x00,0x00,0x00,0x00,0x00,0x71,0x81,0x40,0x40,0x1f,0x00,0x00,0x00,0x00,0x00,0x71,0x81,0x40,0x40,0x1f,0x00,0x00,0x00,0x00,0x00,0x71,0x81,0x40,0x40,0x1f,0x00,0x00,0x00,0x00,0x00,0x71,0x81,0x40,0x40,0x1f,0x00,0x00,0x00,0x00,0x00,0x71,0x81,0x40,0x40,0x1f,0x00,0x00,0x00,0x00,0x00,0x71,0x81,0x40,0x40,0x1f,0x00,0x00,0x00,0x00,0x00,0x71,0x81,0x40,0x40,0x1f,0x00,0x00,0x00,0x00,0x00,0x71,0x81,0x40,0x40,0x1f,0x00,0x00,0x00,0x00,0x00,0x71,0x81,0x40,0x40,0x1f,0x00,0x00,0x00,0x00,0x00,0x71,0x81,0x40,0x40,0x1f,0x00,0x00,0x00,0x00,0x00,0x71,0x81,0x40,0x40,0x1f,0x00,0x00,0x00,0x00,0x00,0x71,0x81,0x40,0x40,0x1f,0x00,0x00,0x00,0x00,0x00,0x71,0x81,0x40,0x40,0x1f,0x00,0x00,0x00,0x00,0x00,0x71,0x81,0x40,0x40,0x1f,0x00,0x00,0x00,0x00,0x00,0x71,0x81,0x40,0x40,0x1f,0x00,0x00,0x00,0x00,0x00,0x71,0x81,0x40,0x40,0x1f,0x00,0x00,0x00,0x00,0x00,0x71,0x81,0x40,0x40,0x1f,0x00,0x00,0x00,0x00,0x00,0x71,0x81,0x40,0x40,0x1f,0x00,0x00,0x00,0x00,0x00,0x71,0x81,0x40,0x40,0x1f,0x00,0x00,0x00,0x00,0x00,0x71,0x81,0x40,0x40,0x1f,0x00,0x00,0x00,0x00,0x00,0x71,0x81,0x40,0x40,0x1f,0x00,0x00,0x00,0x00,0x00,0x71,0x81,0x40,0x40,0x1f,0x00,0x00,0x00,0x00,0x00,0x71,0x81,0x40,0x40,0x1f,0x00,0x00,0x00,0x00,0x00,0x71,0x81,0x40,0x40,0x1f,0x00,0x00,0x00,0x00,0x00,0x71,0x81,0x40,0x40,0x1f,0x00,0x00,0x00,0x00,0x00,0x71,0x81,0x40,0x40,0x1f,0x00,0x00,0x00,0x00,0x00,0x71,0x81,0x40,0x40,0x1f,0x00,0x00,0x00,0x00,0x00,0x71,0x81,0x40,0x40,0x1f,0x00,0x00,0x00,0x00,0x00,0x71,0x81,0x40,0x40,0x1f,0x00,0x00,0x00,0x00,0x00,0x71,0x81,0x40,0x40,0x1f,0x00,0x00,0x00,0x00,0x00,0x71,0x81,0x40,0x40,0x1f,0x00,0x00,0x00,0x00,0x00,0x71,0x81,0x40,0x40,0x1f,0x00,0x00,0x00,0x00,0x00,0x71,0x81,0x40,0x40,0x1f,0x00,0x00,0x00,0x00,0x00,0x71,0x81,0x40,0x40,0x1f,0x00,0x00,0x00,0x00,0x00,0x71,0x81,0x40,0x40,0x1f,0x00,0x00,0x00,0x00,0x00,0x71,0x81,0x40,0x40,0x1f,0x00,0x00,0x00,0x00,0x00,0x71,0x81,0x40,0x40,0x1f,0x00,0x00,0x00,0x00,0x00,0x71,0x81,0x40,0x40,0x1f,0x00,0x00,0x00,0x00,0x00,0x71,0x81,0x40,0x40,0x1f,0x00,0x00,0x00,0x00,0x00,0x71,0x81,0x40,0x40,0x1f,0x00,0x00,0x00,0x00,0x00,0x71,0x81,0x40,0x40,0x1f,0x00,0x00,0x00,0x00,0x00,0x71,0x81,0x40,0x40,0x1f,0x00,0x00,0x00,0x00,0x00,0x71,0x81,0x40,0x40,0x1f,0x00,0x00,0x00,0x00,0x00,0x71,0x81,0x40,0x40,0x1f,0x00,0x00,0x00,0x00,0x00,0x71,0x81,0x40,0x40,0x1f,0x00,0x00,0x00,0x00,0x00,0x71,0x81,0x40,0x40,0x1f,0x00,0x00,0x00,0x00,0x00,0x71,0x81,0x40,0x40,0x1f,0x00,0x00,0x00,0x00,0x00,0x71,0x81,0x40,0x40,0x1f,0x00,0x00,0x00,0x00,0x00,0x71,0x81,0x40,0x40,0x1f,0x00,0x00,0x00,0x00,0x00,0x71,0x81,0x40,0x40,0x1f,0x00,0x00,0x00,0x00,0x00,0x71,0x81,0x40,0x40,0x1f,0x00,0x00,0x00,0x00,0x00,0x71,0x81,0x40,0x40,0x1f,0x00,0x00,0x00,0x00,0x00,0x71,0x81,0x40,0x40,0x1f,0x00,0x00,0x00,0x00,0x00,0x71,0x81,0x40,0x40,0x1f,0x00,0x00,0x00,0x00,0x00,0x71,0x81,0x40,0x40,0x1f,0x00,0x00,0x00,0x00,0x00,0x71,0x81,0x40,0x40,0x1f,0x00,0x00,0x00,0x00,0x00,0x71,0x81,0x40,0x40,0x1f,0x00,0x00,0x00,0x00,0x00,0x71,0x81,0x40,0x40,0x1f,0x00,0x00,0x00,0x00,0x00,0x71,0x81,0x40,0x40,0x1f,0x00,0x00,0x00,0x00,0x00,0x71,0x81,0x40,0x40,0x1f,0x00,0x00,0x00,0x00,0x00,0x71,0x81,0x40,0x40,0x1f,0x00,0x00,0x00,0x00,0x00,0x71,0x81,0x40,0x40,0x1f,0x00,0x00,0x00,0x00,0x00,0x71,0x81,0x40,0x40,0x1f,0x00,0x00,0x00,0x00,0x00,0x71,0x81,0x40,0x40,0x1f,0x00,0x00,0x00,0x00,0x00,0x71,0x81,0x40,0x40,0x1f,0x00,0x00,0x00,0x00,0x00,0x71,0x81,0x40,0x40,0x1f,0x00,0x00,0x00,0x00,0x00,0x71,0x81,0x40,0x40,0x1f,0x00,0x00,0x00,0x00,0x00,0x71,0x81,0x40,0x40,0x1f,0x00,0x00,0x00,0x00,0x00,0x71,0x81,0x40,0x40,0x1f,0x00,0x00,0x00,0x00,0x00,0x71,0x81,0x40,0x40,0x1f,0x00,0x00,0x00,0x00,0x00,0x71,0x81,0x40,0x40,0x1f,0x00,0x00,0x00,0x00,0x00,0x71,0x81,0x40,0x40,0x1f,0x00,0x00,0x00,0x00,0x00,0x71,0x81,0x40,0x40,0x1f,0x00,0x00,0x00,0x00,0x00,0x71,0x81,0x40,0x40,0x1f,0x00,0x00,0x00,0x00,0x00,0x71,0x81,0x40,0x40,0x1f,0x00,0x00,0x00,0x00,0x00,0x71,0x81,0x40,0x40,0x1f,0x00,0x00,0x00,0x00,0x00,0x71,0x81,0x40,0x40,0x1f,0x00,0x00,0x00,0x00,0x00,0x71,0x81,0x40,0x40,0x1f,0x00,0x00,0x00,0x00,0x00,0x71,0x81,0x40,0x40,0x1f,0x00,0x00,0x00,0x00,0x00,0x71,0x81,0x40,0x40,0x1f,0x00,0x00,0x00,0x00,0x00,0x71,0x81,0x40,0x40,0x1f,0x00,0x00,0x00,0x00,0x00,0x71,0x81,0x40,0x40,0x1f,0x00,0x00,0x00,0x00,0x00,0x71,0x81,0x40,0x40,0x1f,0x00,0x00,0x00,0x00,0x00,0x71,0x81,0x40,0x40,0x1f,0x00,0x00,0x00,0x00,0x00,0x71,0x81,0x40,0x40,0x1f,0x00,0x00,0x00,0x00,0x00,0x71,0x81,0x40,0x40,0x1f,0x00,0x00,0x00,0x00,0x00,0x71,0x81,0x40,0x40,0x1f,0x00,0x00,0x00,0x00,0x00,0x71,0x81,0x40,0x40,0x1f,0x00,0x00,0x00,0x00,0x00,0x71,0x81,0x40,0x40,0x1f,0x00,0x00,0x00,0x00,0x00,0x71,0x81,0x40,0x40,0x1f,0x00,0x00,0x00,0x00,0x00,0x71,0x81,0x40,0x40,0x1f,0x00,0x00,0x00,0x00,0x00,0x71,0x81,0x40,0x40,0x1f,0x00,0x00,0x00,0x00,0x00,0x71,0x81,0x40,0x40,0x1f,0x00,0x00,0x00,0x00,0x00,0x71,0x81,0x40,0x40,0x1f,0x00,0x00,0x00,0x00,0x00,0x71,0x81,0x40,0x40,0x1f,0x00,0x00,0x00,0x00,0x00,0x71,0x81,0x40,0x40,0x1f,0x00,0x00,0x00,0x00,0x00,0x71,0x81,0x40,0x40,0x1f,0x00,0x00,0x00,0x00,0x00,0x71,0x81,0x40,0x40,0x1f,0x00,0x00,0x00,0x00,0x00,0x71,0x81,0x40,0x40,0x1f,0x00,0x00,0x00,0x00,0x00,0x71,0x81,0x40,0x40,0x1f,0x00,0x00,0x00,0x00,0x00,0x71,0x81,0x40,0x40,0x1f,0x00,0x00,0x00,0x00,0x00,0x71,0x81,0x40,0x40,0x1f,0x00,0x00,0x00,0x00,0x00,0x71,0x81,0x40,0x40,0x1f,0x00,0x00,0x00,0x00,0x00,0x71,0x81,0x40,0x40,0x1f,0x00,0x00,0x00,0x00,0x00,0x71,0x81,0x40,0x40,0x1f,0x00,0x00,0x00,0x00,0x00,0x71,0x81,0x40,0x40,0x1f,0x00,0x00,0x00,0x00,0x00,0x71,0x81,0x40,0x40,0x1f,0x00,0x00,0x00,0x00,0x00,0x71,0x81,0x40,0x40,0x1f,0x00,0x00,0x00,0x00,0x00,0x71,0x81,0x40,0x40,0x1f,0x00,0x00,0x00,0x00,0x00,0x71,0x81,0x40,0x40,0x1f,0x00,0x00,0x00,0x00,0x00,0x71,0x81,0x40,0x40,0x1f,0x00,0x00,0x00,0x00,0x00,0x71,0x81,0x40,0x40,0x1f,0x00,0x00,0x00,0x00,0x00,0x71,0x81,0x40,0x40,0x1f,0x00,0x00,0x00,0x00,0x00,0x71,0x81,0x40,0x40,0x1f,0x00,0x00,0x00,0x00,0x00,0x71,0x81,0x40,0x40,0x1f,0x00,0x00,0x00,0x00,0x00,0x71,0x81,0x40,0x40,0x1f,0x00,0x00,0x00,0x00,0x00,0x71,0x81,0x40,0x40,0x1f,0x00,0x00,0x00,0x00,0x00,0x71,0x81,0x40,0x40,0x1f,0x00,0x00,0x00,0x00,0x00,0x71,0x81,0x40,0x40,0x1f,0x00,0x00,0x00,0x00,0x00,0x71,0x81,0x40,0x40,0x1f,0x00,0x00,0x00,0x00,0x00,0x71,0x81,0x40,0x40,0x1f,0x00,0x00,0x00,0x00,0x00,0x71,0x81,0x40,0x40,0x1f,0x00,0x00,0x00,0x00,0x00,0x71,0x81,0x40,0x40,0x1f,0x00,0x00,0x00,0x00,0x00,0x71,0x81,0x40,0x40,0x1f,0x00,0x00,0x00,0x00,0x00,0x71,0x81,0x40,0x40,0x1f,0x00,0x00,0x00,0x00,0x00,0x71,0x81,0x40,0x40,0x1f,0x00,0x00,0x00,0x00,0x00,0x71,0x81,0x40,0x40,0x1f,0x00,0x00,0x00,0x00,0x00,0x71,0x81,0x40,0x40,0x1f,0x00,0x00,0x00,0x00,0x00,0x71,0x81,0x40,0x40,0x1f,0x00,0x00,0x00,0x00,0x00,0x71,0x81,0x40,0x40,0x1f,0x00,0x00,0x00,0x00,0x00,0x71,0x81,0x40,0x40,0x1f,0x00,0x00,0x00,0x00,0x00,0x71,0x81,0x40,0x40,0x1f,0x00,0x00,0x00,0x00,0x00,0x71,0x81,0x40,0x40,0x1f,0x00,0x00,0x00,0x00,0x00,0x71,0x81,0x40,0x40,0x1f,0x00,0x00,0x00,0x00,0x00,0x71,0x81,0x40,0x40,0x1f,0x00,0x00,0x00,0x00,0x00,0x71,0x81,0x40,0x40,0x1f,0x00,0x00,0x00,0x00,0x00,0x71,0x81,0x40,0x40,0x1f,0x00,0x00,0x00,0x00,0x00,0x71,0x81,0x40,0x40,0x1f,0x00,0x00,0x00,0x00,0x00,0x71,0x81,0x40,0x40,0x1f,0x00,0x00,0x00,0x00,0x00,0x71,0x81,0x40,0x40,0x1f,0x00,0x00,0x00,0x00,0x00,0x71,0x81,0x40,0x40,0x1f,0x00,0x00,0x00,0x00,0x00,0x71,0x81,0x40,0x40,0x1f,0x00,0x00,0x00,0x00,0x00,0x71,0x81,0x40,0x40,0x1f,0x00,0x00,0x00,0x00,0x00,0x71,0x81,0x40,0x40,0x1f,0x00,0x00,0x00,0x00,0x00,0x71,0x81,0x40,0x40,0x1f,0x00,0x00,0x00,0x00,0x00,0x71,0x81,0x40,0x40,0x1f,0x00,0x00,0x00,0x00,0x00,0x71,0x81,0x40,0x40,0x1f,0x00,0x00,0x00,0x00,0x00,0x71,0x81,0x40,0x40,0x1f,0x00,0x00,0x00,0x00,0x00,0x71,0x81,0x40,0x40,0x1f,0x00,0x00,0x00,0x00,0x00,0x71,0x81,0x40,0x40,0x1f,0x00,0x00,0x00,0x00,0x00,0x71,0x81,0x40,0x40,0x1f,0x00,0x00,0x00,0x00,0x00,0x71,0x81,0x40,0x40,0x1f,0x00,0x00,0x00,0x00,0x00,0x71,0x81,0x40,0x40,0x1f,0x00,0x00,0x00,0x00,0x00,0x71,0x81,0x40,0x40,0x1f,0x00,0x00,0x00,0x00,0x00,0x71,0x81,0x40,0x40,0x1f,0x00,0x00,0x00,0x00,0x00,0x71,0x81,0x40,0x40,0x1f,0x00,0x00,0x00,0x00,0x00,0x71,0x81,0x40,0x40,0x1f,0x00,0x00,0x00,0x00,0x00,0x71,0x81,0x40,0x40,0x1f,0x00,0x00,0x00,0x00,0x00,0x71,0x81,0x40,0x40,0x1f,0x00,0x00,0x00,0x00,0x00,0x71,0x81,0x40,0x40,0x1f,0x00,0x00,0x00,0x00,0x00,0x71,0x81,0x40,0x40,0x1f,0x00,0x00,0x00,0x00,0x00,0x71,0x81,0x40,0x40,0x1f,0x00,0x00,0x00,0x00,0x00,0x71,0x81,0x40,0x40,0x1f,0x00,0x00,0x00,0x00,0x00,0x71,0x81,0x40,0x40,0x1f,0x00,0x00,0x00,0x00,0x00,0x71,0x81,0x40,0x40,0x1f,0x00,0x00,0x00,0x00,0x00,0x71,0x81,0x40,0x40,0x1f,0x00,0x00,0x00,0x00,0x00,0x71,0x81,0x40,0x40,0x1f,0x00,0x00,0x00,0x00,0x00,0x71,0x81,0x40,0x40,0x1f,0x00,0x00,0x00,0x00,0x00,0x71,0x81,0x40,0x40,0x1f,0x00,0x00,0x00,0x00,0x00,0x71,0x81,0x40,0x40,0x1f,0x00,0x00,0x00,0x00,0x00,0x71,0x81,0x40,0x40,0x1f,0x00,0x00,0x00,0x00,0x00,0x71,0x81,0x40,0x40,0x1f,0x00,0x00,0x00,0x00,0x00,0x71,0x81,0x40,0x40,0x1f,0x00,0x00,0x00,0x00,0x00,0x71,0x81,0x40,0x40,0x1f,0x00,0x00,0x00,0x00,0x00,0x71,0x81,0x40,0x40,0x1f,0x00,0x00,0x00,0x00,0x00,0x71,0x81,0x40,0x40,0x1f,0x00,0x00,0x00,0x00,0x00,0x71,0x81,0x40,0x40,0x1f,0x00,0x00,0x00,0x00,0x00,0x71,0x81,0x40,0x40,0x1f,0x00,0x00,0x00,0x00,0x00,0x71,0x81,0x40,0x40,0x1f,0x00,0x00,0x00,0x00,0x00,0x71,0x81,0x40,0x40,0x1f,0x00,0x00,0x00,0x00,0x00,0x71,0x81,0x40,0x40,0x1f,0x00,0x00,0x00,0x00,0x00,0x71,0x81,0x40,0x40,0x1f,0x00,0x00,0x00,0x00,0x00,0x71,0x81,0x40,0x40,0x1f,0x00,0x00,0x00,0x00,0x00,0x71,0x81,0x40,0x40,0x1f,0x00,0x00,0x00,0x00,0x00,0x71,0x81,0x40,0x40,0x1f,0x00,0x00,0x00,0x00,0x00,0x71,0x81,0x40,0x40,0x1f,0x00,0x00,0x00,0x00,0x00,0x71,0x81,0x40,0x40,0x1f,0x00,0x00,0x00,0x00,0x00,0x71,0x81,0x40,0x40,0x1f,0x00,0x00,0x00,0x00,0x00,0x71,0x81,0x40,0x40,0x1f,0x00,0x00,0x00,0x00,0x00,0x71,0x81,0x40,0x40,0x1f,0x00,0x00,0x00,0x00,0x00,0x71,0x81,0x40,0x40,0x1f,0x00,0x00,0x00,0x00,0x00,0x71,0x81,0x40,0x40,0x1f,0x00,0x00,0x00,0x00,0x00,0x71,0x81,0x40,0x40,0x1f,0x00,0x00,0x00,0x00,0x00,0x71,0x81,0x40,0x40,0x1f,0x00,0x00,0x00,0x00,0x00,0x71,0x81,0x40,0x40,0x1f,0x00,0x00,0x00,0x00,0x00,0x71,0x81,0x40,0x40,0x1f,0x00,0x00,0x00,0x00,0x00,0x71,0x81,0x40,0x40,0x1f,0x00,0x00,0x00,0x00,0x00,0x71,0x81,0x40,0x40,0x1f,0x00,0x00,0x00,0x00,0x00,0x71,0x81,0x40,0x40,0x1f,0x00,0x00,0x00,0x00,0x00,0x71,0x81,0x40,0x40,0x1f,0x00,0x00,0x00,0x00,0x00,0x71,0x81,0x40,0x40,0x1f,0x00,0x00,0x00,0x00,0x00,0x71,0x81,0x40,0x40,0x1f,0x00,0x00,0x00,0x00,0x00,0x71,0x81,0x40,0x40,0x1f,0x00,0x00,0x00,0x00,0x00,0x71,0x81,0x40,0x40,0x1f,0x00,0x00,0x00,0x00,0x00,0x71,0x81,0x40,0x40,0x1f,0x00,0x00,0x00,0x00,0x00,0x71,0x81,0x40,0x40,0x1f,0x00,0x00,0x00,0x00,0x00,0x71,0x81,0x40,0x40,0x1f,0x00,0x00,0x00,0x00,0x00,0x71,0x81,0x40,0x40,0x1f,0x00,0x00,0x00,0x00,0x00,0x71,0x81,0x40,0x40,0x1f,0x00,0x00,0x00,0x00,0x00,0x71,0x81,0x40,0x40,0x1f,0x00,0x00,0x00,0x00,0x00,0x71,0x81,0x40,0x40,0x1f,0x00,0x00,0x00,0x00,0x00,0x71,0x81,0x40,0x40,0x1f,0x00,0x00,0x00,0x00,0x00,0x71,0x81,0x40,0x40,0x1f,0x00,0x00,0x00,0x00,0x00,0x71,0x81,0x40,0x40,0x1f,0x00,0x00,0x00,0x00,0x00,0x71,0x81,0x40,0x40,0x1f,0x00,0x00,0x00,0x00,0x00,0x71,0x81,0x40,0x40,0x1f,0x00,0x00,0x00,0x00,0x00,0x71,0x81,0x40,0x40,0x1f,0x00,0x00,0x00,0x00,0x00,0x71,0x81,0x40,0x40,0x1f,0x00,0x00,0x00,0x00,0x00,0x71,0x81,0x40,0x40,0x1f,0x00,0x00,0x00,0x00,0x00,0x71,0x81,0x40,0x40,0x1f,0x00,0x00,0x00,0x00,0x00,0x71,0x81,0x40,0x40,0x1f,0x00,0x00,0x00,0x00,0x00,0x71,0x81,0x40,0x40,0x1f,0x00,0x00,0x00,0x00,0x00,0x71,0x81,0x40,0x40,0x1f,0x00,0x00,0x00,0x00,0x00,0x71,0x81,0x40,0x40,0x1f,0x00,0x00,0x00,0x00,0x00,0x71,0x81,0x40,0x40,0x1f,0x00,0x00,0x00,0x00,0x00,0x71,0x81,0x40,0x40,0x1f,0x00,0x00,0x00,0x00,0x00,0x71,0x81,0x40,0x40,0x1f,0x00,0x00,0x00,0x00,0x00,0x71,0x81,0x40,0x40,0x1f,0x00,0x00,0x00,0x00,0x00,0x71,0x81,0x40,0x40,0x1f,0x00,0x00,0x00,0x00,0x00,0x71,0x81,0x40,0x40,0x1f,0x00,0x00,0x00,0x00,0x00,0x71,0x81,0x40,0x40,0x1f,0x00,0x00,0x00,0x00,0x00,0x71,0x81,0x40,0x40,0x1f,0x00,0x00,0x00,0x00,0x00,0x71,0x81,0x40,0x40,0x1f,0x00,0x00,0x00,0x00,0x00,0x71,0x81,0x40,0x40,0x1f,0x00,0x00,0x00,0x00,0x00,0x71,0x81,0x40,0x40,0x1f,0x00,0x00,0x00,0x00,0x00,0x71,0x81,0x40,0x40,0x1f,0x00,0x00,0x00,0x00,0x00,0x71,0x81,0x40,0x40,0x1f,0x00,0x00,0x00,0x00,0x00,0x71,0x81,0x40,0x40,0x1f,0x00,0x00,0x00,0x00,0x00,0x71,0x81,0x40,0x40,0x1f,0x00,0x00,0x00,0x00,0x00,0x71,0x81,0x40,0x40,0x1f,0x00,0x00,0x00,0x00,0x00,0x71,0x81,0x40,0x40,0x1f,0x00,0x00,0x00,0x00,0x00,0x71,0x81,0x40,0x40,0x1f,0x00,0x00,0x00,0x00,0x00,0x71,0x81,0x40,0x40,0x1f,0x00,0x00,0x00,0x00,0x00,0x71,0x81,0x40,0x40,0x1f,0x00,0x00,0x00,0x00,0x00,0x71,0x81,0x40,0x40,0x1f,0x00,0x00,0x00,0x00,0x00,0x71,0x81,0x40,0x40,0x1f,0x00,0x00,0x00,0x00,0x00,0x71,0x81,0x40,0x40,0x1f,0x00,0x00,0x00,0x00,0x00,0x71,0x81,0x40,0x40,0x1f,0x00,0x00,0x00,0x00,0x00,0x71,0x81,0x40,0x40,0x1f,0x00,0x00,0x00,0x00,0x00,0x71,0x81,0x40,0x40,0x1f,0x00,0x00,0x00,0x00,0x00,0x71,0x81,0x40,0x40,0x1f,0x00,0x00,0x00,0x00,0x00,0x71,0x81,0x40,0x40,0x1f,0x00,0x00,0x00,0x00,0x00,0x71,0x81,0x40,0x40,0x1f,0x00,0x00,0x00,0x00,0x00,0x71,0x81,0x40,0x40,0x1f,0x00,0x00,0x00,0x00,0x00,0x71,0x81,0x40,0x40,0x1f,0x00,0x00,0x00,0x00,0x00,0x71,0x81,0x40,0x40,0x1f,0x00,0x00,0x00,0x00,0x00,0x71,0x81,0x40,0x40,0x1f,0x00,0x00,0x00,0x00,0x00,0x71,0x81,0x40,0x40,0x1f,0x00,0x00,0x00,0x00,0x00,0x71,0x81,0x40,0x40,0x1f,0x00,0x00,0x00,0x00,0x00,0x71,0x81,0x40,0x40,0x1f,0x00,0x00,0x00,0x00,0x00,0x71,0x81,0x40,0x40,0x1f,0x00,0x00,0x00,0x00,0x00,0x71,0x81,0x40,0x40,0x1f,0x00,0x00,0x00,0x00,0x00,0x71,0x81,0x40,0x40,0x1f,0x00,0x00,0x00,0x00,0x00,0x71,0x81,0x40,0x40,0x1f,0x00,0x00,0x00,0x00,0x00,0x71,0x81,0x40,0x40,0x1f,0x00,0x00,0x00,0x00,0x00,0x71,0x81,0x40,0x40,0x1f,0x00,0x00,0x00,0x00,0x00,0x71,0x81,0x40,0x40,0x1f,0x00,0x00,0x00,0x00,0x00,0x71,0x81,0x40,0x40,0x1f,0x00,0x00,0x00,0x00,0x00,0x71,0x81,0x40,0x40,0x1f,0x00,0x00,0x00,0x00,0x00,0x71,0x81,0x40,0x40,0x1f,0x00,0x00,0x00,0x00,0x00,0x71,0x81,0x40,0x40,0x1f,0x00,0x00,0x00,0x00,0x00,0x71,0x81,0x40,0x40,0x1f,0x00,0x00,0x00,0x00,0x00,0x71,0x81,0x40,0x40,0x1f,0x00,0x00,0x00,0x00,0x00,0x71,0x81,0x40,0x40,0x1f,0x00,0x00,0x00,0x00,0x00,0x71,0x81,0x40,0x40,0x1f,0x00,0x00,0x00,0x00,0x00,0x71,0x81,0x40,0x40,0x1f,0x00,0x00,0x00,0x00,0x00,0x71,0x81,0x40,0x40,0x1f,0x00,0x00,0x00,0x00,0x00,0x71,0x81,0x40,0x40,0x1f,0x00,0x00,0x00,0x00,0x00,0x71,0x81,0x40,0x40,0x1f,0x00,0x00,0x00,0x00,0x00,0x71,0x81,0x40,0x40,0x1f,0x00,0x00,0x00,0x00,0x00,0x71,0x81,0x40,0x40,0x1f,0x00,0x00,0x00,0x00,0x00,0x71,0x81,0x40,0x40,0x1f,0x00,0x00,0x00,0x00,0x00,0x71,0x81,0x40,0x40,0x1f,0x00,0x00,0x00,0x00,0x00,0x71,0x81,0x40,0x40,0x1f,0x00,0x00,0x00,0x00,0x00,0x71,0x81,0x40,0x40,0x1f,0x00,0x00,0x00,0x00,0x00,0x71,0x81,0x40,0x40,0x1f,0x00,0x00,0x00,0x00,0x00,0x71,0x81,0x40,0x40,0x1f,0x00,0x00,0x00,0x00,0x00,0x71,0x81,0x40,0x40,0x1f,0x00,0x00,0x00,0x00,0x00,0x71,0x81,0x40,0x40,0x1f,0x00,0x00,0x00,0x00,0x00,0x71,0x81,0x40,0x40,0x1f,0x00,0x00,0x00,0x00,0x00,0x71,0x81,0x40,0x40,0x1f,0x00,0x00,0x00,0x00,0x00,0x71,0x81,0x40,0x40,0x1f,0x00,0x00,0x00,0x00,0x00,0x71,0x81,0x40,0x40,0x1f,0x00,0x00,0x00,0x00,0x00,0x71,0x81,0x40,0x40,0x1f,0x00,0x00,0x00,0x00,0x00,0x71,0x81,0x40,0x40,0x1f,0x00,0x00,0x00,0x00,0x00,0x71,0x81,0x40,0x40,0x1f,0x00,0x00,0x00,0x00,0x00,0x71,0x81,0x40,0x40,0x1f,0x00,0x00,0x00,0x00,0x00,0x71,0x81,0x40,0x40,0x1f,0x00,0x00,0x00,0x00,0x00,0x71,0x81,0x40,0x40,0x1f,0x00,0x00,0x00,0x00,0x00,0x71,0x81,0x40,0x40,0x1f,0x00,0x00,0x00,0x00,0x00,0x71,0x81,0x40,0x40,0x1f,0x00,0x00,0x00,0x00,0x00,0x71,0x81,0x40,0x40,0x1f,0x00,0x00,0x00,0x00,0x00,0x71,0x81,0x40,0x40,0x1f,0x00,0x00,0x00,0x00,0x00,0x71,0x81,0x40,0x40,0x1f,0x00,0x00,0x00,0x00,0x00,0x71,0x81,0x40,0x40,0x1f,0x00,0x00,0x00,0x00,0x00,0x71,0x81,0x40,0x40,0x1f,0x00,0x00,0x00,0x00,0x00,0x71,0x81,0x40,0x40,0x1f,0x00,0x00,0x00,0x00,0x00,0x71,0x81,0x40,0x40,0x1f,0x00,0x00,0x00,0x00,0x00,0x71,0x81,0x40,0x40,0x1f,0x00,0x00,0x00,0x00,0x00,0x71,0x81,0x40,0x40,0x1f,0x00,0x00,0x00,0x00,0x00,0x71,0x81,0x40,0x40,0x1f,0x00,0x00,0x00,0x00,0x00,0x71,0x81,0x40,0x40,0x1f,0x00,0x00,0x00,0x00,0x00,0x71,0x81,0x40,0x40,0x1f,0x00,0x00,0x00,0x00,0x00,0x71,0x81,0x40,0x40,0x1f,0x00,0x00,0x00,0x00,0x00,0x71,0x81,0x40,0x40,0x1f,0x00,0x00,0x00,0x00,0x00,0x71,0x81,0x40,0x40,0x1f,0x00,0x00,0x00,0x00,0x00,0x71,0x81,0x40,0x40,0x1f,0x00,0x00,0x00,0x00,0x00,0x71,0x81,0x40,0x40,0x1f,0x00,0x00,0x00,0x00,0x00,0x71,0x81,0x40,0x40,0x1f,0x00,0x00,0x00,0x00,0x00,0x71,0x81,0x40,0x40,0x1f,0x00,0x00,0x00,0x00,0x00,0x71,0x81,0x40,0x40,0x1f,0x00,0x00,0x00,0x00,0x00,0x71,0x81,0x40,0x40,0x1f,0x00,0x00,0x00,0x00,0x00,0x71,0x81,0x40,0x40,0x1f,0x00,0x00,0x00,0x00,0x00,0x71,0x81,0x40,0x40,0x1f,0x00,0x00,0x00,0x00,0x00,0x71,0x81,0x40,0x40,0x1f,0x00,0x00,0x00,0x00,0x00,0x71,0x81,0x40,0x40,0x1f,0x00,0x00,0x00,0x00,0x00,0x71,0x81,0x40,0x40,0x1f,0x00,0x00,0x00,0x00,0x00,0x71,0x81,0x40,0x40,0x1f,0x00,0x00,0x00,0x00,0x00,0x71,0x81,0x40,0x40,0x1f,0x00,0x00,0x00,0x00,0x00,0x71,0x81,0x40,0x40,0x1f,0x00,0x00,0x00,0x00,0x00,0x71,0x81,0x40,0x40,0x1f,0x00,0x00,0x00,0x00,0x00,0x71,0x81,0x40,0x40,0x1f,0x00,0x00,0x00,0x00,0x00,0x71,0x81,0x40,0x40,0x1f,0x00,0x00,0x00,0x00,0x00,0x71,0x81,0x40,0x40,0x1f,0x00,0x00,0x00,0x00,0x00,0x71,0x81,0x40,0x40,0x1f,0x00,0x00,0x00,0x00,0x00,0x71,0x81,0x40,0x40,0x1f,0x00,0x00,0x00,0x00,0x00,0x71,0x81,0x40,0x40,0x1f,0x00,0x00,0x00,0x00,0x00,0x71,0x81,0x40,0x40,0x1f,0x00,0x00,0x00,0x00,0x00,0x71,0x81,0x40,0x40,0x1f,0x00,0x00,0x00,0x00,0x00,0x71,0x81,0x40,0x40,0x1f,0x00,0x00,0x00,0x00,0x00,0x71,0x81,0x40,0x40,0x1f,0x00,0x00,0x00,0x00,0x00,0x71,0x81,0x40,0x40,0x1f,0x00,0x00,0x00,0x00,0x00,0x71,0x81,0x40,0x40,0x1f,0x00,0x00,0x00,0x00,0x00,0x71,0x81,0x40,0x40,0x1f,0x00,0x00,0x00,0x00,0x00,0x71,0x81,0x40,0x40,0x1f,0x00,0x00,0x00,0x00,0x00,0x71,0x81,0x40,0x40,0x1f,0x00,0x00,0x00,0x00,0x00,0x71,0x81,0x40,0x40,0x1f,0x00,0x00,0x00,0x00,0x00,0x71,0x81,0x40,0x40,0x1f,0x00,0x00,0x00,0x00,0x00,0x71,0x81,0x40,0x40,0x1f,0x00,0x00,0x00,0x00,0x00,0x71,0x81,0x40,0x40,0x1f,0x00,0x00,0x00,0x00,0x00,0x71,0x81,0x40,0x40,0x1f,0x00,0x00,0x00,0x00,0x00,0x71,0x81,0x40,0x40,0x1f,0x00,0x00,0x00,0x00,0x00,0x71,0x81,0x40,0x40,0x1f,0x00,0x00,0x00,0x00,0x00,0x71,0x81,0x40,0x40,0x1f,0x00,0x00,0x00,0x00,0x00,0x71,0x81,0x40,0x40,0x1f,0x00,0x00,0x00,0x00,0x00,0x71,0x81,0x40,0x40,0x1f,0x00,0x00,0x00,0x00,0x00,0x71,0x81,0x40,0x40,0x1f,0x00,0x00,0x00,0x00,0x00,0x71,0x81,0x40,0x40,0x1f,0x00,0x00,0x00,0x00,0x00,0x71,0x81,0x40,0x40,0x1f,0x00,0x00,0x00,0x00,0x00,0x71,0x81,0x40,0x40,0x1f,0x00,0x00,0x00,0x00,0x00,0x71,0x81,0x40,0x40,0x1f,0x00,0x00,0x00,0x00,0x00,0x71,0x81,0x40,0x40,0x1f,0x00,0x00,0x00,0x00,0x00,0x71,0x81,0x40,0x40,0x1f,0x00,0x00,0x00,0x00,0x00,0x71,0x81,0x40,0x40,0x1f,0x00,0x00,0x00,0x00,0x00,0x71,0x81,0x40,0x40,0x1f,0x00,0x00,0x00,0x00,0x00,0x71,0x81,0x40,0x40,0x1f,0x00,0x00,0x00,0x00,0x00,0x71,0x81,0x40,0x40,0x1f,0x00,0x00,0x00,0x00,0x00,0x71,0x81,0x40,0x40,0x1f,0x00,0x00,0x00,0x00,0x00,0x71,0x81,0x40,0x40,0x1f,0x00,0x00,0x00,0x00,0x00,0x71,0x81,0x40,0x40,0x1f,0x00,0x00,0x00,0x00,0x00,0x71,0x81,0x40,0x40,0x1f,0x00,0x00,0x00,0x00,0x00,0x71,0x81,0x40,0x40,0x1f,0x00,0x00,0x00,0x00,0x00,0x71,0x81,0x40,0x40,0x1f,0x00,0x00,0x00,0x00,0x00,0x71,0x81,0x40,0x40,0x1f,0x00,0x00,0x00,0x00,0x00,0x71,0x81,0x40,0x40,0x1f,0x00,0x00,0x00,0x00,0x00,0x71,0x81,0x40,0x40,0x1f,0x00,0x00,0x00,0x00,0x00,0x71,0x81,0x40,0x40,0x1f,0x00,0x00,0x00,0x00,0x00,0x71,0x81,0x40,0x40,0x1f,0x00,0x00,0x00,0x00,0x00,0x71,0x81,0x40,0x40,0x1f,0x00,0x00,0x00,0x00,0x00,0x71,0x81,0x40,0x40,0x1f,0x00,0x00,0x00,0x00,0x00,0x71,0x81,0x40,0x40,0x1f,0x00,0x00,0x00,0x00,0x00,0x71,0x81,0x40,0x40,0x1f,0x00,0x00,0x00,0x00,0x00,0x71,0x81,0x40,0x40,0x1f,0x00,0x00,0x00,0x00,0x00,0x71,0x81,0x40,0x40,0x1f,0x00,0x00,0x00,0x00,0x00,0x71,0x81,0x40,0x40,0x1f,0x00,0x00,0x00,0x00,0x00,0x71,0x81,0x40,0x40,0x1f,0x00,0x00,0x00,0x00,0x00,0x71,0x81,0x40,0x40,0x1f,0x00,0x00,0x00,0x00,0x00,0x71,0x81,0x40,0x40,0x1f,0x00,0x00,0x00,0x00,0x00,0x71,0x81,0x40,0x40,0x1f,0x00,0x00,0x00,0x00,0x00,0x71,0x81,0x40,0x40,0x1f,0x00,0x00,0x00,0x00,0x00,0x71,0x81,0x40,0x40,0x1f,0x00,0x00,0x00,0x00,0x00,0x71,0x81,0x40,0x40,0x1f,0x00,0x00,0x00,0x00,0x00,0x71,0x81,0x40,0x40,0x1f,0x00,0x00,0x00,0x00,0x00,0x71,0x81,0x40,0x40,0x1f,0x00,0x00,0x00,0x00,0x00,0x71,0x81,0x40,0x40,0x1f,0x00,0x00,0x00,0x00,0x00,0x71,0x81,0x40,0x40,0x1f,0x00,0x00,0x00,0x00,0x00,0x71,0x81,0x40,0x40,0x1f,0x00,0x00,0x00,0x00,0x00,0x71,0x81,0x40,0x40,0x1f,0x00,0x00,0x00,0x00,0x00,0x71,0x81,0x40,0x40,0x1f,0x00,0x00,0x00,0x00,0x00,0x71,0x81,0x40,0x40,0x1f,0x00,0x00,0x00,0x00,0x00,0x71,0x81,0x40,0x40,0x1f,0x00,0x00,0x00,0x00,0x00,0x71,0x81,0x40,0x40,0x1f,0x00,0x00,0x00,0x00,0x00,0x71,0x81,0x40,0x40,0x1f,0x00,0x00,0x00,0x00,0x00,0x71,0x81,0x40,0x40,0x1f,0x00,0x00,0x00,0x00,0x00,0x71,0x81,0x40,0x40,0x1f,0x00,0x00,0x00,0x00,0x00,0x71,0x81,0x40,0x40,0x1f,0x00,0x00,0x00,0x00,0x00,0x71,0x81,0x40,0x40,0x1f,0x00,0x00,0x00,0x00,0x00,0x71,0x81,0x40,0x40,0x1f,0x00,0x00,0x00,0x00,0x00,0x71,0x81,0x40,0x40,0x1f,0x00,0x00,0x00,0x00,0x00,0x71,0x81,0x40,0x40,0x1f,0x00,0x00,0x00,0x00,0x00,0x71,0x81,0x40,0x40,0x1f,0x00,0x00,0x00,0x00,0x00,0x71,0x81,0x40,0x40,0x1f,0x00,0x00,0x00,0x00,0x00,0x71,0x81,0x40,0x40,0x1f,0x00,0x00,0x00,0x00,0x00,0x71,0x81,0x40,0x40,0x1f,0x00,0x00,0x00,0x00,0x00,0x71,0x81,0x40,0x40,0x1f,0x00,0x00,0x00,0x00,0x00,0x71,0x81,0x40,0x40,0x1f,0x00,0x00,0x00,0x00,0x00,0x71,0x81,0x40,0x40,0x1f,0x00,0x00,0x00,0x00,0x00,0x71,0x81,0x40,0x40,0x1f,0x00,0x00,0x00,0x00,0x00,0x71,0x81,0x40,0x40,0x1f,0x00,0x00,0x00,0x00,0x00,0x71,0x81,0x40,0x40,0x1f,0x00,0x00,0x00,0x00,0x00,0x71,0x81,0x40,0x40,0x1f,0x00,0x00,0x00,0x00,0x00,0x71,0x81,0x40,0x40,0x1f,0x00,0x00,0x00,0x00,0x00,0x71,0x81,0x40,0x40,0x1f,0x00,0x00,0x00,0x00,0x00,0x71,0x81,0x40,0x40,0x1f,0x00,0x00,0x00,0x00,0x00,0x71,0x81,0x40,0x40,0x1f,0x00,0x00,0x00,0x00,0x00,0x71,0x81,0x40,0x40,0x1f,0x00,0x00,0x00,0x00,0x00,0x71,0x81,0x40,0x40,0x1f,0x00,0x00,0x00,0x00,0x00,0x71,0x81,0x40,0x40,0x1f,0x00,0x00,0x00,0x00,0x00,0x71,0x81,0x40,0x40,0x1f,0x00,0x00,0x00,0x00,0x00,0x71,0x81,0x40,0x40,0x1f,0x00,0x00,0x00,0x00,0x00,0x71,0x81,0x40,0x40,0x1f,0x00,0x00,0x00,0x00,0x00,0x71,0x81,0x40,0x40,0x1f,0x00,0x00,0x00,0x00,0x00,0x71,0x81,0x40,0x40,0x1f,0x00,0x00,0x00,0x00,0x00,0x71,0x81,0x40,0x40,0x1f,0x00,0x00,0x00,0x00,0x00,0x71,0x81,0x40,0x40,0x1f,0x00,0x00,0x00,0x00,0x00,0x71,0x81,0x40,0x40,0x1f,0x00,0x00,0x00,0x00,0x00,0x71,0x81,0x40,0x40,0x1f,0x00,0x00,0x00,0x00,0x00,0x71,0x81,0x40,0x40,0x1f,0x00,0x00,0x00,0x00,0x00,0x71,0x81,0x40,0x40,0x1f,0x00,0x00,0x00,0x00,0x00,0x71,0x81,0x40,0x40,0x1f,0x00,0x00,0x00,0x00,0x00,0x71,0x81,0x40,0x40,0x1f,0x00,0x00,0x00,0x00,0x00,0x71,0x81,0x40,0x40,0x1f,0x00,0x00,0x00,0x00,0x00,0x71,0x81,0x40,0x40,0x1f,0x00,0x00,0x00,0x00,0x00,0x71,0x81,0x40,0x40,0x1f,0x00,0x00,0x00,0x00,0x00,0x71,0x81,0x40,0x40,0x1f,0x00,0x00,0x00,0x00,0x00,0x71,0x81,0x40,0x40,0x1f,0x00,0x00,0x00,0x00,0x00,0x71,0x81,0x40,0x40,0x1f,0x00,0x00,0x00,0x00,0x00,0x71,0x81,0x40,0x40,0x1f,0x00,0x00,0x00,0x00,0x00,0x71,0x81,0x40,0x40,0x1f,0x00,0x00,0x00,0x00,0x00,0x71,0x81,0x40,0x40,0x1f,0x00,0x00,0x00,0x00,0x00,0x71,0x81,0x40,0x40,0x1f,0x00,0x00,0x00,0x00,0x00,0x71,0x81,0x40,0x40,0x1f,0x00,0x00,0x00,0x00,0x00,0x71,0x81,0x40,0x40,0x1f,0x00,0x00,0x00,0x00,0x00,0x71,0x81,0x40,0x40,0x1f,0x00,0x00,0x00,0x00,0x00,0x71,0x81,0x40,0x40,0x1f,0x00,0x00,0x00,0x00,0x00,0x71,0x81,0x40,0x40,0x1f,0x00,0x00,0x00,0x00,0x00,0x71,0x81,0x40,0x40,0x1f,0x00,0x00,0x00,0x00,0x00,0x71,0x81,0x40,0x40,0x1f,0x00,0x00,0x00,0x00,0x00,0x71,0x81,0x40,0x40,0x1f,0x00,0x00,0x00,0x00,0x00,0x71,0x81,0x40,0x40,0x1f,0x00,0x00,0x00,0x00,0x00,0x71,0x81,0x40,0x40,0x1f,0x00,0x00,0x00,0x00,0x00,0x71,0x81,0x40,0x40,0x1f,0x00,0x00,0x00,0x00,0x00,0x71,0x81,0x40,0x40,0x1f,0x00,0x00,0x00,0x00,0x00,0x71,0x81,0x40,0x40,0x1f,0x00,0x00,0x00,0x00,0x00,0x71,0x81,0x40,0x40,0x1f,0x00,0x00,0x00,0x00,0x00,0x71,0x81,0x40,0x40,0x1f,0x00,0x00,0x00,0x00,0x00,0x71,0x81,0x40,0x40,0x1f,0x00,0x00,0x00,0x00,0x00,0x71,0x81,0x40,0x40,0x1f,0x00,0x00,0x00,0x00,0x00,0x71,0x81,0x40,0x40,0x1f,0x00,0x00,0x00,0x00,0x00,0x71,0x81,0x40,0x40,0x1f,0x00,0x00,0x00,0x00,0x00,0x71,0x81,0x40,0x40,0x1f,0x00,0x00,0x00,0x00,0x00,0x71,0x81,0x40,0x40,0x1f,0x00,0x00,0x00,0x00,0x00,0x71,0x81,0x40,0x40,0x1f,0x00,0x00,0x00,0x00,0x00,0x71,0x81,0x40,0x40,0x1f,0x00,0x00,0x00,0x00,0x00,0x71,0x81,0x40,0x40,0x1f,0x00,0x00,0x00,0x00,0x00,0x71,0x81,0x40,0x40,0x1f,0x00,0x00,0x00,0x00,0x00,0x71,0x81,0x40,0x40,0x1f,0x00,0x00,0x00,0x00,0x00,0x71,0x81,0x40,0x40,0x1f,0x00,0x00,0x00,0x00,0x00,0x71,0x81,0x40,0x40,0x1f,0x00,0x00,0x00,0x00,0x00,0x71,0x81,0x40,0x40,0x1f,0x00,0x00,0x00,0x00,0x00,0x71,0x81,0x40,0x40,0x1f,0x00,0x00,0x00,0x00,0x00,0x71,0x81,0x40,0x40,0x1f,0x00,0x00,0x00,0x00,0x00,0x71,0x81,0x40,0x40,0x1f,0x00,0x00,0x00,0x00,0x00,0x71,0x81,0x40,0x40,0x1f,0x00,0x00,0x00,0x00,0x00,0x71,0x81,0x40,0x40,0x1f,0x00,0x00,0x00,0x00,0x00,0x71,0x81,0x40,0x40,0x1f,0x00,0x00,0x00,0x00,0x00,0x71,0x81,0x40,0x40,0x1f,0x00,0x00,0x00,0x00,0x00,0x71,0x81,0x40,0x40,0x1f,0x00,0x00,0x00,0x00,0x00,0x71,0x81,0x40,0x40,0x1f,0x00,0x00,0x00,0x00,0x00,0x71,0x81,0x40,0x40,0x1f,0x00,0x00,0x00,0x00,0x00,0x71,0x81,0x40,0x40,0x1f,0x00,0x00,0x00,0x00,0x00,0x71,0x81,0x40,0x40,0x1f,0x00,0x00,0x00,0x00,0x00,0x71,0x81,0x40,0x40,0x1f,0x00,0x00,0x00,0x00,0x00,0x71,0x81,0x40,0x40,0x1f,0x00,0x00,0x00,0x00,0x00,0x71,0x81,0x40,0x40,0x1f,0x00,0x00,0x00,0x00,0x00,0x71,0x81,0x40,0x40,0x1f,0x00,0x00,0x00,0x00,0x00,0x71,0x81,0x40,0x40,0x1f,0x00,0x00,0x00,0x00,0x00,0x71,0x81,0x40,0x40,0x1f,0x00,0x00,0x00,0x00,0x00,0x71,0x81,0x40,0x40,0x1f,0x00,0x00,0x00,0x00,0x00,0x71,0x81,0x40,0x40,0x1f,0x00,0x00,0x00,0x00,0x00,0x71,0x81,0x40,0x40,0x1f,0x00,0x00,0x00,0x00,0x00,0x71,0x81,0x40,0x40,0x1f,0x00,0x00,0x00,0x00,0x00,0x71,0x81,0x40,0x40,0x1f,0x00,0x00,0x00,0x00,0x00,0x71,0x81,0x40,0x40,0x1f,0x00,0x00,0x00,0x00,0x00,0x71,0x81,0x40,0x40,0x1f,0x00,0x00,0x00,0x00,0x00,0x71,0x81,0x40,0x40,0x1f,0x00,0x00,0x00,0x00,0x00,0x71,0x81,0x40,0x40,0x1f,0x00,0x00,0x00,0x00,0x00,0x71,0x81,0x40,0x40,0x1f,0x00,0x00,0x00,0x00,0x00,0x71,0x81,0x40,0x40,0x1f,0x00,0x00,0x00,0x00,0x00,0x71,0x81,0x40,0x40,0x1f,0x00,0x00,0x00,0x00,0x00,0x71,0x81,0x40,0x40,0x1f,0x00,0x00,0x00,0x00,0x00,0x71,0x81,0x40,0x40,0x1f,0x00,0x00,0x00,0x00,0x00,0x71,0x81,0x40,0x40,0x1f,0x00,0x00,0x00,0x00,0x00,0x71,0x81,0x40,0x40,0x1f,0x00,0x00,0x00,0x00,0x00,0x71,0x81,0x40,0x40,0x1f,0x00,0x00,0x00,0x00,0x00,0x71,0x81,0x40,0x40,0x1f,0x00,0x00,0x00,0x00,0x00,0x71,0x81,0x40,0x40,0x1f,0x00,0x00,0x00,0x00,0x00,0x71,0x81,0x40,0x40,0x1f,0x00,0x00,0x00,0x00,0x00,0x71,0x81,0x40,0x40,0x1f,0x00,0x00,0x00,0x00,0x00,0x71,0x81,0x40,0x40,0x1f,0x00,0x00,0x00,0x00,0x00,0x71,0x81,0x40,0x40,0x1f,0x00,0x00,0x00,0x00,0x00,0x71,0x81,0x40,0x40,0x1f,0x00,0x00,0x00,0x00,0x00,0x71,0x81,0x40,0x40,0x1f,0x00,0x00,0x00,0x00,0x00,0x71,0x81,0x40,0x40,0x1f,0x00,0x00,0x00,0x00,0x00,0x71,0x81,0x40,0x40,0x1f,0x00,0x00,0x00,0x00,0x00,0x71,0x81,0x40,0x40,0x1f,0x00,0x00,0x00,0x00,0x00,0x71,0x81,0x40,0x40,0x1f,0x00,0x00,0x00,0x00,0x00,0x71,0x81,0x40,0x40,0x1f,0x00,0x00,0x00,0x00,0x00,0x71,0x81,0x40,0x40,0x1f,0x00,0x00,0x00,0x00,0x00,0x71,0x81,0x40,0x40,0x1f,0x00,0x00,0x00,0x00,0x00,0x71,0x81,0x40,0x40,0x1f,0x00,0x00,0x00,0x00,0x00,0x71,0x81,0x40,0x40,0x1f,0x00,0x00,0x00,0x00,0x00,0x71,0x81,0x40,0x40,0x1f,0x00,0x00,0x00,0x00,0x00,0x71,0x81,0x40,0x40,0x1f,0x00,0x00,0x00,0x00,0x00,0x71,0x81,0x40,0x40,0x1f,0x00,0x00,0x00,0x00,0x00,0x71,0x81,0x40,0x40,0x1f,0x00,0x00,0x00,0x00,0x00,0x71,0x81,0x40,0x40,0x1f,0x00,0x00,0x00,0x00,0x00,0x71,0x81,0x40,0x40,0x1f,0x00,0x00,0x00,0x00,0x00,0x71,0x81,0x40,0x40,0x1f,0x00,0x00,0x00,0x00,0x00,0x71,0x81,0x40,0x40,0x1f,0x00,0x00,0x00,0x00,0x00,0x71,0x81,0x40,0x40,0x1f,0x00,0x00,0x00,0x00,0x00,0x71,0x81,0x40,0x40,0x1f,0x00,0x00,0x00,0x00,0x00,0x71,0x81,0x40,0x40,0x1f,0x00,0x00,0x00,0x00,0x00,0x71,0x81,0x40,0x40,0x1f,0x00,0x00,0x00,0x00,0x00,0x71,0x81,0x40,0x40,0x1f,0x00,0x00,0x00,0x00,0x00,0x71,0x81,0x40,0x40,0x1f,0x00,0x00,0x00,0x00,0x00,0x71,0x81,0x40,0x40,0x1f,0x00,0x00,0x00,0x00,0x00,0x71,0x81,0x40,0x40,0x1f,0x00,0x00,0x00,0x00,0x00,0x71,0x81,0x40,0x40,0x1f,0x00,0x00,0x00,0x00,0x00,0x71,0x81,0x40,0x40,0x1f,0x00,0x00,0x00,0x00,0x00,0x71,0x81,0x40,0x40,0x1f,0x00,0x00,0x00,0x00,0x00,0x71,0x81,0x40,0x40,0x1f,0x00,0x00,0x00,0x00,0x00,0x71,0x81,0x40,0x40,0x1f,0x00,0x00,0x00,0x00,0x00,0x71,0x81,0x40,0x40,0x1f,0x00,0x00,0x00,0x00,0x00,0x71,0x81,0x40,0x40,0x1f,0x00,0x00,0x00,0x00,0x00,0x71,0x81,0x40,0x40,0x1f,0x00,0x00,0x00,0x00,0x00,0x71,0x81,0x40,0x40,0x1f,0x00,0x00,0x00,0x00,0x00,0x71,0x81,0x40,0x40,0x1f,0x00,0x00,0x00,0x00,0x00,0x71,0x81,0x40,0x40,0x1f,0x00,0x00,0x00,0x00,0x00,0x71,0x81,0x40,0x40,0x1f,0x00,0x00,0x00,0x00,0x00,0x71,0x81,0x40,0x40,0x1f,0x00,0x00,0x00,0x00,0x00,0x71,0x81,0x40,0x40,0x1f,0x00,0x00,0x00,0x00,0x00,0x71,0x81,0x40,0x40,0x1f,0x00,0x00,0x00,0x00,0x00,0x71,0x81,0x40,0x40,0x1f,0x00,0x00,0x00,0x00,0x00,0x71,0x81,0x40,0x40,0x1f,0x00,0x00,0x00,0x00,0x00,0x71,0x81,0x40,0x40,0x1f,0x00,0x00,0x00,0x00,0x00,0x71,0x81,0x40,0x40,0x1f,0x00,0x00,0x00,0x00,0x00,0x71,0x81,0x40,0x40,0x1f,0x00,0x00,0x00,0x00,0x00,0x71,0x81,0x40,0x40,0x1f,0x00,0x00,0x00,0x00,0x00,0x71,0x81,0x40,0x40,0x1f,0x00,0x00,0x00,0x00,0x00,0x71,0x81,0x40,0x40,0x1f,0x00,0x00,0x00,0x00,0x00,0x71,0x81,0x40,0x40,0x1f,0x00,0x00,0x00,0x00,0x00,0x71,0x81,0x40,0x40,0x1f,0x00,0x00,0x00,0x00,0x00,0x71,0x81,0x40,0x40,0x1f,0x00,0x00,0x00,0x00,0x00,0x71,0x81,0x40,0x40,0x1f,0x00,0x00,0x00,0x00,0x00,0x71,0x81,0x40,0x40,0x1f,0x00,0x00,0x00,0x00,0x00,0x71,0x81,0x40,0x40,0x1f,0x00,0x00,0x00,0x00,0x00,0x71,0x81,0x40,0x40,0x1f,0x00,0x00,0x00,0x00,0x00,0x71,0x81,0x40,0x40,0x1f,0x00,0x00,0x00,0x00,0x00,0x71,0x81,0x40,0x40,0x1f,0x00,0x00,0x00,0x00,0x00,0x71,0x81,0x40,0x40,0x1f,0x00,0x00,0x00,0x00,0x00,0x71,0x81,0x40,0x40,0x1f,0x00,0x00,0x00,0x00,0x00,0x71,0x81,0x40,0x40,0x1f,0x00,0x00,0x00,0x00,0x00,0x71,0x81,0x40,0x40,0x1f,0x00,0x00,0x00,0x00,0x00,0x71,0x81,0x40,0x40,0x1f,0x00,0x00,0x00,0x00,0x00,0x71,0x81,0x40,0x40,0x1f,0x00,0x00,0x00,0x00,0x00,0x71,0x81,0x40,0x40,0x1f,0x00,0x00,0x00,0x00,0x00,0x71,0x81,0x40,0x40,0x1f,0x00,0x00,0x00,0x00,0x00,0x71,0x81,0x40,0x40,0x1f,0x00,0x00,0x00,0x00,0x00,0x71,0x81,0x40,0x40,0x1f,0x00,0x00,0x00,0x00,0x00,0x71,0x81,0x40,0x40,0x1f,0x00,0x00,0x00,0x00,0x00,0x71,0x81,0x40,0x40,0x1f,0x00,0x00,0x00,0x00,0x00,0x71,0x81,0x40,0x40,0x1f,0x00,0x00,0x00,0x00,0x00,0x71,0x81,0x40,0x40,0x1f,0x00,0x00,0x00,0x00,0x00,0x71,0x81,0x40,0x40,0x1f,0x00,0x00,0x00,0x00,0x00,0x71,0x81,0x40,0x40,0x1f,0x00,0x00,0x00,0x00,0x00,0x71,0x81,0x40,0x40,0x1f,0x00,0x00,0x00,0x00,0x00,0x71,0x81,0x40,0x40,0x1f,0x00,0x00,0x00,0x00,0x00,0x71,0x81,0x40,0x40,0x1f,0x00,0x00,0x00,0x00,0x00,0x71,0x81,0x40,0x40,0x1f,0x00,0x00,0x00,0x00,0x00,0x71,0x81,0x40,0x40,0x1f,0x00,0x00,0x00,0x00,0x00,0x71,0x81,0x40,0x40,0x1f,0x00,0x00,0x00,0x00,0x00,0x71,0x81,0x40,0x40,0x1f,0x00,0x00,0x00,0x00,0x00,0x71,0x81,0x40,0x40,0x1f,0x00,0x00,0x00,0x00,0x00,0x71,0x81,0x40,0x40,0x1f,0x00,0x00,0x00,0x00,0x00,0x71,0x81,0x40,0x40,0x1f,0x00,0x00,0x00,0x00,0x00,0x71,0x81,0x40,0x40,0x1f,0x00,0x00,0x00,0x00,0x00,0x71,0x81,0x40,0x40,0x1f,0x00,0x00,0x00,0x00,0x00,0x71,0x81,0x40,0x40,0x1f,0x00,0x00,0x00,0x00,0x00,0x71,0x81,0x40,0x40,0x1f,0x00,0x00,0x00,0x00,0x00,0x71,0x81,0x40,0x40,0x1f,0x00,0x00,0x00,0x00,0x00,0x71,0x81,0x40,0x40,0x1f,0x00,0x00,0x00,0x00,0x00,0x71,0x81,0x40,0x40,0x1f,0x00,0x00,0x00,0x00,0x00,0x71,0x81,0x40,0x40,0x1f,0x00,0x00,0x00,0x00,0x00,0x71,0x81,0x40,0x40,0x1f,0x00,0x00,0x00,0x00,0x00,0x71,0x81,0x40,0x40,0x1f,0x00,0x00,0x00,0x00,0x00,0x71,0x81,0x40,0x40,0x1f,0x00,0x00,0x00,0x00,0x00,0x71,0x81,0x40,0x40,0x1f,0x00,0x00,0x00,0x00,0x00,0x71,0x81,0x40,0x40,0x1f,0x00,0x00,0x00,0x00,0x00,0x71,0x81,0x40,0x40,0x1f,0x00,0x00,0x00,0x00,0x00,0x71,0x81,0x40,0x40,0x1f,0x00,0x00,0x00,0x00,0x00,0x71,0x81,0x40,0x40,0x1f,0x00,0x00,0x00,0x00,0x00,0x71,0x81,0x40,0x40,0x1f,0x00,0x00,0x00,0x00,0x00,0x71,0x81,0x40,0x40,0x1f,0x00,0x00,0x00,0x00,0x00,0x71,0x81,0x40,0x40,0x1f,0x00,0x00,0x00,0x00,0x00,0x71,0x81,0x40,0x40,0x1f,0x00,0x00,0x00,0x00,0x00,0x71,0x81,0x40,0x40,0x1f,0x00,0x00,0x00,0x00,0x00,0x71,0x81,0x40,0x40,0x1f,0x00,0x00,0x00,0x00,0x00,0x71,0x81,0x40,0x40,0x1f,0x00,0x00,0x00,0x00,0x00,0x71,0x81,0x40,0x40,0x1f,0x00,0x00,0x00,0x00,0x00,0x71,0x81,0x40,0x40,0x1f,0x00,0x00,0x00,0x00,0x00,0x71,0x81,0x40,0x40,0x1f,0x00,0x00,0x00,0x00,0x00,0x71,0x81,0x40,0x40,0x1f,0x00,0x00,0x00,0x00,0x00,0x71,0x81,0x40,0x40,0x1f,0x00,0x00,0x00,0x00,0x00,0x71,0x81,0x40,0x40,0x1f,0x00,0x00,0x00,0x00,0x00,0x71,0x81,0x40,0x40,0x1f,0x00,0x00,0x00,0x00,0x00,0x71,0x81,0x40,0x40,0x1f,0x00,0x00,0x00,0x00,0x00,0x71,0x81,0x40,0x40,0x1f,0x00,0x00,0x00,0x00,0x00,0x71,0x81,0x40,0x40,0x1f,0x00,0x00,0x00,0x00,0x00,0x71,0x81,0x40,0x40,0x1f,0x00,0x00,0x00,0x00,0x00,0x71,0x81,0x40,0x40,0x1f,0x00,0x00,0x00,0x00,0x00,0x71,0x81,0x40,0x40,0x1f,0x00,0x00,0x00,0x00,0x00,0x71,0x81,0x40,0x40,0x1f,0x00,0x00,0x00,0x00,0x00,0x71,0x81,0x40,0x40,0x1f,0x00,0x00,0x00,0x00,0x00,0x71,0x81,0x40,0x40,0x1f,0x00,0x00,0x00,0x00,0x00,0x71,0x81,0x40,0x40,0x1f,0x00,0x00,0x00,0x00,0x00,0x71,0x81,0x40,0x40,0x1f,0x00,0x00,0x00,0x00,0x00,0x71,0x81,0x40,0x40,0x1f,0x00,0x00,0x00,0x00,0x00,0x71,0x81,0x40,0x40,0x1f,0x00,0x00,0x00,0x00,0x00,0x71,0x81,0x40,0x40,0x1f,0x00,0x00,0x00,0x00,0x00,0x71,0x81,0x40,0x40,0x1f,0x00,0x00,0x00,0x00,0x00,0x71,0x81,0x40,0x40,0x1f,0x00,0x00,0x00,0x00,0x00,0x71,0x81,0x40,0x40,0x1f,0x00,0x00,0x00,0x00,0x00,0x71,0x81,0x40,0x40,0x1f,0x00,0x00,0x00,0x00,0x00,0x71,0x81,0x40,0x40,0x1f,0x00,0x00,0x00,0x00,0x00,0x71,0x81,0x40,0x40,0x1f,0x00,0x00,0x00,0x00,0x00,0x71,0x81,0x40,0x40,0x1f,0x00,0x00,0x00,0x00,0x00,0x71,0x81,0x40,0x40,0x1f,0x00,0x00,0x00,0x00,0x00,0x71,0x81,0x40,0x40,0x1f,0x00,0x00,0x00,0x00,0x00,0x71,0x81,0x40,0x40,0x1f,0x00,0x00,0x00,0x00,0x00,0x71,0x81,0x40,0x40,0x1f,0x00,0x00,0x00,0x00,0x00,0x71,0x81,0x40,0x40,0x1f,0x00,0x00,0x00,0x00,0x00,0x71,0x81,0x40,0x40,0x1f,0x00,0x00,0x00,0x00,0x00,0x71,0x81,0x40,0x40,0x1f,0x00,0x00,0x00,0x00,0x00,0x71,0x81,0x40,0x40,0x1f,0x00,0x00,0x00,0x00,0x00,0x71,0x81,0x40,0x40,0x1f,0x00,0x00,0x00,0x00,0x00,0x71,0x81,0x40,0x40,0x1f,0x00,0x00,0x00,0x00,0x00,0x71,0x81,0x40,0x40,0x1f,0x00,0x00,0x00,0x00,0x00,0x71,0x81,0x40,0x40,0x1f,0x00,0x00,0x00,0x00,0x00,0x71,0x81,0x40,0x40,0x1f,0x00,0x00,0x00,0x00,0x00,0x71,0x81,0x40,0x40,0x1f,0x00,0x00,0x00,0x00,0x00,0x71,0x81,0x40,0x40,0x1f,0x00,0x00,0x00,0x00,0x00,0x71,0x81,0x40,0x40,0x1f,0x00,0x00,0x00,0x00,0x00,0x71,0x81,0x40,0x40,0x1f,0x00,0x00,0x00,0x00,0x00,0x71,0x81,0x40,0x40,0x1f,0x00,0x00,0x00,0x00,0x00,0x71,0x81,0x40,0x40,0x1f,0x00,0x00,0x00,0x00,0x00,0x71,0x81,0x40,0x40,0x1f,0x00,0x00,0x00,0x00,0x00,0x71,0x81,0x40,0x40,0x1f,0x00,0x00,0x00,0x00,0x00,0x71,0x81,0x40,0x40,0x1f,0x00,0x00,0x00,0x00,0x00,0x71,0x81,0x40,0x40,0x1f,0x00,0x00,0x00,0x00,0x00,0x71,0x81,0x40,0x40,0x1f,0x00,0x00,0x00,0x00,0x00,0x71,0x81,0x40,0x40,0x1f,0x00,0x00,0x00,0x00,0x00,0x71,0x81,0x40,0x40,0x1f,0x00,0x00,0x00,0x00,0x00,0x71,0x81,0x40,0x40,0x1f,0x00,0x00,0x00,0x00,0x00,0x71,0x81,0x40,0x40,0x1f,0x00,0x00,0x00,0x00,0x00,0x71,0x81,0x40,0x40,0x1f,0x00,0x00,0x00,0x00,0x00,0x71,0x81,0x40,0x40,0x1f,0x00,0x00,0x00,0x00,0x00,0x71,0x81,0x40,0x40,0x1f,0x00,0x00,0x00,0x00,0x00,0x71,0x81,0x40,0x40,0x1f,0x00,0x00,0x00,0x00,0x00,0x71,0x81,0x40,0x40,0x1f,0x00,0x00,0x00,0x00,0x00,0x71,0x81,0x40,0x40,0x1f,0x00,0x00,0x00,0x00,0x00,0x71,0x81,0x40,0x40,0x1f,0x00,0x00,0x00,0x00,0x00,0x71,0x81,0x40,0x40,0x1f,0x00,0x00,0x00,0x00,0x00,0x71,0x81,0x40,0x40,0x1f,0x00,0x00,0x00,0x00,0x00,0x71,0x81,0x40,0x40,0x1f,0x00,0x00,0x00,0x00,0x00,0x71,0x81,0x40,0x40,0x1f,0x00,0x00,0x00,0x00,0x00,0x71,0x81,0x40,0x40,0x1f,0x00,0x00,0x00,0x00,0x00,0x71,0x81,0x40,0x40,0x1f,0x00,0x00,0x00,0x00,0x00,0x71,0x81,0x40,0x40,0x1f,0x00,0x00,0x00,0x00,0x00,0x71,0x81,0x40,0x40,0x1f,0x00,0x00,0x00,0x00,0x00,0x71,0x81,0x40,0x40,0x1f,0x00,0x00,0x00,0x00,0x00,0x71,0x81,0x40,0x40,0x1f,0x00,0x00,0x00,0x00,0x00,0x71,0x81,0x40,0x40,0x1f,0x00,0x00,0x00,0x00,0x00,0x71,0x81,0x40,0x40,0x1f,0x00,0x00,0x00,0x00,0x00,0x71,0x81,0x40,0x40,0x1f,0x00,0x00,0x00,0x00,0x00,0x71,0x81,0x40,0x40,0x1f,0x00,0x00,0x00,0x00,0x00,0x71,0x81,0x40,0x40,0x1f,0x00,0x00,0x00,0x00,0x00,0x71,0x81,0x40,0x40,0x1f,0x00,0x00,0x00,0x00,0x00,0x71,0x81,0x40,0x40,0x1f,0x00,0x00,0x00,0x00,0x00,0x71,0x81,0x40,0x40,0x1f,0x00,0x00,0x00,0x00,0x00,0x71,0x81,0x40,0x40,0x1f,0x00,0x00,0x00,0x00,0x00,0x71,0x81,0x40,0x40,0x1f,0x00,0x00,0x00,0x00,0x00,0x71,0x81,0x40,0x40,0x1f,0x00,0x00,0x00,0x00,0x00,0x71,0x81,0x40,0x40,0x1f,0x00,0x00,0x00,0x00,0x00,0x71,0x81,0x40,0x40,0x1f,0x00,0x00,0x00,0x00,0x00,0x71,0x81,0x40,0x40,0x1f,0x00,0x00,0x00,0x00,0x00,0x71,0x81,0x40,0x40,0x1f,0x00,0x00,0x00,0x00,0x00,0x71,0x81,0x40,0x40,0x1f,0x00,0x00,0x00,0x00,0x00,0x71,0x81,0x40,0x40,0x1f,0x00,0x00,0x00,0x00,0x00,0x71,0x81,0x40,0x40,0x1f,0x00,0x00,0x00,0x00,0x00,0x71,0x81,0x40,0x40,0x1f,0x00,0x00,0x00,0x00,0x00,0x71,0x81,0x40,0x40,0x1f,0x00,0x00,0x00,0x00,0x00,0x71,0x81,0x40,0x40,0x1f,0x00,0x00,0x00,0x00,0x00,0x71,0x81,0x40,0x40,0x1f,0x00,0x00,0x00,0x00,0x00,0x71,0x81,0x40,0x40,0x1f,0x00,0x00,0x00,0x00,0x00,0x71,0x81,0x40,0x40,0x1f,0x00,0x00,0x00,0x00,0x00,0x71,0x81,0x40,0x40,0x1f,