/*
weights:
[[[[1 2 3 4 1 2 3 4 1 2 3 4 1 2 3 4]]]


 [[[1 2 3 4 1 2 3 4 1 2 3 4 1 2 3 4]]]


 [[[1 2 3 4 1 2 3 4 1 2 3 4 1 2 3 4]]]


 [[[1 2 3 4 1 2 3 4 1 2 3 4 1 2 3 4]]]


 [[[1 2 3 4 1 2 3 4 1 2 3 4 1 2 3 4]]]


 [[[1 2 3 4 1 2 3 4 1 2 3 4 1 2 3 4]]]


 [[[1 2 3 4 1 2 3 4 1 2 3 4 1 2 3 4]]]


 [[[1 2 3 4 1 2 3 4 1 2 3 4 1 2 3 4]]]


 [[[1 2 3 4 1 2 3 4 1 2 3 4 1 2 3 4]]]


 [[[1 2 3 4 1 2 3 4 1 2 3 4 1 2 3 4]]]


 [[[1 2 3 4 1 2 3 4 1 2 3 4 1 2 3 4]]]


 [[[1 2 3 4 1 2 3 4 1 2 3 4 1 2 3 4]]]


 [[[1 2 3 4 1 2 3 4 1 2 3 4 1 2 3 4]]]


 [[[1 2 3 4 1 2 3 4 1 2 3 4 1 2 3 4]]]


 [[[1 2 3 4 1 2 3 4 1 2 3 4 1 2 3 4]]]


 [[[1 2 3 4 1 2 3 4 1 2 3 4 1 2 3 4]]]


 [[[1 2 3 4 1 2 3 4 1 2 3 4 1 2 3 4]]]


 [[[1 2 3 4 1 2 3 4 1 2 3 4 1 2 3 4]]]


 [[[1 2 3 4 1 2 3 4 1 2 3 4 1 2 3 4]]]


 [[[1 2 3 4 1 2 3 4 1 2 3 4 1 2 3 4]]]


 [[[1 2 3 4 1 2 3 4 1 2 3 4 1 2 3 4]]]


 [[[1 2 3 4 1 2 3 4 1 2 3 4 1 2 3 4]]]


 [[[1 2 3 4 1 2 3 4 1 2 3 4 1 2 3 4]]]


 [[[1 2 3 4 1 2 3 4 1 2 3 4 1 2 3 4]]]


 [[[1 2 3 4 1 2 3 4 1 2 3 4 1 2 3 4]]]


 [[[1 2 3 4 1 2 3 4 1 2 3 4 1 2 3 4]]]


 [[[1 2 3 4 1 2 3 4 1 2 3 4 1 2 3 4]]]


 [[[1 2 3 4 1 2 3 4 1 2 3 4 1 2 3 4]]]


 [[[1 2 3 4 1 2 3 4 1 2 3 4 1 2 3 4]]]


 [[[1 2 3 4 1 2 3 4 1 2 3 4 1 2 3 4]]]


 [[[1 2 3 4 1 2 3 4 1 2 3 4 1 2 3 4]]]


 [[[1 2 3 4 1 2 3 4 1 2 3 4 1 2 3 4]]]]
biases:
 [1, 1, 1, 1, 1, 1, 1, 1, 1, 1, 1, 1, 1, 1, 1, 1, 1, 1, 1, 1, 1, 1, 1, 1, 1, 1, 1, 1, 1, 1, 1, 1]
*/
#include <cstddef>
#include <cstdint>





//len(biases): 320  as hex: (0x140)

//len(weights): 272  as hex: (0x110)

//tot len: 592  as hex: (0x250)


static const uint8_t weights_matmul[] __attribute__((aligned(16))) = 
{

//biases:
 0x01, 0x00, 0x00, 0x00, 0x00, 0x01, 0x00, 0x00, 0x00, 0x00,
0x01, 0x00, 0x00, 0x00, 0x00, 0x01, 0x00, 0x00, 0x00, 0x00,
0x01, 0x00, 0x00, 0x00, 0x00, 0x01, 0x00, 0x00, 0x00, 0x00,
0x01, 0x00, 0x00, 0x00, 0x00, 0x01, 0x00, 0x00, 0x00, 0x00,
0x01, 0x00, 0x00, 0x00, 0x00, 0x01, 0x00, 0x00, 0x00, 0x00,
0x01, 0x00, 0x00, 0x00, 0x00, 0x01, 0x00, 0x00, 0x00, 0x00,
0x01, 0x00, 0x00, 0x00, 0x00, 0x01, 0x00, 0x00, 0x00, 0x00,
0x01, 0x00, 0x00, 0x00, 0x00, 0x01, 0x00, 0x00, 0x00, 0x00,
0x01, 0x00, 0x00, 0x00, 0x00, 0x01, 0x00, 0x00, 0x00, 0x00,
0x01, 0x00, 0x00, 0x00, 0x00, 0x01, 0x00, 0x00, 0x00, 0x00,
0x01, 0x00, 0x00, 0x00, 0x00, 0x01, 0x00, 0x00, 0x00, 0x00,
0x01, 0x00, 0x00, 0x00, 0x00, 0x01, 0x00, 0x00, 0x00, 0x00,
0x01, 0x00, 0x00, 0x00, 0x00, 0x01, 0x00, 0x00, 0x00, 0x00,
0x01, 0x00, 0x00, 0x00, 0x00, 0x01, 0x00, 0x00, 0x00, 0x00,
0x01, 0x00, 0x00, 0x00, 0x00, 0x01, 0x00, 0x00, 0x00, 0x00,
0x01, 0x00, 0x00, 0x00, 0x00, 0x01, 0x00, 0x00, 0x00, 0x00,
0x01, 0x00, 0x00, 0x00, 0x00, 0x01, 0x00, 0x00, 0x00, 0x00,
0x01, 0x00, 0x00, 0x00, 0x00, 0x01, 0x00, 0x00, 0x00, 0x00,
0x01, 0x00, 0x00, 0x00, 0x00, 0x01, 0x00, 0x00, 0x00, 0x00,
0x01, 0x00, 0x00, 0x00, 0x00, 0x01, 0x00, 0x00, 0x00, 0x00,
0x01, 0x00, 0x00, 0x00, 0x00, 0x01, 0x00, 0x00, 0x00, 0x00,
0x01, 0x00, 0x00, 0x00, 0x00, 0x01, 0x00, 0x00, 0x00, 0x00,
0x01, 0x00, 0x00, 0x00, 0x00, 0x01, 0x00, 0x00, 0x00, 0x00,
0x01, 0x00, 0x00, 0x00, 0x00, 0x01, 0x00, 0x00, 0x00, 0x00,
0x01, 0x00, 0x00, 0x00, 0x00, 0x01, 0x00, 0x00, 0x00, 0x00,
0x01, 0x00, 0x00, 0x00, 0x00, 0x01, 0x00, 0x00, 0x00, 0x00,
0x01, 0x00, 0x00, 0x00, 0x00, 0x01, 0x00, 0x00, 0x00, 0x00,
0x01, 0x00, 0x00, 0x00, 0x00, 0x01, 0x00, 0x00, 0x00, 0x00,
0x01, 0x00, 0x00, 0x00, 0x00, 0x01, 0x00, 0x00, 0x00, 0x00,
0x01, 0x00, 0x00, 0x00, 0x00, 0x01, 0x00, 0x00, 0x00, 0x00,
0x01, 0x00, 0x00, 0x00, 0x00, 0x01, 0x00, 0x00, 0x00, 0x00,
0x01, 0x00, 0x00, 0x00, 0x00, 0x01, 0x00, 0x00, 0x00, 0x00,

//weights:
 0xee, 0x03, 0x64, 0x40, 0x04, 0x68, 0x24, 0x77, 0x97, 0xe4, 0xee, 0x92, 0xa8, 0xea, 0xdd, 0x25, 0x51, 0xd5, 0xbb, 0x4b, 0xa2, 0xaa, 0x77, 0x97, 0x44, 0x55, 0xef, 0x2e, 0x89, 0xaa, 0xde, 0x5d, 0x12, 0x55, 0xbd, 0xbb, 0x24, 0xaa, 0x7a, 0x77, 0x49, 0x54, 0xf5, 0xee, 0x92, 0xa8, 0xea, 0x0d, 0x24, 0x55, 0x55, 0x1d, 0x08, 0x40, 0x03, 0x10, 0x00, 0x00, 0x00, 0x00, 0x00, 0x00, 0x00, 0x00, 0x00, 0x00, 0x00, 0x00, 0x00, 0x00, 0x80, 0xfb, 0x00, 0xe9, 0xee, 0x92, 0xdc, 0x5d, 0x12, 0x55, 0xbd, 0xbb, 0x24, 0xaa, 0x7a, 0x77, 0x49, 0x54, 0xf5, 0xee, 0x92, 0xa8, 0xea, 0xdd, 0x25, 0x51, 0xd5, 0xbb, 0x4b, 0xa2, 0xaa, 0x77, 0x97, 0x44, 0x55, 0xef, 0x2e, 0x89, 0xaa, 0xde, 0x5d, 0x12, 0x55, 0xbd, 0x81, 0xa4, 0xaa, 0xaa, 0x03, 0x01, 0x68, 0x00, 0x02, 0x00, 0x00, 0x00, 0x00, 0x00, 0x00, 0x00, 0x00, 0x00, 0x00, 0x00, 0x00, 0x00, 0x00, 0x70, 0x1f, 0x20, 0xdd, 0x5d, 0x92, 0xbb, 0x4b, 0xa2, 0xaa, 0x77, 0x97, 0x44, 0x55, 0xef, 0x2e, 0x89, 0xaa, 0xde, 0x5d, 0x12, 0x55, 0xbd, 0xbb, 0x24, 0xaa, 0x7a, 0x77, 0x49, 0x54, 0xf5, 0xee, 0x92, 0xa8, 0xea, 0xdd, 0x25, 0x51, 0xd5, 0xbb, 0x4b, 0xa2, 0xaa, 0x37, 0x90, 0x54, 0x55, 0x75, 0x20, 0x00, 0x0d, 0x40, 0x00, 0x00, 0x00, 0x00, 0x00, 0x00, 0x00, 0x00, 0x00, 0x00, 0x00, 0x00, 0x00, 0x00, 0x00, 0xee, 0x03, 0xa4, 0xbb, 0x4b, 0x72, 0x77, 0x49, 0x54, 0xf5, 0xee, 0x92, 0xa8, 0xea, 0xdd, 0x25, 0x51, 0xd5, 0xbb, 0x4b, 0xa2, 0xaa, 0x77, 0x97, 0x44, 0x55, 0xef, 0x2e, 0x89, 0xaa, 0xde, 0x5d, 0x12, 0x55, 0xbd, 0xbb, 0x24, 0xaa, 0x7a, 0x77, 0x49, 0x54, 0xf5, 0x06, 0x92, 0xaa, 0xaa, 0x0e, 0x04, 0xa0, 0x01, 0x08, 0x00, 0x00, 0x00, 0x00, 0x00, 0x00, 0x00, 0x00, 0x00, 0x00, 0x00, 0x00, 0x00, 0x00, 0xe0, 0xff
};





#define MATMUL_TENSOR_ARENA_SIZE 640
#define MATMUL_INPUT_TENSOR_SIZE 16
#define MATMUL_OUTPUT_TENSOR_SIZE 32 




/*
Warning: No configuration file specified. Using a default of ['/home/chris/.local/lib/python3.10/site-packages/ethosu/config_files/Arm/vela.ini']. Compilation may be invalid or non-optimal.
Warning: No system configuration specified. Using a default of Ethos_U55_High_End_Embedded. Compilation may be invalid or non-optimal.
Warning: No memory mode specified. Using a default of Shared_Sram. Compilation may be invalid or non-optimal.

Commands:

Register Command Stream:
+---------------------------+-----------+------------------+
| Command Name              | Parameter | Payload Data     |
+---------------------------+-----------+------------------+
| NPU_SET_DMA0_SRC_REGION   | 0         | -                |
| NPU_SET_DMA0_SRC          | 0         | 0x00000000 (0)   |
| NPU_SET_DMA0_DST_REGION   | 1         | -                |
| NPU_SET_DMA0_DST          | 0         | 0x00000000 (0)   |
| NPU_SET_DMA0_LEN          | 0         | 0x00000250 (592) |
| NPU_OP_DMA_START          | 0         | -                |
| NPU_SET_IFM_REGION        | 1         | -                |
| NPU_SET_IFM_BASE0         | 0         | 0x00000270 (624) |
| NPU_SET_IFM_BASE1         | 0         | 0x00000000 (0)   |
| NPU_SET_IFM_BASE2         | 0         | 0x00000000 (0)   |
| NPU_SET_IFM_BASE3         | 0         | 0x00000000 (0)   |
| NPU_SET_IFM_HEIGHT0_M1    | 0         | -                |
| NPU_SET_IFM_HEIGHT1_M1    | 65535     | -                |
| NPU_SET_IFM_WIDTH0_M1     | 0         | -                |
| NPU_SET_IFM_DEPTH_M1      | 15        | -                |
| NPU_SET_IFM_STRIDE_C      | 0         | 0x00000001 (1)   |
| NPU_SET_IFM_STRIDE_Y      | 0         | 0x00000010 (16)  |
| NPU_SET_IFM_STRIDE_X      | 0         | 0x00000010 (16)  |
| NPU_SET_IFM_ZERO_POINT    | 0         | -                |
| NPU_SET_IFM_PRECISION     | 1         | -                |
| NPU_SET_IFM_UPSCALE       | 0         | -                |
| NPU_SET_IFM_PAD_TOP       | 0         | -                |
| NPU_SET_IFM_PAD_LEFT      | 0         | -                |
| NPU_SET_IFM_PAD_BOTTOM    | 0         | -                |
| NPU_SET_IFM_PAD_RIGHT     | 0         | -                |
| NPU_SET_OFM_REGION        | 1         | -                |
| NPU_SET_OFM_BASE0         | 0         | 0x00000250 (592) |
| NPU_SET_OFM_BASE1         | 0         | 0x00000000 (0)   |
| NPU_SET_OFM_BASE2         | 0         | 0x00000000 (0)   |
| NPU_SET_OFM_BASE3         | 0         | 0x00000000 (0)   |
| NPU_SET_OFM_HEIGHT0_M1    | 0         | -                |
| NPU_SET_OFM_HEIGHT1_M1    | 65535     | -                |
| NPU_SET_OFM_WIDTH0_M1     | 0         | -                |
| NPU_SET_OFM_HEIGHT_M1     | 0         | -                |
| NPU_SET_OFM_WIDTH_M1      | 0         | -                |
| NPU_SET_OFM_DEPTH_M1      | 31        | -                |
| NPU_SET_OFM_STRIDE_C      | 0         | 0x00000001 (1)   |
| NPU_SET_OFM_STRIDE_Y      | 0         | 0x00000020 (32)  |
| NPU_SET_OFM_STRIDE_X      | 0         | 0x00000020 (32)  |
| NPU_SET_OFM_ZERO_POINT    | 0         | -                |
| NPU_SET_OFM_PRECISION     | 1         | -                |
| NPU_SET_KERNEL_HEIGHT_M1  | 0         | -                |
| NPU_SET_KERNEL_WIDTH_M1   | 0         | -                |
| NPU_SET_KERNEL_STRIDE     | 0         | -                |
| NPU_SET_WEIGHT_REGION     | 1         | -                |
| NPU_SET_WEIGHT_BASE       | 0         | 0x00000140 (320) |
| NPU_SET_WEIGHT_LENGTH     | 0         | 0x00000110 (272) |
| NPU_SET_SCALE_REGION      | 1         | -                |
| NPU_SET_SCALE_BASE        | 0         | 0x00000000 (0)   |
| NPU_SET_SCALE_LENGTH      | 0         | 0x00000140 (320) |
| NPU_SET_ACTIVATION        | 0         | -                |
| NPU_SET_ACTIVATION_MIN    | 0         | -                |
| NPU_SET_ACTIVATION_MAX    | 127       | -                |
| NPU_SET_OFM_BLK_HEIGHT_M1 | 1         | -                |
| NPU_SET_OFM_BLK_WIDTH_M1  | 1         | -                |
| NPU_SET_OFM_BLK_DEPTH_M1  | 15        | -                |
| NPU_SET_IFM_IB_END        | 10        | -                |
| NPU_SET_AB_START          | 30        | -                |
| NPU_SET_ACC_FORMAT        | 0         | -                |
| NPU_SET_BLOCKDEP          | 0         | -                |
| NPU_OP_DMA_WAIT           | 0         | -                |
| NPU_OP_CONV               | 0         | -                |
| NPU_OP_STOP               | 65535     | -                |
+---------------------------+-----------+------------------+
*/




static const uint8_t cms_matmul[] __attribute__((aligned(16))) = 
{
0x43, 0x4f, 0x50, 0x31, 0x01, 0x00, 0x10, 0x00, 0x08, 0x30, 0x00, 0x00, 0x00, 0x00, 0x06, 0x10, 0x05, 0x00, 0x00, 0x00, 0x05, 0x00, 0x00, 0x00, 0x05, 0x00, 0x00, 0x00, 0x02, 0x00, 0x54, 0x00, 0x30, 0x01, 0x00, 0x00, 0x30, 0x40, 0x00, 0x00, 0x00, 0x00, 0x00, 0x00, 0x31, 0x01, 0x01, 0x00, 0x31, 0x40, 0x00, 0x00, 0x00, 0x00, 0x00, 0x00, 0x32, 0x40, 0x00, 0x00, 0x50, 0x02, 0x00, 0x00, 0x10, 0x00, 0x00, 0x00, 0x0f, 0x01, 0x01, 0x00, 0x00, 0x40, 0x00, 0x00, 0x70, 0x02, 0x00, 0x00, 0x01, 0x40, 0x00, 0x00, 0x00, 0x00, 0x00, 0x00, 0x02, 0x40, 0x00, 0x00, 0x00, 0x00, 0x00, 0x00, 0x03, 0x40, 0x00, 0x00, 0x00, 0x00, 0x00, 0x00, 0x0b, 0x01, 0x00, 0x00, 0x0c, 0x01, 0xff, 0xff, 0x0a, 0x01, 0x00, 0x00, 0x04, 0x01, 0x0f, 0x00, 0x06, 0x40, 0x00, 0x00, 0x01, 0x00, 0x00, 0x00, 0x05, 0x40, 0x00, 0x00, 0x10, 0x00, 0x00, 0x00, 0x04, 0x40, 0x00, 0x00, 0x10, 0x00, 0x00, 0x00, 0x09, 0x01, 0x00, 0x00, 0x05, 0x01, 0x01, 0x00, 0x07, 0x01, 0x00, 0x00, 0x00, 0x01, 0x00, 0x00, 0x01, 0x01, 0x00, 0x00, 0x03, 0x01, 0x00, 0x00, 0x02, 0x01, 0x00, 0x00, 0x1f, 0x01, 0x01, 0x00, 0x10, 0x40, 0x00, 0x00, 0x50, 0x02, 0x00, 0x00, 0x11, 0x40, 0x00, 0x00, 0x00, 0x00, 0x00, 0x00, 0x12, 0x40, 0x00, 0x00, 0x00, 0x00, 0x00, 0x00, 0x13, 0x40, 0x00, 0x00, 0x00, 0x00, 0x00, 0x00, 0x1b, 0x01, 0x00, 0x00, 0x1c, 0x01, 0xff, 0xff, 0x1a, 0x01, 0x00, 0x00, 0x12, 0x01, 0x00, 0x00, 0x11, 0x01, 0x00, 0x00, 0x13, 0x01, 0x1f, 0x00, 0x16, 0x40, 0x00, 0x00, 0x01, 0x00, 0x00, 0x00, 0x15, 0x40, 0x00, 0x00, 0x20, 0x00, 0x00, 0x00, 0x14, 0x40, 0x00, 0x00, 0x20, 0x00, 0x00, 0x00, 0x18, 0x01, 0x00, 0x00, 0x14, 0x01, 0x01, 0x00, 0x21, 0x01, 0x00, 0x00, 0x20, 0x01, 0x00, 0x00, 0x22, 0x01, 0x00, 0x00, 0x28, 0x01, 0x01, 0x00, 0x20, 0x40, 0x00, 0x00, 0x40, 0x01, 0x00, 0x00, 0x21, 0x40, 0x00, 0x00, 0x10, 0x01, 0x00, 0x00, 0x29, 0x01, 0x01, 0x00, 0x22, 0x40, 0x00, 0x00, 0x00, 0x00, 0x00, 0x00, 0x23, 0x40, 0x00, 0x00, 0x40, 0x01, 0x00, 0x00, 0x25, 0x01, 0x00, 0x00, 0x26, 0x01, 0x00, 0x00, 0x27, 0x01, 0x7f, 0x00, 0x16, 0x01, 0x01, 0x00, 0x15, 0x01, 0x01, 0x00, 0x17, 0x01, 0x0f, 0x00, 0x0d, 0x01, 0x0a, 0x00, 0x2d, 0x01, 0x1e, 0x00, 0x24, 0x01, 0x00, 0x00, 0x2f, 0x01, 0x00, 0x00, 0x11, 0x00, 0x00, 0x00, 0x02, 0x00, 0x00, 0x00, 0x00, 0x00, 0xff, 0xff
};








const uint8_t * GetMatMulCMSPointer()
{
	return cms_matmul;
}

size_t GetMatMulCMSLen()
{
	return sizeof(cms_matmul);
}





const uint8_t * GetMatMulWeightsPointer()
{
	return weights_matmul;
}

size_t GetMatMulWeightsLen()
{
	return sizeof(weights_matmul);
}


//Current Block Config is legal: NpuShape3D(height=2, width=2, depth=16)
