#pragma once
#include <stddef.h>
#include <stdint.h>




// Tensor sizes

#define FC_LIF_LAYER_1_TENSOR_ARENA_SIZE  10784
#define FC_LIF_LAYER_1_INPUT_LAYER_SIZE  1000
#define FC_LIF_LAYER_1_OUTPUT_LAYER_SIZE  16
#define FC_LIF_LAYER_1_WEIGHT_LEN 10560
#define FC_LIF_LAYER_1_BIAS_LEN 160

// Input/output addresses (Relative Addressing)

#define FC_LIF_LAYER_1_IN_SPK_ADDR 0
#define FC_LIF_LAYER_1_BIAS_ADDR 0
#define FC_LIF_LAYER_1_WEIGHT_ADDR 160
#define FC_LIF_LAYER_1_LN_BETA_ADDR 0
#define FC_LIF_LAYER_1_VTH_ADDR 16
#define FC_LIF_LAYER_1_V_MEM_ADDR 10752
#define FC_LIF_LAYER_1_TIME_NOT_UPDATED_ADDR 10768
#define FC_LIF_LAYER_1_IN_CURR_ADDR 10736
#define FC_LIF_LAYER_1_DECAY_ADDR 10720
#define FC_LIF_LAYER_1_DECAYED_MEM_ADDR 10720
#define FC_LIF_LAYER_1_UPDATE_NXT_LAYER_ADDR 10769
#define FC_LIF_LAYER_1_OUT_SPK_ADDR 0

//Quantization Params

#define FC_LIF_LAYER_1_IN_SPK_SCALE 0.00392156862745098
#define FC_LIF_LAYER_1_IN_SPK_ZERO_POINT -128
#define FC_LIF_LAYER_1_BIAS_SCALE 0.0002941176470588235
#define FC_LIF_LAYER_1_BIAS_ZERO_POINT 0
#define FC_LIF_LAYER_1_WEIGHT_SCALE 0.001176470588235294
#define FC_LIF_LAYER_1_WEIGHT_ZERO_POINT 0
#define FC_LIF_LAYER_1_LN_BETA_SCALE 0.0196078431372549
#define FC_LIF_LAYER_1_LN_BETA_ZERO_POINT 127
#define FC_LIF_LAYER_1_VTH_SCALE 0.00392156862745098
#define FC_LIF_LAYER_1_VTH_ZERO_POINT -256
#define FC_LIF_LAYER_1_V_MEM_SCALE 0.023529411764705882
#define FC_LIF_LAYER_1_V_MEM_ZERO_POINT -43
#define FC_LIF_LAYER_1_TIME_NOT_UPDATED_SCALE 0.06274509803921569
#define FC_LIF_LAYER_1_TIME_NOT_UPDATED_ZERO_POINT -128
#define FC_LIF_LAYER_1_DECAY_SCALE 0.00392156862745098
#define FC_LIF_LAYER_1_DECAY_ZERO_POINT -128
#define FC_LIF_LAYER_1_IN_CURR_SCALE 0.01568627450980392
#define FC_LIF_LAYER_1_IN_CURR_ZERO_POINT -64
#define FC_LIF_LAYER_1_DECAYED_MEM_SCALE 0.023529411764705882
#define FC_LIF_LAYER_1_DECAYED_MEM_ZERO_POINT -43
#define FC_LIF_LAYER_1_UPDATE_NXT_LAYER_SCALE 0.00392156862745098
#define FC_LIF_LAYER_1_UPDATE_NXT_LAYER_ZERO_POINT -128
#define FC_LIF_LAYER_1_OUT_SPK_SCALE 0.00392156862745098
#define FC_LIF_LAYER_1_OUT_SPK_ZERO_POINT -128











static const uint8_t cms_fc_lif_layer_1[] __attribute__((aligned(16))) = 
{

0x43, 0x4f, 0x50, 0x31,
0x01, 0x00, 0x10, 0x00,
0x08, 0x30, 0x00, 0x00,
0x00, 0x00, 0x06, 0x10,
0x05, 0x00, 0x00, 0x00,
0x05, 0x00, 0x00, 0x00,
0x05, 0x00, 0x00, 0x00,
0x02, 0x00, 0x0f, 0x01,
0x30, 0x01, 0x04, 0x00,
0x30, 0x40, 0x00, 0x00,
0x00, 0x00, 0x00, 0x00,
0x31, 0x01, 0x03, 0x01,
0x31, 0x40, 0x00, 0x00,
0x00, 0xb8, 0x00, 0x00,
0x32, 0x40, 0x00, 0x00,
0x00, 0x01, 0x00, 0x00,
0x10, 0x00, 0x00, 0x00,
0x24, 0x40, 0x22, 0x00,
0x40, 0x40, 0x40, 0x40,
0x0f, 0x01, 0x03, 0x00,
0x00, 0x40, 0x00, 0x00,
0x00, 0x00, 0x00, 0x00,
0x01, 0x40, 0x00, 0x00,
0x00, 0x00, 0x00, 0x00,
0x02, 0x40, 0x00, 0x00,
0x00, 0x00, 0x00, 0x00,
0x03, 0x40, 0x00, 0x00,
0x00, 0x00, 0x00, 0x00,
0x0b, 0x01, 0x00, 0x00,
0x0c, 0x01, 0xff, 0xff,
0x0a, 0x01, 0x00, 0x00,
0x04, 0x01, 0x0f, 0x00,
0x06, 0x40, 0x00, 0x00,
0x01, 0x00, 0x00, 0x00,
0x05, 0x40, 0x00, 0x00,
0x10, 0x00, 0x00, 0x00,
0x04, 0x40, 0x00, 0x00,
0x10, 0x00, 0x00, 0x00,
0x09, 0x01, 0x7f, 0x00,
0x05, 0x01, 0x01, 0x00,
0x07, 0x01, 0x00, 0x00,
0x1f, 0x01, 0x01, 0x00,
0x10, 0x40, 0x00, 0x00,
0xe0, 0x29, 0x00, 0x00,
0x11, 0x40, 0x00, 0x00,
0x00, 0x00, 0x00, 0x00,
0x12, 0x40, 0x00, 0x00,
0x00, 0x00, 0x00, 0x00,
0x13, 0x40, 0x00, 0x00,
0x00, 0x00, 0x00, 0x00,
0x1b, 0x01, 0x00, 0x00,
0x1c, 0x01, 0xff, 0xff,
0x1a, 0x01, 0x00, 0x00,
0x12, 0x01, 0x00, 0x00,
0x11, 0x01, 0x00, 0x00,
0x13, 0x01, 0x0f, 0x00,
0x16, 0x40, 0x00, 0x00,
0x01, 0x00, 0x00, 0x00,
0x15, 0x40, 0x00, 0x00,
0x10, 0x00, 0x00, 0x00,
0x14, 0x40, 0x00, 0x00,
0x10, 0x00, 0x00, 0x00,
0x18, 0x01, 0x7f, 0x00,
0x14, 0x01, 0x01, 0x01,
0x25, 0x01, 0x10, 0x00,
0x26, 0x01, 0x80, 0xff,
0x27, 0x01, 0x7f, 0x00,
0x16, 0x01, 0x01, 0x00,
0x15, 0x01, 0x01, 0x00,
0x17, 0x01, 0x0f, 0x00,
0x0d, 0x01, 0x2e, 0x00,
0x2d, 0x01, 0x2e, 0x00,
0x8d, 0x01, 0x0a, 0x00,
0x24, 0x01, 0x00, 0x00,
0x8f, 0x01, 0x01, 0x00,
0x80, 0x40, 0x00, 0x00,
0x10, 0x2a, 0x00, 0x00,
0x81, 0x40, 0x00, 0x00,
0x00, 0x00, 0x00, 0x00,
0x82, 0x40, 0x00, 0x00,
0x00, 0x00, 0x00, 0x00,
0x83, 0x40, 0x00, 0x00,
0x00, 0x00, 0x00, 0x00,
0x8b, 0x01, 0x00, 0x00,
0x8c, 0x01, 0xff, 0xff,
0x8a, 0x01, 0x00, 0x00,
0x86, 0x40, 0x00, 0x00,
0x01, 0x00, 0x00, 0x00,
0x85, 0x40, 0x00, 0x00,
0x01, 0x00, 0x00, 0x00,
0x84, 0x40, 0x00, 0x00,
0x01, 0x00, 0x00, 0x00,
0x89, 0x01, 0x80, 0xff,
0x85, 0x01, 0x01, 0x00,
0x80, 0x01, 0x04, 0x00,
0x2f, 0x01, 0x00, 0x00,
0x11, 0x00, 0x00, 0x00,
0x06, 0x00, 0x00, 0x00,
0x30, 0x01, 0x00, 0x00,
0x31, 0x01, 0x01, 0x00,
0x31, 0x40, 0x00, 0x00,
0x00, 0x00, 0x00, 0x00,
0x32, 0x40, 0x00, 0x00,
0xe0, 0x29, 0x00, 0x00,
0x10, 0x00, 0x00, 0x00,
0x0f, 0x01, 0x05, 0x00,
0x04, 0x01, 0xe7, 0x03,
0x05, 0x40, 0x00, 0x00,
0xe8, 0x03, 0x00, 0x00,
0x04, 0x40, 0x00, 0x00,
0xe8, 0x03, 0x00, 0x00,
0x09, 0x01, 0x80, 0xff,
0x00, 0x01, 0x00, 0x00,
0x01, 0x01, 0x00, 0x00,
0x03, 0x01, 0x00, 0x00,
0x02, 0x01, 0x00, 0x00,
0x10, 0x40, 0x00, 0x00,
0xf0, 0x29, 0x00, 0x00,
0x18, 0x01, 0xc0, 0xff,
0x14, 0x01, 0x01, 0x00,
0x21, 0x01, 0x00, 0x00,
0x20, 0x01, 0x00, 0x00,
0x22, 0x01, 0x00, 0x00,
0x28, 0x01, 0x01, 0x00,
0x20, 0x40, 0x00, 0x00,
0xa0, 0x00, 0x00, 0x00,
0x21, 0x40, 0x00, 0x00,
0x40, 0x29, 0x00, 0x00,
0x29, 0x01, 0x01, 0x00,
0x22, 0x40, 0x00, 0x00,
0x00, 0x00, 0x00, 0x00,
0x23, 0x40, 0x00, 0x00,
0xa0, 0x00, 0x00, 0x00,
0x25, 0x01, 0x00, 0x00,
0x0d, 0x01, 0x0a, 0x00,
0x2d, 0x01, 0x1e, 0x00,
0x2f, 0x01, 0x03, 0x00,
0x11, 0x00, 0x00, 0x00,
0x02, 0x00, 0x00, 0x00,
0x24, 0x40, 0x26, 0x00,
0x40, 0x40, 0x40, 0x40,
0x0f, 0x01, 0x01, 0x00,
0x00, 0x40, 0x00, 0x00,
0x00, 0x2a, 0x00, 0x00,
0x04, 0x01, 0x0f, 0x00,
0x05, 0x40, 0x00, 0x00,
0x10, 0x00, 0x00, 0x00,
0x04, 0x40, 0x00, 0x00,
0x10, 0x00, 0x00, 0x00,
0x09, 0x01, 0xd5, 0xff,
0x10, 0x40, 0x00, 0x00,
0xe0, 0x29, 0x00, 0x00,
0x18, 0x01, 0xd5, 0xff,
0x14, 0x01, 0x01, 0x01,
0x0d, 0x01, 0x2e, 0x00,
0x2d, 0x01, 0x2e, 0x00,
0x80, 0x40, 0x00, 0x00,
0xe0, 0x29, 0x00, 0x00,
0x85, 0x40, 0x00, 0x00,
0x10, 0x00, 0x00, 0x00,
0x84, 0x40, 0x00, 0x00,
0x10, 0x00, 0x00, 0x00,
0x80, 0x01, 0x00, 0x00,
0x06, 0x00, 0x00, 0x00,
0x25, 0x40, 0x0c, 0x00,
0x55, 0x55, 0x55, 0x55,
0x26, 0x40, 0x00, 0x00,
0x00, 0x00, 0x00, 0x00,
0x24, 0x40, 0x31, 0x00,
0x00, 0x00, 0x00, 0x40,
0x00, 0x40, 0x00, 0x00,
0xe0, 0x29, 0x00, 0x00,
0x05, 0x01, 0x01, 0x02,
0x10, 0x40, 0x00, 0x00,
0x00, 0x2a, 0x00, 0x00,
0x80, 0x40, 0x00, 0x00,
0xf0, 0x29, 0x00, 0x00,
0x89, 0x01, 0xc0, 0xff,
0x2f, 0x01, 0x00, 0x00,
0x06, 0x00, 0x01, 0x00,
0x30, 0x01, 0x04, 0x00,
0x30, 0x40, 0x00, 0x00,
0x00, 0x01, 0x00, 0x00,
0x31, 0x01, 0x03, 0x01,
0x31, 0x40, 0x00, 0x00,
0x00, 0xb9, 0x00, 0x00,
0x32, 0x40, 0x00, 0x00,
0x00, 0x01, 0x00, 0x00,
0x10, 0x00, 0x00, 0x00,
0x25, 0x40, 0x0e, 0x00,
0x55, 0x55, 0x55, 0x55,
0x24, 0x40, 0x2f, 0x00,
0x00, 0x00, 0x00, 0x60,
0x00, 0x40, 0x00, 0x00,
0x00, 0x2a, 0x00, 0x00,
0x1f, 0x01, 0x06, 0x00,
0x10, 0x40, 0x00, 0x00,
0x00, 0x00, 0x00, 0x00,
0x18, 0x01, 0x80, 0xff,
0x25, 0x01, 0x11, 0x00,
0x8f, 0x01, 0x03, 0x00,
0x80, 0x40, 0x00, 0x00,
0x10, 0x00, 0x00, 0x00,
0x89, 0x01, 0x00, 0xff,
0x11, 0x00, 0x00, 0x00,
0x06, 0x00, 0x02, 0x00,
0x24, 0x40, 0x27, 0x00,
0x56, 0x00, 0xab, 0x55,
0x0f, 0x01, 0x03, 0x00,
0x00, 0x40, 0x00, 0x00,
0x10, 0x00, 0x00, 0x00,
0x09, 0x01, 0x00, 0xff,
0x05, 0x01, 0x01, 0x00,
0x1f, 0x01, 0x01, 0x00,
0x10, 0x40, 0x00, 0x00,
0xf0, 0x29, 0x00, 0x00,
0x25, 0x01, 0x00, 0x00,
0x8f, 0x01, 0x06, 0x00,
0x80, 0x40, 0x00, 0x00,
0x00, 0x00, 0x00, 0x00,
0x89, 0x01, 0x80, 0xff,
0x06, 0x00, 0x00, 0x00,
0x25, 0x40, 0x0d, 0x00,
0x00, 0x00, 0x00, 0x40,
0x24, 0x40, 0x31, 0x00,
0x00, 0x00, 0x00, 0x40,
0x0f, 0x01, 0x01, 0x00,
0x00, 0x40, 0x00, 0x00,
0x00, 0x2a, 0x00, 0x00,
0x09, 0x01, 0xd5, 0xff,
0x05, 0x01, 0x01, 0x02,
0x10, 0x40, 0x00, 0x00,
0x00, 0x2a, 0x00, 0x00,
0x18, 0x01, 0xd5, 0xff,
0x8f, 0x01, 0x01, 0x00,
0x80, 0x40, 0x00, 0x00,
0xf0, 0x29, 0x00, 0x00,
0x06, 0x00, 0x02, 0x00,
0x0f, 0x01, 0x06, 0x00,
0x00, 0x40, 0x00, 0x00,
0x00, 0x00, 0x00, 0x00,
0x09, 0x01, 0x80, 0xff,
0x05, 0x01, 0x01, 0x00,
0x10, 0x40, 0x00, 0x00,
0x11, 0x2a, 0x00, 0x00,
0x13, 0x01, 0x00, 0x00,
0x15, 0x40, 0x00, 0x00,
0x01, 0x00, 0x00, 0x00,
0x14, 0x40, 0x00, 0x00,
0x01, 0x00, 0x00, 0x00,
0x18, 0x01, 0x80, 0xff,
0x17, 0x01, 0x07, 0x00,
0x0d, 0x01, 0x0a, 0x00,
0x2d, 0x01, 0x1e, 0x00,
0x24, 0x40, 0x1f, 0x00,
0x01, 0x00, 0x00, 0x80,
0x2f, 0x01, 0x03, 0x00,
0x05, 0x00, 0x02, 0x00,
0x24, 0x40, 0x1e, 0x00,
0x00, 0x00, 0x00, 0x40,
0x0f, 0x01, 0x01, 0x00,
0x00, 0x40, 0x00, 0x00,
0x10, 0x2a, 0x00, 0x00,
0x04, 0x01, 0x00, 0x00,
0x05, 0x40, 0x00, 0x00,
0x01, 0x00, 0x00, 0x00,
0x04, 0x40, 0x00, 0x00,
0x01, 0x00, 0x00, 0x00,
0x10, 0x40, 0x00, 0x00,
0x10, 0x2a, 0x00, 0x00,
0x27, 0x01, 0x80, 0xff,
0x0d, 0x01, 0x2e, 0x00,
0x2d, 0x01, 0x2e, 0x00,
0x89, 0x01, 0x00, 0x00,
0x85, 0x01, 0x00, 0x00,
0x80, 0x01, 0x80, 0x00,
0x81, 0x01, 0x00, 0x00,
0x06, 0x00, 0x00, 0x00,
0x00, 0x00, 0xff, 0xff, 

};







static inline const uint8_t * Getfc_lif_layer_1CMSPointer()
{
	return cms_fc_lif_layer_1;
}

static inline size_t Getfc_lif_layer_1CMSLen()
{
	return sizeof(cms_fc_lif_layer_1);
}





static const int8_t weight_fc_lif_layer_1[] __attribute__((aligned(16))) = 
{

//biases
0x00, 0x00, 0x00, 0x00,
0x00, 0xb4, 0xe6, 0x19,
0x4d, 0x2a, 0x00, 0x00,
0x00, 0x00, 0x00, 0xb4,
0xe6, 0x19, 0x4d, 0x2a,
0x00, 0x00, 0x00, 0x00,
0x00, 0xb4, 0xe6, 0x19,
0x4d, 0x2a, 0x00, 0x00,
0x00, 0x00, 0x00, 0xb4,
0xe6, 0x19, 0x4d, 0x2a,
0x00, 0x00, 0x00, 0x00,
0x00, 0xb4, 0xe6, 0x19,
0x4d, 0x2a, 0x00, 0x00,
0x00, 0x00, 0x00, 0xb4,
0xe6, 0x19, 0x4d, 0x2a,
0x00, 0x00, 0x00, 0x00,
0x00, 0xb4, 0xe6, 0x19,
0x4d, 0x2a, 0x00, 0x00,
0x00, 0x00, 0x00, 0xb4,
0xe6, 0x19, 0x4d, 0x2a,
0x00, 0x00, 0x00, 0x00,
0x00, 0xb4, 0xe6, 0x19,
0x4d, 0x2a, 0x00, 0x00,
0x00, 0x00, 0x00, 0xb4,
0xe6, 0x19, 0x4d, 0x2a,
0x00, 0x00, 0x00, 0x00,
0x00, 0xb4, 0xe6, 0x19,
0x4d, 0x2a, 0x00, 0x00,
0x00, 0x00, 0x00, 0xb4,
0xe6, 0x19, 0x4d, 0x2a,
0x00, 0x00, 0x00, 0x00,
0x00, 0xb4, 0xe6, 0x19,
0x4d, 0x2a, 0x00, 0x00,
0x00, 0x00, 0x00, 0xb4,
0xe6, 0x19, 0x4d, 0x2a,
0x00, 0x00, 0x00, 0x00,
0x00, 0xb4, 0xe6, 0x19,
0x4d, 0x2a, 0x00, 0x00,
0x00, 0x00, 0x00, 0xb4,
0xe6, 0x19, 0x4d, 0x2a, 
//weights
0x20, 0x34, 0x55, 0x01,
0x8c, 0xd8, 0x00, 0x10,
0xb4, 0x2b, 0x4d, 0x7d,
0x09, 0x0b, 0x35, 0x39,
0x4b, 0x92, 0x46, 0x40,
0x18, 0xc1, 0x2d, 0x50,
0x0c, 0x01, 0x49, 0x0a,
0x00, 0xba, 0xa7, 0x4a,
0x69, 0xd7, 0x32, 0xde,
0x6c, 0x05, 0x00, 0xde,
0x3d, 0xf9, 0x65, 0xc4,
0x06, 0x49, 0xaa, 0x79,
0xb5, 0x92, 0x23, 0xc8,
0x03, 0x00, 0xb2, 0x19,
0x13, 0x46, 0x8f, 0x83,
0x48, 0xb2, 0x96, 0x00,
0x60, 0x51, 0x33, 0x6d,
0x44, 0xa9, 0x04, 0x88,
0x8e, 0x04, 0x00, 0x7c,
0xfe, 0x2d, 0xb0, 0xd4,
0xdd, 0x5c, 0x4d, 0x00,
0x50, 0x2b, 0x1a, 0xc7,
0x30, 0xb2, 0xc3, 0x36,
0x10, 0x96, 0x6b, 0xaf,
0x9f, 0x01, 0x00, 0x0b,
0x14, 0xf5, 0x12, 0x0c,
0x82, 0x82, 0x53, 0x41,
0x28, 0xaa, 0x00, 0x00,
0xe8, 0x8f, 0xd3, 0x49,
0xfd, 0x56, 0x15, 0x91,
0x4a, 0x00, 0xec, 0x6d,
0x7f, 0xe4, 0x19, 0x2d,
0x6f, 0x21, 0xde, 0x05,
0x00, 0x94, 0xf5, 0xa6,
0x12, 0x60, 0xaf, 0x86,
0x46, 0x43, 0x00, 0x20,
0x82, 0x7a, 0x30, 0xf3,
0xe7, 0xf7, 0x04, 0x00,
0x21, 0xca, 0x25, 0xad,
0xf7, 0x41, 0x52, 0xa4,
0xb7, 0xc9, 0x8c, 0x59,
0x0b, 0x77, 0x74, 0x16,
0x56, 0xfa, 0x00, 0x60,
0x14, 0x44, 0xac, 0x87,
0x75, 0x64, 0xb3, 0x00,
0x80, 0x80, 0x4a, 0x96,
0xc2, 0x50, 0x1e, 0xd9,
0x01, 0x00, 0x2c, 0xed,
0x6e, 0x66, 0x28, 0xef,
0xc3, 0xbe, 0x3c, 0x01,
0x60, 0x40, 0xb3, 0x84,
0x2e, 0x4d, 0x5e, 0xc3,
0x37, 0x96, 0x8c, 0x73,
0xc2, 0x13, 0xbc, 0xff,
0x66, 0x01, 0x80, 0x1d,
0xe8, 0xdb, 0x53, 0x21,
0x4f, 0xbd, 0x0e, 0x00,
0x44, 0xcf, 0x1a, 0xb8,
0xbc, 0xb0, 0xfd, 0x3b,
0x1c, 0x1d, 0xa7, 0x44,
0x84, 0xb3, 0x48, 0x00,
0x80, 0x28, 0xa6, 0xe3,
0xc2, 0xc7, 0x37, 0x00,
0x01, 0xb8, 0x3e, 0x1f,
0x3c, 0x75, 0x8d, 0x60,
0x36, 0x0b, 0xe0, 0x31,
0x2b, 0xb5, 0x08, 0x5f,
0xfb, 0xf9, 0xd0, 0xb6,
0x8a, 0xff, 0xcf, 0x40,
0xa1, 0x46, 0x1a, 0x29,
0x98, 0xf1, 0xff, 0x99,
0xa0, 0x80, 0x1f, 0x0c,
0xb6, 0xfe, 0xff, 0x3f,
0x00, 0x40, 0x59, 0xfc,
0xbf, 0xfe, 0x7f, 0x63,
0x62, 0x39, 0x99, 0x49,
0xfa, 0xff, 0xff, 0x0f,
0x08, 0x9b, 0x16, 0x81,
0xff, 0x54, 0x58, 0x40,
0x63, 0x4c, 0x93, 0x57,
0xfd, 0xff, 0x51, 0xfe,
0x7f, 0x64, 0x8c, 0xcf,
0x13, 0xbe, 0xa6, 0xff,
0x7f, 0x00, 0xd2, 0x04,
0xf8, 0xf4, 0xff, 0x7d,
0x26, 0xc3, 0xcb, 0x86,
0x64, 0xfd, 0xff, 0xff,
0xff, 0xc3, 0x17, 0x03,
0x00, 0xc8, 0xd6, 0x00,
0x40, 0x30, 0xec, 0x25,
0xbe, 0x1b, 0x2d, 0x35,
0x66, 0x5a, 0x00, 0x70,
0xc7, 0x57, 0x40, 0xd2,
0xc4, 0xf4, 0x6e, 0x96,
0xd2, 0x24, 0x33, 0xd8,
0xe8, 0x7a, 0x07, 0x08,
0x90, 0x4a, 0x9d, 0x0b,
0xb8, 0x37, 0x4e, 0x57,
0x27, 0x00, 0x98, 0x44,
0xad, 0xc7, 0xa8, 0xb1,
0x18, 0x10, 0x56, 0x00,
0xa8, 0x2c, 0x3c, 0xb1,
0x5d, 0x98, 0xdf, 0x87,
0x01, 0x00, 0x84, 0x95,
0x94, 0xc4, 0x93, 0x56,
0x3b, 0x5f, 0xca, 0x10,
0x0a, 0x01, 0x3e, 0xbb,
0xca, 0x07, 0x00, 0x22,
0x7e, 0x9b, 0x90, 0xad,
0xf2, 0xfd, 0x91, 0x38,
0x9d, 0x00, 0xe0, 0xf2,
0x96, 0xf5, 0xac, 0x29,
0x8a, 0x84, 0x00, 0x00,
0xea, 0x23, 0x10, 0x5b,
0x08, 0x55, 0x37, 0x00,
0x04, 0x20, 0xcf, 0xfb,
0xac, 0xb2, 0x0d, 0x79,
0x33, 0x12, 0x1d, 0x50,
0x19, 0x8c, 0x51, 0x32,
0x10, 0x01, 0xe0, 0x89,
0x4d, 0x67, 0x8f, 0x80,
0x00, 0x0d, 0x1e, 0x00,
0x00, 0x42, 0xd1, 0xf0,
0x51, 0xc2, 0xca, 0x67,
0x88, 0xa0, 0xf7, 0x79,
0x00, 0x00, 0x34, 0x14,
0x89, 0x99, 0x8b, 0xf0,
0x6a, 0x03, 0x00, 0xd0,
0x84, 0x79, 0x2e, 0xc2,
0xd7, 0xe7, 0xde, 0x66,
0x02, 0x80, 0x20, 0xd4,
0xa1, 0xaf, 0x08, 0xee,
0xc6, 0xf1, 0x05, 0x00,
0xa0, 0x3a, 0x4e, 0xa1,
0xb6, 0x86, 0x12, 0xf6,
0x2b, 0x01, 0xc0, 0xa0,
0xb4, 0x19, 0xcb, 0xc8,
0x02, 0xef, 0x60, 0xdc,
0x00, 0xc0, 0x28, 0xed,
0x32, 0x3b, 0x96, 0x34,
0x31, 0xb2, 0x44, 0x67,
0x32, 0x11, 0x78, 0xe0,
0xeb, 0x10, 0xc0, 0x81,
0x52, 0x60, 0xca, 0x9d,
0x4c, 0x74, 0x6a, 0xae,
0x62, 0x00, 0xc0, 0x86,
0x04, 0x99, 0x04, 0xd2,
0x4e, 0x03, 0x00, 0x90,
0x8d, 0x12, 0xe4, 0x88,
0xa8, 0xa9, 0x71, 0xf0,
0x0f, 0x96, 0xf0, 0x68,
0x93, 0x1b, 0x0a, 0xc5,
0xfe, 0xff, 0x9a, 0x79,
0x8b, 0xe2, 0x6b, 0x92,
0xf8, 0xff, 0xff, 0xff,
0x00, 0x69, 0x0a, 0xf0,
0x8d, 0x4c, 0xfc, 0x7f,
0x07, 0x7e, 0x41, 0xf9,
0xed, 0xf5, 0xff, 0xf7,
0x47, 0x44, 0x00, 0xef,
0xf2, 0xff, 0xff, 0x0f,
0x5e, 0x0d, 0x00, 0x88,
0xcd, 0xfc, 0xff, 0xc4,
0x78, 0xd3, 0x6f, 0xbd,
0xdd, 0x81, 0xfe, 0x7f,
0x34, 0x7a, 0x79, 0xf2,
0xfb, 0xcb, 0xff, 0xff,
0x7f, 0x00, 0x40, 0x15,
0xf8, 0xc7, 0xff, 0xbf,
0x48, 0x07, 0x76, 0xd1,
0xb1, 0xa3, 0xfe, 0xff,
0xff, 0x3f, 0xc0, 0xb0,
0x03, 0x00, 0xa0, 0x57,
0x01, 0x80, 0xa4, 0x3a,
0x91, 0xc0, 0x87, 0x15,
0x0a, 0x9b, 0x0a, 0x0a,
0x00, 0xce, 0x86, 0x73,
0xac, 0x30, 0x0f, 0xdd,
0x62, 0x92, 0x46, 0xb8,
0x54, 0x83, 0x68, 0xe8,
0x6a, 0x01, 0x48, 0x09,
0xf8, 0xc7, 0x1f, 0xf9,
0xbf, 0xcb, 0x6b, 0x02,
0x00, 0xe0, 0xb9, 0x75,
0xd3, 0xf0, 0x89, 0xc6,
0x68, 0x00, 0x30, 0xbc,
0x48, 0x86, 0xa5, 0x8a,
0xe7, 0xcc, 0x3e, 0x05,
0x00, 0xb0, 0x81, 0x80,
0x59, 0xbb, 0x3a, 0x4c,
0xd5, 0x0a, 0x00, 0xbc,
0x4c, 0x68, 0xe6, 0xd7,
0x94, 0xa4, 0x90, 0x52,
0x25, 0x1c, 0x21, 0x04,
0xae, 0x68, 0x17, 0x00,
0x2a, 0x3f, 0x7f, 0x25,
0x36, 0x70, 0xed, 0xcf,
0x0a, 0x40, 0xe0, 0x27,
0x4e, 0x5b, 0xe7, 0xcb,
0x2b, 0x4e, 0x00, 0x20,
0x17, 0x55, 0x11, 0x22,
0x48, 0x38, 0xb2, 0x06,
0x57, 0xb5, 0x4f, 0xa4,
0x3a, 0x35, 0x00, 0xa4,
0x4b, 0x28, 0x9d, 0x45,
0xe5, 0x71, 0xf4, 0x0a,
0x5a, 0x0e, 0x00, 0x10,
0xc9, 0x38, 0xfa, 0x63,
0x24, 0x09, 0xa3, 0x37,
0x00, 0x00, 0x00, 0xe0,
0x64, 0x3d, 0xb1, 0x48,
0xb6, 0x8f, 0x00, 0x00,
0x7c, 0x7e, 0xed, 0xe3,
0xe8, 0x8b, 0xb4, 0xb2,
0x58, 0x09, 0x00, 0x2e,
0xbe, 0xc0, 0x77, 0x60,
0xe8, 0xfe, 0xc4, 0x02,
0x80, 0x3c, 0xcc, 0xcc,
0x79, 0x1d, 0xf4, 0x74,
0x74, 0xd5, 0x06, 0x3c,
0x1c, 0xa6, 0x6c, 0x73,
0x05, 0x00, 0xa2, 0x3f,
0x5d, 0x6f, 0xde, 0xe6,
0x25, 0x01, 0x80, 0x3d,
0x40, 0xb2, 0x32, 0x04,
0x82, 0x6f, 0xe3, 0x9e,
0xca, 0xf7, 0x50, 0x74,
0xdd, 0xaa, 0x1e, 0x00,
0x1a, 0x81, 0x29, 0x62,
0xb4, 0x51, 0x8d, 0x92,
0x00, 0x1c, 0xfb, 0x36,
0x07, 0xe7, 0xeb, 0xb1,
0x02, 0x40, 0xa4, 0x19,
0x90, 0xdc, 0x0a, 0x60,
0x45, 0xbb, 0x6c, 0x8b,
0xa5, 0xc8, 0x44, 0x51,
0xd3, 0xff, 0xf7, 0xc9,
0x94, 0x78, 0x9f, 0xd8,
0xff, 0xff, 0xff, 0xff,
0x0f, 0x00, 0x0d, 0x04,
0xf0, 0x6f, 0x3e, 0xce,
0xc1, 0x12, 0x2e, 0xb7,
0x52, 0xeb, 0xf6, 0xff,
0x80, 0xff, 0xff, 0x0b,
0x24, 0xa0, 0x56, 0x82,
0x8e, 0xfd, 0xff, 0x07,
0xd8, 0x16, 0x80, 0x97,
0xfd, 0xbf, 0x1f, 0xef,
0xa7, 0xab, 0x06, 0xfe,
0xff, 0xff, 0xff, 0x87,
0xb6, 0x22, 0x80, 0x62,
0x2d, 0xfe, 0xbf, 0x64,
0x59, 0x72, 0x09, 0xaf,
0x6a, 0xfe, 0x1f, 0x8f,
0xb2, 0x97, 0x2c, 0x3f,
0x9a, 0xff, 0xff, 0x7f,
0x00, 0xe8, 0x12, 0x00,
0x58, 0x50, 0xcc, 0xb0,
0x9b, 0x64, 0x96, 0x6f,
0x45, 0xe2, 0x00, 0x80,
0x34, 0x6c, 0x5b, 0xa9,
0xa4, 0x5a, 0x36, 0x40,
0x01, 0x40, 0x01, 0xca,
0x6b, 0xe4, 0xd6, 0x85,
0x54, 0x17, 0x00, 0x0c,
0x14, 0x7f, 0xd3, 0xdf,
0xe8, 0x5e, 0xa3, 0xfb,
0x0a, 0x00, 0x86, 0xd9,
0xda, 0x7a, 0x61, 0x56,
0xde, 0xe4, 0xc5, 0x70,
0x25, 0xf5, 0xfe, 0xe1,
0x05, 0x00, 0x14, 0x33,
0xd9, 0x9a, 0xaa, 0x8c,
0xe9, 0x93, 0x60, 0x25,
0x01, 0x00, 0xda, 0xc9,
0xba, 0x78, 0x3a, 0x4d,
0xfd, 0x1c, 0x00, 0x80,
0xc4, 0xa6, 0x1c, 0xf0,
0xbd, 0x30, 0x1d, 0xcf,
0x1e, 0x00, 0x08, 0x8d,
0xf3, 0xfe, 0x77, 0xac,
0xbd, 0x86, 0x65, 0x00,
0x00, 0x1c, 0xe2, 0xde,
0x05, 0x88, 0x9a, 0xc4,
0x2f, 0x00, 0x20, 0xb2,
0x97, 0x8b, 0x28, 0x8e,
0xe8, 0x8c, 0x6c, 0x2b,
0xc1, 0xdd, 0xcb, 0x39,
0x64, 0x01, 0x32, 0x01,
0x40, 0xf4, 0xd8, 0xfa,
0x3f, 0x0e, 0x0f, 0x72,
0x96, 0x9c, 0x32, 0x00,
0x50, 0x26, 0x4d, 0x31,
0xa1, 0xae, 0x82, 0x54,
0x35, 0x00, 0xf8, 0xa6,
0x58, 0xcb, 0xa9, 0x7a,
0x8d, 0x31, 0x32, 0x00,
0x30, 0x1c, 0x44, 0x72,
0x62, 0x9f, 0xda, 0xaa,
0xe3, 0xa8, 0x6a, 0x44,
0x5f, 0x43, 0x36, 0x0b,
0x00, 0x82, 0x79, 0xd3,
0x21, 0x7c, 0x34, 0xd8,
0x02, 0x00, 0x9c, 0xf0,
0xaa, 0xc1, 0x6a, 0x84,
0x5c, 0x8e, 0x59, 0x00,
0x48, 0xc8, 0x6e, 0x13,
0xee, 0xd7, 0x8e, 0x3e,
0x77, 0x00, 0xa0, 0x3d,
0x22, 0xa6, 0xeb, 0xad,
0xe3, 0xab, 0x57, 0xa7,
0xf4, 0xfb, 0x60, 0x42,
0x14, 0xc7, 0x21, 0xa0,
0xf4, 0xd9, 0x99, 0x7e,
0x11, 0xce, 0x7a, 0x03,
0x00, 0x31, 0x40, 0xa6,
0x88, 0x90, 0x79, 0x90,
0xe6, 0x00, 0xaf, 0x3e,
0x85, 0x15, 0x92, 0x0a,
0x31, 0xd2, 0xff, 0xff,
0x80, 0x1a, 0xfe, 0x64,
0x36, 0x3d, 0xff, 0x1f,
0x35, 0x8d, 0x75, 0x43,
0xc3, 0xf4, 0xfb, 0xff,
0x7f, 0x48, 0x2b, 0x00,
0x40, 0xf8, 0xe9, 0xff,
0xc9, 0x2b, 0xd0, 0x28,
0x4b, 0x5e, 0x6a, 0xb4,
0xff, 0x1f, 0xff, 0xa5,
0xa0, 0x56, 0xef, 0xff,
0xff, 0xff, 0x00, 0x20,
0xd9, 0xf0, 0x0f, 0xfd,
0x3f, 0xd6, 0x73, 0xe9,
0x10, 0xd1, 0x1f, 0xeb,
0xff, 0xff, 0xff, 0x01,
0xd2, 0x12, 0xe0, 0x93,
0xae, 0xfa, 0xff, 0x61,
0xc8, 0x87, 0xf2, 0xc7,
0x62, 0xc2, 0xff, 0x9f,
0xfa, 0x54, 0xed, 0x27,
0x3b, 0xfe, 0xff, 0x1f,
0x00, 0x40, 0xf6, 0x01,
0x00, 0x40, 0xaf, 0x45,
0xd1, 0xa7, 0xe3, 0xa1,
0x4c, 0x1f, 0x5f, 0x21,
0x22, 0x03, 0x00, 0xe1,
0x33, 0xbe, 0x56, 0x7e,
0x9c, 0x08, 0x06, 0x80,
0x43, 0x21, 0xe3, 0x06,
0xab, 0x50, 0x44, 0x9d,
0x14, 0x00, 0xf0, 0x94,
0xcd, 0xb3, 0xf9, 0x87,
0x59, 0x94, 0xdd, 0x9e,
0xc0, 0x98, 0xfd, 0xcf,
0xe0, 0x0a, 0x80, 0x9c,
0x5d, 0x43, 0xf6, 0xc5,
0xf7, 0xec, 0x1c, 0x00,
0x6e, 0xa0, 0xe6, 0x88,
0x78, 0x6d, 0x85, 0x88,
0x03, 0xc0, 0x50, 0xbb,
0x8a, 0x0c, 0x20, 0xcf,
0x51, 0x25, 0xac, 0x98,
0xe0, 0x27, 0x67, 0xaa,
0x72, 0x00, 0x30, 0xa0,
0xbb, 0x74, 0x38, 0xa0,
0x19, 0xf9, 0x03, 0xa0,
0x42, 0xc1, 0x5b, 0x06,
0xa8, 0x4e, 0xd1, 0xd2,
0x12, 0x00, 0x60, 0xd5,
0x4b, 0x57, 0x1f, 0x69,
0xd3, 0x56, 0x00, 0x20,
0x38, 0x10, 0x9d, 0x1f,
0xe6, 0x34, 0x55, 0x4d,
0x00, 0x40, 0xb3, 0x63,
0x42, 0x37, 0x86, 0x41,
0x0a, 0x19, 0x0b, 0x44,
0x6a, 0x13, 0xd8, 0xc7,
0x19, 0x00, 0x60, 0x6c,
0xb6, 0x9c, 0x3e, 0xf6,
0x1b, 0xa4, 0x50, 0xb6,
0x5e, 0x04, 0x00, 0xe8,
0xcc, 0xe5, 0x8a, 0x41,
0x5e, 0xb2, 0x24, 0x00,
0xc0, 0x00, 0xd4, 0x27,
0x54, 0x4e, 0xd8, 0xea,
0x17, 0x00, 0x04, 0x33,
0xd4, 0xc2, 0x06, 0x73,
0x01, 0x76, 0x7b, 0x10,
0x2d, 0x98, 0x7a, 0x0e,
0x5f, 0x36, 0x00, 0x8c,
0xaf, 0xa7, 0xa8, 0x2e,
0xf7, 0x62, 0x57, 0xe2,
0xe8, 0x06, 0x80, 0x39,
0x92, 0xe0, 0xc2, 0x9d,
0x00, 0x61, 0x1a, 0x00,
0x90, 0x09, 0xdd, 0x43,
0x6f, 0x10, 0x90, 0x8f,
0xbb, 0x02, 0xdf, 0x69,
0x43, 0x06, 0x04, 0xe9,
0x60, 0xb2, 0x08, 0xbe,
0x71, 0x5a, 0xbb, 0x55,
0x93, 0x00, 0x00, 0x10,
0x9a, 0x47, 0x0f, 0xe9,
0x17, 0xe1, 0x3f, 0xec,
0x80, 0x90, 0x8c, 0xaa,
0x43, 0x22, 0x84, 0xff,
0xff, 0x11, 0x28, 0x4e,
0x40, 0xb0, 0xff, 0xff,
0xff, 0x3f, 0x40, 0xc1,
0x02, 0xbc, 0x3b, 0xdd,
0xff, 0x2f, 0x30, 0x3e,
0xcd, 0x51, 0xf4, 0x6a,
0xff, 0x3f, 0x26, 0x45,
0x5d, 0x15, 0x6b, 0xc1,
0xff, 0xff, 0x03, 0x00,
0x14, 0x1a, 0xf9, 0xff,
0x1f, 0x26, 0x07, 0xbc,
0x81, 0x3e, 0xe2, 0xff,
0xff, 0xff, 0xff, 0x03,
0x40, 0x56, 0x23, 0xbe,
0x10, 0xfe, 0x31, 0x48,
0x3e, 0x87, 0x98, 0x8d,
0xe9, 0xe8, 0xff, 0x47,
0x40, 0x0e, 0xb4, 0xf4,
0xaa, 0xfa, 0xff, 0xff,
0xff, 0x03, 0x8a, 0x1e,
0x00, 0xce, 0x04, 0x06,
0x08, 0x2d, 0x3e, 0xb3,
0xc5, 0xfd, 0x6c, 0x41,
0x80, 0xf8, 0xe8, 0x2e,
0x40, 0x54, 0xfd, 0x5d,
0x36, 0xd7, 0x9a, 0x60,
0x67, 0xc0, 0xf9, 0x16,
0xb2, 0x03, 0x00, 0xa2,
0xb7, 0xc2, 0x3d, 0x7b,
0x35, 0x40, 0x00, 0xa8,
0x92, 0xce, 0x60, 0x46,
0x61, 0x5f, 0x1d, 0x73,
0x83, 0x40, 0xa2, 0x97,
0x7d, 0xbe, 0x3e, 0x8a,
0x9d, 0x94, 0x6d, 0x00,
0x70, 0x25, 0x5f, 0x60,
0x8f, 0x16, 0xc5, 0xf5,
0xfb, 0x50, 0x64, 0xf2,
0xda, 0x56, 0x1c, 0x04,
0x8c, 0x88, 0xef, 0x4e,
0x8d, 0x31, 0xca, 0xd5,
0xad, 0x17, 0x00, 0x8a,
0x01, 0xb9, 0x48, 0x5c,
0x79, 0x18, 0x15, 0x00,
0xdc, 0xc7, 0x09, 0xe9,
0x2d, 0x53, 0x45, 0xd8,
0xa7, 0x99, 0xa8, 0x1d,
0x60, 0x05, 0x80, 0xf5,
0xca, 0x59, 0x95, 0xca,
0x74, 0xd6, 0xcd, 0xd4,
0xda, 0x00, 0x00, 0x88,
0x34, 0x29, 0xa7, 0xd4,
0xc1, 0xb3, 0x00, 0x80,
0xe0, 0x63, 0x9d, 0xda,
0xd8, 0x66, 0x02, 0xc8,
0x1a, 0x01, 0x04, 0xa9,
0x46, 0x94, 0x8c, 0x78,
0x04, 0x23, 0xf6, 0x07,
0x00, 0x10, 0xba, 0x64,
0x5b, 0x0e, 0x42, 0x18,
0xbd, 0x17, 0x05, 0x00,
0x4c, 0x7b, 0xd2, 0x6e,
0xfe, 0x52, 0x01, 0x52,
0xf8, 0x83, 0x51, 0x90,
0xba, 0xc2, 0x16, 0x43,
0x02, 0x80, 0xba, 0x71,
0x47, 0x15, 0x28, 0xcf,
0x1a, 0x26, 0x00, 0x80,
0x2d, 0x30, 0xc8, 0x09,
0x91, 0xba, 0x5c, 0xe0,
0xa1, 0x64, 0x01, 0x00,
0x06, 0xba, 0x44, 0x42,
0x13, 0xeb, 0xeb, 0xd1,
0x1c, 0x00, 0x80, 0x05,
0x04, 0x00, 0x69, 0x56,
0x31, 0x6e, 0x17, 0x00,
0x28, 0x5e, 0x29, 0x65,
0x37, 0x05, 0x3e, 0xb1,
0x35, 0x11, 0x00, 0x48,
0x73, 0x18, 0xd5, 0x15,
0xca, 0x6a, 0xbf, 0xff,
0x87, 0xba, 0xc8, 0xe2,
0x48, 0x80, 0xeb, 0x8a,
0xfa, 0xff, 0x8e, 0x12,
0x29, 0x77, 0xe6, 0xfc,
0xff, 0xff, 0x0f, 0x20,
0x9d, 0x0d, 0x0a, 0xff,
0xc3, 0xce, 0xef, 0x54,
0xff, 0x15, 0xfa, 0xc7,
0xff, 0x03, 0xfc, 0x7f,
0xb1, 0x41, 0xd8, 0xc1,
0xda, 0xda, 0x09, 0xfc,
0xff, 0x03, 0x80, 0x7c,
0xab, 0xff, 0xff, 0xc4,
0xff, 0xef, 0xf0, 0xff,
0x89, 0x91, 0x9a, 0xff,
0xff, 0x87, 0xb0, 0x07,
0x80, 0xe2, 0xb5, 0xff,
0x3f, 0x00, 0xfc, 0x3c,
0xa4, 0xfb, 0xbc, 0xf1,
0xff, 0x25, 0x47, 0xcc,
0x4f, 0xe9, 0x58, 0x25,
0xfd, 0xff, 0xff, 0x0f,
0x00, 0xd3, 0x0e, 0x00,
0xe4, 0x2a, 0xd9, 0x6f,
0xbd, 0xcc, 0xf3, 0x9f,
0x6d, 0x17, 0x00, 0x18,
0xca, 0x43, 0x53, 0x47,
0x7b, 0x11, 0x1e, 0x00,
0x70, 0x56, 0x66, 0xc4,
0x13, 0xf2, 0x57, 0x72,
0x0b, 0x00, 0x21, 0x84,
0x7a, 0xc1, 0xec, 0xa9,
0xd8, 0x18, 0x02, 0x00,
0x94, 0x94, 0x28, 0x7c,
0x58, 0x8e, 0xf6, 0x64,
0x03, 0x00, 0x31, 0x3a,
0x2f, 0x65, 0x49, 0x1b,
0x82, 0x6a, 0x5c, 0xca,
0x79, 0xe3, 0x5b, 0x76,
0xf7, 0x71, 0x00, 0xc0,
0x20, 0xfd, 0x43, 0x0e,
0x8c, 0xf0, 0xb3, 0x2b,
0x65, 0x35, 0x00, 0x30,
0x7b, 0x33, 0xf1, 0x3f,
0x7a, 0x36, 0x3b, 0x01,
0x84, 0x7f, 0x99, 0x04,
0xd3, 0x27, 0x95, 0xc8,
0x01, 0x80, 0x9c, 0xf6,
0x97, 0xb9, 0x20, 0xff,
0xf2, 0x32, 0xc7, 0x0d,
0x12, 0x5e, 0x8a, 0xdc,
0xf3, 0x64, 0x00, 0x00,
0xf1, 0x42, 0xba, 0x0e,
0xe4, 0xf5, 0x6a, 0x00,
0x20, 0x43, 0x26, 0x00,
0x47, 0x0f, 0xb1, 0xc9,
0x51, 0x10, 0x00, 0x10,
0x01, 0x3e, 0x72, 0x92,
0x2d, 0xd5, 0x3c, 0x00,
0x24, 0xce, 0xfe, 0xe6,
0x27, 0x9e, 0x1c, 0xc6,
0xb5, 0x84, 0x32, 0xc2,
0x63, 0xd2, 0x0d, 0x5e,
0x00, 0x00, 0xf1, 0xa6,
0x9e, 0xfa, 0x20, 0xa1,
0x84, 0xa5, 0x6c, 0x02,
0x00, 0xe5, 0xb3, 0x60,
0x82, 0xd9, 0x6e, 0x6d,
0xed, 0x02, 0x80, 0x50,
0x24, 0x04, 0x18, 0x5f,
0x9d, 0x61, 0x97, 0x0a,
0x00, 0x9e, 0xe0, 0x89,
0x89, 0x3e, 0x61, 0xa5,
0xa3, 0x38, 0xeb, 0x12,
0x8a, 0x5a, 0xe9, 0x5b,
0x2e, 0x00, 0x88, 0x1a,
0xbc, 0x90, 0xd1, 0xaf,
0x4a, 0xb5, 0x01, 0xc0,
0x65, 0x82, 0xc1, 0x32,
0x42, 0x75, 0x20, 0x19,
0x05, 0x80, 0xf4, 0xca,
0xf0, 0x83, 0x73, 0xe5,
0x5a, 0xac, 0x91, 0xf4,
0xa2, 0xa4, 0xa0, 0x81,
0x00, 0xbe, 0x6f, 0x14,
0x66, 0x83, 0xee, 0x0d,
0xe3, 0xff, 0x93, 0xff,
0xcf, 0x50, 0xf2, 0x45,
0x42, 0xe5, 0xc9, 0xfd,
0xff, 0x3f, 0xf4, 0x24,
0x00, 0x0c, 0xed, 0xfe,
0xff, 0xc7, 0xc4, 0x0a,
0x14, 0x4b, 0x74, 0xca,
0xff, 0x2f, 0x49, 0x10,
0x6c, 0x22, 0xf8, 0xff,
0xff, 0x07, 0x80, 0xea,
0x80, 0xff, 0x91, 0xed,
0xff, 0x9f, 0x97, 0x02,
0x58, 0x17, 0x2b, 0x25,
0xff, 0x7f, 0x13, 0xab,
0xc5, 0x9d, 0xfe, 0xff,
0x01, 0xec, 0x08, 0xe0,
0x05, 0x23, 0xf9, 0x7f,
0x90, 0x51, 0xd1, 0x94,
0xaf, 0x36, 0xf9, 0xfe,
0x3f, 0x3f, 0xa6, 0xfb,
0xf5, 0xee, 0xa7, 0xe9,
0xfe, 0xff, 0x3f, 0x00,
0x40, 0xa1, 0x00, 0x80,
0xe3, 0x35, 0x00, 0x00,
0x8e, 0x4d, 0x16, 0x35,
0xb7, 0x86, 0x3a, 0x00,
0xc0, 0x3d, 0x58, 0xdc,
0xf9, 0x60, 0xc7, 0xf3,
0x79, 0xa5, 0x95, 0x4c,
0x69, 0x66, 0xdb, 0xbe,
0x33, 0x0a, 0x00, 0x2a,
0xeb, 0x90, 0xf1, 0x28,
0xef, 0x86, 0xbd, 0x04,
0x00, 0x49, 0xb1, 0x39,
0x10, 0xdd, 0x44, 0x76,
0x76, 0x04, 0x50, 0x79,
0xdf, 0x1a, 0xdf, 0x4c,
0x07, 0xba, 0x7d, 0x08,
0x0c, 0x35, 0xc0, 0xa1,
0xd2, 0xd7, 0x03, 0x40,
0x98, 0xad, 0x97, 0x1c,
0xa2, 0xca, 0xdb, 0x93,
0x00, 0x00, 0xab, 0x98,
0x04, 0x9c, 0xbc, 0xa0,
0x4b, 0x00, 0x98, 0xc9,
0x54, 0xeb, 0x7c, 0x3d,
0x93, 0xe6, 0x70, 0x02,
0x3b, 0x11, 0x5c, 0xf9,
0x7f, 0x2d, 0x01, 0x80,
0x84, 0xfd, 0xe2, 0x3b,
0x6d, 0x45, 0xe3, 0x6d,
0x38, 0x00, 0x00, 0x09,
0xf3, 0xb3, 0x99, 0x8c,
0x42, 0xe8, 0x6d, 0x00,
0x80, 0x52, 0x9b, 0x76,
0x4a, 0x59, 0x34, 0x6f,
0xe8, 0x62, 0x00, 0xc8,
0x26, 0x99, 0xe2, 0x92,
0x6f, 0x43, 0xc7, 0xc4,
0xa0, 0x25, 0xdc, 0xfd,
0xe2, 0x07, 0x00, 0x9e,
0x09, 0x1a, 0xc2, 0x61,
0x8b, 0x34, 0x05, 0x95,
0xae, 0xdc, 0x01, 0x20,
0x52, 0x0b, 0x6f, 0x48,
0xf5, 0x6d, 0x7d, 0x16,
0x00, 0x48, 0x97, 0x4b,
0x5e, 0x30, 0x35, 0xeb,
0x35, 0x00, 0x00, 0x02,
0x4b, 0x22, 0x16, 0x8c,
0xd2, 0xde, 0x21, 0xd9,
0x51, 0x43, 0x5a, 0x3c,
0xb4, 0xcc, 0x00, 0xf0,
0xb4, 0xac, 0x41, 0x76,
0x61, 0xa5, 0x5b, 0xe8,
0x93, 0x00, 0x00, 0x28,
0xd5, 0xd3, 0xee, 0x70,
0x07, 0xbc, 0x50, 0x00,
0x00, 0x8e, 0xe8, 0x03,
0x9e, 0xce, 0x49, 0xe2,
0x56, 0x37, 0x01, 0x40,
0xc5, 0xe6, 0x15, 0x4f,
0xc8, 0x8f, 0xf2, 0x96,
0x73, 0x0f, 0xff, 0x46,
0x5b, 0x35, 0x03, 0x4c,
0x01, 0x25, 0xd1, 0xfc,
0xff, 0xf6, 0x35, 0x7b,
0x99, 0x23, 0xfe, 0xff,
0xeb, 0x2b, 0xa1, 0x6c,
0x71, 0xf9, 0xff, 0x07,
0x00, 0xf8, 0x9d, 0xfc,
0x7f, 0xc8, 0xff, 0xcb,
0x28, 0x94, 0xcc, 0xc2,
0x44, 0xbc, 0xff, 0xff,
0x1f, 0x0e, 0x1a, 0x00,
0x90, 0x1a, 0xff, 0x7f,
0x0d, 0xe7, 0x07, 0xaa,
0x32, 0xc0, 0x04, 0xe8,
0xff, 0x63, 0x61, 0x43,
0x8c, 0x5b, 0xe8, 0xff,
0xff, 0x3f, 0x00, 0x74,
0x30, 0xfc, 0x43, 0xff,
0xdf, 0x72, 0x42, 0x15,
0x2f, 0x59, 0xe7, 0xfc,
0xff, 0xff, 0x7f, 0x00,
0x56, 0x04, 0x00, 0x4d,
0x7a, 0xc6, 0xe2, 0x3d,
0x4d, 0x3b, 0x1a, 0x02,
0x80, 0xb5, 0xc6, 0x21,
0xaa, 0xbf, 0xb7, 0x5e,
0x0a, 0x01, 0x00, 0x76,
0xbb, 0x61, 0x9d, 0xdf,
0x4f, 0xcd, 0xfc, 0x07,
0x00, 0x01, 0x0c, 0x0c,
0xa6, 0x58, 0x8f, 0x39,
0xb3, 0x03, 0x17, 0x99,
0x1a, 0x01, 0x40, 0x94,
0x5e, 0xfc, 0x90, 0x92,
0x13, 0xed, 0xc5, 0x00,
0x00, 0x5b, 0x49, 0xe9,
0x6e, 0x8f, 0xe7, 0xd5,
0x6e, 0x02, 0x00, 0x51,
0x4b, 0xc1, 0x61, 0x9e,
0x53, 0x72, 0x75, 0x00,
0xe8, 0xbc, 0x28, 0x6f,
0x6b, 0xe8, 0xca, 0x0c,
0xc5, 0xb2, 0xdd, 0x57,
0xa6, 0x50, 0xce, 0x0c,
0x00, 0x92, 0x4b, 0x3b,
0x4a, 0x94, 0x96, 0xf5,
0x67, 0x02, 0x00, 0x10,
0x42, 0x90, 0x80, 0x72,
0xa0, 0x43, 0x51, 0x05,
0x00, 0x9a, 0xd6, 0x57,
0x35, 0x67, 0x8a, 0xe1,
0x28, 0xb4, 0xbe, 0x2f,
0x84, 0xc3, 0x7c, 0xd1,
0x6d, 0x1a, 0x00, 0x28,
0x32, 0x03, 0x61, 0xeb,
0x7a, 0xc4, 0x0d, 0x00,
0xb2, 0xeb, 0x16, 0x00,
0x8f, 0x9e, 0x4d, 0xfb,
0x0b, 0x00, 0x82, 0x42,
0xd0, 0xfb, 0x87, 0x22,
0x8c, 0x1b, 0xa1, 0x8f,
0x8d, 0x2a, 0xfb, 0xca,
0x05, 0x04, 0xd0, 0xa6,
0x86, 0xa7, 0x1f, 0xc5,
0x47, 0xcd, 0xab, 0x2a,
0x00, 0x60, 0x48, 0x67,
0x86, 0xd4, 0xfb, 0x3c,
0x00, 0x88, 0x20, 0x46,
0x17, 0x25, 0x89, 0x14,
0xd7, 0x3a, 0x01, 0x00,
0x01, 0xc5, 0xd6, 0x10,
0xa8, 0x13, 0x50, 0x7a,
0x1b, 0x34, 0xb5, 0x43,
0x8f, 0xc9, 0xd9, 0xb8,
0x00, 0xa2, 0x06, 0x49,
0x06, 0xd4, 0x04, 0xde,
0x13, 0x3c, 0x43, 0x04,
0x00, 0x9c, 0xbe, 0xcc,
0x4a, 0xf2, 0xdf, 0xc3,
0x15, 0x00, 0x02, 0xd3,
0xee, 0x95, 0xff, 0xf4,
0x88, 0x94, 0x19, 0x00,
0x14, 0x01, 0x98, 0x73,
0xe8, 0x20, 0x3f, 0xdd,
0x2b, 0xff, 0x3f, 0xcc,
0x4d, 0x28, 0x11, 0x73,
0xac, 0x82, 0xff, 0xcf,
0x42, 0x23, 0xfe, 0x0c,
0x15, 0xc8, 0xff, 0xff,
0x3f, 0x00, 0x4c, 0x25,
0xfd, 0x6b, 0xab, 0xf4,
0xff, 0x5c, 0x56, 0x9b,
0xa4, 0x97, 0x04, 0xf8,
0xff, 0x8e, 0x62, 0x51,
0x0b, 0xf6, 0xfe, 0xff,
0x0f, 0x90, 0x66, 0x00,
0x0f, 0xfc, 0x7f, 0x0a,
0xb6, 0xab, 0x5c, 0x4d,
0x90, 0x52, 0xfe, 0xff,
0xff, 0xff, 0xc3, 0x96,
0x00, 0x80, 0xc4, 0x16,
0xff, 0x0f, 0x04, 0x82,
0x65, 0x64, 0xd2, 0xe3,
0xfa, 0x7f, 0x06, 0xf2,
0x06, 0x78, 0xfa, 0x18,
0x27, 0xf8, 0xff, 0xff,
0x07, 0x80, 0x55, 0x02,
0x00, 0xa8, 0x12, 0x01,
0x60, 0x30, 0xf5, 0x76,
0x75, 0x9e, 0x9e, 0x5a,
0x59, 0x03, 0x00, 0xe8,
0x38, 0x48, 0x70, 0xd0,
0x29, 0xf5, 0xbd, 0x04,
0x00, 0x45, 0xe8, 0x5e,
0xf5, 0x27, 0x87, 0x8c,
0x63, 0x27, 0x68, 0xbc,
0xcd, 0xae, 0xb9, 0x09,
0x00, 0x70, 0x92, 0x22,
0x82, 0x91, 0x5e, 0x38,
0x19, 0x27, 0xda, 0x73,
0x00, 0x00, 0xd2, 0xb3,
0xde, 0x94, 0xe5, 0x84,
0xe6, 0x19, 0x00, 0x40,
0xfb, 0xfe, 0x23, 0x77,
0x5b, 0x89, 0x0d, 0x9a,
0x05, 0x00, 0x11, 0x2f,
0xa9, 0x08, 0xad, 0x82,
0xa5, 0x5f, 0x0b, 0x00,
0xa1, 0x52, 0x48, 0xd6,
0x1d, 0x1c, 0x4e, 0xb3,
0x62, 0x56, 0xbb, 0x06,
0xbe, 0x4c, 0x9d, 0x7a,
0x2c, 0x00, 0xa0, 0x58,
0x61, 0xc5, 0x40, 0x24,
0x71, 0xb5, 0x02, 0x80,
0x31, 0x90, 0xf9, 0xea,
0xea, 0x84, 0x2c, 0xb2,
0x07, 0x00, 0xa2, 0x81,
0xd7, 0xa7, 0x7a, 0x30,
0xa4, 0x37, 0xa9, 0x28,
0x71, 0x7b, 0x52, 0xd9,
0x3e, 0x00, 0x90, 0x72,
0xf6, 0x6d, 0x7c, 0xa3,
0x47, 0x90, 0x8a, 0x12,
0x00, 0x8e, 0xa6, 0xe2,
0x56, 0x36, 0x87, 0xc7,
0xc9, 0xce, 0x01, 0x40,
0xd0, 0xcd, 0x42, 0xc2,
0xf1, 0x4f, 0x42, 0x22,
0x00, 0x74, 0x11, 0xa9,
0xfc, 0x3e, 0xe5, 0x28,
0x4d, 0x04, 0x80, 0x1c,
0xe7, 0xa5, 0xd5, 0xa8,
0xa0, 0xb0, 0xa3, 0x90,
0xe3, 0x84, 0x84, 0xa7,
0xfa, 0x01, 0x00, 0xaf,
0x47, 0xd8, 0x2c, 0x8d,
0xc0, 0xf7, 0x76, 0x6e,
0xc4, 0x66, 0x00, 0x40,
0x53, 0x95, 0x05, 0xf6,
0x6a, 0xb8, 0x18, 0x00,
0xd8, 0x68, 0xb4, 0xed,
0x65, 0x40, 0x84, 0xf4,
0x3c, 0xa6, 0x10, 0x3a,
0x33, 0x58, 0xb2, 0x03,
0x40, 0x0a, 0xc6, 0x97,
0x62, 0xa3, 0x4b, 0x59,
0xd0, 0x98, 0x01, 0xde,
0x18, 0xd3, 0xe3, 0xc8,
0x70, 0xc2, 0xa6, 0xfd,
0x3f, 0x33, 0x37, 0xc9,
0xfd, 0x6e, 0x18, 0xff,
0xff, 0xff, 0xff, 0x70,
0xbd, 0x08, 0x00, 0x9a,
0x71, 0xfe, 0xdf, 0x32,
0xa9, 0x68, 0x69, 0xe8,
0xb4, 0xff, 0x9f, 0x15,
0xd4, 0xca, 0x52, 0x90,
0xff, 0xff, 0xff, 0x00,
0xf0, 0x85, 0xf0, 0x0f,
0xdd, 0xe1, 0xff, 0x17,
0xac, 0x57, 0xf7, 0xec,
0x4b, 0xa2, 0xfd, 0xff,
0xc7, 0x54, 0x50, 0xdd,
0x48, 0x60, 0xa7, 0xff,
0x7f, 0x20, 0x80, 0xff,
0xa5, 0xff, 0x87, 0xf8,
0x7f, 0x9d, 0x42, 0x77,
0x14, 0x5a, 0xe9, 0xee,
0xff, 0xff, 0x03, 0x00,
0xa4, 0x19, 0xba, 0xee,
0x00, 0x00, 0x60, 0x85,
0x0b, 0xc9, 0x67, 0x5b,
0x2f, 0x4f, 0x41, 0x00,
0x75, 0x98, 0x81, 0xcb,
0x3b, 0x03, 0x8e, 0x15,
0xec, 0x01, 0x00, 0x06,
0x29, 0x7a, 0x91, 0x6e,
0x96, 0xe6, 0x2e, 0x00,
0x40, 0x1c, 0x08, 0xb2,
0x39, 0xab, 0xe3, 0x25,
0xb9, 0x00, 0x20, 0x21,
0xab, 0xd3, 0x77, 0xd9,
0xfc, 0x07, 0xa2, 0x23,
0xb0, 0x18, 0x53, 0x2c,
0x12, 0x36, 0x00, 0x28,
0x05, 0x5e, 0x7b, 0xb0,
0xe1, 0x8d, 0x72, 0x1a,
0x00, 0x00, 0x31, 0xfd,
0x05, 0xcc, 0x2f, 0x83,
0xbd, 0xc6, 0x6a, 0x0c,
0x00, 0x34, 0x7a, 0xd8,
0x38, 0x6a, 0x79, 0x9e,
0x9d, 0x44, 0xbd, 0x02,
0x80, 0x70, 0xaa, 0xa4,
0xe8, 0x94, 0xb2, 0xb9,
0x9d, 0x07, 0x00, 0x99,
0xf2, 0xde, 0x4a, 0x84,
0x0f, 0xff, 0xb4, 0xab,
0xc6, 0x8f, 0x25, 0x9c,
0x55, 0xdc, 0x01, 0x00,
0xc0, 0x23, 0x16, 0x7f,
0x24, 0xf8, 0x5a, 0x06,
0x00, 0x8b, 0xa5, 0xd5,
0x5f, 0x48, 0xbb, 0x63,
0x36, 0x6b, 0x01, 0xc0,
0x69, 0x41, 0x03, 0x56,
0x6c, 0x0a, 0xdb, 0x92,
0x3e, 0xaf, 0x33, 0x60,
0x01, 0xab, 0x5a, 0x80,
0x60, 0xa5, 0x11, 0xf6,
0x50, 0x44, 0x40, 0x0b,
0x04, 0xcc, 0x4e, 0x73,
0xba, 0x93, 0xaa, 0xb6,
0x15, 0x00, 0x00, 0x63,
0xff, 0x8e, 0x15, 0x53,
0x0c, 0x58, 0x13, 0x00,
0x60, 0x17, 0x58, 0x86,
0x20, 0x17, 0x5c, 0xfa,
0xe9, 0x03, 0x00, 0x81,
0x8b, 0x2d, 0x4b, 0x02,
0x06, 0xae, 0x2a, 0x78,
0x4d, 0x35, 0xa4, 0x0d,
0x74, 0xdf, 0x07, 0x00,
0x22, 0x69, 0xd1, 0x7a,
0xfd, 0xa2, 0xc9, 0x16,
0x08, 0x00, 0xd5, 0x35,
0x94, 0xda, 0xba, 0x29,
0x21, 0xf4, 0x0e, 0x70,
0x04, 0x00, 0x50, 0xb5,
0xc8, 0x0f, 0xd5, 0x0b,
0xd5, 0x29, 0xcb, 0xe1,
0x1f, 0x70, 0x5d, 0x74,
0x2d, 0x29, 0x75, 0xd5,
0xff, 0x7f, 0x96, 0x74,
0x37, 0x68, 0xcf, 0x86,
0x01, 0xfa, 0xff, 0xff,
0x7f, 0x00, 0xca, 0x07,
0xf8, 0x94, 0x74, 0xfc,
0xbf, 0xbc, 0x7d, 0xb1,
0xed, 0x7f, 0x5b, 0xff,
0x7f, 0x87, 0xcd, 0xa6,
0xed, 0x1b, 0xfd, 0xff,
0xff, 0x03, 0x00, 0x9c,
0xca, 0xff, 0x8b, 0xff,
0x2f, 0x47, 0xd7, 0xa6,
0x74, 0xa8, 0xdf, 0xff,
0xff, 0x3f, 0x20, 0x18,
0x0f, 0xfc, 0x0b, 0x80,
0xf6, 0xff, 0x15, 0x4f,
0x8f, 0x10, 0x99, 0xd6,
0xb1, 0xfd, 0x7f, 0x2e,
0x45, 0x88, 0x38, 0xd6,
0x2c, 0xff, 0xff, 0x00,
0x00, 0x40, 0x4b, 0x00,
0x00, 0xc4, 0x4c, 0xc3,
0x98, 0xff, 0xd4, 0x6f,
0x1a, 0xd2, 0xb4, 0xa4,
0x01, 0x20, 0xb0, 0x5e,
0x21, 0x35, 0xd0, 0x9f,
0xad, 0xde, 0x00, 0x00,
0x12, 0x60, 0x7a, 0x88,
0xff, 0x51, 0xcc, 0x71,
0x6a, 0x00, 0x40, 0xd1,
0xf8, 0x53, 0xa4, 0xcb,
0x18, 0x8b, 0x85, 0x00,
0xa0, 0xdd, 0x37, 0xbc,
0x9d, 0x9a, 0x3a, 0x3e,
0xa1, 0xde, 0x85, 0x94,
0xf4, 0xf8, 0x8f, 0x4e,
0x08, 0x00, 0x7d, 0x71,
0xbf, 0xed, 0x30, 0xe5,
0xcc, 0x0b, 0x80, 0xda,
0x61, 0xad, 0xe2, 0x33,
0x4e, 0xe1, 0x02, 0x00,
0x01, 0xe4, 0x3c, 0xdd,
0xe1, 0xca, 0x48, 0x00,
0x80, 0xe2, 0x66, 0x73,
0x30, 0xab, 0x18, 0x02,
0xc0, 0x72, 0x5c, 0xc7,
0x5e, 0x11, 0x8b, 0xed,
0x06, 0x00, 0x42, 0x29,
0x33, 0x47, 0x36, 0x07,
0x19, 0x5e, 0x00, 0x00,
0xe0, 0xc6, 0xb5, 0x55,
0xe5, 0x8b, 0xf9, 0xca,
0x36, 0x0a, 0x00, 0xa0,
0x0b, 0x60, 0xab, 0x21,
0xdb, 0x70, 0xb1, 0x46,
0xa6, 0x90, 0x01, 0x40,
0x4c, 0x1d, 0xcf, 0x86,
0x27, 0x0b, 0x7b, 0x01,
0x00, 0x00, 0x44, 0xa9,
0xbc, 0x58, 0xd1, 0x5d,
0xba, 0xdb, 0x00, 0x20,
0xcd, 0x1f, 0x58, 0xda,
0x4a, 0x2c, 0x5f, 0xd9,
0x21, 0x1b, 0x00, 0x42,
0xc8, 0xb1, 0x1e, 0x7d,
0xfa, 0xb3, 0x2a, 0x42,
0x76, 0x9f, 0xd9, 0xfe,
0xb5, 0xfa, 0x10, 0xa0,
0xee, 0x36, 0x5b, 0xef,
0x54, 0xd9, 0x38, 0x00,
0x00, 0x86, 0x99, 0x50,
0x72, 0x78, 0x3d, 0x99,
0x1a, 0xde, 0x94, 0xf7,
0x00, 0x80, 0xc2, 0x05,
0x7a, 0xaa, 0x10, 0x2d,
0x33, 0x3b, 0x15, 0x00,
0x56, 0xd3, 0xf8, 0x7e,
0x89, 0x50, 0x20, 0xd2,
0x00, 0xe0, 0x04, 0xa6,
0xb5, 0x20, 0x1f, 0xac,
0x1a, 0x01, 0x78, 0x56,
0x2d, 0x08, 0x1d, 0xfc,
0xff, 0x49, 0xf0, 0x3b,
0x49, 0x58, 0x48, 0xec,
0xff, 0xff, 0xff, 0xff,
0x01, 0x60, 0xda, 0x45,
0xc3, 0x06, 0xfe, 0xcb,
0x99, 0x66, 0x8b, 0xb3,
0xfc, 0xf9, 0xff, 0x03,
0x57, 0xf2, 0xe1, 0x72,
0xa5, 0xfe, 0xff, 0xff,
0x1f, 0xc0, 0x05, 0x00,
0x9e, 0xa7, 0xf6, 0xff,
0x1d, 0x16, 0xab, 0x37,
0x32, 0xfd, 0xf4, 0xfe,
0x7f, 0x18, 0x7e, 0x81,
0x03, 0xf8, 0xfe, 0xff,
0x7f, 0x00, 0x00, 0xb4,
0x0b, 0xff, 0x7f, 0xe7,
0x78, 0x47, 0x34, 0x09,
0xa6, 0xff, 0xff, 0xff,
0xff, 0x07, 0x00, 0x8f,
0x4a, 0xb6, 0x08, 0x00,
0xf2, 0x67, 0xc9, 0x89,
0x85, 0x04, 0x0a, 0x0e,
0x18, 0x00, 0xa2, 0x0b,
0x40, 0xc5, 0x01, 0xae,
0xf2, 0x02, 0x40, 0x35,
0x37, 0x9f, 0x0d, 0x6a,
0xf8, 0x07, 0x56, 0x44,
0xb3, 0x3d, 0x32, 0xcf,
0xe7, 0x5d, 0x06, 0x00,
0x50, 0x45, 0x15, 0x6b,
0x4d, 0xfd, 0x60, 0x85,
0xa4, 0x02, 0xc0, 0xb2,
0x8c, 0x71, 0xb2, 0x1e,
0xd9, 0xb2, 0xc4, 0x00,
0xe0, 0xe8, 0xad, 0x09,
0xe7, 0xe3, 0x84, 0x1f,
0x05, 0x86, 0x8f, 0xd3,
0xfa, 0xd1, 0xcb, 0x00,
0xf0, 0x08, 0xf1, 0xe3,
0x07, 0x5c, 0x96, 0x5d,
0x81, 0x75, 0x17, 0x00,
0x52, 0x49, 0x62, 0xa8,
0xdf, 0xfb, 0xe9, 0x5c,
0x67, 0x00, 0x20, 0xd8,
0x81, 0x47, 0xd7, 0xb7,
0x07, 0x4a, 0x00, 0x00,
0x69, 0x68, 0x1b, 0xb9,
0xdd, 0x05, 0xbd, 0x47,
0x00, 0x00, 0xa0, 0x32,
0x59, 0x0a, 0x4c, 0xc9,
0x69, 0x87, 0x7d, 0x37,
0x80, 0x01, 0xe2, 0x22,
0xe3, 0x83, 0xe0, 0x98,
0xa5, 0x28, 0xd4, 0x00,
0x00, 0xa6, 0x4f, 0xa4,
0x37, 0x8f, 0xa1, 0xe9,
0xd2, 0x00, 0x80, 0x98,
0xa0, 0x3f, 0xff, 0x32,
0x7f, 0x59, 0x28, 0x10,
0x00, 0x88, 0x8f, 0x2b,
0x08, 0x58, 0xdd, 0xf7,
0x5d, 0x8a, 0xa7, 0x7f,
0x0a, 0x0d, 0xc6, 0xb9,
0x6a, 0x0c, 0x00, 0xf7,
0x75, 0xf7, 0xef, 0x5a,
0x6e, 0xeb, 0x0d, 0xda,
0x16, 0x00, 0x00, 0x0c,
0xb1, 0xfd, 0x13, 0x40,
0x41, 0xb1, 0x00, 0x40,
0xf8, 0x8b, 0x54, 0x90,
0x9a, 0xaa, 0x23, 0xc3,
0xd6, 0x01, 0x00, 0x83,
0x6a, 0x78, 0x4c, 0xdd,
0x64, 0x7d, 0xe7, 0xa7,
0x00, 0x00, 0x01, 0xd5,
0x83, 0x56, 0xe5, 0x70,
0xbd, 0xf9, 0x03, 0x00,
0xad, 0x53, 0x8a, 0x72,
0xa8, 0x15, 0xb5, 0xa6,
0xd9, 0x96, 0x00, 0x84,
0xa8, 0x60, 0xe6, 0x57,
0x01, 0x3c, 0xc4, 0x3f,
0xa8, 0xc4, 0x39, 0x6d,
0x71, 0xff, 0x2f, 0x0a,
0x61, 0x45, 0xcc, 0x6a,
0x8c, 0xfc, 0xff, 0xff,
0xff, 0x87, 0xb5, 0x0a,
0x00, 0x42, 0xe9, 0xfe,
0xff, 0x70, 0x9d, 0x0d,
0xbe, 0x29, 0xe2, 0x5e,
0xfb, 0xff, 0xb5, 0x1e,
0xe3, 0x50, 0x0d, 0xf1,
0xff, 0xff, 0x1f, 0x00,
0xe2, 0x05, 0xfe, 0xc1,
0xff, 0x0f, 0x62, 0xd5,
0x9d, 0x0b, 0xa4, 0x8d,
0xff, 0xff, 0xff, 0x3f,
0x40, 0xad, 0x02, 0x7c,
0x2c, 0x77, 0xfe, 0x1f,
0x48, 0xd8, 0x8e, 0xce,
0x24, 0x12, 0xff, 0x7f,
0x9b, 0x2d, 0xa4, 0x51,
0xb7, 0x07, 0xf3, 0xff,
0xff, 0x00, 0x00, 0xb8,
0xca, 0x7c, 0x09, 0x00,
0x00, 0xb6, 0xea, 0x5c,
0x89, 0xb0, 0xa4, 0xad,
0x3b, 0x00, 0x90, 0x80,
0x65, 0xbc, 0xd8, 0xd0,
0x1f, 0x9d, 0x4f, 0x31,
0x02, 0x80, 0x52, 0xe0,
0xa0, 0x72, 0x2e, 0x78,
0x57, 0xac, 0x01, 0x20,
0xea, 0x6f, 0x5b, 0x08,
0x03, 0x5a, 0xc3, 0x5f,
0x08, 0x00, 0xd9, 0x89,
0xfb, 0xe8, 0xa3, 0x81,
0x4d, 0xda, 0xdc, 0xd2,
0x1d, 0x2d, 0x5a, 0xd5,
0x52, 0x7f, 0x02, 0x00,
0x41, 0xfd, 0xb0, 0x15,
0x42, 0xc7, 0xe2, 0x06,
0x80, 0x81, 0x57, 0x7e,
0xbc, 0xfc, 0xc8, 0x4a,
0x92, 0x0e, 0x00, 0x40,
0x7d, 0xb7, 0x5d, 0x14,
0x19, 0xb9, 0xe1, 0x0d,
0x00, 0x45, 0x86, 0x98,
0xef, 0xd6, 0x71, 0xdd,
0xd7, 0x41, 0x1d, 0x40,
0x20, 0x98, 0x6a, 0x11,
0x95, 0xba, 0xad, 0x2e,
0x01, 0x08, 0xb3, 0x48,
0xc6, 0xd0, 0xa1, 0x10,
0x47, 0x68, 0x6b, 0x29,
0x44, 0xc6, 0x37, 0xe4,
0xce, 0x51, 0x01, 0x00,
0x3c, 0x0c, 0xd2, 0x1a,
0x78, 0x4e, 0x7a, 0xaf,
0x87, 0x01, 0x20, 0x37,
0xea, 0x24, 0xf3, 0xe6,
0xb4, 0x9c, 0x1d, 0x4f,
0x23, 0x94, 0x81, 0xfc,
0x01, 0x40, 0x00, 0xcb,
0x6d, 0x4f, 0x39, 0x8a,
0x00, 0x90, 0x39, 0xbf,
0xd0, 0x59, 0x32, 0xdf,
0xd9, 0x2b, 0x02, 0xc5,
0x1f, 0x02, 0xa0, 0xf9,
0xb5, 0x55, 0x1a, 0x13,
0xf9, 0x0a, 0x65, 0x08,
0x80, 0xaa, 0x93, 0xe9,
0xdf, 0x8e, 0xd8, 0x6c,
0x2c, 0x00, 0xd8, 0xba,
0x01, 0xfe, 0xad, 0xc2,
0xf7, 0xe3, 0x2e, 0x00,
0x58, 0x17, 0x11, 0xe2,
0x9d, 0x31, 0x79, 0x3d,
0xae, 0x51, 0xc5, 0x3c,
0x5c, 0x3d, 0x04, 0x00,
0x60, 0x8b, 0x74, 0x8e,
0xc7, 0x89, 0x8e, 0x07,
0x80, 0x84, 0xd4, 0xbb,
0x93, 0x12, 0xea, 0x39,
0x47, 0x98, 0x0e, 0x33,
0x48, 0x04, 0xcc, 0xa4,
0x0a, 0xff, 0x6e, 0x9c,
0xc0, 0xe2, 0x4f, 0x98,
0xae, 0xec, 0xff, 0x33,
0xfe, 0xbf, 0x36, 0xb2,
0x12, 0x4d, 0x47, 0xb8,
0xff, 0x7f, 0x80, 0x67,
0x06, 0x78, 0xd4, 0xff,
0x2f, 0xa2, 0xf5, 0x34,
0x6e, 0x67, 0xff, 0xff,
0xff, 0xff, 0xe0, 0xaa,
0x00, 0xc0, 0xe3, 0xbe,
0xff, 0x27, 0xac, 0xed,
0xaf, 0x3a, 0xd2, 0xf9,
0x7f, 0xe7, 0xb3, 0xba,
0xa3, 0x33, 0x0b, 0xfe,
0xff, 0xff, 0x01, 0x00,
0xd2, 0xeb, 0xf0, 0xc2,
0x7f, 0xa0, 0x2b, 0x7c,
0x92, 0x50, 0x61, 0xff,
0xff, 0xab, 0x51, 0xda,
0xe0, 0x5b, 0x72, 0xe7,
0xff, 0xff, 0xff, 0x01,
0x72, 0x0b, 0x00, 0xce,
0xe7, 0x04, 0x00, 0x14,
0xe5, 0xd7, 0x69, 0xe3,
0xe8, 0x76, 0xab, 0x34,
0x87, 0x32, 0x44, 0x23,
0xae, 0x5b, 0x05, 0x02,
0x5a, 0xcc, 0xf2, 0x0b,
0x82, 0xf4, 0x16, 0x00,
0x60, 0x07, 0x93, 0xa8,
0x1b, 0x6b, 0x1e, 0x0d,
0xd9, 0x40, 0xdd, 0x0b,
0xcc, 0x0a, 0x00, 0xa9,
0x40, 0x46, 0x72, 0x23,
0xe4, 0x7e, 0x31, 0x04,
0x00, 0x00, 0x49, 0xec,
0xae, 0x5a, 0x8e, 0x67,
0x4f, 0x4b, 0xb0, 0x02,
0x00, 0xa0, 0xcb, 0x8e,
0x97, 0x8a, 0xf6, 0x3e,
0x58, 0xe5, 0x01, 0x80,
0x83, 0xd3, 0x5d, 0x04,
0x64, 0x8f, 0x4b, 0x5c,
0x02, 0x80, 0x3c, 0x57,
0x85, 0x95, 0x63, 0x6a,
0x77, 0xcb, 0x58, 0x08,
0xaf, 0xf8, 0x0a, 0x70,
0x98, 0x13, 0x00, 0x10,
0xcf, 0x44, 0x63, 0x9b,
0x42, 0x7d, 0x08, 0x00,
0x81, 0x73, 0x42, 0xbf,
0xe4, 0xfd, 0x26, 0x51,
0xf8, 0x00, 0x40, 0x59,
0x83, 0x35, 0x7c, 0xff,
0x23, 0x7d, 0x10, 0x5d,
0x00, 0x90, 0xdd, 0x82,
0x2d, 0xb4, 0x72, 0x2a,
0x55, 0x8e, 0xc4, 0xe1,
0x12, 0xd5, 0xc3, 0x00,
0x00, 0x35, 0x99, 0x81,
0xab, 0x31, 0x8f, 0xbc,
0x8a, 0xae, 0x86, 0x00,
0x40, 0x60, 0xf5, 0xcd,
0xe8, 0x13, 0xa7, 0x1a,
0x00, 0xb4, 0xc5, 0x05,
0xc7, 0xa7, 0xdb, 0xbe,
0xe1, 0x72, 0x00, 0x00,
0x78, 0xd8, 0x29, 0xb1,
0x41, 0x66, 0x9a, 0x96,
0x8b, 0xba, 0xef, 0x9a,
0x5b, 0x8a, 0x16, 0x00,
0x4c, 0x88, 0xed, 0x18,
0xc1, 0xa1, 0x7c, 0x23,
0xea, 0x27, 0x00, 0x10,
0x69, 0xe0, 0xff, 0x89,
0xe9, 0x18, 0xdd, 0x55,
0x00, 0x10, 0xdd, 0x6d,
0x00, 0x1f, 0x03, 0x20,
0xa7, 0x9f, 0x41, 0x20,
0xc8, 0x9a, 0x33, 0x85,
0x9e, 0xa9, 0x35, 0x5b,
0x00, 0x10, 0x94, 0xde,
0x5d, 0x00, 0x71, 0x95,
0x9d, 0x7f, 0x10, 0x92,
0x8c, 0x5b, 0x17, 0x47,
0x84, 0x14, 0xff, 0x3f,
0xe6, 0x5d, 0x05, 0x95,
0xdc, 0xa7, 0xf8, 0xff,
0xff, 0xff, 0x7f, 0x00,
0xd0, 0xbc, 0x74, 0x6e,
0xc3, 0x3f, 0x4a, 0xcf,
0x59, 0xef, 0x12, 0xf6,
0xff, 0x7b, 0xa6, 0x69,
0x9e, 0x16, 0xed, 0xf4,
0xff, 0xff, 0xff, 0x00,
0x59, 0x09, 0xf0, 0x4c,
0x8f, 0xfc, 0xbf, 0xb4,
0xdf, 0x3b, 0xb3, 0x54,
0x7f, 0xf7, 0xff, 0x87,
0x75, 0x0a, 0x5a, 0x47,
0xc1, 0xf7, 0xff, 0xff,
0x00, 0x00, 0x36, 0xfe,
0xff, 0xc2, 0xff, 0xf7,
0x3b, 0xac, 0x98, 0x74,
0x01, 0xe6, 0xff, 0xff,
0x7f, 0x00, 0xe0, 0x1d,
0x00, 0x02, 0x66, 0x14,
0x25, 0xb2, 0x3b, 0x06,
0x4a, 0x29, 0x7e, 0x00,
0xc0, 0xef, 0xc0, 0xf4,
0x56, 0x79, 0x40, 0xa7,
0x94, 0xaa, 0x07, 0x00,
0x53, 0x52, 0x8a, 0x75,
0x73, 0x91, 0xf4, 0x46,
0x00, 0x90, 0xcc, 0xe1,
0x6a, 0x29, 0x50, 0xa8,
0x49, 0x3d, 0x98, 0xe1,
0x8f, 0x0d, 0x14, 0xf9,
0x2a, 0x00, 0xc0, 0xa1,
0x57, 0xd8, 0x55, 0x20,
0xdf, 0x12, 0x00, 0x90,
0xcd, 0x4c, 0x5f, 0x90,
0xc5, 0x90, 0x3a, 0x01,
0x40, 0x66, 0xa8, 0x8f,
0xe4, 0xab, 0xe8, 0x42,
0x6b, 0x18, 0x88, 0xcb,
0x5a, 0x77, 0x00, 0x00,
0x78, 0x2c, 0x38, 0xfb,
0x09, 0x3c, 0x72, 0xc9,
0x5f, 0xca, 0x00, 0x00,
0x38, 0x66, 0x43, 0xa9,
0x0e, 0x4c, 0x04, 0x00,
0xf8, 0xf2, 0xe9, 0xb0,
0xd0, 0x39, 0x3a, 0xbe,
0x10, 0x00, 0xc8, 0x78,
0xf7, 0x82, 0x49, 0xc1,
0x17, 0xd1, 0x20, 0xea,
0x4c, 0x4a, 0x44, 0x05,
0x90, 0x9f, 0x03, 0x00,
0xd4, 0xdb, 0x39, 0x84,
0x9b, 0x45, 0x18, 0x5b,
0xd3, 0x56, 0x00, 0xa8,
0xf3, 0x09, 0xc1, 0x5e,
0xb8, 0x07, 0xe2, 0x02,
0x80, 0xc1, 0xd1, 0x87,
0x91, 0xb1, 0xb8, 0x6a,
0xc1, 0x3d, 0x19, 0x95,
0x65, 0x1b, 0xab, 0x27,
0x00, 0x00, 0xce, 0xda,
0xf6, 0x1b, 0xcc, 0x35,
0x33, 0x00, 0x14, 0xf4,
0x1f, 0x5a, 0x38, 0xe3,
0x63, 0x83, 0x5b, 0x0f,
0x00, 0x0f, 0xca, 0x04,
0xa0, 0x18, 0xab, 0xe9,
0xda, 0x49, 0x00, 0xb8,
0x9c, 0x72, 0x25, 0xed,
0x10, 0xb7, 0x59, 0x25,
0x0d, 0xa9, 0x33, 0x88,
0xe6, 0x7a, 0x00, 0x00,
0x09, 0xb0, 0x74, 0x4a,
0xdd, 0xbf, 0x13, 0x29,
0x00, 0x30, 0x10, 0x95,
0xbd, 0x2c, 0x14, 0x78,
0x9b, 0x0a, 0x00, 0x38,
0xa7, 0xcc, 0xce, 0x01,
0x85, 0x6f, 0xb0, 0x17,
0x64, 0x60, 0xde, 0xaf,
0xdf, 0x79, 0x00, 0x1e,
0x6d, 0x51, 0x5d, 0x51,
0x37, 0xc4, 0x52, 0xcb,
0xff, 0xbf, 0xf8, 0xff,
0x9d, 0x6b, 0x04, 0xeb,
0x4f, 0xf4, 0xff, 0xff,
0x10, 0x1a, 0x00, 0x80,
0x53, 0xfb, 0xff, 0x88,
0x05, 0x1f, 0xfc, 0x43,
0x8d, 0xab, 0xd4, 0xff,
0xdf, 0x9c, 0x4d, 0x93,
0x63, 0x1b, 0x0d, 0xff,
0xff, 0xff, 0x01, 0x60,
0xeb, 0xe1, 0x5f, 0xca,
0xff, 0xff, 0x5e, 0xe1,
0xfb, 0x2e, 0xaa, 0xff,
0xff, 0xff, 0x07, 0xe8,
0x35, 0x80, 0x07, 0x75,
0x92, 0xff, 0x27, 0x7e,
0x64, 0x08, 0x9f, 0x0c,
0x34, 0xfc, 0x3f, 0xb3,
0xf9, 0xf9, 0xb3, 0xa9,
0xea, 0xe4, 0xff, 0xff,
0x01, 0x00, 0x52, 0x28,
0x00, 0xa0, 0xdd, 0x23,
0x6f, 0x74, 0x99, 0xd4,
0x0a, 0xac, 0x00, 0x00,
0xd2, 0xab, 0x4a, 0x2b,
0x98, 0x7d, 0xfe, 0x2c,
0xaa, 0x02, 0x00, 0x2c,
0xb3, 0xad, 0x94, 0xbe,
0x42, 0x23, 0x6e, 0x2f,
0xa1, 0x3c, 0x01, 0x00,
0x02, 0x74, 0x11, 0x77,
0x8f, 0x23, 0x7f, 0xc4,
0x42, 0xc0, 0x66, 0xef,
0x0a, 0x9d, 0x57, 0x4d,
0x07, 0xd9, 0x35, 0x00,
0x0c, 0x2a, 0xb9, 0xcd,
0xd1, 0xc1, 0xb5, 0x26,
0x6b, 0x94, 0x9b, 0x0e,
0xf5, 0xcb, 0x02, 0xc0,
0x92, 0x22, 0xa2, 0x89,
0xda, 0x9f, 0x62, 0x54,
0xe4, 0x01, 0xc0, 0x52,
0xec, 0x06, 0x85, 0x16,
0x8e, 0xaf, 0xf6, 0x00,
0x61, 0xd9, 0xda, 0xa7,
0x08, 0x65, 0xa5, 0xf8,
0x7b, 0x84, 0x17, 0x72,
0x06, 0xb2, 0x00, 0x80,
0x14, 0xd4, 0x5e, 0x42,
0x37, 0x83, 0x59, 0x70,
0xeb, 0x01, 0x00, 0x46,
0xdd, 0x2a, 0xf9, 0xb3,
0x93, 0x97, 0x4c, 0x4b,
0x01, 0x00, 0xd3, 0xec,
0x3e, 0xaf, 0x5f, 0x1b,
0x32, 0xab, 0x01, 0x60,
0x95, 0xfe, 0xbf, 0xd1,
0x6d, 0x9e, 0xae, 0xf3,
0x18, 0x87, 0x2f, 0x17,
0x58, 0x4d, 0x01, 0xe0,
0x40, 0xc7, 0xe7, 0x1f,
0xc3, 0xf5, 0x2e, 0xa0,
0xdc, 0x45, 0x00, 0x29,
0xeb, 0x81, 0x2c, 0x0c,
0x36, 0x45, 0x5c, 0xfa,
0x02, 0xc0, 0x60, 0xf8,
0xa4, 0x88, 0x1d, 0x97,
0xf1, 0x69, 0x00, 0x00,
0x38, 0x8b, 0x61, 0x69,
0x45, 0x28, 0xff, 0x09,
0x00, 0x48, 0x10, 0x2c,
0xb5, 0x1b, 0x48, 0x27,
0x78, 0xdd, 0xd6, 0x03,
0x80, 0xd6, 0x12, 0xc9,
0xa5, 0x67, 0xb7, 0x42,
0xe9, 0x2d, 0xc0, 0x49,
0x7b, 0x05, 0x97, 0x12,
0x07, 0x80, 0x00, 0x06,
0x88, 0x53, 0x38, 0x76,
0x0a, 0x87, 0x5f, 0x00,
0x00, 0x1e, 0x27, 0xb0,
0x19, 0xb2, 0xac, 0x11,
0xf0, 0xb2, 0xfc, 0x53,
0xe9, 0x3c, 0xee, 0x83,
0x17, 0x45, 0xfb, 0xff,
0xbc, 0x7e, 0x8a, 0xd7,
0x38, 0xf5, 0xff, 0xff,
0xff, 0x08, 0x69, 0x0a,
0xf0, 0x8a, 0xec, 0xfc,
0x7f, 0xd9, 0xdc, 0x48,
0xf9, 0x0c, 0x87, 0xf9,
0xff, 0xfb, 0xa9, 0xf7,
0x24, 0x23, 0xf4, 0xff,
0xff, 0x07, 0x00, 0xc8,
0xa7, 0x51, 0xc9, 0xfc,
0x7f, 0x5c, 0x62, 0xa9,
0x1b, 0x86, 0x57, 0xff,
0x8f, 0x06, 0x22, 0xaf,
0xc5, 0x16, 0xf7, 0xff,
0xff, 0x3f, 0x00, 0xac,
0x22, 0xfc, 0xeb, 0xff,
0xef, 0x1a, 0xba, 0x21,
0xf6, 0xf0, 0xff, 0xff,
0xff, 0x00, 0x35, 0x0d,
0x00, 0x23, 0xa9, 0xe5,
0x29, 0x1f, 0x6b, 0xf3,
0x36, 0x4f, 0x76, 0x00,
0x00, 0x18, 0x0a, 0x61,
0x6c, 0xb2, 0x2e, 0xb2,
0x08, 0x30, 0x47, 0x07,
0xfc, 0x09, 0x2e, 0xec,
0x10, 0xae, 0x0a, 0x00,
0xfe, 0x98, 0x09, 0x2d,
0xd7, 0xca, 0xc5, 0xf2,
0x02, 0xd2, 0xdd, 0x17,
0xc3, 0xf5, 0x01, 0x80,
0xe9, 0xe3, 0xef, 0x3d,
0xf8, 0x07, 0x06, 0x81,
0xb8, 0x40, 0x00, 0xeb,
0x10, 0x5a, 0x65, 0x35,
0xde, 0x01, 0x00, 0x28,
0x70, 0x08, 0xe0, 0xad,
0x09, 0xa2, 0x5b, 0x29,
0x00, 0xd4, 0xe4, 0xb4,
0x41, 0x4c, 0x91, 0xd4,
0xdf, 0x8c, 0x05, 0x4e,
0x58, 0xbf, 0xe3, 0xf1,
0xd9, 0x00, 0x20, 0xad,
0xee, 0xc5, 0xde, 0x47,
0x0c, 0xc8, 0x0b, 0x00,
0xc4, 0xda, 0x17, 0x16,
0xd0, 0xe9, 0xfd, 0x14,
0xdd, 0x5f, 0x0b, 0xdc,
0xe8, 0xe2, 0xc9, 0x1b,
0x00, 0x20, 0x9c, 0x54,
0x47, 0x7a, 0x07, 0xda,
0x0d, 0x02, 0x20, 0x22,
0xb3, 0xd5, 0x40, 0x4c,
0x43, 0x30, 0x56, 0x2e,
0x00, 0x77, 0xba, 0x90,
0x2e, 0x27, 0x74, 0x7a,
0xa8, 0x42, 0x00, 0xa0,
0x7e, 0x98, 0x1b, 0x04,
0x78, 0x14, 0x03, 0x00,
0x59, 0xaf, 0x4d, 0x82,
0xc8, 0x3a, 0x5d, 0x5a,
0x7c, 0x7f, 0x37, 0xca,
0xaf, 0x35, 0x84, 0x41,
0x0a, 0x00, 0x3a, 0x00,
0x48, 0x28, 0xbc, 0x37,
0x07, 0x00, 0x34, 0xb0,
0x49, 0xab, 0x37, 0xf9,
0x06, 0xea, 0x08, 0x00,
0x64, 0x56, 0x79, 0x96,
0xb7, 0x03, 0x50, 0xb5,
0x2b, 0xef, 0x08, 0x33,
0x12, 0x1a, 0xb3, 0xaf,
0x00, 0x20, 0xba, 0xa7,
0x1b, 0x5c, 0x8d, 0xe2,
0xec, 0x00, 0x80, 0x56,
0x82, 0x4b, 0xd9, 0xd5,
0xbb, 0x17, 0x81, 0x0d,
0x1d, 0x4d, 0xd6, 0x28,
0x00, 0xa0, 0x11, 0x34,
0xb1, 0x9d, 0x22, 0x66,
0x5f, 0x6c, 0x51, 0x43,
0x00, 0xc2, 0xb7, 0x64,
0x8f, 0x80, 0x45, 0x81,
0x40, 0x47, 0xff, 0x9f,
0x45, 0xb0, 0x4f, 0x26,
0xd9, 0xff, 0x9f, 0xec,
0xfd, 0x8a, 0x90, 0x72,
0xfe, 0xff, 0xff, 0xc3,
0x00, 0xd2, 0xc3, 0x3f,
0xf4, 0xff, 0x79, 0xe4,
0x0d, 0x58, 0x70, 0xb9,
0x95, 0xff, 0xff, 0xff,
0x07, 0xf8, 0x06, 0x80,
0x07, 0xb0, 0xdb, 0xff,
0xc3, 0xc4, 0x4a, 0x0a,
0x85, 0x1e, 0xd8, 0xcf,
0xfe, 0xff, 0xd7, 0x8a,
0x00, 0x31, 0x89, 0x72,
0xfc, 0xff, 0x7f, 0x00,
0x00, 0x6f, 0xfd, 0x7f,
0xdc, 0xff, 0xdf, 0xbd,
0x25, 0xb4, 0xa0, 0xff,
0xff, 0xff, 0x07, 0x80,
0x98, 0xc2, 0x5f, 0x08,
0x00, 0x38, 0xea, 0x86,
0x46, 0x2b, 0x0a, 0x0e,
0x5f, 0x15, 0x00, 0x40,
0x8c, 0xde, 0x67, 0x3f,
0x9d, 0x00, 0x66, 0x01,
0x00, 0xd6, 0x08, 0x3a,
0x7c, 0xc4, 0xc0, 0x9c,
0x7f, 0x2d, 0x00, 0x94,
0x7b, 0xf0, 0xe6, 0xfb,
0x0d, 0xc7, 0xa7, 0xe8,
0xd4, 0x96, 0x05, 0x24,
0x8d, 0x83, 0x2a, 0x00,
0x70, 0x15, 0x46, 0xa7,
0x36, 0x8b, 0xb5, 0x58,
0x00, 0xa0, 0x88, 0x8b,
0x69, 0x9a, 0x90, 0x58,
0x8b, 0x36, 0x00, 0x28,
0x04, 0x08, 0xe2, 0x4d,
0xbc, 0x14, 0xf8, 0x13,
0x80, 0x02, 0x5d, 0x15,
0x85, 0x03, 0x67, 0x20,
0x40, 0x4b, 0x88, 0x2b,
0x7d, 0x0f, 0x52, 0x0f,
0x53, 0xc2, 0x00, 0x40,
0x28, 0x8f, 0x80, 0x98,
0x32, 0x67, 0xdb, 0x47,
0x00, 0x00, 0xc0, 0x6d,
0x8d, 0x64, 0x0e, 0xef,
0x44, 0xe3, 0x84, 0x2a,
0x18, 0x00, 0x68, 0xb1,
0xbf, 0x8d, 0x11, 0x45,
0xfa, 0x46, 0x68, 0x00,
0x00, 0xee, 0x16, 0xae,
0x39, 0xb7, 0x18, 0x34,
0x05, 0x00, 0x30, 0xb7,
0x01, 0xab, 0xf8, 0x0d,
0x80, 0xba, 0x65, 0x2e,
0x00, 0x80, 0xee, 0x50,
0x20, 0x1c, 0x89, 0x3a,
0x28, 0x46, 0x00, 0x50,
0x85, 0x1f, 0x7e, 0xa5,
0x52, 0x0b, 0x1b, 0xdc,
0x06, 0x00, 0xea, 0x96,
0xea, 0x36, 0x1e, 0x2d,
0x3c, 0x86, 0x26, 0x99,
0x8e, 0xca, 0x04, 0x37,
0xcc, 0xad, 0x00, 0x00,
0x34, 0x09, 0x00, 0xd4,
0xc2, 0xe7, 0x3c, 0x86,
0x05, 0x00, 0xe1, 0x28,
0x32, 0x1d, 0x3d, 0xb4,
0x65, 0x6b, 0x03, 0x00,
0x3b, 0xfa, 0x62, 0xf8,
0x19, 0xa7, 0x80, 0x9a,
0xee, 0x41, 0xe2, 0xe2,
0x41, 0x09, 0x03, 0x00,
0xa7, 0xd4, 0x5f, 0xa0,
0x3b, 0x0b, 0xd8, 0xc2,
0xad, 0x9d, 0x1c, 0x00,
0x10, 0x85, 0xca, 0x07,
0xf9, 0x3f, 0xae, 0x85,
0xf0, 0xc0, 0x29, 0x4a,
0xf2, 0x79, 0x8e, 0x58,
0xc0, 0xff, 0x3b, 0xb6,
0x42, 0xa2, 0x94, 0xf6,
0x17, 0xff, 0xff, 0xff,
0xff, 0x61, 0x5e, 0x00,
0x40, 0xd6, 0x91, 0xff,
0x3f, 0xac, 0x02, 0x6d,
0xc9, 0xfa, 0xd2, 0xff,
0x27, 0x39, 0x70, 0x92,
0xfd, 0x7f, 0xf8, 0xff,
0xff, 0x1f, 0x00, 0x36,
0x1e, 0xfe, 0x21, 0x15,
0xf1, 0xff, 0x3f, 0xbf,
0xd6, 0xde, 0x2c, 0x21,
0x8f, 0xff, 0x0f, 0xaf,
0xf1, 0x33, 0x1e, 0xff,
0xff, 0x07, 0x40, 0x3b,
0x80, 0x37, 0xab, 0xf2,
0xff, 0x13, 0x91, 0xf9,
0xae, 0x59, 0x96, 0xff,
0xff, 0x64, 0x50, 0xdf,
0x03, 0x7b, 0xc4, 0xfc,
0xff, 0x3f, 0x00, 0x40,
0xd3, 0x02, 0x40, 0xdf,
0xb6, 0x25, 0x94, 0x78,
0xa5, 0x9c, 0xdf, 0x07,
0x00, 0x10, 0x89, 0xb0,
0xba, 0x6a, 0x62, 0x05,
0x91, 0xc6, 0x00, 0x90,
0xca, 0xd8, 0x6e, 0xd5,
0x65, 0xc9, 0x4c, 0xf3,
0x00, 0x10, 0x72, 0x3c,
0xb3, 0x44, 0x08, 0x39,
0x31, 0x0d, 0x84, 0x79,
0xca, 0x93, 0x68, 0x02,
0x09, 0x00, 0x4b, 0x11,
0xf2, 0xcd, 0x8e, 0xe5,
0x3e, 0x3b, 0xb2, 0x2e,
0x94, 0x00, 0x80, 0xf2,
0x7a, 0xf1, 0x8c, 0x4e,
0x7d, 0x1b, 0x00, 0x88,
0x00, 0x2d, 0x80, 0xf3,
0x4d, 0xf4, 0xe1, 0xb9,
0x0c, 0x00, 0x02, 0x8f,
0xa8, 0x68, 0x52, 0xa7,
0x85, 0x26, 0x8d, 0x00,
0x10, 0x00, 0xd8, 0x31,
0x0f, 0xc4, 0xd4, 0x94,
0x66, 0x03, 0x00, 0xd0,
0xe6, 0xf8, 0xaa, 0x2b,
0x51, 0x94, 0x63, 0xa7,
0x00, 0x20, 0xb1, 0x3d,
0x8b, 0xb8, 0x6e, 0xc3,
0x15, 0x9e, 0x5b, 0x42,
0xc5, 0x90, 0xf2, 0xb0,
0xa6, 0x5b, 0x00, 0x10,
0x08, 0x2c, 0x7b, 0x3c,
0x08, 0x4e, 0x7a, 0x0b,
0x00, 0x40, 0xd0, 0xce,
0xf7, 0x69, 0x3a, 0xcd,
0xba, 0xd2, 0x2c, 0xd6,
0x07, 0x00, 0xa3, 0x16,
0x4c, 0xc8, 0x31, 0x65,
0x5f, 0x6f, 0x00, 0xb0,
0xe8, 0x25, 0xde, 0xcc,
0x1c, 0x91, 0xb4, 0x05,
0x8e, 0x84, 0x30, 0x93,
0x7e, 0x01, 0x00, 0x09,
0x5d, 0x8f, 0xbb, 0xbd,
0x66, 0x8c, 0x54, 0xbe,
0x17, 0x00, 0x30, 0x40,
0xef, 0x98, 0xa3, 0x0a,
0xb7, 0xca, 0xf0, 0x00,
0x00, 0x64, 0x4e, 0xf1,
0xa3, 0x07, 0xec, 0x7b,
0xde, 0x00, 0x00, 0x51,
0xe7, 0x96, 0x6f, 0x68,
0x33, 0x9e, 0xa8, 0x16,
0x00, 0xb0, 0x75, 0xe3,
0x38, 0xaf, 0x18, 0x21,
0x20, 0x40, 0x94, 0xfa,
0x49, 0x11, 0x53, 0x01,
0x20, 0x61, 0x9e, 0xf7,
0x0f, 0xe3, 0xef, 0xec,
0x69, 0xb9, 0x89, 0x42,
0xf8, 0x27, 0x63, 0xc4,
0xda, 0xa8, 0x8d, 0xfb,
0xff, 0xb7, 0x09, 0xbc,
0xb5, 0xe3, 0x02, 0x89,
0xff, 0xff, 0xff, 0x07,
0x38, 0x7f, 0x80, 0x87,
0x04, 0x36, 0xff, 0xbf,
0x19, 0xd4, 0xba, 0xcc,
0x23, 0xef, 0xf8, 0xff,
0xc9, 0xf7, 0x5b, 0xe8,
0xb1, 0xe8, 0xff, 0xff,
0x01, 0x00, 0x86, 0xea,
0xff, 0xeb, 0xff, 0xcf,
0x90, 0xbf, 0x27, 0x3d,
0x8c, 0xff, 0xff, 0x7f,
0x00, 0xd8, 0x01, 0x01,
0xff, 0x0a, 0x4d, 0x5e,
0x34, 0x41, 0xf6, 0xd9,
0x24, 0xfa, 0x7f, 0xf8,
0xff, 0xba, 0x71, 0x67,
0x4d, 0x02, 0xae, 0x7f,
0xfb, 0xff, 0x47, 0x00,
0x00, 0xd0, 0x4b, 0xab,
0x0d, 0x00, 0x2c, 0x46,
0x47, 0x92, 0xa1, 0x04,
0x81, 0x04, 0x1d, 0x00,
0x64, 0x93, 0xdd, 0x20,
0xc7, 0xbe, 0x9e, 0x4d,
0x00, 0x40, 0x55, 0x13,
0xde, 0x92, 0x5b, 0x21,
0xef, 0x43, 0x78, 0x8f,
0x43, 0xf8, 0x9d, 0x00,
0x29, 0x00, 0x54, 0x48,
0x84, 0x02, 0x86, 0x65,
0x80, 0x28, 0xed, 0x09,
0x00, 0xa0, 0x0b, 0x96,
0x20, 0x16, 0x5b, 0x8c,
0x68, 0x36, 0x00, 0x30,
0xc0, 0x4b, 0xfc, 0xa5,
0x86, 0xe8, 0x27, 0x00,
0x81, 0xc8, 0x7e, 0x28,
0x81, 0x07, 0xa4, 0x53,
0xa6, 0x01, 0x00, 0x13,
0xac, 0xba, 0xf0, 0xad,
0x47, 0x6a, 0xba, 0x45,
0xc8, 0x16, 0xe7, 0x0a,
0xe0, 0x37, 0x07, 0x80,
0x75, 0xc0, 0x08, 0x48,
0x44, 0x0d, 0xac, 0xb2,
0xec, 0x3a, 0x40, 0x08,
0x2d, 0x6a, 0xa8, 0x0d,
0x22, 0xca, 0xbf, 0x01,
0x00, 0xd0, 0xc3, 0xc9,
0x17, 0xb1, 0x53, 0xc1,
0x39, 0x00, 0xc8, 0x46,
0x4d, 0xa5, 0xfd, 0x9b,
0x6d, 0x12, 0xea, 0x86,
0x86, 0xa3, 0x56, 0x9d,
0x22, 0x08, 0x00, 0xd1,
0xba, 0x6e, 0x38, 0x66,
0x10, 0xa9, 0x0e, 0x00,
0x8d, 0xe1, 0x8c, 0x33,
0x44, 0x80, 0xc6, 0x46,
0xa7, 0x00, 0x40, 0x18,
0x66, 0x4e, 0x4b, 0xaf,
0xbe, 0xc2, 0x5d, 0x00,
0xc6, 0x23, 0x22, 0x67,
0xdc, 0x3b, 0x63, 0xfb,
0x34, 0xc0, 0x1c, 0x74,
0x3a, 0xa7, 0x29, 0x00,
0xc0, 0xb4, 0x43, 0x82,
0x39, 0xb5, 0x79, 0x71,
0xdd, 0x0d, 0x12, 0x3b,
0x00, 0x74, 0x99, 0xdc,
0xca, 0x28, 0x17, 0x24,
0x0b, 0x00, 0xa0, 0xda,
0x0a, 0x57, 0x6a, 0x7a,
0x76, 0x11, 0x00, 0x84,
0xee, 0x95, 0x97, 0xad,
0x7d, 0x40, 0xc8, 0x5d,
0x4a, 0xd9, 0x2a, 0x47,
0xae, 0xc8, 0x71, 0x01,
0xe8, 0x39, 0x11, 0xb3,
0xc5, 0x88, 0x79, 0xa5,
0x09, 0xcb, 0xff, 0x47,
0x66, 0xe6, 0xd7, 0xbe,
0xbc, 0xf6, 0xff, 0x77,
0x1f, 0x06, 0x1d, 0xf2,
0x0c, 0x2a, 0xff, 0xff,
0xff, 0x00, 0x60, 0xa6,
0xf0, 0xaf, 0xfd, 0xbf,
0x15, 0x57, 0xf0, 0x08,
0xbf, 0xfb, 0xff, 0xff,
0x7f, 0x00, 0xf8, 0x03,
0x78, 0x20, 0x75, 0xff,
0xff, 0x04, 0x0c, 0x3d,
0x98, 0x82, 0x34, 0x8c,
0xf0, 0xff, 0xc7, 0x9f,
0xc6, 0x96, 0x78, 0xe6,
0xff, 0xff, 0x01, 0x00,
0x1a, 0xb5, 0xf4, 0xa3,
0xff, 0x07, 0x9d, 0x0f,
0x74, 0x97, 0x31, 0xd5,
0xff, 0x17, 0xe6, 0x66,
0xf6, 0x08, 0xb8, 0x20,
0xfc, 0xff, 0xff, 0x03,
0x40, 0x33, 0x03, 0x00,
0x00, 0xb0, 0x00, 0x20,
0xec, 0x79, 0xc0, 0x40,
0x2b, 0xb0, 0x20, 0xd5,
0x69, 0x00, 0x00, 0x58,
0x34, 0x3f, 0x48, 0x77,
0x7b, 0x9e, 0xa2, 0x2c,
0x00, 0x20, 0x1e, 0x44,
0xdf, 0xfc, 0xb2, 0x2c,
0xa5, 0x96, 0x55, 0x00,
0xa0, 0x58, 0x3a, 0x88,
0xc0, 0xcc, 0x4d, 0x45,
0x9d, 0x0f, 0x00, 0x48,
0x12, 0x9f, 0xbd, 0x0c,
0xc7, 0x4e, 0xa8, 0x3e,
0x04, 0x88, 0xe0, 0x63,
0x9d, 0x25, 0x87, 0xfd,
0x5d, 0x8a, 0x26, 0x1e,
0x28, 0x6f, 0x0f, 0x0d,
0x1c, 0x00, 0x38, 0xef,
0x1f, 0x05, 0xdb, 0xc2,
0xce, 0x48, 0x6e, 0x0d,
0x00, 0x80, 0x3e, 0x6c,
0x95, 0x7f, 0x2f, 0x90,
0xaa, 0x06, 0x00, 0xfb,
0x31, 0xea, 0x51, 0x71,
0x37, 0xb2, 0x7c, 0x1a,
0x1a, 0x35, 0x0c, 0xeb,
0x0e, 0x00, 0xac, 0xb5,
0xd1, 0xc2, 0x55, 0x55,
0xf6, 0x6e, 0x40, 0x00,
0x00, 0xde, 0x11, 0xf5,
0x51, 0x63, 0x9d, 0xd2,
0xbc, 0x01, 0x47, 0x07,
0x00, 0x61, 0x3f, 0x63,
0x3a, 0x3a, 0x3d, 0x76,
0x04, 0xac, 0x01, 0x80,
0x2b, 0xa9, 0xb3, 0x86,
0xfe, 0xb1, 0x5f, 0x0d,
0x00, 0x41, 0xe0, 0xb0,
0x41, 0x22, 0x17, 0x42,
0x12, 0xf9, 0x89, 0x8d,
0xe7, 0x1b, 0xc0, 0x95,
0x00, 0xd0, 0xec, 0x5a,
0xd5, 0x06, 0xb0, 0x7a,
0xb5, 0x50, 0x5b, 0x01,
0x40, 0x9c, 0x06, 0x75,
0xfb, 0xf4, 0xa9, 0xb4,
0x04, 0x00, 0x60, 0x3a,
0xd7, 0x11, 0x39, 0xe3,
0xba, 0x24, 0x00, 0x20,
0xbf, 0x7a, 0xc1, 0xfc,
0xed, 0xdc, 0x71, 0x3c,
0x0a, 0x1d, 0xe1, 0x46,
0x51, 0x24, 0xe6, 0x02,
0x00, 0xf7, 0xba, 0xa3,
0x99, 0x45, 0x0c, 0x88,
0x52, 0x3d, 0xdd, 0x1d,
0x00, 0x41, 0xb2, 0x66,
0x06, 0x61, 0x66, 0x5b,
0x34, 0xc1, 0x1b, 0xf7,
0x20, 0xd0, 0x58, 0x8b,
0xff, 0xff, 0xff, 0x20,
0x2b, 0x62, 0x21, 0xba,
0x4a, 0xff, 0xff, 0xff,
0xff, 0x32, 0x91, 0x00,
0xa0, 0x9e, 0xe7, 0xff,
0x53, 0x4e, 0x31, 0x1c,
0x61, 0xbe, 0x7f, 0xfd,
0xff, 0x3c, 0x0e, 0xd7,
0xd5, 0xb8, 0xf0, 0xff,
0xff, 0x0f, 0x00, 0xf9,
0x0c, 0xff, 0xf0, 0xc1,
0xf3, 0xff, 0xd1, 0x32,
0x4d, 0x7b, 0x9b, 0xee,
0xff, 0x1f, 0xb3, 0x3e,
0x01, 0x35, 0x5f, 0xf8,
0xff, 0x07, 0xb8, 0x16,
0x80, 0x47, 0xfe, 0x7f,
0xa5, 0xee, 0x57, 0xe6,
0xc2, 0xf8, 0xff, 0xff,
0xff, 0xff, 0x20, 0x77,
0x00, 0xa0, 0xb8, 0x56,
0x00, 0x60, 0x8a, 0x41,
0xbd, 0x0b, 0x6d, 0xdf,
0xde, 0x68, 0xa5, 0xda,
0x7b, 0xb3, 0xbc, 0xa5,
0x05, 0x08, 0x7f, 0x74,
0x2c, 0x2a, 0xe3, 0xc9,
0x64, 0x2f, 0xb5, 0xaa,
0x00, 0x00, 0xdf, 0x7f,
0xe5, 0x64, 0x4c, 0xa3,
0x10, 0x00, 0x58, 0xe8,
0xda, 0x89, 0xe1, 0xdb,
0x55, 0x76, 0x00, 0x18,
0x7c, 0xf8, 0x91, 0x88,
0xb6, 0x09, 0xde, 0x70,
0x15, 0x6f, 0xbd, 0xf5,
0xb7, 0x90, 0x92, 0x00,
0x10, 0x25, 0x01, 0x55,
0x84, 0x96, 0xfe, 0x19,
0x00, 0x00, 0x40, 0x60,
0xa6, 0x5d, 0x5f, 0x31,
0xca, 0x23, 0x9d, 0x29,
0x55, 0x0c, 0x00, 0xa6,
0xd9, 0x76, 0x29, 0x00,
0xd8, 0x1b, 0xda, 0x00,
0x80, 0x23, 0x65, 0x79,
0x8e, 0x19, 0x9e, 0x4a,
0x00, 0x80, 0x9b, 0x6c,
0x0d, 0xf6, 0x63, 0x50,
0x75, 0x45, 0xf4, 0x74,
0xb0, 0x4c, 0xd6, 0xec,
0x8e, 0x37, 0x00, 0x00,
0xcc, 0x08, 0x16, 0x16,
0x27, 0x1d, 0x45, 0x04,
0x80, 0x3f, 0x0c, 0x4a,
0x71, 0x99, 0x34, 0xc2,
0x0e, 0x2b, 0x05, 0x00,
0x29, 0x24, 0x40, 0x7d,
0x54, 0xdd, 0xb4, 0x00,
0xa0, 0x2c, 0x9a, 0xa5,
0x39, 0x25, 0x9a, 0x84,
0xca, 0xc3, 0x46, 0x04,
0xe9, 0xff, 0x87, 0x23,
0x00, 0x45, 0x2b, 0x6c,
0x4a, 0xa9, 0x82, 0x78,
0xbb, 0x3f, 0xa9, 0x05,
0x80, 0xc9, 0x9d, 0x77,
0x13, 0x5c, 0x79, 0x7b,
0x52, 0x80, 0x34, 0x73,
0x5d, 0x99, 0x00, 0x30,
0xab, 0x54, 0xb4, 0xaa,
0x61, 0x3a, 0x11, 0x00,
0x70, 0x2a, 0x67, 0xab,
0x40, 0x12, 0x6d, 0x05,
0x00, 0x31, 0x9b, 0x2a,
0x27, 0xc8, 0x7c, 0xb6,
0x3f, 0x17, 0x35, 0x35,
0xa9, 0xab, 0xb6, 0xc7,
0xeb, 0x01, 0x00, 0x41,
0x00, 0x24, 0x47, 0x77,
0xac, 0xab, 0x01, 0x60,
0x01, 0x38, 0xd8, 0x62,
0xd0, 0x79, 0xa7, 0x77,
0x22, 0xf0, 0xcf, 0xd9,
0x05, 0x08, 0x8d, 0x1b,
0x64, 0xfc, 0xff, 0xe6,
0x90, 0x10, 0xcb, 0x9f,
0xfc, 0xff, 0xff, 0xff,
0x00, 0xa9, 0x02, 0xf0,
0x34, 0x31, 0xfe, 0x1f,
0xe3, 0x99, 0x7d, 0xae,
0x30, 0x4e, 0xf9, 0xff,
0x0b, 0x21, 0x96, 0xd6,
0x9b, 0x99, 0xf3, 0xff,
0xff, 0x03, 0x00, 0x74,
0x37, 0x98, 0x5c, 0xfe,
0x7f, 0x25, 0x1f, 0x14,
0x46, 0xcf, 0x6a, 0x0a,
0xff, 0xff, 0x8d, 0xee,
0xdf, 0x06, 0x46, 0xff,
0xff, 0xff, 0x01, 0x80,
0x34, 0xe0, 0x5f, 0xff,
0x9f, 0xf4, 0x5d, 0x5b,
0xfb, 0xe5, 0x9b, 0xff,
0xff, 0xff, 0x07, 0x38,
0x46, 0x00, 0x10, 0xde,
0x15, 0x00, 0x90, 0x78,
0x66, 0x09, 0xee, 0x6b,
0x58, 0x94, 0xcd, 0x52,
0xf3, 0x6f, 0xc7, 0x85,
0x66, 0xe0, 0x04, 0x00,
0x24, 0x36, 0x8e, 0x98,
0x87, 0x11, 0x2b, 0x56,
0x4d, 0x05, 0x80, 0xe9,
0x61, 0xb0, 0x42, 0xa8,
0xbb, 0x56, 0x0d, 0x00,
0x94, 0xb2, 0x3c, 0xee,
0x42, 0x0a, 0x05, 0x56,
0xdd, 0xf3, 0x45, 0xfe,
0x73, 0xdd, 0x06, 0x80,
0x14, 0x6c, 0x00, 0x00,
0xa2, 0xa3, 0x14, 0x1c,
0xca, 0x00, 0x00, 0x19,
0x9a, 0xa9, 0x53, 0x91,
0xc2, 0xe8, 0x13, 0x00,
0x10, 0x1e, 0x10, 0x27,
0x1a, 0x2d, 0x2e, 0xe4,
0xce, 0x10, 0x00, 0xa2,
0x09, 0x52, 0xda, 0xa4,
0x37, 0xff, 0x70, 0x15,
0x00, 0x30, 0x91, 0x94,
0xc8, 0xc6, 0x77, 0xff,
0x29, 0x8a, 0xfd, 0xc8,
0x9f, 0xfe, 0x02, 0x8a,
0x0b, 0x80, 0x1a, 0xbc,
0x7d, 0xce, 0x81, 0xb2,
0x60, 0x1c, 0x02, 0xc0,
0xdd, 0x4c, 0xa4, 0x3f,
0x97, 0x47, 0x18, 0x69,
0x11, 0x00, 0xa8, 0x3a,
0x4e, 0x8a, 0xb0, 0xd4,
0xe5, 0x51, 0x6e, 0xd4,
0x6d, 0x00, 0x48, 0x7d,
0x60, 0x1f, 0xbb, 0x31,
0x83, 0x81, 0x4d, 0x00,
0x80, 0x6d, 0x50, 0x96,
0xbd, 0x66, 0xca, 0x67,
0x09, 0x02, 0xb4, 0x44,
0xf0, 0xfa, 0xba, 0x56,
0x1a, 0x4b, 0x0a, 0x00,
0x5e, 0x6f, 0xc0, 0xa2,
0x63, 0x5c, 0xad, 0x6a,
0xe7, 0xb4, 0x32, 0xcd,
0x39, 0xa2, 0x69, 0x02,
0x80, 0x9c, 0x74, 0xca,
0x9d, 0xf9, 0xec, 0x9b,
0x00, 0x40, 0x9c, 0x6d,
0xf7, 0x91, 0x97, 0xca,
0x4c, 0xca, 0xef, 0x6f,
0xce, 0x93, 0x1c, 0x15,
0x75, 0x03, 0x00, 0x22,
0x96, 0xf6, 0x36, 0xa8,
0x73, 0x71, 0x01, 0x40,
0xb9, 0xac, 0x07, 0x4a,
0x7c, 0x5b, 0x01, 0xac,
0x03, 0xc0, 0x72, 0xb6,
0x90, 0x3e, 0x9c, 0x76,
0xea, 0x5d, 0x20, 0x2e,
0x18, 0x65, 0x8b, 0x13,
0xf8, 0x7f, 0x86, 0xbb,
0x10, 0x35, 0x12, 0x37,
0xff, 0xff, 0xff, 0xff,
0x1f, 0x00, 0xa4, 0xf0,
0x30, 0x16, 0xfe, 0xf3,
0x0e, 0x70, 0x9c, 0x8e,
0x86, 0xf9, 0x7f, 0x4f,
0x50, 0x33, 0x52, 0xb8,
0xf0, 0xff, 0xff, 0xff,
0x00, 0xaa, 0x08, 0xf0,
0x4b, 0xb0, 0xff, 0x1f,
0x96, 0xb2, 0x10, 0x89,
0xc7, 0x84, 0xff, 0xff,
0x70, 0xcf, 0x7b, 0x47,
0xa4, 0x68, 0xff, 0xff,
0x3f, 0x20, 0x01, 0x54,
0xff, 0x3f, 0xf9, 0x7f,
0xe0, 0xd0, 0x6d, 0x51,
0x83, 0x61, 0xf2, 0xff,
0xff, 0x3f, 0x00, 0x58,
0x2f, 0x00, 0x81, 0xa5,
0xaa, 0xf3, 0x15, 0x14,
0xbc, 0xf2, 0x71, 0x1e,
0x40, 0x34, 0xd9, 0x1d,
0xc7, 0x83, 0xb2, 0x55,
0x32, 0x22, 0x17, 0x00,
0x12, 0x9a, 0xcf, 0xb9,
0xdd, 0x0a, 0xa3, 0x4b,
0x15, 0x00, 0x6e, 0x27,
0xac, 0xea, 0xcc, 0xd6,
0x08, 0x0d, 0x01, 0x00,
0x88, 0xdf, 0x6c, 0x45,
0xe7, 0x9a, 0x9a, 0x09,
0xa4, 0x82, 0x3b, 0xd5,
0x23, 0x0a, 0x6e, 0x03,
0x00, 0x56, 0x92, 0x2e,
0x48, 0x11, 0xd6, 0xb7,
0x05, 0x00, 0x84, 0xc8,
0xf9, 0x0f, 0x16, 0x19,
0x1c, 0x06, 0x00, 0x40,
0xa2, 0xd9, 0x8b, 0x29,
0x73, 0x53, 0xcb, 0x05,
0x00, 0x4b, 0x50, 0xa3,
0xc6, 0x40, 0x6a, 0xf7,
0x80, 0xae, 0x09, 0x8f,
0x5a, 0x01, 0x91, 0xff,
0x62, 0xa9, 0x2c, 0x00,
0x8e, 0x3d, 0x34, 0x93,
0x42, 0xe3, 0x5a, 0x01,
0x80, 0xe9, 0xa1, 0x24,
0x49, 0xf8, 0xf2, 0xa6,
0x33, 0x00, 0x4a, 0x32,
0xa8, 0x44, 0x5e, 0x2d,
0x48, 0xdd, 0x02, 0x04,
0x98, 0xa2, 0x80, 0xe4,
0x17, 0xd9, 0x73, 0xe3,
0x06, 0x49, 0x6a, 0x87,
0x5c, 0xe7, 0x38, 0x1b,
0x01, 0x60, 0x31, 0xdc,
0x13, 0x6e, 0xc1, 0xf4,
0xd1, 0x0a, 0x81, 0x80,
0x6d, 0xbb, 0x40, 0x94,
0x0c, 0x76, 0x5a, 0xba,
0x27, 0x00, 0xf0, 0x82,
0xbd, 0x8b, 0x80, 0x21,
0x4f, 0x08, 0x35, 0x31,
0x00, 0x10, 0xcd, 0x07,
0x97, 0xab, 0xde, 0xdb,
0xac, 0x80, 0x00, 0x00,
0xfe, 0x4b, 0xc0, 0x0a,
0xa4, 0xbb, 0xa5, 0x33,
0x02, 0x00, 0x98, 0xcc,
0x22, 0xdd, 0xb7, 0xa4,
0x86, 0xe7, 0x72, 0x0a,
0x00, 0x10, 0xbf, 0x12,
0x2f, 0xcb, 0xfa, 0x63,
0x53, 0x05, 0x00, 0xa8,
0xcb, 0x9f, 0xce, 0x70,
0x3f, 0x60, 0x11, 0xee,
0x01, 0x9e, 0xa8, 0xfd,
0x0a, 0xe1, 0xb4, 0xb1,
0x90, 0xfb, 0xfe, 0x3f,
0x69, 0x1e, 0x7e, 0x3f,
0xbf, 0x93, 0x0d, 0xff,
0xff, 0x9a, 0xdf, 0x26,
0x3a, 0xfb, 0xff, 0xff,
0xa1, 0x17, 0x01, 0xa0,
0xaf, 0x58, 0xff, 0x7f,
0x46, 0xcb, 0xd3, 0x93,
0xff, 0x9f, 0x2d, 0xbc,
0x9e, 0x29, 0x24, 0xff,
0xff, 0xff, 0x00, 0x40,
0xc3, 0x04, 0xff, 0x97,
0x24, 0x16, 0xc6, 0xaa,
0xca, 0x9c, 0x5a, 0xf1,
0xff, 0xfd, 0xff, 0x69,
0x74, 0x13, 0x05, 0x6a,
0xff, 0xff, 0x01, 0xf0,
0x9e, 0xe0, 0x05, 0xfe,
0x5f, 0x37, 0x87, 0xc3,
0x36, 0x5a, 0xfe, 0xf3,
0xff, 0xff, 0xff, 0x0f,
0x2b, 0x00, 0x00, 0xf2,
0xe7, 0x00, 0x40, 0xe1,
0x35, 0x66, 0xdd, 0xac,
0xfe, 0x36, 0x5c, 0x35,
0x00, 0x21, 0x18, 0x72,
0x1e, 0x3a, 0xdf, 0xf4,
0x8b, 0x06, 0x00, 0xa0,
0x69, 0x38, 0x69, 0xe9,
0xfb, 0x9b, 0xcc, 0xfe,
0x01, 0x00, 0x00, 0x43,
0x7b, 0x6d, 0x16, 0x8d,
0xe0, 0xb2, 0x53, 0x01,
0x40, 0x82, 0xcd, 0x97,
0x85, 0x86, 0xb1, 0xc7,
0x9b, 0x8f, 0x4a, 0x50,
0x0c, 0x3d, 0x9f, 0x1b,
0xa8, 0x0a, 0x00, 0x0a,
0x83, 0x62, 0xe1, 0x55,
0x5f, 0x4e, 0xde, 0x83,
0x04, 0x00, 0x06, 0x63,
0xd4, 0x8c, 0x69, 0x44,
0x98, 0x15, 0x35, 0xce,
0x00, 0x30, 0xe8, 0xf0,
0x17, 0x06, 0x4c, 0x40,
0x1f, 0xd2, 0x01, 0x00,
0x3c, 0xfd, 0xad, 0xa1,
0x4e, 0xa9, 0xde, 0x9b,
0x00, 0x10, 0x2c, 0x2b,
0x06, 0x3d, 0x39, 0xbf,
0x43, 0x36, 0x16, 0x0b,
0x00, 0xd2, 0xb4, 0xed,
0x72, 0xf6, 0x6f, 0xb5,
0x2a, 0xb0, 0x33, 0x32,
0x0a, 0x77, 0x7b, 0x58,
0x00, 0x50, 0x58, 0x1f,
0x2f, 0xe0, 0x48, 0x84,
0xe8, 0x0a, 0x0a, 0x00,
0x58, 0xe0, 0x29, 0x8f,
0x25, 0xaf, 0x7b, 0x1c,
0xf3, 0x88, 0x01, 0x00,
0xc9, 0xfa, 0xb6, 0x17,
0x14, 0xce, 0xdb, 0x04,
0x00, 0x60, 0x86, 0x7b,
0x78, 0x23, 0x03, 0x5c,
0xd0, 0x6d, 0x00, 0x00,
0x35, 0xd3, 0xc9, 0xa5,
0x0b, 0x87, 0x1f, 0x4c,
0x34, 0x7e, 0xd3, 0x80,
0x72, 0x9c, 0x0f, 0x00,
0x3a, 0x77, 0x33, 0x2c,
0xea, 0x11, 0x3b, 0x09,
0x00, 0x00, 0x47, 0x1f,
0x95, 0x5c, 0x29, 0x92,
0x19, 0xba, 0xb1, 0xe8,
0x34, 0x02, 0x80, 0x3c,
0x5f, 0x21, 0x7e, 0xd2,
0x0a, 0xbc, 0x0e, 0x00,
0x20, 0x63, 0xda, 0x1d,
0x7b, 0x95, 0x37, 0xf4,
0x02, 0x42, 0xc0, 0x3a,
0x59, 0xd3, 0x03, 0x23,
0xc8, 0x3f, 0xc2, 0x3f,
0xf1, 0x98, 0xc1, 0x4c,
0x73, 0xda, 0x8a, 0x11,
0x55, 0xfe, 0x7f, 0xa8,
0x01, 0x40, 0x9e, 0xba,
0xf8, 0xff, 0x15, 0x6b,
0xac, 0x02, 0x8b, 0x6d,
0xcc, 0xff, 0x3f, 0x00,
0xc0, 0x37, 0xd0, 0xff,
0xc3, 0xff, 0x47, 0xb6,
0x02, 0xe5, 0xf5, 0xd9,
0xbc, 0xc7, 0xff, 0xff,
0x13, 0x00, 0xfc, 0x01,
0xa9, 0xc9, 0xfe, 0xbf,
0x25, 0xf7, 0xda, 0xdc,
0xcc, 0xf6, 0xed, 0xff,
0x63, 0x81, 0x04, 0xa0,
0x7a, 0xff, 0xff, 0xff,
0x01, 0x80, 0xef, 0xe0,
0x5f, 0xf0, 0xff, 0x8d,
0x43, 0x89, 0x57, 0x3f,
0xc1, 0xf9, 0xff, 0xff,
0x7f, 0x80, 0x6c, 0x00,
0x00, 0x8a, 0x68, 0xf3,
0x90, 0x49, 0x05, 0x9c,
0x8d, 0x1c, 0x00, 0x98,
0x65, 0x66, 0x4c, 0x91,
0x8f, 0xdf, 0x1e, 0xe4,
0x7d, 0x04, 0x00, 0x82,
0x8a, 0x4d, 0xa0, 0x2c,
0xa6, 0xa5, 0x54, 0x00,
0x90, 0xcf, 0xf5, 0x27,
0xc3, 0x81, 0xf4, 0x0d,
0x7b, 0x0d, 0x00, 0x42,
0x76, 0x50, 0xcd, 0xd4,
0x19, 0x86, 0xb5, 0x01,
0x00, 0xed, 0x0e, 0x31,
0x21, 0xc5, 0x27, 0x98,
0x6c, 0xad, 0x68, 0x0f,
0xf8, 0x6a, 0x44, 0xd4,
0x5f, 0x03, 0x00, 0xb0,
0x09, 0xa0, 0x55, 0x14,
0x06, 0x66, 0xa3, 0x00,
0x40, 0xe7, 0x2d, 0xb5,
0xf8, 0x44, 0x08, 0x55,
0xbe, 0x19, 0x6b, 0x15,
0x3f, 0x30, 0xf4, 0x36,
0x00, 0x22, 0x6c, 0xe8,
0xd2, 0xcf, 0xc3, 0x4e,
0x5d, 0x02, 0x80, 0x16,
0x2b, 0xae, 0xed, 0xf7,
0x52, 0xc1, 0x45, 0x00,
0x00, 0xfd, 0x01, 0xd5,
0x57, 0x50, 0x27, 0x7b,
0x63, 0x00, 0x40, 0x0a,
0x36, 0x4a, 0x78, 0x92,
0x53, 0xe5, 0x9c, 0x3a,
0x00, 0x14, 0xf3, 0x4c,
0xdb, 0xa6, 0xf3, 0xc3,
0xdc, 0xc4, 0x91, 0x10,
0xc1, 0x7d, 0x10, 0x0d,
0x00, 0xc4, 0x4b, 0xea,
0xda, 0x8a, 0x24, 0xe1,
0x9e, 0x26, 0x95, 0x0a,
0x00, 0x85, 0x3d, 0x42,
0x6b, 0x53, 0x05, 0x5e,
0x58, 0x20, 0xa0, 0xfe,
0x0f, 0xef, 0xb0, 0xdf,
0x8b, 0x8a, 0x29, 0x00,
0x68, 0x26, 0x11, 0xd2,
0x2e, 0xa5, 0x27, 0x70,
0x26, 0x10, 0x5c, 0xa6,
0xac, 0xa5, 0xe9, 0x41,
0xc0, 0x9f, 0x49, 0x06,
0x7d, 0x75, 0x58, 0xb2,
0x89, 0x06, 0x00, 0xe4,
0x4b, 0x69, 0x6e, 0x5f,
0x52, 0x2d, 0x10, 0x1c,
0x5b, 0x00, 0xf0, 0xb7,
0x5f, 0x36, 0x11, 0x99,
0xbd, 0x24, 0x69, 0x36,
0x00, 0x20, 0xb6, 0xf9,
0x4c, 0xe4, 0xb7, 0x36,
0xb3, 0x1a, 0x00, 0xe0,
0xdc, 0xcd, 0xd7, 0x2b,
0xe9, 0x8f, 0xc0, 0xb5,
0xff, 0x9f, 0xa1, 0x84,
0x60, 0xbd, 0x79, 0x39,
0xff, 0x1f, 0x60, 0x10,
0x61, 0x8f, 0x04, 0xff,
0xff, 0xff, 0x01, 0xe0,
0x46, 0xab, 0x3e, 0x06,
0xff, 0xe8, 0x26, 0x12,
0x02, 0x75, 0xa4, 0xff,
0xaf, 0x5b, 0xad, 0xa3,
0xe5, 0x68, 0xff, 0xff,
0xff, 0x0f, 0x30, 0xf4,
0x10, 0xaf, 0xbc, 0xab,
0xff, 0x2f, 0x86, 0x83,
0x5a, 0x27, 0x52, 0xa5,
0xff, 0xdf, 0x9f, 0x83,
0x8b, 0x03, 0xf6, 0xff,
0xff, 0x00, 0x00, 0xff,
0x20, 0x6a, 0xb8, 0xff,
0x1f, 0x2b, 0x93, 0x6d,
0x0b, 0xa4, 0xcd, 0xff,
0x47, 0x50, 0xec, 0x9d,
0xd7, 0x6a, 0xff, 0xff,
0xff, 0x00, 0x60, 0xf3,
0x00, 0x00, 0x29, 0xbc,
0x00, 0x20, 0x64, 0xa9,
0xd0, 0x55, 0xf1, 0x0d,
0x2b, 0x27, 0x00, 0x00,
0x81, 0xdb, 0x83, 0xca,
0x7f, 0x58, 0x1d, 0x59,
0x7a, 0xc0, 0x36, 0xae,
0x96, 0x64, 0xb3, 0xba,
0x01, 0xa0, 0xbc, 0xd2,
0x03, 0x2c, 0x3d, 0x18,
0x95, 0x71, 0x76, 0x00,
0x20, 0x65, 0x67, 0x8c,
0xab, 0xbe, 0xf4, 0x6e,
0xb9, 0x20, 0x40, 0xa2,
0xff, 0x56, 0x15, 0x07,
0x85, 0xb7, 0x0d, 0x00,
0x50, 0x78, 0x9d, 0xc2,
0xe5, 0xbc, 0xef, 0xe9,
0x54, 0x00, 0x00, 0x92,
0x7a, 0xdd, 0xa0, 0xc1,
0xb9, 0x35, 0xf9, 0x21,
0xd3, 0x41, 0xae, 0x6f,
0xd0, 0x4a, 0x0a, 0x00,
0x18, 0x9c, 0x28, 0x59,
0x85, 0x3a, 0x5c, 0xa5,
0x11, 0x00, 0xa0, 0x0c,
0xeb, 0x41, 0xca, 0x1b,
0xca, 0xe4, 0x3e, 0x08,
0x3a, 0x05, 0x80, 0xa8,
0x5a, 0x61, 0x06, 0xdc,
0x22, 0xc5, 0xb7, 0x55,
0x00, 0xe0, 0xa4, 0xf7,
0xbb, 0x4d, 0x6e, 0x77,
0x4a, 0xbd, 0x05, 0x50,
0x15, 0xe5, 0x70, 0x3a,
0xe8, 0x4b, 0x86, 0x8d,
0x48, 0x13, 0x94, 0x94,
0x3b, 0x00, 0x80, 0xb3,
0x1f, 0x0a, 0x85, 0x42,
0xae, 0xaf, 0xe5, 0xb0,
0x0a, 0x00, 0xec, 0x6e,
0xa6, 0x18, 0x69, 0xa6,
0x05, 0x00, 0xde, 0xd6,
0x14, 0xfe, 0x56, 0xf8,
0xf6, 0x9d, 0x98, 0xcb,
0x16, 0x98, 0x9a, 0xfc,
0x29, 0x0b, 0xa0, 0x68,
0x93, 0xc6, 0xe3, 0xc4,
0xd9, 0xd5, 0x03, 0x00,
0xce, 0x57, 0x0e, 0xa1,
0x31, 0x00, 0x96, 0xfc,
0x00, 0x00, 0x3c, 0xb2,
0x82, 0x41, 0x84, 0x08,
0x55, 0x4b, 0x0d, 0xd6,
0xc0, 0x1c, 0x3f, 0x02,
0x00, 0xa4, 0xcc, 0x40,
0x39, 0x88, 0xde, 0x53,
0x82, 0x7e, 0x16, 0x00,
0x60, 0x35, 0x35, 0x94,
0x1e, 0x72, 0xfc, 0x9e,
0x11, 0x15, 0xe0, 0xdf,
0x8b, 0xab, 0x37, 0xc7,
0xac, 0x00, 0xc4, 0xff,
0x13, 0x4a, 0x8b, 0xcb,
0xe3, 0xfa, 0xff, 0xb8,
0xe8, 0x92, 0xaa, 0x0f,
0xf3, 0x0c, 0xff, 0xff,
0x7f, 0x00, 0xc0, 0xfe,
0xfd, 0x7f, 0x81, 0xff,
0x1f, 0xf1, 0xf5, 0x41,
0xbd, 0x58, 0xfc, 0xff,
0xff, 0x03, 0x00, 0x27,
0x14, 0xfc, 0xd3, 0x5c,
0x20, 0xdf, 0x9d, 0xe8,
0x91, 0x54, 0xff, 0x3f,
0xfe, 0x7f, 0xf8, 0x94,
0x8a, 0x9b, 0x19, 0xc9,
0xff, 0x7f, 0x00, 0x45,
0x02, 0x78, 0xf8, 0xff,
0xc0, 0x42, 0xc6, 0xaa,
0xbd, 0x73, 0x87, 0xfa,
0xff, 0xff, 0xff, 0x07,
0x4e, 0x01, 0x00, 0x46,
0x91, 0x00, 0x40, 0x22,
0x11, 0x62, 0xad, 0x43,
0xf2, 0xa5, 0x0c, 0xa0,
0x40, 0xd4, 0x8b, 0xac,
0x24, 0x53, 0x9a, 0x3b,
0x75, 0x02, 0x00, 0xa0,
0x21, 0xbf, 0xe7, 0x3a,
0xc3, 0x9c, 0x96, 0x0c,
0x00, 0x58, 0xd0, 0x85,
0xca, 0xe9, 0xd7, 0x14,
0x51, 0x65, 0x28, 0x00,
0xb0, 0x9c, 0xe6, 0x70,
0xb3, 0x8b, 0xd0, 0x1c,
0xa5, 0x52, 0xe4, 0xf4,
0x72, 0xd3, 0xe1, 0x10,
0x70, 0xe0, 0xaf, 0x6b,
0x81, 0x29, 0x92, 0x66,
0x6c, 0x14, 0x00, 0x48,
0xfa, 0x39, 0x11, 0x1b,
0xa4, 0x8e, 0xd3, 0x17,
0x00, 0x94, 0x43, 0x66,
0x7e, 0x6d, 0xff, 0xaa,
0x73, 0x35, 0x00, 0xa0,
0x2a, 0x61, 0x3a, 0x35,
0x99, 0x75, 0x27, 0xb2,
0x19, 0xff, 0x96, 0xf5,
0xc6, 0x35, 0x51, 0x00,
0x20, 0x9b, 0x8a, 0x17,
0x18, 0xe5, 0xe0, 0x59,
0x00, 0x20, 0x60, 0xca,
0xdd, 0xf1, 0xcc, 0x64,
0x7f, 0x9b, 0x34, 0x00,
0x50, 0x51, 0x9a, 0x22,
0x15, 0x2b, 0xe7, 0xdd,
0xf2, 0x0b, 0x00, 0x02,
0x7f, 0x91, 0xfc, 0x42,
0x84, 0xff, 0xb2, 0x01,
0x40, 0x29, 0x25, 0x24,
0x5e, 0x56, 0xe8, 0x9d,
0x08, 0x99, 0x04, 0xdc,
0x23, 0x42, 0xd9, 0xb5,
0x00, 0x60, 0xad, 0xe6,
0x06, 0xea, 0x6f, 0x03,
0x79, 0x89, 0xb5, 0xda,
0x03, 0x80, 0x41, 0x41,
0x50, 0x55, 0xd0, 0xcc,
0xfd, 0x03, 0x40, 0x61,
0xd0, 0x1f, 0x8b, 0xfc,
0xe5, 0x34, 0xc6, 0x25,
0x58, 0x0f, 0x32, 0xb0,
0x95, 0x01, 0x00, 0x16,
0xae, 0xae, 0x8a, 0x8c,
0x1a, 0x79, 0xa4, 0x64,
0x00, 0x08, 0x84, 0x75,
0xef, 0x16, 0x99, 0xd2,
0x2a, 0x5b, 0x70, 0x03,
0x00, 0xe2, 0x46, 0xd5,
0x73, 0x4c, 0xfa, 0xae,
0x00, 0x00, 0x20, 0xa9,
0x9d, 0xe5, 0xe0, 0x29,
0x4b, 0x50, 0x8d, 0xf0,
0x8f, 0x91, 0xed, 0x9e,
0xbf, 0x13, 0xdb, 0x6e,
0xd3, 0xff, 0xfb, 0x66,
0xee, 0xc1, 0x65, 0xef,
0xfe, 0xff, 0xff, 0xff,
0x00, 0x21, 0x0a, 0xf0,
0x86, 0x95, 0xff, 0xbf,
0xca, 0x45, 0x24, 0x3c,
0xfc, 0xba, 0xfd, 0x7f,
0xf8, 0xd3, 0x31, 0xe4,
0x71, 0xfd, 0xff, 0xff,
0x00, 0x00, 0xf5, 0x1a,
0xb5, 0x78, 0xff, 0x3f,
0x30, 0xd6, 0xbe, 0x15,
0x51, 0x57, 0xff, 0x5f,
0x8b, 0x51, 0xf4, 0x31,
0x18, 0xc1, 0xff, 0xff,
0x3f, 0x00, 0x58, 0x05,
0xfc, 0xbb, 0xff, 0xaf,
0xbc, 0xf4, 0x75, 0x98,
0xba, 0xff, 0xff, 0xff,
0x8f, 0xe0, 0x68, 0x00,
0x40, 0x06, 0x17, 0xf4,
0x20, 0xa6, 0x77, 0x93,
0xe4, 0x13, 0x00, 0xf2,
0xaf, 0x48, 0x0c, 0xb0,
0x86, 0x2b, 0x76, 0x00,
0x01, 0xe0, 0xcf, 0xdc,
0x00, 0xb3, 0x04, 0x88,
0xa3, 0x73, 0xc9, 0x12,
0x06, 0x80, 0xa3, 0xec,
0x5d, 0xa8, 0x66, 0x13,
0x39, 0x0c, 0x00, 0x78,
0x34, 0x40, 0x04, 0x47,
0xf1, 0x2d, 0x66, 0x00,
0x48, 0xce, 0xad, 0x03,
0xa7, 0x9a, 0xcb, 0xac,
0x41, 0xc8, 0x0e, 0x82,
0xa9, 0x7c, 0x82, 0x00,
0x00, 0x12, 0x9e, 0x43,
0x49, 0xfe, 0x0b, 0xab,
0xd7, 0x48, 0x37, 0x09,
0x00, 0xe4, 0x43, 0xc8,
0x61, 0x43, 0xac, 0xf2,
0x45, 0x00, 0x00, 0x2c,
0x48, 0x23, 0x6c, 0xc9,
0xb5, 0x1f, 0x0d, 0x02,
0x80, 0x4d, 0x5e, 0xe7,
0xab, 0x05, 0xda, 0xad,
0xfe, 0x05, 0x00, 0x80,
0xd5, 0x74, 0x82, 0x28,
0xc1, 0x16, 0x62, 0x62,
0x0c, 0x00, 0x25, 0x90,
0x6d, 0x43, 0x03, 0x48,
0x77, 0x5f, 0x81, 0xa2,
0xb4, 0x96, 0x18, 0xe1,
0x77, 0x0a, 0x00, 0x80,
0x77, 0xe0, 0x0a, 0xeb,
0x11, 0xd7, 0x57, 0x34,
0xcc, 0x0b, 0x00, 0xd4,
0x27, 0x7b, 0x7d, 0x37,
0xb3, 0x6c, 0x00, 0x40,
0x71, 0x44, 0xfe, 0x00,
0x19, 0x7e, 0x30, 0x90,
0x1f, 0x00, 0x04, 0x3f,
0x4f, 0x5b, 0x19, 0xf7,
0x0f, 0x69, 0x30, 0x00,
0xd8, 0x97, 0x64, 0xe5,
0x74, 0x4f, 0xe1, 0x10,
0x25, 0xa9, 0xc3, 0x03,
0x05, 0x54, 0xc1, 0x33,
0x00, 0x00, 0x2f, 0x21,
0x2b, 0x5f, 0xb1, 0xc8,
0x62, 0x6b, 0x04, 0x00,
0x21, 0x64, 0x72, 0xd3,
0x81, 0xed, 0x71, 0x78,
0x8c, 0x0a, 0x00, 0xdc,
0x13, 0xff, 0x05, 0x8e,
0xf4, 0x02, 0xde, 0x3b,
0x01, 0x80, 0xc8, 0x16,
0xc0, 0x42, 0x98, 0x20,
0x69, 0x04, 0x00, 0x40,
0xf6, 0x69, 0x40, 0x85,
0x1b, 0x7f, 0x16, 0xf5,
0xff, 0xcd, 0x0a, 0x61,
0xe3, 0x84, 0x2e, 0x32,
0xb9, 0xff, 0x9f, 0x94,
0x15, 0xee, 0x25, 0x66,
0xfe, 0xff, 0xff, 0x43,
0x80, 0xb1, 0xe1, 0xf0,
0xbf, 0xa7, 0x94, 0x94,
0xec, 0x85, 0x4b, 0xe3,
0xff, 0xd5, 0xff, 0x8b,
0x68, 0x01, 0xb3, 0xbb,
0x63, 0xf5, 0xff, 0x0f,
0x30, 0xf6, 0x10, 0x1f,
0x8e, 0xc4, 0xff, 0xaf,
0xe7, 0x2d, 0x5e, 0x7f,
0x94, 0xff, 0x9f, 0xa3,
0xcb, 0x4c, 0xc5, 0xad,
0xfa, 0xff, 0xff, 0x03,
0x00, 0x18, 0xd4, 0xff,
0xeb, 0xff, 0x9b, 0xb5,
0x52, 0x49, 0x58, 0x84,
0xf2, 0xff, 0xff, 0x0f,
0x00, 0xcb, 0xed, 0x00,
0x00, 0xe6, 0x8e, 0x35,
0xbc, 0x39, 0x5a, 0x60,
0xca, 0xd3, 0x00, 0x10,
0x0d, 0x25, 0x66, 0xc4,
0xbb, 0x36, 0xc9, 0x06,
0x00, 0x40, 0xd6, 0x59,
0xf5, 0x33, 0xce, 0xfb,
0xdd, 0x02, 0x00, 0xea,
0x23, 0x21, 0x09, 0xa6,
0x55, 0xf4, 0x38, 0x27,
0x71, 0x6d, 0x2a, 0x2b,
0x02, 0xb6, 0xa8, 0x05,
0x80, 0x7a, 0x0f, 0x2e,
0x94, 0x87, 0x71, 0x2a,
0x1e, 0x00, 0xa4, 0x31,
0x95, 0xdf, 0x04, 0xf9,
0xe9, 0x02, 0x00, 0xab,
0x88, 0x39, 0x45, 0x7a,
0x22, 0xe1, 0x29, 0xa8,
0xb1, 0x25, 0x8e, 0x51,
0xd3, 0x98, 0x00, 0x00,
0x44, 0x3a, 0xaa, 0x7b,
0x86, 0xab, 0xcb, 0x52,
0x18, 0x00, 0x42, 0x49,
0x5f, 0x98, 0xbb, 0xa5,
0xa8, 0x52, 0x2b, 0x12,
0x00, 0xa8, 0x4c, 0x73,
0x81, 0x0a, 0x56, 0x16,
0xf4, 0xe9, 0x00, 0xa0,
0xb3, 0x65, 0x7c, 0x6d,
0xce, 0x80, 0xdd, 0xdc,
0x4e, 0x39, 0xa4, 0x10,
0x40, 0x0a, 0x00, 0x90,
0x08, 0x61, 0x5d, 0x50,
0x97, 0x78, 0x0e, 0x15,
0x35, 0x00, 0xec, 0x62,
0xaf, 0x65, 0x08, 0xcf,
0xcb, 0x72, 0x1e, 0x00,
0x30, 0xf7, 0x66, 0xf5,
0x57, 0x52, 0x25, 0xe7,
0x08, 0xc7, 0x7d, 0x74,
0xef, 0xf8, 0x24, 0x80,
0x10, 0xda, 0xac, 0x93,
0x44, 0xb7, 0xc3, 0xb7,
0x01, 0x80, 0x89, 0x15,
0x6c, 0x50, 0x70, 0xda,
0x36, 0xe7, 0x5f, 0x00,
0x40, 0x74, 0xb8, 0xdb,
0x90, 0x48, 0xf0, 0xf2,
0x72, 0x00, 0xa0, 0x06,
0xb0, 0xce, 0xf7, 0xe1,
0xae, 0x1d, 0xcc, 0xdf,
0x78, 0xfc, 0x37, 0xe9,
0xdf, 0x00, 0x40, 0xa8,
0x4e, 0x77, 0x21, 0x24,
0x26, 0xb6, 0x2b, 0x05,
0x00, 0x3c, 0x2b, 0xd8,
0x19, 0x39, 0x2f, 0xd1,
0x4b, 0x1c, 0xbd, 0x1a,
0x3b, 0x0e, 0x04, 0x04,
0x94, 0x92, 0x9b, 0x3b,
0x80, 0x84, 0x14, 0x75,
0xd4, 0x0a, 0xf0, 0xeb,
0xf3, 0x31, 0xbe, 0x97,
0x85, 0xb3, 0xe4, 0xff,
0xe7, 0xac, 0xdf, 0x39,
0xa4, 0xf6, 0xff, 0x1f,
0x5c, 0xa7, 0x11, 0x63,
0x28, 0xfc, 0xff, 0x3f,
0x00, 0x40, 0xdf, 0x16,
0x35, 0xb9, 0xff, 0x07,
0x5f, 0x8b, 0x91, 0xa5,
0xdc, 0xff, 0xbf, 0x8e,
0xab, 0xa7, 0x50, 0x87,
0xbf, 0xf0, 0xff, 0xff,
0x0f, 0x00, 0x56, 0x0b,
0xff, 0x82, 0xff, 0x3f,
0x1b, 0x88, 0x44, 0x84,
0xcd, 0xdd, 0xfe, 0xff,
0xff, 0x3f, 0x40, 0xc6,
0x00, 0x3c, 0xe6, 0x92,
0xff, 0xef, 0x7f, 0xf9,
0x6d, 0x12, 0x0b, 0x07,
0xff, 0xbf, 0xdd, 0x9a,
0x37, 0xd3, 0xec, 0xff,
0xff, 0x43, 0x00, 0x78,
0x2d, 0x00, 0x18, 0x73,
0x9a, 0xfa, 0x69, 0x39,
0xa5, 0xa5, 0x62, 0xb4,
0x00, 0x40, 0x0e, 0x53,
0x8b, 0x7c, 0x16, 0x82,
0xab, 0x03, 0x82, 0x86,
0xfc, 0x44, 0xe7, 0xbc,
0x0b, 0xa1, 0x6e, 0x08,
0x00, 0xa0, 0x06, 0x93,
0x78, 0x90, 0x8c, 0xfd,
0xff, 0x27, 0xb5, 0xd0,
0xe4, 0xb5, 0x55, 0x99,
0xff, 0xff, 0xff, 0xff,
0xff, 0xff, 0xff, 0xff,
0xff, 0xff, 0xff, 0xff,
0xff, 0xff, 0xff, 0xff,
0xff, 0xff, 0xff, 0xff,
0xff, 0xff, 0x07, 0x80,
0x39, 0x00, 0x4a, 0xbd,
0x02, 0x58, 0x68, 0x03,
0x70, 0xa1, 0x74, 0x86,
0xbe, 0x92, 0xfc, 0x00,
0x00, 0x20, 0xff, 0xcc,
0x1a, 0x0e, 0x15, 0x00,
0x00, 0xff, 0xff, 0x0f,
0xf8, 0xff, 0xff, 0xff,
0xff, 0xff, 0xff, 0xff, 

};






static inline const int8_t * Getfc_lif_layer_1WeightsPointer()
{
	return weight_fc_lif_layer_1;
}

static inline size_t Getfc_lif_layer_1WeightsLen()
{
	return sizeof(weight_fc_lif_layer_1);
}





static const int8_t lif_param_fc_lif_layer_1[] __attribute__((aligned(16))) = 
{


// ln(beta)_quant
124, 124, 124, 124, 124, 124, 124, 124, 124, 
124, 124, 124, 124, 124, 124, 124, 
// vth_quant
-1, -1, -1, -1, -1, -1, -1, -1, -1, 
-1, -1, -1, -1, -1, -1, -1, 

};







static inline const int8_t* Getfc_lif_layer_1LIFParamPointer()
{
	return lif_param_fc_lif_layer_1;
}
static inline size_t Getfc_lif_layer_1LIFParamLen()
{
	return sizeof(lif_param_fc_lif_layer_1);
}





static const int8_t lut_fc_lif_layer_1[] __attribute__((aligned(16))) = 
{


//lut index 0
-126, 
-126, -126, -126, -126, -126, -126, -126, -126, 
-126, -126, -126, -126, -126, -126, -126, -126, 
-126, -126, -126, -125, -125, -125, -125, -125, 
-125, -125, -125, -125, -125, -125, -125, -125, 
-125, -125, -125, -125, -124, -124, -124, -124, 
-124, -124, -124, -124, -124, -124, -124, -124, 
-124, -123, -123, -123, -123, -123, -123, -123, 
-123, -123, -123, -122, -122, -122, -122, -122, 
-122, -122, -122, -121, -121, -121, -121, -121, 
-121, -121, -121, -120, -120, -120, -120, -120, 
-120, -119, -119, -119, -119, -119, -119, -118, 
-118, -118, -118, -118, -117, -117, -117, -117, 
-116, -116, -116, -116, -116, -115, -115, -115, 
-115, -114, -114, -114, -113, -113, -113, -113, 
-112, -112, -112, -111, -111, -111, -110, -110, 
-110, -109, -109, -108, -108, -108, -107, -107, 
-106, -106, -106, -105, -105, -104, -104, -103, 
-103, -102, -102, -101, -101, -100, -100, -99, 
-98, -98, -97, -97, -96, -95, -95, -94, 
-93, -93, -92, -91, -91, -90, -89, -88, 
-88, -87, -86, -85, -84, -83, -83, -82, 
-81, -80, -79, -78, -77, -76, -75, -74, 
-73, -72, -71, -69, -68, -67, -66, -65, 
-63, -62, -61, -59, -58, -57, -55, -54, 
-52, -51, -49, -48, -46, -45, -43, -41, 
-40, -38, -36, -34, -32, -30, -29, -27, 
-25, -22, -20, -18, -16, -14, -12, -9, 
-7, -5, -2, 0, 3, 6, 8, 11, 
14, 16, 19, 22, 25, 28, 31, 34, 
38, 41, 44, 48, 51, 55, 58, 62, 
66, 70, 74, 78, 82, 86, 90, 94, 
99, 103, 108, 112, 117, 122, 127, 
//lut index 1
-128, 
127, 127, 127, 127, 127, 127, 127, 127, 
127, 127, 127, 127, 127, 127, 127, 127, 
127, 127, 127, 127, 127, 127, 127, 127, 
127, 127, 127, 127, 127, 127, 127, 127, 
127, 127, 127, 127, 127, 127, 127, 127, 
127, 127, 127, 127, 127, 127, 127, 127, 
127, 127, 127, 127, 127, 127, 127, 127, 
127, 127, 127, 127, 127, 127, 127, 127, 
127, 127, 127, 127, 127, 127, 127, 127, 
127, 127, 127, 127, 127, 127, 127, 127, 
127, 127, 127, 127, 127, 127, 127, 127, 
127, 127, 127, 127, 127, 127, 127, 127, 
127, 127, 127, 127, 127, 127, 127, 127, 
127, 127, 127, 127, 127, 127, 127, 127, 
127, 127, 127, 127, 127, 127, 127, 127, 
127, 127, 127, 127, 127, 127, 127, 127, 
127, 127, 127, 127, 127, 127, 127, 127, 
127, 127, 127, 127, 127, 127, 127, 127, 
127, 127, 127, 127, 127, 127, 127, 127, 
127, 127, 127, 127, 127, 127, 127, 127, 
127, 127, 127, 127, 127, 127, 127, 127, 
127, 127, 127, 127, 127, 127, 127, 127, 
127, 127, 127, 127, 127, 127, 127, 127, 
127, 127, 127, 127, 127, 127, 127, 127, 
127, 127, 127, 127, 127, 127, 127, 127, 
127, 127, 127, 127, 127, 127, 127, 127, 
127, 127, 127, 127, 127, 127, 127, 127, 
127, 127, 127, 127, 127, 127, 127, 127, 
127, 127, 127, 127, 127, 127, 127, 127, 
127, 127, 127, 127, 127, 127, 127, 127, 
127, 127, 127, 127, 127, 127, 127, 127, 
127, 127, 127, 127, 127, 127, 127, 


};







static inline const int8_t* Getfc_lif_layer_1LUTPointer()
{
	return lut_fc_lif_layer_1;
}
static inline size_t Getfc_lif_layer_1LUTLen()
{
	return sizeof(lut_fc_lif_layer_1);
}

/*
Register Command Stream:
+---------------------------+-----------+-------------------------+
| Command Name              | Parameter | Payload Data            |
+---------------------------+-----------+-------------------------+
| NPU_SET_DMA0_SRC_REGION   | 4         | -                       |
| NPU_SET_DMA0_SRC          | 0         | 0x00000000 (0)          |
| NPU_SET_DMA0_DST_REGION   | 259       | -                       |
| NPU_SET_DMA0_DST          | 0         | 0x0000b800 (47104)      |
| NPU_SET_DMA0_LEN          | 0         | 0x00000100 (256)        |
| NPU_OP_DMA_START          | 0         | -                       |
| NPU_SET_OFM_SCALE         | 34        | 0x40404040 (1077952576) |
| NPU_SET_IFM_REGION        | 3         | -                       |
| NPU_SET_IFM_BASE0         | 0         | 0x00000000 (0)          |
| NPU_SET_IFM_BASE1         | 0         | 0x00000000 (0)          |
| NPU_SET_IFM_BASE2         | 0         | 0x00000000 (0)          |
| NPU_SET_IFM_BASE3         | 0         | 0x00000000 (0)          |
| NPU_SET_IFM_HEIGHT0_M1    | 0         | -                       |
| NPU_SET_IFM_HEIGHT1_M1    | 65535     | -                       |
| NPU_SET_IFM_WIDTH0_M1     | 0         | -                       |
| NPU_SET_IFM_DEPTH_M1      | 15        | -                       |
| NPU_SET_IFM_STRIDE_C      | 0         | 0x00000001 (1)          |
| NPU_SET_IFM_STRIDE_Y      | 0         | 0x00000010 (16)         |
| NPU_SET_IFM_STRIDE_X      | 0         | 0x00000010 (16)         |
| NPU_SET_IFM_ZERO_POINT    | 127       | -                       |
| NPU_SET_IFM_PRECISION     | 1         | -                       |
| NPU_SET_IFM_UPSCALE       | 0         | -                       |
| NPU_SET_OFM_REGION        | 1         | -                       |
| NPU_SET_OFM_BASE0         | 0         | 0x000029e0 (10720)      |
| NPU_SET_OFM_BASE1         | 0         | 0x00000000 (0)          |
| NPU_SET_OFM_BASE2         | 0         | 0x00000000 (0)          |
| NPU_SET_OFM_BASE3         | 0         | 0x00000000 (0)          |
| NPU_SET_OFM_HEIGHT0_M1    | 0         | -                       |
| NPU_SET_OFM_HEIGHT1_M1    | 65535     | -                       |
| NPU_SET_OFM_WIDTH0_M1     | 0         | -                       |
| NPU_SET_OFM_HEIGHT_M1     | 0         | -                       |
| NPU_SET_OFM_WIDTH_M1      | 0         | -                       |
| NPU_SET_OFM_DEPTH_M1      | 15        | -                       |
| NPU_SET_OFM_STRIDE_C      | 0         | 0x00000001 (1)          |
| NPU_SET_OFM_STRIDE_Y      | 0         | 0x00000010 (16)         |
| NPU_SET_OFM_STRIDE_X      | 0         | 0x00000010 (16)         |
| NPU_SET_OFM_ZERO_POINT    | 127       | -                       |
| NPU_SET_OFM_PRECISION     | 257       | -                       |
| NPU_SET_ACTIVATION        | 16        | -                       |
| NPU_SET_ACTIVATION_MIN    | 65408     | -                       |
| NPU_SET_ACTIVATION_MAX    | 127       | -                       |
| NPU_SET_OFM_BLK_HEIGHT_M1 | 1         | -                       |
| NPU_SET_OFM_BLK_WIDTH_M1  | 1         | -                       |
| NPU_SET_OFM_BLK_DEPTH_M1  | 15        | -                       |
| NPU_SET_IFM_IB_END        | 46        | -                       |
| NPU_SET_AB_START          | 46        | -                       |
| NPU_SET_IFM2_IB_START     | 10        | -                       |
| NPU_SET_ACC_FORMAT        | 0         | -                       |
| NPU_SET_IFM2_REGION       | 1         | -                       |
| NPU_SET_IFM2_BASE0        | 0         | 0x00002a10 (10768)      |
| NPU_SET_IFM2_BASE1        | 0         | 0x00000000 (0)          |
| NPU_SET_IFM2_BASE2        | 0         | 0x00000000 (0)          |
| NPU_SET_IFM2_BASE3        | 0         | 0x00000000 (0)          |
| NPU_SET_IFM2_HEIGHT0_M1   | 0         | -                       |
| NPU_SET_IFM2_HEIGHT1_M1   | 65535     | -                       |
| NPU_SET_IFM2_WIDTH0_M1    | 0         | -                       |
| NPU_SET_IFM2_STRIDE_C     | 0         | 0x00000001 (1)          |
| NPU_SET_IFM2_STRIDE_Y     | 0         | 0x00000001 (1)          |
| NPU_SET_IFM2_STRIDE_X     | 0         | 0x00000001 (1)          |
| NPU_SET_IFM2_ZERO_POINT   | 65408     | -                       |
| NPU_SET_IFM_PRECISION     | 1         | -                       |
| NPU_SET_IFM2_BROADCAST    | 4         | -                       |
| NPU_SET_BLOCKDEP          | 0         | -                       |
| NPU_OP_DMA_WAIT           | 0         | -                       |
| NPU_OP_ELEMENTWISE        | 0         | -                       |
| NPU_SET_DMA0_SRC_REGION   | 0         | -                       |
| NPU_SET_DMA0_DST_REGION   | 1         | -                       |
| NPU_SET_DMA0_DST          | 0         | 0x00000000 (0)          |
| NPU_SET_DMA0_LEN          | 0         | 0x000029e0 (10720)      |
| NPU_OP_DMA_START          | 0         | -                       |
| NPU_SET_IFM_REGION        | 5         | -                       |
| NPU_SET_IFM_DEPTH_M1      | 999       | -                       |
| NPU_SET_IFM_STRIDE_Y      | 0         | 0x000003e8 (1000)       |
| NPU_SET_IFM_STRIDE_X      | 0         | 0x000003e8 (1000)       |
| NPU_SET_IFM_ZERO_POINT    | 65408     | -                       |
| NPU_SET_IFM_PAD_TOP       | 0         | -                       |
| NPU_SET_IFM_PAD_LEFT      | 0         | -                       |
| NPU_SET_IFM_PAD_BOTTOM    | 0         | -                       |
| NPU_SET_IFM_PAD_RIGHT     | 0         | -                       |
| NPU_SET_OFM_BASE0         | 0         | 0x000029f0 (10736)      |
| NPU_SET_OFM_ZERO_POINT    | 65472     | -                       |
| NPU_SET_OFM_PRECISION     | 1         | -                       |
| NPU_SET_KERNEL_HEIGHT_M1  | 0         | -                       |
| NPU_SET_KERNEL_WIDTH_M1   | 0         | -                       |
| NPU_SET_KERNEL_STRIDE     | 0         | -                       |
| NPU_SET_WEIGHT_REGION     | 1         | -                       |
| NPU_SET_WEIGHT_BASE       | 0         | 0x000000a0 (160)        |
| NPU_SET_WEIGHT_LENGTH     | 0         | 0x00002940 (10560)      |
| NPU_SET_SCALE_REGION      | 1         | -                       |
| NPU_SET_SCALE_BASE        | 0         | 0x00000000 (0)          |
| NPU_SET_SCALE_LENGTH      | 0         | 0x000000a0 (160)        |
| NPU_SET_ACTIVATION        | 0         | -                       |
| NPU_SET_IFM_IB_END        | 10        | -                       |
| NPU_SET_AB_START          | 30        | -                       |
| NPU_SET_BLOCKDEP          | 3         | -                       |
| NPU_OP_DMA_WAIT           | 0         | -                       |
| NPU_OP_CONV               | 0         | -                       |
| NPU_SET_OFM_SCALE         | 38        | 0x40404040 (1077952576) |
| NPU_SET_IFM_REGION        | 1         | -                       |
| NPU_SET_IFM_BASE0         | 0         | 0x00002a00 (10752)      |
| NPU_SET_IFM_DEPTH_M1      | 15        | -                       |
| NPU_SET_IFM_STRIDE_Y      | 0         | 0x00000010 (16)         |
| NPU_SET_IFM_STRIDE_X      | 0         | 0x00000010 (16)         |
| NPU_SET_IFM_ZERO_POINT    | 65493     | -                       |
| NPU_SET_OFM_BASE0         | 0         | 0x000029e0 (10720)      |
| NPU_SET_OFM_ZERO_POINT    | 65493     | -                       |
| NPU_SET_OFM_PRECISION     | 257       | -                       |
| NPU_SET_IFM_IB_END        | 46        | -                       |
| NPU_SET_AB_START          | 46        | -                       |
| NPU_SET_IFM2_BASE0        | 0         | 0x000029e0 (10720)      |
| NPU_SET_IFM2_STRIDE_Y     | 0         | 0x00000010 (16)         |
| NPU_SET_IFM2_STRIDE_X     | 0         | 0x00000010 (16)         |
| NPU_SET_IFM2_BROADCAST    | 0         | -                       |
| NPU_OP_ELEMENTWISE        | 0         | -                       |
| NPU_SET_OPA_SCALE         | 12        | 0x55555555 (1431655765) |
| NPU_SET_OPB_SCALE         | 0         | 0x00000000 (0)          |
| NPU_SET_OFM_SCALE         | 49        | 0x40000000 (1073741824) |
| NPU_SET_IFM_BASE0         | 0         | 0x000029e0 (10720)      |
| NPU_SET_IFM_PRECISION     | 513       | -                       |
| NPU_SET_OFM_BASE0         | 0         | 0x00002a00 (10752)      |
| NPU_SET_IFM2_BASE0        | 0         | 0x000029f0 (10736)      |
| NPU_SET_IFM2_ZERO_POINT   | 65472     | -                       |
| NPU_SET_BLOCKDEP          | 0         | -                       |
| NPU_OP_ELEMENTWISE        | 1         | -                       |
| NPU_SET_DMA0_SRC_REGION   | 4         | -                       |
| NPU_SET_DMA0_SRC          | 0         | 0x00000100 (256)        |
| NPU_SET_DMA0_DST_REGION   | 259       | -                       |
| NPU_SET_DMA0_DST          | 0         | 0x0000b900 (47360)      |
| NPU_SET_DMA0_LEN          | 0         | 0x00000100 (256)        |
| NPU_OP_DMA_START          | 0         | -                       |
| NPU_SET_OPA_SCALE         | 14        | 0x55555555 (1431655765) |
| NPU_SET_OFM_SCALE         | 47        | 0x60000000 (1610612736) |
| NPU_SET_IFM_BASE0         | 0         | 0x00002a00 (10752)      |
| NPU_SET_OFM_REGION        | 6         | -                       |
| NPU_SET_OFM_BASE0         | 0         | 0x00000000 (0)          |
| NPU_SET_OFM_ZERO_POINT    | 65408     | -                       |
| NPU_SET_ACTIVATION        | 17        | -                       |
| NPU_SET_IFM2_REGION       | 3         | -                       |
| NPU_SET_IFM2_BASE0        | 0         | 0x00000010 (16)         |
| NPU_SET_IFM2_ZERO_POINT   | 65280     | -                       |
| NPU_OP_DMA_WAIT           | 0         | -                       |
| NPU_OP_ELEMENTWISE        | 2         | -                       |
| NPU_SET_OFM_SCALE         | 39        | 0x55ab0056 (1437270102) |
| NPU_SET_IFM_REGION        | 3         | -                       |
| NPU_SET_IFM_BASE0         | 0         | 0x00000010 (16)         |
| NPU_SET_IFM_ZERO_POINT    | 65280     | -                       |
| NPU_SET_IFM_PRECISION     | 1         | -                       |
| NPU_SET_OFM_REGION        | 1         | -                       |
| NPU_SET_OFM_BASE0         | 0         | 0x000029f0 (10736)      |
| NPU_SET_ACTIVATION        | 0         | -                       |
| NPU_SET_IFM2_REGION       | 6         | -                       |
| NPU_SET_IFM2_BASE0        | 0         | 0x00000000 (0)          |
| NPU_SET_IFM2_ZERO_POINT   | 65408     | -                       |
| NPU_OP_ELEMENTWISE        | 0         | -                       |
| NPU_SET_OPA_SCALE         | 13        | 0x40000000 (1073741824) |
| NPU_SET_OFM_SCALE         | 49        | 0x40000000 (1073741824) |
| NPU_SET_IFM_REGION        | 1         | -                       |
| NPU_SET_IFM_BASE0         | 0         | 0x00002a00 (10752)      |
| NPU_SET_IFM_ZERO_POINT    | 65493     | -                       |
| NPU_SET_IFM_PRECISION     | 513       | -                       |
| NPU_SET_OFM_BASE0         | 0         | 0x00002a00 (10752)      |
| NPU_SET_OFM_ZERO_POINT    | 65493     | -                       |
| NPU_SET_IFM2_REGION       | 1         | -                       |
| NPU_SET_IFM2_BASE0        | 0         | 0x000029f0 (10736)      |
| NPU_OP_ELEMENTWISE        | 2         | -                       |
| NPU_SET_IFM_REGION        | 6         | -                       |
| NPU_SET_IFM_BASE0         | 0         | 0x00000000 (0)          |
| NPU_SET_IFM_ZERO_POINT    | 65408     | -                       |
| NPU_SET_IFM_PRECISION     | 1         | -                       |
| NPU_SET_OFM_BASE0         | 0         | 0x00002a11 (10769)      |
| NPU_SET_OFM_DEPTH_M1      | 0         | -                       |
| NPU_SET_OFM_STRIDE_Y      | 0         | 0x00000001 (1)          |
| NPU_SET_OFM_STRIDE_X      | 0         | 0x00000001 (1)          |
| NPU_SET_OFM_ZERO_POINT    | 65408     | -                       |
| NPU_SET_OFM_BLK_DEPTH_M1  | 7         | -                       |
| NPU_SET_IFM_IB_END        | 10        | -                       |
| NPU_SET_AB_START          | 30        | -                       |
| NPU_SET_OFM_SCALE         | 31        | 0x80000001 (2147483649) |
| NPU_SET_BLOCKDEP          | 3         | -                       |
| NPU_OP_POOL               | 2         | -                       |
| NPU_SET_OFM_SCALE         | 30        | 0x40000000 (1073741824) |
| NPU_SET_IFM_REGION        | 1         | -                       |
| NPU_SET_IFM_BASE0         | 0         | 0x00002a10 (10768)      |
| NPU_SET_IFM_DEPTH_M1      | 0         | -                       |
| NPU_SET_IFM_STRIDE_Y      | 0         | 0x00000001 (1)          |
| NPU_SET_IFM_STRIDE_X      | 0         | 0x00000001 (1)          |
| NPU_SET_OFM_BASE0         | 0         | 0x00002a10 (10768)      |
| NPU_SET_ACTIVATION_MAX    | 65408     | -                       |
| NPU_SET_IFM_IB_END        | 46        | -                       |
| NPU_SET_AB_START          | 46        | -                       |
| NPU_SET_IFM2_ZERO_POINT   | 0         | -                       |
| NPU_SET_IFM_PRECISION     | 0         | -                       |
| NPU_SET_IFM2_BROADCAST    | 128       | -                       |
| NPU_SET_IFM2_SCALAR       | 0         | -                       |
| NPU_OP_ELEMENTWISE        | 0         | -                       |
| NPU_OP_STOP               | 65535     | -                       |
+---------------------------+-----------+-------------------------+
*/
