#pragma once
#include <stddef.h>
#include <stdint.h>




// Tensor sizes

#define FC_LIF_LAYER_1_TENSOR_ARENA_SIZE  10784
#define FC_LIF_LAYER_1_INPUT_LAYER_SIZE  1000
#define FC_LIF_LAYER_1_OUTPUT_LAYER_SIZE  16
#define FC_LIF_LAYER_1_WEIGHT_LEN 10560
#define FC_LIF_LAYER_1_BIAS_LEN 160

// Input/output addresses (Relative Addressing)

#define FC_LIF_LAYER_1_IN_SPK_ADDR 0
#define FC_LIF_LAYER_1_BIAS_ADDR 0
#define FC_LIF_LAYER_1_WEIGHT_ADDR 160
#define FC_LIF_LAYER_1_LN_BETA_ADDR 0
#define FC_LIF_LAYER_1_VTH_ADDR 16
#define FC_LIF_LAYER_1_V_MEM_ADDR 10752
#define FC_LIF_LAYER_1_TIME_NOT_UPDATED_ADDR 10768
#define FC_LIF_LAYER_1_IN_CURR_ADDR 10736
#define FC_LIF_LAYER_1_DECAY_ADDR 10720
#define FC_LIF_LAYER_1_DECAYED_MEM_ADDR 10720
#define FC_LIF_LAYER_1_UPDATE_NXT_LAYER_ADDR 10769
#define FC_LIF_LAYER_1_OUT_SPK_ADDR 0

//Quantization Params

#define FC_LIF_LAYER_1_IN_SPK_SCALE 1.0
#define FC_LIF_LAYER_1_IN_SPK_ZERO_POINT 0
#define FC_LIF_LAYER_1_BIAS_SCALE 0.09999999999999999
#define FC_LIF_LAYER_1_BIAS_ZERO_POINT 0
#define FC_LIF_LAYER_1_WEIGHT_SCALE 0.001176470588235294
#define FC_LIF_LAYER_1_WEIGHT_ZERO_POINT 0
#define FC_LIF_LAYER_1_LN_BETA_SCALE 0.0196078431372549
#define FC_LIF_LAYER_1_LN_BETA_ZERO_POINT 127
#define FC_LIF_LAYER_1_VTH_SCALE 0.00392156862745098
#define FC_LIF_LAYER_1_VTH_ZERO_POINT -256
#define FC_LIF_LAYER_1_V_MEM_SCALE 0.01568627450980392
#define FC_LIF_LAYER_1_V_MEM_ZERO_POINT -128
#define FC_LIF_LAYER_1_TIME_NOT_UPDATED_SCALE 0.06274509803921569
#define FC_LIF_LAYER_1_TIME_NOT_UPDATED_ZERO_POINT -128
#define FC_LIF_LAYER_1_DECAY_SCALE 0.00392156862745098
#define FC_LIF_LAYER_1_DECAY_ZERO_POINT -128
#define FC_LIF_LAYER_1_IN_CURR_SCALE 0.011764705882352941
#define FC_LIF_LAYER_1_IN_CURR_ZERO_POINT -128
#define FC_LIF_LAYER_1_DECAYED_MEM_SCALE 0.00392156862745098
#define FC_LIF_LAYER_1_DECAYED_MEM_ZERO_POINT -128
#define FC_LIF_LAYER_1_UPDATE_NXT_LAYER_SCALE 0.00392156862745098
#define FC_LIF_LAYER_1_UPDATE_NXT_LAYER_ZERO_POINT -128
#define FC_LIF_LAYER_1_OUT_SPK_SCALE 1.0
#define FC_LIF_LAYER_1_OUT_SPK_ZERO_POINT 0











static const uint8_t cms_fc_lif_layer_1[] __attribute__((aligned(16))) = 
{

0x43, 0x4f, 0x50, 0x31,
0x01, 0x00, 0x10, 0x00,
0x08, 0x30, 0x00, 0x00,
0x00, 0x00, 0x06, 0x10,
0x05, 0x00, 0x00, 0x00,
0x05, 0x00, 0x00, 0x00,
0x05, 0x00, 0x00, 0x00,
0x02, 0x00, 0x0f, 0x01,
0x30, 0x01, 0x04, 0x00,
0x30, 0x40, 0x00, 0x00,
0x00, 0x00, 0x00, 0x00,
0x31, 0x01, 0x03, 0x01,
0x31, 0x40, 0x00, 0x00,
0x00, 0xb8, 0x00, 0x00,
0x32, 0x40, 0x00, 0x00,
0x00, 0x01, 0x00, 0x00,
0x10, 0x00, 0x00, 0x00,
0x24, 0x40, 0x22, 0x00,
0x40, 0x40, 0x40, 0x40,
0x0f, 0x01, 0x03, 0x00,
0x00, 0x40, 0x00, 0x00,
0x00, 0x00, 0x00, 0x00,
0x01, 0x40, 0x00, 0x00,
0x00, 0x00, 0x00, 0x00,
0x02, 0x40, 0x00, 0x00,
0x00, 0x00, 0x00, 0x00,
0x03, 0x40, 0x00, 0x00,
0x00, 0x00, 0x00, 0x00,
0x0b, 0x01, 0x00, 0x00,
0x0c, 0x01, 0xff, 0xff,
0x0a, 0x01, 0x00, 0x00,
0x04, 0x01, 0x0f, 0x00,
0x06, 0x40, 0x00, 0x00,
0x01, 0x00, 0x00, 0x00,
0x05, 0x40, 0x00, 0x00,
0x10, 0x00, 0x00, 0x00,
0x04, 0x40, 0x00, 0x00,
0x10, 0x00, 0x00, 0x00,
0x09, 0x01, 0x7f, 0x00,
0x05, 0x01, 0x01, 0x00,
0x07, 0x01, 0x00, 0x00,
0x1f, 0x01, 0x01, 0x00,
0x10, 0x40, 0x00, 0x00,
0xe0, 0x29, 0x00, 0x00,
0x11, 0x40, 0x00, 0x00,
0x00, 0x00, 0x00, 0x00,
0x12, 0x40, 0x00, 0x00,
0x00, 0x00, 0x00, 0x00,
0x13, 0x40, 0x00, 0x00,
0x00, 0x00, 0x00, 0x00,
0x1b, 0x01, 0x00, 0x00,
0x1c, 0x01, 0xff, 0xff,
0x1a, 0x01, 0x00, 0x00,
0x12, 0x01, 0x00, 0x00,
0x11, 0x01, 0x00, 0x00,
0x13, 0x01, 0x0f, 0x00,
0x16, 0x40, 0x00, 0x00,
0x01, 0x00, 0x00, 0x00,
0x15, 0x40, 0x00, 0x00,
0x10, 0x00, 0x00, 0x00,
0x14, 0x40, 0x00, 0x00,
0x10, 0x00, 0x00, 0x00,
0x18, 0x01, 0x7f, 0x00,
0x14, 0x01, 0x01, 0x01,
0x25, 0x01, 0x10, 0x00,
0x26, 0x01, 0x80, 0xff,
0x27, 0x01, 0x7f, 0x00,
0x16, 0x01, 0x01, 0x00,
0x15, 0x01, 0x01, 0x00,
0x17, 0x01, 0x0f, 0x00,
0x0d, 0x01, 0x2e, 0x00,
0x2d, 0x01, 0x2e, 0x00,
0x8d, 0x01, 0x0a, 0x00,
0x24, 0x01, 0x00, 0x00,
0x8f, 0x01, 0x01, 0x00,
0x80, 0x40, 0x00, 0x00,
0x10, 0x2a, 0x00, 0x00,
0x81, 0x40, 0x00, 0x00,
0x00, 0x00, 0x00, 0x00,
0x82, 0x40, 0x00, 0x00,
0x00, 0x00, 0x00, 0x00,
0x83, 0x40, 0x00, 0x00,
0x00, 0x00, 0x00, 0x00,
0x8b, 0x01, 0x00, 0x00,
0x8c, 0x01, 0xff, 0xff,
0x8a, 0x01, 0x00, 0x00,
0x86, 0x40, 0x00, 0x00,
0x01, 0x00, 0x00, 0x00,
0x85, 0x40, 0x00, 0x00,
0x01, 0x00, 0x00, 0x00,
0x84, 0x40, 0x00, 0x00,
0x01, 0x00, 0x00, 0x00,
0x89, 0x01, 0x80, 0xff,
0x85, 0x01, 0x01, 0x00,
0x80, 0x01, 0x04, 0x00,
0x2f, 0x01, 0x00, 0x00,
0x11, 0x00, 0x00, 0x00,
0x06, 0x00, 0x00, 0x00,
0x30, 0x01, 0x00, 0x00,
0x31, 0x01, 0x01, 0x00,
0x31, 0x40, 0x00, 0x00,
0x00, 0x00, 0x00, 0x00,
0x32, 0x40, 0x00, 0x00,
0xe0, 0x29, 0x00, 0x00,
0x10, 0x00, 0x00, 0x00,
0x0f, 0x01, 0x05, 0x00,
0x04, 0x01, 0xe7, 0x03,
0x05, 0x40, 0x00, 0x00,
0xe8, 0x03, 0x00, 0x00,
0x04, 0x40, 0x00, 0x00,
0xe8, 0x03, 0x00, 0x00,
0x09, 0x01, 0x00, 0x00,
0x00, 0x01, 0x00, 0x00,
0x01, 0x01, 0x00, 0x00,
0x03, 0x01, 0x00, 0x00,
0x02, 0x01, 0x00, 0x00,
0x10, 0x40, 0x00, 0x00,
0xf0, 0x29, 0x00, 0x00,
0x18, 0x01, 0x80, 0xff,
0x14, 0x01, 0x01, 0x00,
0x21, 0x01, 0x00, 0x00,
0x20, 0x01, 0x00, 0x00,
0x22, 0x01, 0x00, 0x00,
0x28, 0x01, 0x01, 0x00,
0x20, 0x40, 0x00, 0x00,
0xa0, 0x00, 0x00, 0x00,
0x21, 0x40, 0x00, 0x00,
0x40, 0x29, 0x00, 0x00,
0x29, 0x01, 0x01, 0x00,
0x22, 0x40, 0x00, 0x00,
0x00, 0x00, 0x00, 0x00,
0x23, 0x40, 0x00, 0x00,
0xa0, 0x00, 0x00, 0x00,
0x25, 0x01, 0x00, 0x00,
0x0d, 0x01, 0x0a, 0x00,
0x2d, 0x01, 0x1e, 0x00,
0x2f, 0x01, 0x03, 0x00,
0x11, 0x00, 0x00, 0x00,
0x02, 0x00, 0x00, 0x00,
0x24, 0x40, 0x24, 0x00,
0x40, 0x40, 0x40, 0x40,
0x0f, 0x01, 0x01, 0x00,
0x00, 0x40, 0x00, 0x00,
0x00, 0x2a, 0x00, 0x00,
0x04, 0x01, 0x0f, 0x00,
0x05, 0x40, 0x00, 0x00,
0x10, 0x00, 0x00, 0x00,
0x04, 0x40, 0x00, 0x00,
0x10, 0x00, 0x00, 0x00,
0x09, 0x01, 0x80, 0xff,
0x10, 0x40, 0x00, 0x00,
0xe0, 0x29, 0x00, 0x00,
0x14, 0x01, 0x01, 0x01,
0x0d, 0x01, 0x2e, 0x00,
0x2d, 0x01, 0x2e, 0x00,
0x80, 0x40, 0x00, 0x00,
0xe0, 0x29, 0x00, 0x00,
0x85, 0x40, 0x00, 0x00,
0x10, 0x00, 0x00, 0x00,
0x84, 0x40, 0x00, 0x00,
0x10, 0x00, 0x00, 0x00,
0x80, 0x01, 0x00, 0x00,
0x06, 0x00, 0x00, 0x00,
0x25, 0x40, 0x0d, 0x00,
0x55, 0x55, 0x55, 0x55,
0x26, 0x40, 0x00, 0x00,
0x00, 0x00, 0x00, 0x00,
0x24, 0x40, 0x32, 0x00,
0x00, 0x00, 0x00, 0x60,
0x00, 0x40, 0x00, 0x00,
0xe0, 0x29, 0x00, 0x00,
0x05, 0x01, 0x01, 0x01,
0x10, 0x40, 0x00, 0x00,
0x00, 0x2a, 0x00, 0x00,
0x80, 0x40, 0x00, 0x00,
0xf0, 0x29, 0x00, 0x00,
0x2f, 0x01, 0x00, 0x00,
0x06, 0x00, 0x01, 0x00,
0x30, 0x01, 0x04, 0x00,
0x30, 0x40, 0x00, 0x00,
0x00, 0x01, 0x00, 0x00,
0x31, 0x01, 0x03, 0x01,
0x31, 0x40, 0x00, 0x00,
0x00, 0xb9, 0x00, 0x00,
0x32, 0x40, 0x00, 0x00,
0x00, 0x01, 0x00, 0x00,
0x10, 0x00, 0x00, 0x00,
0x25, 0x40, 0x0d, 0x00,
0x00, 0x00, 0x00, 0x40,
0x24, 0x40, 0x37, 0x00,
0x40, 0x40, 0x40, 0x40,
0x00, 0x40, 0x00, 0x00,
0x00, 0x2a, 0x00, 0x00,
0x05, 0x01, 0x01, 0x02,
0x1f, 0x01, 0x06, 0x00,
0x10, 0x40, 0x00, 0x00,
0x00, 0x00, 0x00, 0x00,
0x18, 0x01, 0x00, 0x00,
0x25, 0x01, 0x11, 0x00,
0x8f, 0x01, 0x03, 0x00,
0x80, 0x40, 0x00, 0x00,
0x10, 0x00, 0x00, 0x00,
0x89, 0x01, 0x00, 0xff,
0x11, 0x00, 0x00, 0x00,
0x06, 0x00, 0x02, 0x00,
0x24, 0x40, 0x1f, 0x00,
0x55, 0x55, 0x55, 0x55,
0x0f, 0x01, 0x03, 0x00,
0x00, 0x40, 0x00, 0x00,
0x10, 0x00, 0x00, 0x00,
0x09, 0x01, 0x00, 0xff,
0x05, 0x01, 0x01, 0x00,
0x1f, 0x01, 0x01, 0x00,
0x10, 0x40, 0x00, 0x00,
0xf0, 0x29, 0x00, 0x00,
0x18, 0x01, 0x80, 0xff,
0x25, 0x01, 0x00, 0x00,
0x8f, 0x01, 0x06, 0x00,
0x80, 0x40, 0x00, 0x00,
0x00, 0x00, 0x00, 0x00,
0x89, 0x01, 0x00, 0x00,
0x06, 0x00, 0x00, 0x00,
0x25, 0x40, 0x0d, 0x00,
0x00, 0x00, 0x00, 0x60,
0x24, 0x40, 0x31, 0x00,
0x00, 0x00, 0x00, 0x40,
0x0f, 0x01, 0x01, 0x00,
0x00, 0x40, 0x00, 0x00,
0x00, 0x2a, 0x00, 0x00,
0x09, 0x01, 0x80, 0xff,
0x05, 0x01, 0x01, 0x02,
0x10, 0x40, 0x00, 0x00,
0x00, 0x2a, 0x00, 0x00,
0x8f, 0x01, 0x01, 0x00,
0x80, 0x40, 0x00, 0x00,
0xf0, 0x29, 0x00, 0x00,
0x89, 0x01, 0x80, 0xff,
0x06, 0x00, 0x02, 0x00,
0x0f, 0x01, 0x06, 0x00,
0x00, 0x40, 0x00, 0x00,
0x00, 0x00, 0x00, 0x00,
0x09, 0x01, 0x00, 0x00,
0x05, 0x01, 0x01, 0x00,
0x10, 0x40, 0x00, 0x00,
0x11, 0x2a, 0x00, 0x00,
0x13, 0x01, 0x00, 0x00,
0x15, 0x40, 0x00, 0x00,
0x01, 0x00, 0x00, 0x00,
0x14, 0x40, 0x00, 0x00,
0x01, 0x00, 0x00, 0x00,
0x17, 0x01, 0x07, 0x00,
0x0d, 0x01, 0x0a, 0x00,
0x2d, 0x01, 0x1e, 0x00,
0x24, 0x40, 0x16, 0x00,
0xff, 0x00, 0xc0, 0x3f,
0x2f, 0x01, 0x03, 0x00,
0x05, 0x00, 0x02, 0x00,
0x24, 0x40, 0x1e, 0x00,
0x00, 0x00, 0x00, 0x40,
0x0f, 0x01, 0x01, 0x00,
0x00, 0x40, 0x00, 0x00,
0x10, 0x2a, 0x00, 0x00,
0x04, 0x01, 0x00, 0x00,
0x05, 0x40, 0x00, 0x00,
0x01, 0x00, 0x00, 0x00,
0x04, 0x40, 0x00, 0x00,
0x01, 0x00, 0x00, 0x00,
0x09, 0x01, 0x80, 0xff,
0x10, 0x40, 0x00, 0x00,
0x10, 0x2a, 0x00, 0x00,
0x27, 0x01, 0x80, 0xff,
0x0d, 0x01, 0x2e, 0x00,
0x2d, 0x01, 0x2e, 0x00,
0x89, 0x01, 0x00, 0x00,
0x85, 0x01, 0x00, 0x00,
0x80, 0x01, 0x80, 0x00,
0x81, 0x01, 0x00, 0x00,
0x06, 0x00, 0x00, 0x00,
0x00, 0x00, 0xff, 0xff, 

};







static inline const uint8_t * Getfc_lif_layer_1CMSPointer()
{
	return cms_fc_lif_layer_1;
}

static inline size_t Getfc_lif_layer_1CMSLen()
{
	return sizeof(cms_fc_lif_layer_1);
}





static const int8_t weight_fc_lif_layer_1[] __attribute__((aligned(16))) = 
{

//biases
0x00, 0x00, 0x00, 0x00,
0x00, 0x66, 0x66, 0x66,
0x66, 0x22, 0x00, 0x00,
0x00, 0x00, 0x00, 0x66,
0x66, 0x66, 0x66, 0x22,
0x00, 0x00, 0x00, 0x00,
0x00, 0x66, 0x66, 0x66,
0x66, 0x22, 0x00, 0x00,
0x00, 0x00, 0x00, 0x66,
0x66, 0x66, 0x66, 0x22,
0x00, 0x00, 0x00, 0x00,
0x00, 0x66, 0x66, 0x66,
0x66, 0x22, 0x00, 0x00,
0x00, 0x00, 0x00, 0x66,
0x66, 0x66, 0x66, 0x22,
0x00, 0x00, 0x00, 0x00,
0x00, 0x66, 0x66, 0x66,
0x66, 0x22, 0x00, 0x00,
0x00, 0x00, 0x00, 0x66,
0x66, 0x66, 0x66, 0x22,
0x00, 0x00, 0x00, 0x00,
0x00, 0x66, 0x66, 0x66,
0x66, 0x22, 0x00, 0x00,
0x00, 0x00, 0x00, 0x66,
0x66, 0x66, 0x66, 0x22,
0x00, 0x00, 0x00, 0x00,
0x00, 0x66, 0x66, 0x66,
0x66, 0x22, 0x00, 0x00,
0x00, 0x00, 0x00, 0x66,
0x66, 0x66, 0x66, 0x22,
0x00, 0x00, 0x00, 0x00,
0x00, 0x66, 0x66, 0x66,
0x66, 0x22, 0x00, 0x00,
0x00, 0x00, 0x00, 0x66,
0x66, 0x66, 0x66, 0x22,
0x00, 0x00, 0x00, 0x00,
0x00, 0x66, 0x66, 0x66,
0x66, 0x22, 0x00, 0x00,
0x00, 0x00, 0x00, 0x66,
0x66, 0x66, 0x66, 0x22, 
//weights
0x98, 0x34, 0x55, 0x01,
0x9c, 0x6c, 0x00, 0x00,
0xb4, 0x0a, 0x00, 0xe4,
0x88, 0xa7, 0xc8, 0x50,
0x12, 0xa1, 0xae, 0x23,
0x89, 0x63, 0x3e, 0xc9,
0x44, 0x8a, 0x91, 0xd4,
0x00, 0xa0, 0xff, 0x97,
0x61, 0xde, 0x1c, 0xed,
0xaf, 0xfd, 0x01, 0xc0,
0xb2, 0x06, 0x72, 0x32,
0x78, 0x82, 0x94, 0x6a,
0x7c, 0x43, 0x43, 0x50,
0x03, 0x00, 0x58, 0x34,
0xe0, 0xa4, 0x37, 0x2f,
0x14, 0xc1, 0x00, 0xc0,
0x39, 0x1f, 0x52, 0x2b,
0xb9, 0xe2, 0xb9, 0xb6,
0x17, 0x6b, 0x1d, 0x20,
0x42, 0x52, 0x59, 0xaa,
0x24, 0x12, 0xb5, 0x18,
0x00, 0x02, 0x8a, 0xc6,
0xe6, 0x30, 0xdc, 0xc0,
0xa0, 0x12, 0x00, 0x20,
0xb5, 0xde, 0xc3, 0x6e,
0x43, 0xbd, 0x00, 0x45,
0x00, 0x00, 0xfa, 0x2b,
0x14, 0x1d, 0xee, 0x1a,
0x1b, 0x28, 0x03, 0x01,
0x10, 0xff, 0x52, 0xf4,
0xed, 0xd9, 0x63, 0x02,
0xb2, 0x1d, 0x00, 0xd0,
0xbe, 0x73, 0x88, 0xc1,
0xbf, 0x41, 0x8e, 0x15,
0x74, 0xb0, 0x4f, 0x98,
0x82, 0xbe, 0x00, 0x40,
0x9f, 0xdd, 0x11, 0x3c,
0x9e, 0x8f, 0xf0, 0x4d,
0xbc, 0x29, 0x00, 0x88,
0x2f, 0x85, 0x48, 0x3a,
0xd5, 0x12, 0xd4, 0x4b,
0x00, 0x40, 0xce, 0x26,
0x20, 0x5c, 0x70, 0xfb,
0x7c, 0x04, 0xc7, 0xf1,
0xcd, 0x08, 0xa5, 0x0f,
0x00, 0x34, 0x03, 0x72,
0x62, 0x9b, 0x8f, 0xcc,
0xcb, 0x48, 0x47, 0x05,
0x80, 0x06, 0x99, 0x5a,
0xac, 0x81, 0x4f, 0xc3,
0x33, 0x07, 0x00, 0x00,
0x16, 0x0e, 0x8e, 0x89,
0x15, 0xe6, 0xab, 0x00,
0x10, 0x8b, 0x2c, 0xe1,
0xea, 0x78, 0x5e, 0x63,
0x4b, 0xdb, 0x0a, 0x00,
0x4e, 0xfe, 0xaa, 0x57,
0xb3, 0xa0, 0x6b, 0x5d,
0xd3, 0x44, 0xff, 0x74,
0x15, 0x72, 0x15, 0x00,
0xd0, 0x48, 0x2d, 0x4e,
0xfb, 0xa6, 0x24, 0x13,
0x00, 0xa0, 0xa4, 0xce,
0x05, 0x70, 0xdc, 0xe9,
0xb6, 0x00, 0x0f, 0x38,
0x94, 0x7b, 0xe7, 0x25,
0x31, 0xde, 0x6d, 0x95,
0xff, 0xa7, 0x63, 0x8e,
0x72, 0x1a, 0xa1, 0xc7,
0x3d, 0xff, 0x7f, 0x08,
0x0b, 0x42, 0x3c, 0x37,
0xff, 0xff, 0x1f, 0x08,
0x00, 0x6b, 0xe0, 0xff,
0xe3, 0xe3, 0xa6, 0x70,
0x75, 0xbc, 0xae, 0xfe,
0xff, 0xff, 0xff, 0x1f,
0x00, 0x22, 0x7b, 0x18,
0x65, 0xf8, 0x47, 0x19,
0x85, 0xb3, 0xd9, 0x26,
0x67, 0xfc, 0x7f, 0xf5,
0x62, 0xc6, 0xea, 0x44,
0x6f, 0xff, 0xff, 0xff,
0x3f, 0xe0, 0x6a, 0x00,
0x1e, 0xf9, 0xcb, 0xff,
0x0f, 0xa0, 0xc4, 0x10,
0x0f, 0x9f, 0x59, 0x82,
0xff, 0xbf, 0xa7, 0x57,
0xd4, 0xdd, 0x8b, 0x6d,
0xd9, 0xff, 0xff, 0x27,
0x00, 0xd8, 0x4e, 0x00,
0x0a, 0xec, 0x32, 0x00,
0xc0, 0x9e, 0x38, 0x44,
0xd4, 0x6c, 0xff, 0x49,
0x51, 0x00, 0x60, 0x38,
0x66, 0x9b, 0x5c, 0xd8,
0xe5, 0x0c, 0xa9, 0xc6,
0xe9, 0xbd, 0x09, 0x15,
0xd5, 0x00, 0x20, 0x47,
0x0d, 0x5f, 0x77, 0xc3,
0xbd, 0x4c, 0xaa, 0x18,
0x0f, 0x00, 0xc2, 0xe1,
0x19, 0xa3, 0xd3, 0xa8,
0x13, 0x6a, 0x00, 0x50,
0x98, 0x08, 0x6b, 0xfe,
0xfd, 0x88, 0x89, 0xa8,
0x47, 0x80, 0xab, 0x47,
0xf3, 0xaa, 0x39, 0x2b,
0xed, 0xde, 0xcd, 0x34,
0x80, 0x0d, 0x83, 0x77,
0x74, 0x0a, 0x00, 0x8b,
0xa8, 0x15, 0x38, 0x71,
0x79, 0x85, 0x0a, 0x00,
0x9b, 0x08, 0x91, 0xe1,
0x88, 0xb5, 0x3a, 0x03,
0x00, 0x40, 0xc9, 0x01,
0x2c, 0x44, 0x77, 0x70,
0x23, 0x01, 0x40, 0x94,
0x15, 0x2b, 0xd3, 0x19,
0x7d, 0x9f, 0xba, 0x3e,
0x04, 0x40, 0xa0, 0x5c,
0x33, 0x12, 0x15, 0x0c,
0xc2, 0x02, 0xb5, 0x21,
0x60, 0xf9, 0xe6, 0x49,
0x08, 0xbe, 0x96, 0xe2,
0xe2, 0x21, 0x00, 0x90,
0xc6, 0x49, 0x2c, 0x18,
0xc4, 0x76, 0x6c, 0x14,
0xaf, 0xe7, 0x82, 0x63,
0xcf, 0x4f, 0x2f, 0x00,
0xf0, 0x00, 0x73, 0xcc,
0x69, 0x05, 0x69, 0x2e,
0x20, 0x00, 0xc8, 0x9f,
0xde, 0x9a, 0x27, 0xc6,
0x32, 0x5c, 0x9d, 0x41,
0x30, 0x00, 0x00, 0x2d,
0x23, 0x12, 0x4b, 0x5b,
0x43, 0xee, 0x08, 0x00,
0x04, 0xf0, 0x44, 0xdd,
0x7a, 0x47, 0xb2, 0x05,
0xbd, 0x9c, 0x00, 0x00,
0x0e, 0xf8, 0x7e, 0x2f,
0x9c, 0x31, 0x29, 0xe8,
0x22, 0x00, 0x64, 0x38,
0x2f, 0xb4, 0x63, 0x42,
0x8c, 0x66, 0x1a, 0x00,
0x20, 0x40, 0xe2, 0x8c,
0x02, 0xe5, 0x08, 0x18,
0xf0, 0xaa, 0xc5, 0xd7,
0x68, 0x76, 0xd7, 0xc1,
0x7f, 0x1a, 0x70, 0xa3,
0xb5, 0x9b, 0xd2, 0x77,
0xae, 0xef, 0xff, 0x9b,
0xf9, 0x7f, 0x56, 0x36,
0xd8, 0x7f, 0x8f, 0xff,
0x7f, 0x00, 0x67, 0x82,
0x78, 0xfa, 0xff, 0x4b,
0x16, 0x09, 0x65, 0xe1,
0xe2, 0xff, 0xff, 0xff,
0x3f, 0xe0, 0x15, 0x00,
0x20, 0x37, 0xf2, 0xff,
0xd2, 0xc1, 0xef, 0x8e,
0xfe, 0xfb, 0xca, 0xe5,
0xff, 0xe9, 0x6b, 0x2a,
0x5a, 0x65, 0x73, 0xfd,
0xff, 0xff, 0x07, 0x80,
0x41, 0x85, 0x7f, 0xf9,
0xff, 0x6e, 0x19, 0xfa,
0x61, 0x37, 0xc9, 0xfe,
0xff, 0xff, 0x3f, 0x00,
0xe3, 0x00, 0x00, 0xa8,
0x57, 0x00, 0x40, 0x5a,
0x3f, 0xd1, 0x71, 0xcc,
0x90, 0x91, 0x6a, 0x0b,
0x55, 0x3e, 0x41, 0xb0,
0x82, 0x2c, 0x6e, 0x02,
0x80, 0xcb, 0x84, 0xe3,
0xb2, 0x8a, 0x58, 0xea,
0x2b, 0xe8, 0x54, 0x00,
0xa0, 0x52, 0xe2, 0xbf,
0xa8, 0xa8, 0x9f, 0xdd,
0x6b, 0x00, 0x10, 0xa0,
0xea, 0xac, 0xe4, 0xd3,
0x31, 0xc4, 0x18, 0x00,
0x98, 0x72, 0x68, 0x40,
0xc3, 0x21, 0x6a, 0xef,
0x27, 0x11, 0x00, 0x3c,
0xd5, 0x43, 0x12, 0x39,
0xb9, 0x12, 0xe5, 0x21,
0x2d, 0x7d, 0x7a, 0x8b,
0x48, 0x04, 0x00, 0x2c,
0x24, 0x55, 0xb8, 0xe5,
0x02, 0x49, 0x4c, 0xb8,
0xdd, 0x00, 0xa0, 0xf2,
0xc7, 0x18, 0x40, 0xf6,
0xac, 0xf5, 0x27, 0x14,
0x00, 0x60, 0x1a, 0x65,
0x3f, 0x39, 0xbf, 0x38,
0x01, 0x80, 0xfc, 0x74,
0x36, 0x5a, 0x18, 0xe8,
0x0d, 0x59, 0x83, 0x2d,
0xdb, 0x6b, 0x56, 0xaf,
0x1a, 0x00, 0xd2, 0x06,
0xd0, 0xad, 0xa1, 0x72,
0x19, 0xea, 0x2a, 0x55,
0x1a, 0x00, 0x48, 0xe8,
0x4c, 0x30, 0x29, 0x62,
0x06, 0xb9, 0x01, 0x00,
0x50, 0xc6, 0x10, 0x1a,
0xf7, 0x60, 0xc8, 0x1b,
0x01, 0x01, 0xe4, 0x52,
0x7f, 0xfd, 0x37, 0xdd,
0x11, 0x04, 0xb6, 0x02,
0x00, 0x1e, 0xbf, 0xcf,
0xee, 0x0c, 0x41, 0xdc,
0x3d, 0xb1, 0x00, 0x20,
0x93, 0x17, 0x42, 0xea,
0x2c, 0xab, 0xed, 0x11,
0x42, 0x52, 0x4f, 0xc8,
0xec, 0xc8, 0x25, 0x00,
0x84, 0xa2, 0x9b, 0x38,
0x09, 0xaf, 0x8e, 0x0d,
0x00, 0xc9, 0x45, 0x18,
0xa6, 0x2f, 0x68, 0x5a,
0x63, 0x93, 0x00, 0xca,
0x3d, 0x10, 0xf5, 0x5f,
0x2e, 0xaf, 0x31, 0xd1,
0x9c, 0xfa, 0xc2, 0x56,
0xc9, 0x02, 0xc0, 0x5f,
0xcc, 0x81, 0x1c, 0x04,
0x59, 0xea, 0x91, 0xec,
0x29, 0x00, 0x08, 0xc9,
0xd6, 0xc1, 0x3c, 0xe4,
0x10, 0xd0, 0x39, 0xff,
0xef, 0x78, 0x24, 0x30,
0x4d, 0x55, 0x39, 0xf5,
0xff, 0x5f, 0x88, 0x72,
0xe9, 0x59, 0xdc, 0xff,
0xff, 0x7f, 0x00, 0x48,
0x2b, 0xfc, 0x03, 0xff,
0x6f, 0x80, 0x8c, 0xd0,
0xc4, 0x43, 0x0d, 0xb8,
0xff, 0xff, 0xff, 0x0f,
0x50, 0xab, 0x00, 0x9f,
0xeb, 0xb4, 0xff, 0x97,
0x06, 0x40, 0x1e, 0x15,
0xab, 0xfc, 0xff, 0xf6,
0xc9, 0x1d, 0xab, 0xd0,
0xfc, 0xff, 0x7f, 0x10,
0x6d, 0x02, 0x50, 0x6c,
0xeb, 0xff, 0xf1, 0x7d,
0xd2, 0x7c, 0x01, 0x1f,
0x35, 0xfc, 0xbf, 0xfd,
0xe9, 0x11, 0x8e, 0xf6,
0xff, 0xff, 0x3f, 0x02,
0x24, 0x10, 0x00, 0x28,
0x26, 0x01, 0xe0, 0xa2,
0x1e, 0x06, 0x04, 0x88,
0x75, 0x6f, 0x71, 0x13,
0x70, 0x54, 0x6e, 0x53,
0xb0, 0x04, 0x80, 0x8d,
0xdc, 0xb2, 0xdf, 0x20,
0x14, 0x1b, 0x81, 0xb6,
0x02, 0x00, 0x39, 0xa1,
0x9b, 0xad, 0xca, 0x0d,
0xdf, 0x3b, 0x30, 0x2b,
0x0f, 0x00, 0x1c, 0x8b,
0x9a, 0x15, 0x5b, 0x69,
0xee, 0x89, 0x3f, 0x00,
0x18, 0xec, 0x82, 0x8f,
0x52, 0xf6, 0xd2, 0x24,
0x06, 0x00, 0xe1, 0xba,
0x51, 0x20, 0x25, 0xaa,
0x96, 0x54, 0x03, 0x40,
0x32, 0x36, 0x4d, 0x99,
0x83, 0x9e, 0x44, 0x19,
0x66, 0x05, 0x02, 0x54,
0x7c, 0xf8, 0x35, 0x7d,
0x00, 0x90, 0xa2, 0xad,
0xe6, 0x24, 0xf6, 0xca,
0x43, 0x48, 0x84, 0x03,
0x00, 0x2c, 0x0e, 0x44,
0xa5, 0xda, 0x7b, 0xfe,
0x54, 0x35, 0x00, 0x10,
0xa1, 0xa2, 0x13, 0xb8,
0xce, 0x75, 0xed, 0xe4,
0x0d, 0x00, 0x09, 0xd4,
0x04, 0x5d, 0x15, 0x13,
0x64, 0x3a, 0x12, 0x00,
0xa2, 0x70, 0x06, 0xfe,
0x0f, 0xa0, 0x58, 0x44,
0x15, 0x00, 0xba, 0x18,
0x26, 0x49, 0xc0, 0x5b,
0x81, 0xbe, 0x59, 0xc8,
0xf2, 0x75, 0x48, 0xbb,
0x89, 0xa6, 0x00, 0xa0,
0x4c, 0x8a, 0x47, 0x71,
0xdb, 0x31, 0x5a, 0x00,
0x40, 0x03, 0x79, 0x16,
0x2b, 0x2f, 0x05, 0xe4,
0x61, 0x00, 0x00, 0xfa,
0x1e, 0x8b, 0xae, 0x69,
0x53, 0x2f, 0xd6, 0x18,
0x43, 0x44, 0x46, 0xa5,
0x19, 0x7b, 0x00, 0x60,
0xa4, 0x49, 0x4b, 0xd4,
0x3c, 0x71, 0x67, 0x68,
0x7f, 0x01, 0x60, 0xa5,
0x55, 0xaa, 0x71, 0xff,
0x1f, 0x36, 0x57, 0x0e,
0x10, 0xa4, 0x1a, 0xba,
0x2a, 0x4d, 0x37, 0x75,
0xc7, 0x43, 0x98, 0x64,
0x51, 0xc1, 0x04, 0x00,
0xc8, 0x81, 0x2f, 0x93,
0x1d, 0xd4, 0xb4, 0xa3,
0x7d, 0x02, 0xf8, 0x8c,
0x15, 0x95, 0xc3, 0x30,
0x04, 0xf1, 0xa7, 0xff,
0x0f, 0xa2, 0xba, 0xb4,
0x38, 0x39, 0x29, 0xff,
0x3f, 0x35, 0x90, 0x8e,
0x95, 0xec, 0x75, 0xe1,
0xff, 0xff, 0x01, 0x00,
0x02, 0xe5, 0xff, 0xf9,
0xff, 0x25, 0xae, 0xff,
0x46, 0x2f, 0x61, 0xf2,
0xff, 0xff, 0x7f, 0x00,
0x68, 0x6d, 0xf8, 0x17,
0xe4, 0xda, 0xff, 0x0f,
0xfd, 0x3f, 0x19, 0x5f,
0x81, 0x37, 0xf4, 0xff,
0xf1, 0x94, 0x9a, 0x17,
0xe5, 0x55, 0xfc, 0xff,
0x43, 0x00, 0x3c, 0x7b,
0xfd, 0xbf, 0xe3, 0xff,
0x7b, 0xd3, 0x39, 0x4c,
0x92, 0xf6, 0xff, 0xff,
0x43, 0xc9, 0x02, 0x80,
0xf0, 0xcf, 0x00, 0x00,
0x4a, 0xd4, 0x41, 0xa6,
0x26, 0xe5, 0xc7, 0xab,
0x11, 0x01, 0x80, 0x14,
0xd6, 0x25, 0x5e, 0x23,
0x0b, 0xea, 0x89, 0x08,
0x50, 0xf1, 0xbd, 0x0c,
0xd9, 0x2e, 0xdb, 0x65,
0xfc, 0x1c, 0x04, 0xc2,
0x42, 0x64, 0x5c, 0x4c,
0x99, 0xa6, 0xa2, 0xe4,
0xf8, 0xf7, 0xcb, 0x45,
0x1d, 0xc6, 0x4b, 0x00,
0xe2, 0x93, 0xd9, 0x72,
0x72, 0xdd, 0x6c, 0xa7,
0x01, 0x70, 0x5b, 0xce,
0x73, 0x24, 0x30, 0x06,
0x22, 0x06, 0x00, 0x63,
0x7e, 0x06, 0x8f, 0x0b,
0x9e, 0xa3, 0x3a, 0xb5,
0x19, 0x62, 0x99, 0xa6,
0x56, 0xe1, 0x00, 0x60,
0xa8, 0xdc, 0x7c, 0x51,
0xa2, 0x28, 0x2d, 0x07,
0x80, 0x06, 0xe2, 0xe9,
0x53, 0xb8, 0xba, 0x59,
0xa5, 0x05, 0x00, 0xe1,
0x98, 0x22, 0x68, 0xd1,
0x8d, 0xb6, 0x55, 0x00,
0xa8, 0xa0, 0x0c, 0x61,
0xe9, 0x6d, 0x5f, 0x24,
0x75, 0x54, 0xc4, 0x47,
0x85, 0xe1, 0x10, 0x8c,
0x31, 0x00, 0x00, 0x54,
0xd2, 0x24, 0xd5, 0x10,
0x63, 0x11, 0x06, 0x00,
0x90, 0x13, 0x67, 0xda,
0x2a, 0x65, 0x6a, 0x5e,
0x7b, 0x11, 0x00, 0xa2,
0x7c, 0xec, 0x5b, 0xa2,
0xfa, 0x20, 0x66, 0x92,
0x02, 0x00, 0x04, 0xe4,
0x3f, 0x21, 0xfa, 0xd1,
0xde, 0x05, 0x00, 0xc8,
0x54, 0x83, 0x19, 0xba,
0xc8, 0xff, 0x88, 0xa3,
0x67, 0xf4, 0xfc, 0xd9,
0x35, 0x78, 0x98, 0x00,
0x50, 0xba, 0x88, 0xba,
0xf2, 0xfa, 0xb9, 0x8d,
0x98, 0xbf, 0x00, 0x10,
0x24, 0x49, 0x0a, 0x83,
0xd8, 0xc5, 0xc3, 0xb4,
0x02, 0x80, 0x74, 0xc1,
0xb0, 0x58, 0xec, 0x5d,
0x2f, 0x20, 0x17, 0x80,
0xa4, 0xf2, 0x4e, 0xdb,
0xa2, 0x35, 0xda, 0x0e,
0x08, 0x15, 0x93, 0x11,
0x12, 0x41, 0x49, 0x5c,
0x91, 0x3a, 0x31, 0x53,
0x2e, 0x63, 0x89, 0x86,
0xe0, 0x5f, 0xe5, 0x07,
0x89, 0xc0, 0x5b, 0x51,
0x51, 0x3c, 0xff, 0x3f,
0xfe, 0x7f, 0x1c, 0xc6,
0x46, 0x01, 0x42, 0xfd,
0xff, 0x07, 0xd0, 0x3e,
0x80, 0xb7, 0x6a, 0xa9,
0xff, 0x27, 0xc4, 0xa2,
0xb9, 0x95, 0xe3, 0xff,
0x5f, 0x74, 0x51, 0xa0,
0xb7, 0x1f, 0x4c, 0xff,
0xff, 0xff, 0x00, 0x00,
0x68, 0xf9, 0xff, 0xe1,
0xff, 0x07, 0x5f, 0x60,
0x87, 0x28, 0xdc, 0x44,
0xff, 0xff, 0xff, 0x00,
0x70, 0xf9, 0xf0, 0x4f,
0xe0, 0xb2, 0xfe, 0x3f,
0xcc, 0x00, 0x5d, 0xe2,
0x15, 0x4c, 0x01, 0xfc,
0xff, 0x26, 0x16, 0x39,
0x53, 0x2f, 0xfd, 0xff,
0x0f, 0x00, 0x00, 0xac,
0xe5, 0xc8, 0x0d, 0x00,
0xa0, 0x55, 0x5f, 0x00,
0xba, 0xde, 0x27, 0x2a,
0x00, 0xc0, 0x53, 0x01,
0xa6, 0xbc, 0xa6, 0x8e,
0x5a, 0x39, 0x00, 0xf0,
0xe6, 0xf0, 0x6d, 0x58,
0xe5, 0x24, 0x59, 0x63,
0x9e, 0x27, 0x30, 0xc7,
0xb6, 0x00, 0x00, 0x90,
0x33, 0x87, 0x31, 0x4a,
0xf0, 0xea, 0x38, 0x17,
0x04, 0x24, 0x67, 0x84,
0xf4, 0x85, 0x46, 0xd4,
0x96, 0xfb, 0x05, 0x00,
0x85, 0x30, 0x39, 0x58,
0x7b, 0xb7, 0x1c, 0xee,
0x7d, 0x00, 0x28, 0x61,
0x12, 0xd7, 0xed, 0x0f,
0xb0, 0x50, 0x9e, 0x3e,
0xe0, 0x3a, 0xb1, 0x2d,
0x25, 0xaf, 0x0e, 0x00,
0x34, 0x4d, 0x68, 0x8e,
0x55, 0x9d, 0x32, 0x16,
0x00, 0xaa, 0x8f, 0xbb,
0x00, 0x5d, 0x9d, 0x34,
0x39, 0x99, 0x77, 0xa8,
0x7f, 0x57, 0xdd, 0xde,
0x00, 0x40, 0x34, 0x9d,
0x56, 0xcc, 0xb5, 0xb6,
0x58, 0x1b, 0x00, 0x00,
0x12, 0xe2, 0xf0, 0x94,
0xb4, 0x97, 0x67, 0x01,
0x00, 0x02, 0x8f, 0x91,
0xe2, 0x64, 0x95, 0x31,
0x7d, 0x66, 0x0d, 0x00,
0x04, 0xaf, 0x92, 0x84,
0x4e, 0x55, 0x96, 0x10,
0xf6, 0x06, 0x00, 0x10,
0x10, 0x92, 0x2b, 0x05,
0x39, 0x6c, 0xfe, 0x8b,
0x02, 0x00, 0xe6, 0x45,
0x46, 0x37, 0x7d, 0xb3,
0x0a, 0x27, 0xf5, 0x85,
0xc5, 0x44, 0x2e, 0x69,
0x8b, 0x24, 0x01, 0x10,
0xf6, 0x18, 0x9e, 0x48,
0x9a, 0xd7, 0xce, 0x2e,
0x50, 0x00, 0x59, 0xc6,
0x98, 0x1e, 0x5f, 0x86,
0x81, 0x26, 0x00, 0xd4,
0x7a, 0x50, 0x05, 0xa6,
0x15, 0xab, 0x29, 0x4b,
0x0c, 0x00, 0x8f, 0xa4,
0x59, 0xb6, 0xd9, 0x91,
0x5d, 0x37, 0xd1, 0x9d,
0x04, 0x00, 0x19, 0x2a,
0x82, 0x1e, 0x30, 0xa3,
0x34, 0x30, 0x00, 0x10,
0xc8, 0x62, 0x4e, 0x65,
0x24, 0xb4, 0xbf, 0xff,
0x8f, 0x4a, 0xd0, 0xc0,
0xc8, 0x89, 0x0a, 0xd8,
0xe1, 0xff, 0x0b, 0x38,
0x71, 0xc5, 0x52, 0xde,
0xff, 0xff, 0x3f, 0x00,
0x58, 0xaa, 0x06, 0xff,
0x78, 0x24, 0xcc, 0x6e,
0x58, 0xb0, 0xec, 0xfe,
0x7f, 0xf0, 0xff, 0x0d,
0x6c, 0x40, 0x33, 0x79,
0xcb, 0xfc, 0xff, 0x03,
0xf4, 0x12, 0xc0, 0xab,
0x9f, 0xe6, 0xff, 0x91,
0xe5, 0x84, 0xf4, 0x57,
0x49, 0xff, 0xdf, 0xb5,
0x70, 0x13, 0x28, 0xba,
0xff, 0xff, 0xff, 0x07,
0x00, 0xdc, 0xda, 0xff,
0x13, 0xfe, 0xff, 0x4d,
0xeb, 0x77, 0x8d, 0xc6,
0x48, 0xff, 0xff, 0xff,
0x00, 0xf0, 0x46, 0x68,
0x00, 0x00, 0x6c, 0x88,
0x33, 0x2e, 0xc4, 0x75,
0x55, 0xd5, 0x3b, 0x00,
0x08, 0x01, 0x71, 0xbf,
0xaf, 0xb2, 0x3e, 0x53,
0x00, 0x00, 0x2c, 0x79,
0xbe, 0x33, 0x6f, 0xae,
0x7f, 0xa9, 0x00, 0xe0,
0xfc, 0xdf, 0xa2, 0xb0,
0x0e, 0x37, 0x03, 0x46,
0xd3, 0x60, 0xf9, 0x99,
0x74, 0xf0, 0xa0, 0x00,
0x40, 0x78, 0x6d, 0x4e,
0x2a, 0x93, 0x5a, 0x6c,
0x42, 0x6f, 0x0d, 0x00,
0x28, 0x8e, 0x07, 0xfb,
0xcc, 0x30, 0x64, 0x68,
0xea, 0x0c, 0x00, 0x96,
0xcf, 0x24, 0xc2, 0xf4,
0x2d, 0xfa, 0xb5, 0x15,
0x00, 0x66, 0x1c, 0xe1,
0xb3, 0xdc, 0x8c, 0x49,
0x55, 0x94, 0xfd, 0xe1,
0x26, 0x83, 0x2c, 0x00,
0x44, 0xb9, 0x5d, 0x15,
0xe2, 0xff, 0xe6, 0xc7,
0x48, 0x4e, 0x05, 0x00,
0x34, 0x71, 0x7c, 0xcc,
0x09, 0x22, 0x3f, 0x45,
0x09, 0x00, 0x83, 0xa2,
0x1e, 0xb0, 0xf6, 0x3c,
0x18, 0x1b, 0x00, 0x20,
0x02, 0x5f, 0x2a, 0xfa,
0x30, 0x72, 0xb6, 0x15,
0x00, 0x0c, 0x08, 0x1d,
0x86, 0x7b, 0x9c, 0x42,
0x90, 0x54, 0x3f, 0xd9,
0xf5, 0x86, 0x31, 0x2b,
0x02, 0xf7, 0xd5, 0x01,
0x00, 0xcd, 0x71, 0x50,
0x32, 0x1e, 0x13, 0xa1,
0x53, 0x00, 0x40, 0xa6,
0x38, 0x22, 0xef, 0x14,
0x07, 0xe5, 0x03, 0x00,
0xe8, 0x1e, 0x2e, 0x74,
0x35, 0x50, 0x18, 0xf6,
0xdf, 0x00, 0x00, 0x41,
0x20, 0xf1, 0x35, 0x1a,
0x18, 0xbb, 0x88, 0x67,
0x01, 0x00, 0xd2, 0x9a,
0x04, 0x88, 0x69, 0xac,
0xf3, 0x15, 0x83, 0xa1,
0x97, 0x77, 0x24, 0xd2,
0x40, 0x00, 0x80, 0x3f,
0xba, 0x85, 0xf0, 0xa9,
0xf2, 0x9c, 0x2d, 0x78,
0x49, 0x00, 0xc0, 0xf0,
0xc6, 0xe7, 0x63, 0x6f,
0x83, 0x37, 0xea, 0x00,
0x40, 0x58, 0xdd, 0x04,
0x4d, 0x0d, 0xea, 0xf8,
0x7d, 0x00, 0x3e, 0xc9,
0xb5, 0x26, 0x90, 0x81,
0xca, 0x55, 0x9b, 0xb0,
0xff, 0xbf, 0xe5, 0xa7,
0x68, 0xfc, 0x14, 0xfa,
0xff, 0x2f, 0x20, 0xc7,
0x19, 0xe1, 0x0b, 0xff,
0xff, 0x0f, 0x00, 0x10,
0x92, 0xb5, 0xab, 0xff,
0xcf, 0x06, 0x30, 0xd9,
0xbc, 0xc8, 0x96, 0xcd,
0xff, 0x13, 0x28, 0x36,
0x97, 0x48, 0xfe, 0xff,
0xff, 0x03, 0x80, 0x06,
0xc3, 0x7f, 0xf9, 0xff,
0x3a, 0x59, 0x16, 0xfb,
0xd4, 0xf8, 0xfe, 0xff,
0xff, 0x1f, 0xc0, 0x57,
0x00, 0x7e, 0x7f, 0x65,
0x80, 0x59, 0x07, 0x5c,
0xf0, 0xff, 0x61, 0xba,
0x0d, 0xa0, 0xbf, 0x7c,
0x30, 0xfd, 0xff, 0xff,
0xff, 0x1f, 0x0a, 0x0a,
0x00, 0x90, 0x05, 0x01,
0xc0, 0x84, 0x39, 0x73,
0xa3, 0x71, 0x8b, 0x4b,
0xde, 0x06, 0x00, 0x80,
0x0c, 0x15, 0x96, 0xce,
0xa0, 0x29, 0x3e, 0x24,
0x00, 0xd4, 0x2f, 0xca,
0x68, 0x67, 0xd3, 0xe9,
0x36, 0x7a, 0x05, 0xc1,
0x48, 0xef, 0xd6, 0x45,
0x00, 0x80, 0xa3, 0x59,
0xf7, 0x4e, 0x7c, 0x44,
0xdc, 0xea, 0x98, 0xf3,
0x0c, 0x00, 0x08, 0x6d,
0x98, 0x64, 0xe7, 0x7b,
0xf7, 0xbd, 0x01, 0x00,
0x93, 0x01, 0x16, 0xe2,
0xe2, 0xae, 0x7a, 0x89,
0x3f, 0x01, 0x40, 0x62,
0xb3, 0xff, 0xf4, 0x34,
0x4a, 0xfa, 0x65, 0x00,
0x08, 0xc6, 0xe2, 0xce,
0x9a, 0x2f, 0x9e, 0x44,
0xd3, 0x22, 0xc2, 0x13,
0xab, 0xe7, 0x83, 0xb3,
0x05, 0x00, 0x9a, 0x58,
0xb4, 0xf4, 0x20, 0xe0,
0xe6, 0x6b, 0x00, 0x00,
0x12, 0x16, 0x03, 0x8b,
0x8c, 0x15, 0xf2, 0x10,
0x08, 0x02, 0x45, 0x5b,
0x24, 0x0a, 0xe5, 0x0a,
0xf2, 0x7a, 0x03, 0x80,
0x50, 0x71, 0x42, 0xd2,
0x4e, 0x18, 0x6c, 0xe2,
0xb3, 0xa0, 0x5f, 0x99,
0xac, 0xbd, 0x07, 0x33,
0x00, 0x0c, 0xc7, 0xc2,
0xa7, 0x1d, 0xaf, 0x93,
0x00, 0x00, 0x40, 0xce,
0x77, 0x9d, 0x53, 0xda,
0xec, 0x81, 0xb3, 0x89,
0x52, 0x7e, 0x00, 0x19,
0x14, 0xc7, 0x11, 0x63,
0x74, 0xf5, 0xf1, 0xa3,
0x01, 0x40, 0x26, 0xad,
0x5a, 0x17, 0xe9, 0x17,
0xd7, 0x24, 0x00, 0x88,
0xbc, 0x44, 0x62, 0xf5,
0x98, 0xc6, 0xde, 0x20,
0x9b, 0x0a, 0x98, 0x5a,
0x62, 0xe4, 0x06, 0x80,
0xe5, 0x5d, 0x3d, 0x6c,
0x02, 0x17, 0xd2, 0x4d,
0xa8, 0xef, 0x00, 0x00,
0x60, 0x79, 0xfc, 0x24,
0xdd, 0x44, 0x27, 0xb1,
0x02, 0x00, 0x84, 0xe3,
0x45, 0x69, 0x38, 0x71,
0x08, 0x84, 0x6e, 0x0d,
0x00, 0x14, 0xf3, 0xa6,
0x47, 0xc5, 0x46, 0xff,
0xc8, 0xae, 0x87, 0xff,
0xa6, 0x20, 0x8a, 0xca,
0x27, 0x77, 0x38, 0x83,
0xe6, 0xff, 0xd7, 0x09,
0x6f, 0xd1, 0x71, 0xff,
0x7f, 0x89, 0x1a, 0x45,
0x74, 0x34, 0xc1, 0xff,
0x7f, 0x00, 0x80, 0xef,
0xc4, 0xff, 0x47, 0xfe,
0xff, 0x21, 0x42, 0x2b,
0x22, 0x8f, 0x7e, 0xfa,
0xff, 0xff, 0x00, 0x00,
0x83, 0x4e, 0x38, 0xdb,
0xff, 0x53, 0x74, 0xa1,
0x4a, 0x14, 0x32, 0x85,
0x8b, 0xff, 0x3f, 0x71,
0x32, 0x2f, 0x5c, 0xb9,
0xdf, 0xff, 0xff, 0x3f,
0x00, 0x1c, 0x0c, 0xfc,
0xe3, 0xff, 0x6f, 0x28,
0xda, 0x27, 0x6b, 0x4e,
0xf3, 0xff, 0xff, 0xff,
0x01, 0xac, 0x04, 0x00,
0x64, 0x7a, 0x03, 0x80,
0x01, 0xde, 0xab, 0xe2,
0xfd, 0xcc, 0x6a, 0xa7,
0x02, 0x8c, 0x24, 0x48,
0x4f, 0xad, 0xe0, 0x0e,
0x00, 0x72, 0x62, 0xa7,
0xf7, 0x03, 0x13, 0x49,
0xf0, 0xec, 0x28, 0x00,
0x80, 0x1c, 0x4b, 0x00,
0x23, 0x4e, 0x27, 0x54,
0x34, 0x3d, 0x02, 0x80,
0x50, 0x72, 0x53, 0xff,
0x6a, 0xae, 0x94, 0x95,
0x07, 0x00, 0x86, 0x8b,
0x4e, 0xb0, 0x19, 0x7e,
0x6d, 0x5e, 0x0b, 0x00,
0x18, 0x62, 0xd9, 0x1a,
0xc3, 0x32, 0xfa, 0x5e,
0x33, 0x00, 0xb8, 0xb2,
0x58, 0xfd, 0x94, 0xbb,
0xa2, 0xc6, 0x98, 0x68,
0xed, 0xde, 0xa0, 0x99,
0x33, 0x0f, 0x10, 0x0b,
0x78, 0xfb, 0x8f, 0x69,
0x59, 0x13, 0x6a, 0x26,
0x02, 0x00, 0x41, 0xa6,
0x24, 0x84, 0x99, 0x5d,
0xac, 0x04, 0x00, 0x6c,
0x46, 0x6c, 0xa1, 0x94,
0xfa, 0xfe, 0xa6, 0x76,
0x00, 0xe8, 0x25, 0xb6,
0xd7, 0x39, 0x58, 0x35,
0xe2, 0x26, 0xc0, 0x12,
0x6c, 0xbb, 0x0b, 0x01,
0x40, 0xc1, 0x93, 0x96,
0xea, 0x98, 0xc8, 0xfd,
0xeb, 0x51, 0xe8, 0x4f,
0x00, 0x18, 0xdc, 0x29,
0x4e, 0x21, 0xd1, 0xc7,
0x37, 0xa4, 0x01, 0xc0,
0x9a, 0x61, 0x3c, 0x6e,
0xa4, 0x53, 0x37, 0x00,
0xcc, 0x9c, 0x62, 0x9b,
0x3c, 0x69, 0xaf, 0xea,
0x59, 0x11, 0x50, 0xd1,
0x97, 0x01, 0xe6, 0x0c,
0x00, 0x04, 0x27, 0x9e,
0xd4, 0x9e, 0x5b, 0xad,
0x08, 0x00, 0xe1, 0x9c,
0x02, 0xbd, 0xa9, 0xe9,
0x53, 0x5d, 0xbd, 0x01,
0x62, 0xf8, 0xdc, 0x57,
0x8d, 0x9c, 0x2a, 0x82,
0xc3, 0x03, 0x50, 0xf7,
0x21, 0x80, 0x6a, 0x02,
0x40, 0x4e, 0xea, 0x1a,
0x8b, 0x4f, 0x17, 0xbb,
0xb3, 0x8a, 0xe6, 0x52,
0x00, 0x40, 0x36, 0x1d,
0x65, 0x65, 0x04, 0x9c,
0xcc, 0x03, 0x40, 0xc1,
0x60, 0xcc, 0x0a, 0x24,
0xd3, 0xe5, 0xd2, 0xf3,
0xff, 0x4f, 0x11, 0x25,
0x83, 0x06, 0x06, 0x0c,
0x8e, 0xff, 0x7f, 0x50,
0x8c, 0x21, 0x87, 0x48,
0xff, 0xff, 0xff, 0x00,
0xd0, 0xca, 0xf0, 0x8f,
0xe9, 0x92, 0xff, 0x87,
0x40, 0x3b, 0x68, 0xad,
0x63, 0x50, 0xff, 0x7f,
0x36, 0x9b, 0xdf, 0x72,
0xe4, 0x03, 0xe8, 0xff,
0x3f, 0x00, 0xc0, 0x9f,
0xe9, 0xff, 0x83, 0xfe,
0x7f, 0xc6, 0x6a, 0x0c,
0x54, 0x4c, 0x1a, 0xf4,
0xff, 0xff, 0x08, 0x00,
0x25, 0x68, 0xff, 0x3f,
0x4c, 0x41, 0x6b, 0x36,
0x0a, 0xee, 0xff, 0xff,
0xff, 0xff, 0x03, 0x40,
0x1f, 0x08, 0x7a, 0x0f,
0x00, 0x28, 0x2f, 0xc2,
0x55, 0x94, 0x78, 0x1b,
0x1e, 0x4a, 0x04, 0x00,
0xb1, 0xde, 0x05, 0x42,
0x9c, 0x3a, 0xbc, 0x19,
0x00, 0x10, 0xc3, 0xb4,
0xc0, 0x93, 0x8e, 0xa5,
0xa7, 0x2a, 0x0d, 0x00,
0x89, 0x9c, 0x4d, 0x94,
0x9a, 0xb7, 0xeb, 0xb6,
0x0a, 0x02, 0xff, 0x76,
0xab, 0x51, 0xaa, 0x0e,
0x00, 0x1c, 0x10, 0x0c,
0xe4, 0xaf, 0x40, 0xb8,
0x28, 0x79, 0x2d, 0x0b,
0x00, 0x3d, 0xbd, 0xa9,
0xdf, 0x89, 0xfd, 0x4d,
0x78, 0x00, 0x10, 0xca,
0x4a, 0xc3, 0x66, 0x73,
0x73, 0x00, 0x40, 0x80,
0x83, 0xe8, 0x2b, 0x28,
0xcc, 0x3a, 0xde, 0x37,
0x00, 0x18, 0x2a, 0x5f,
0xb8, 0xd6, 0x1e, 0xdd,
0x57, 0x6b, 0x63, 0xa8,
0x61, 0x05, 0x0c, 0x18,
0xbe, 0xe7, 0x02, 0x00,
0x92, 0x86, 0xcb, 0x1d,
0xed, 0x90, 0xa1, 0xf5,
0x0a, 0x00, 0x86, 0x43,
0xec, 0xdd, 0x6b, 0x10,
0xa4, 0x92, 0x2d, 0x00,
0x90, 0x06, 0x64, 0x11,
0x6a, 0xc3, 0xcc, 0xd6,
0xa8, 0x22, 0xbe, 0xeb,
0x59, 0x85, 0xfd, 0x03,
0xc0, 0x1c, 0x19, 0xdf,
0xbc, 0x9c, 0x1f, 0x41,
0x2a, 0x2e, 0x00, 0x18,
0x3c, 0x95, 0x31, 0xc3,
0xd8, 0x3d, 0x8f, 0x5a,
0x0c, 0x00, 0xa5, 0x8a,
0x2c, 0xef, 0x0a, 0x3a,
0x5b, 0x90, 0x08, 0x00,
0x75, 0x96, 0x88, 0x3e,
0x46, 0x91, 0x9a, 0x0a,
0x00, 0xc9, 0x5c, 0x9b,
0x34, 0x60, 0x84, 0xb4,
0x47, 0x4c, 0x1e, 0x65,
0x30, 0x1b, 0x53, 0x94,
0x0c, 0x00, 0xf3, 0xe1,
0x63, 0xe9, 0xd3, 0x3a,
0xdc, 0x19, 0x23, 0x5b,
0x01, 0x00, 0x5a, 0x3f,
0x3a, 0x34, 0x47, 0x52,
0x5c, 0x0c, 0x00, 0x58,
0xc5, 0x6d, 0x47, 0x8f,
0x07, 0x9b, 0x72, 0x16,
0x00, 0x72, 0xc8, 0xc6,
0x08, 0x88, 0xcf, 0xa9,
0x6d, 0x01, 0x87, 0xb7,
0x2b, 0xcb, 0xc8, 0xcc,
0x08, 0xe0, 0x49, 0x89,
0x86, 0x37, 0x81, 0x16,
0x34, 0xed, 0xff, 0x8d,
0xc9, 0x06, 0xfe, 0x35,
0x45, 0xc8, 0xff, 0xff,
0xff, 0xff, 0x70, 0xbd,
0x00, 0x00, 0x9a, 0x51,
0xff, 0xdf, 0x38, 0x47,
0x64, 0x6b, 0x6a, 0x85,
0xff, 0x8f, 0x5d, 0x9c,
0x87, 0xce, 0xa7, 0xeb,
0xff, 0xff, 0x1f, 0x00,
0x3e, 0x10, 0xfe, 0x61,
0x15, 0xfe, 0xff, 0xd0,
0xe6, 0xed, 0xa1, 0x38,
0x95, 0xc5, 0xff, 0x7f,
0x93, 0xf9, 0x56, 0x63,
0x8c, 0x9e, 0xfe, 0xff,
0x01, 0x00, 0xbe, 0x97,
0xfe, 0x1f, 0xf1, 0xff,
0x32, 0x87, 0x0e, 0x28,
0xe5, 0x9a, 0xce, 0xff,
0xff, 0x07, 0x00, 0x48,
0x53, 0xdc, 0x3a, 0x01,
0x00, 0xf0, 0x4e, 0x96,
0xe2, 0xbb, 0x4e, 0xf6,
0x14, 0x00, 0x50, 0x5b,
0x40, 0x83, 0x96, 0xd5,
0x12, 0x0a, 0x27, 0xff,
0x00, 0xc0, 0x40, 0x78,
0x92, 0x9c, 0x65, 0x5d,
0xf3, 0x2e, 0x04, 0x40,
0xcc, 0x0d, 0x10, 0x8a,
0x5a, 0xaf, 0x50, 0x99,
0x00, 0x00, 0xe9, 0xb0,
0xb2, 0x4b, 0x59, 0xf5,
0x0f, 0xd1, 0x31, 0xfb,
0xa8, 0xef, 0x9c, 0xeb,
0xe8, 0x03, 0x80, 0x33,
0x4c, 0xa7, 0x03, 0x13,
0xfe, 0x3c, 0x4d, 0x87,
0x00, 0x90, 0x62, 0x48,
0x86, 0xff, 0x47, 0x1c,
0xac, 0xb2, 0x66, 0x07,
0x80, 0x88, 0xb6, 0x26,
0x3b, 0xf0, 0x24, 0xfe,
0xa8, 0x17, 0x00, 0x86,
0xc2, 0xa4, 0x43, 0x86,
0x4e, 0x31, 0xab, 0x3b,
0x00, 0x8c, 0xa8, 0x82,
0x62, 0xcd, 0x46, 0xe8,
0xd7, 0x16, 0x5d, 0x76,
0xba, 0x73, 0x9f, 0x37,
0xb9, 0x06, 0x00, 0xa0,
0x53, 0xe8, 0xe2, 0x81,
0x78, 0xb5, 0x04, 0x00,
0x0b, 0x70, 0x76, 0x75,
0x77, 0x7c, 0x30, 0x31,
0x9b, 0x00, 0xc0, 0xb4,
0x78, 0x2c, 0xa2, 0x48,
0xb4, 0x58, 0xd1, 0xe8,
0x5d, 0xad, 0xfc, 0xf1,
0x1a, 0x00, 0x86, 0xe8,
0xa9, 0x3b, 0x24, 0x46,
0xa9, 0xbd, 0x91, 0x06,
0x00, 0xec, 0x85, 0xfc,
0x74, 0x59, 0xa0, 0x03,
0x00, 0x90, 0x00, 0x9f,
0xa1, 0x2b, 0x9e, 0xd0,
0x2b, 0x02, 0x00, 0x2c,
0x92, 0x94, 0xfc, 0xd5,
0x82, 0x99, 0x4f, 0xa4,
0x2d, 0xf8, 0xb7, 0x7b,
0x48, 0xa6, 0x70, 0x13,
0x00, 0x74, 0xda, 0x20,
0x51, 0xd8, 0x69, 0x17,
0x54, 0x8b, 0x23, 0x1b,
0x00, 0x80, 0xb1, 0x0e,
0x17, 0x71, 0xe7, 0x91,
0x3e, 0x00, 0x50, 0x60,
0x6d, 0xca, 0x62, 0x5e,
0xbc, 0x35, 0x8c, 0x71,
0x02, 0x00, 0x11, 0x4c,
0x24, 0x51, 0x62, 0xb7,
0x5b, 0x76, 0x81, 0x7f,
0x40, 0x9f, 0x8c, 0xab,
0xba, 0x49, 0x80, 0xff,
0xef, 0xac, 0xc8, 0x07,
0x2e, 0x21, 0xf9, 0xa5,
0xff, 0xff, 0xff, 0x07,
0x18, 0x25, 0x80, 0xa7,
0x2f, 0xff, 0xff, 0x05,
0xa9, 0x60, 0xb3, 0x4e,
0xd7, 0xf1, 0xf8, 0xff,
0xb4, 0x6e, 0xc2, 0x17,
0xd6, 0xf2, 0xff, 0xff,
0x00, 0x00, 0x9c, 0x4a,
0xfe, 0xff, 0xaf, 0x06,
0xef, 0x0b, 0xe4, 0x66,
0xff, 0xff, 0xff, 0xff,
0x0f, 0x0c, 0x8c, 0x27,
0xc4, 0x3f, 0x69, 0x19,
0x9d, 0x94, 0x9d, 0xf7,
0x31, 0x70, 0xfe, 0x3f,
0xff, 0x3f, 0xfd, 0x76,
0x42, 0x9d, 0x35, 0xd0,
0xff, 0x7f, 0x00, 0x12,
0xd0, 0x36, 0x02, 0x00,
0xa4, 0x44, 0x1c, 0x69,
0x51, 0x8e, 0x85, 0x21,
0x4d, 0x2f, 0x19, 0x00,
0x20, 0x58, 0x40, 0x43,
0x04, 0xc8, 0x6f, 0x95,
0x33, 0x00, 0x48, 0x39,
0x27, 0x0d, 0xf9, 0xdd,
0xc0, 0x7d, 0xb6, 0x0e,
0x20, 0x36, 0x94, 0x06,
0x06, 0x64, 0x4e, 0xe3,
0x58, 0x00, 0x60, 0x7d,
0x6c, 0x10, 0xbc, 0x46,
0xa3, 0x9b, 0xa9, 0xda,
0xff, 0x8c, 0xd2, 0x45,
0x27, 0x01, 0xa0, 0x0b,
0x97, 0x0c, 0xdf, 0x53,
0xe7, 0x28, 0x0b, 0x00,
0xbe, 0xd3, 0x27, 0x46,
0x0b, 0x9e, 0x67, 0x0c,
0xf2, 0x42, 0xc1, 0xb6,
0x25, 0x6b, 0x00, 0x80,
0x51, 0xa4, 0x9f, 0xbc,
0x5f, 0x95, 0x38, 0x0b,
0x00, 0x20, 0x59, 0xc2,
0xc4, 0x84, 0xb6, 0xfd,
0xb1, 0x0e, 0x00, 0x30,
0xd0, 0x6c, 0xb0, 0x99,
0x33, 0xee, 0x9d, 0xda,
0x0a, 0x00, 0x31, 0xb7,
0x0a, 0x94, 0x13, 0x70,
0xcc, 0x1a, 0x16, 0x00,
0xe0, 0x7f, 0xe0, 0x8c,
0x65, 0x08, 0x64, 0x24,
0xac, 0xb3, 0x51, 0x9d,
0x78, 0xda, 0x28, 0x00,
0xa4, 0xd5, 0x5d, 0x89,
0xd0, 0xc2, 0x48, 0x66,
0x00, 0x00, 0xc2, 0x89,
0x8d, 0xf5, 0xc4, 0x7d,
0x63, 0xf7, 0xa5, 0x41,
0xda, 0x02, 0x00, 0x9a,
0xdf, 0x9e, 0xc9, 0x15,
0xff, 0x33, 0x67, 0xeb,
0x03, 0x40, 0xa1, 0x10,
0xe0, 0xdf, 0xc8, 0xde,
0x99, 0xed, 0x00, 0x40,
0xa0, 0x02, 0xcc, 0xed,
0xad, 0x5f, 0x8d, 0x03,
0x00, 0x60, 0xaf, 0x68,
0xcf, 0x61, 0xe4, 0xb3,
0x99, 0x97, 0x55, 0x49,
0x7a, 0x77, 0x25, 0x3a,
0xe0, 0x14, 0x00, 0x88,
0x37, 0x3b, 0x73, 0xdc,
0xac, 0xe9, 0x38, 0xdd,
0x0d, 0x80, 0x94, 0x68,
0xfc, 0xbe, 0x02, 0x8a,
0xfc, 0xdc, 0x02, 0x80,
0x20, 0x53, 0x8c, 0x3c,
0xe0, 0xf5, 0x6e, 0xc9,
0xff, 0x87, 0x0a, 0xe5,
0x2d, 0x87, 0x14, 0xd9,
0xf9, 0x7f, 0x07, 0x91,
0xf8, 0x87, 0xf5, 0xa3,
0xf2, 0xff, 0xff, 0x3f,
0x00, 0xd8, 0x03, 0xfc,
0xd3, 0x1b, 0xfe, 0xff,
0xca, 0x95, 0x82, 0xed,
0x11, 0x96, 0xf7, 0xff,
0x7e, 0x5c, 0xe1, 0x8c,
0xd5, 0xea, 0xff, 0x1f,
0x40, 0xd1, 0x01, 0x3e,
0xf8, 0xff, 0x5a, 0x0e,
0xdd, 0xf6, 0xbc, 0x6b,
0xfe, 0xff, 0xff, 0xff,
0x3f, 0x94, 0x0a, 0x00,
0xc4, 0xce, 0xfc, 0x7f,
0xbc, 0x38, 0x5e, 0xc7,
0x7f, 0xd2, 0x8a, 0xff,
0x1f, 0x49, 0x41, 0x25,
0x03, 0xff, 0xff, 0xff,
0x0f, 0x00, 0xe8, 0x89,
0x02, 0xe0, 0xbc, 0xd3,
0x20, 0x3b, 0x59, 0xf0,
0xfa, 0xb0, 0x58, 0x65,
0x00, 0xb0, 0xaa, 0xc4,
0xb7, 0x71, 0x37, 0xac,
0xc9, 0x00, 0xe0, 0x49,
0xb0, 0xed, 0xd6, 0x96,
0xa8, 0xcd, 0x0e, 0x00,
0x02, 0x27, 0x71, 0xc6,
0x11, 0x2a, 0x9a, 0x05,
0x00, 0x6c, 0x1b, 0x55,
0x48, 0x60, 0x25, 0xf2,
0x44, 0xda, 0xb6, 0x96,
0x4d, 0xb6, 0x7a, 0x50,
0xd0, 0xe7, 0x00, 0x10,
0x10, 0x8b, 0x70, 0x02,
0x0c, 0x5c, 0x6c, 0x41,
0xa0, 0x80, 0x23, 0xb3,
0x71, 0x2a, 0x07, 0xbe,
0xca, 0x00, 0xa0, 0x89,
0xe1, 0x9c, 0x8f, 0x32,
0x76, 0xb3, 0x7f, 0x4b,
0xaa, 0xf5, 0xcb, 0x36,
0xb7, 0xd7, 0x73, 0x00,
0x02, 0x42, 0xd6, 0x8f,
0xf0, 0x6c, 0x90, 0xb1,
0x01, 0x40, 0x54, 0x87,
0x3e, 0xd2, 0x65, 0x29,
0x5a, 0x2a, 0x0a, 0x00,
0xc4, 0xb5, 0x22, 0x90,
0x5f, 0x92, 0x21, 0xeb,
0x08, 0x00, 0xa7, 0x72,
0x8c, 0x40, 0x88, 0x63,
0x43, 0xc0, 0xb2, 0x03,
0x80, 0x62, 0x3c, 0x40,
0x21, 0xfd, 0x18, 0xb5,
0x1d, 0x2e, 0xdc, 0x90,
0xa7, 0xfe, 0xa1, 0xd4,
0x00, 0xc0, 0x11, 0x33,
0x28, 0xd6, 0xaf, 0x84,
0xc1, 0x05, 0x01, 0x59,
0xc7, 0xf5, 0xc2, 0x19,
0x5d, 0x2a, 0x1c, 0x00,
0x4c, 0x15, 0xfc, 0x7d,
0x1e, 0xbc, 0xbc, 0xfe,
0x45, 0x7c, 0x32, 0x5a,
0x78, 0xd0, 0x11, 0x9a,
0x16, 0x00, 0xc2, 0xfe,
0x80, 0xb8, 0x7a, 0x11,
0xa0, 0x02, 0x00, 0xb4,
0xba, 0x32, 0xec, 0x28,
0x55, 0xcb, 0x63, 0x29,
0x00, 0xb0, 0xec, 0x49,
0xe2, 0xe1, 0xd7, 0x23,
0x7d, 0x29, 0x00, 0x40,
0xb4, 0x68, 0x56, 0x07,
0x34, 0x8d, 0xb9, 0x02,
0x00, 0xfd, 0x94, 0x62,
0x46, 0x8a, 0x45, 0x7c,
0x6f, 0xdb, 0x21, 0x20,
0x50, 0x5c, 0x71, 0xf7,
0xe5, 0x00, 0x1e, 0xa1,
0x7e, 0x31, 0xee, 0x7b,
0x38, 0x20, 0xf4, 0xff,
0x41, 0xa0, 0xaa, 0xd0,
0xdc, 0xc0, 0xb0, 0xff,
0xff, 0xff, 0x7f, 0xf0,
0x42, 0x00, 0xc0, 0x9c,
0xee, 0xff, 0x0b, 0x35,
0x07, 0x5c, 0x44, 0x34,
0x7d, 0xff, 0x3f, 0x4e,
0x69, 0x38, 0x2c, 0xda,
0x6c, 0xff, 0xff, 0xff,
0x00, 0x10, 0x5e, 0xf0,
0x1f, 0xfe, 0x7f, 0x3d,
0xe7, 0xf6, 0x79, 0x20,
0xbe, 0xff, 0xff, 0xff,
0x0f, 0x60, 0xab, 0x00,
0x0f, 0xcb, 0xad, 0xff,
0x07, 0x61, 0xaf, 0xf2,
0x96, 0x2a, 0x90, 0xf2,
0xff, 0x9b, 0x44, 0xa0,
0x1d, 0xea, 0xa3, 0xff,
0xff, 0xff, 0x07, 0x80,
0xf0, 0x6a, 0x0c, 0x00,
0x40, 0xc3, 0x2a, 0x10,
0x2a, 0xe6, 0xb4, 0xad,
0x01, 0x00, 0xe0, 0xd4,
0xf0, 0x16, 0x0b, 0xe5,
0xfa, 0x23, 0x75, 0x25,
0x89, 0x11, 0x00, 0x28,
0x75, 0x64, 0x4a, 0x15,
0xff, 0xb8, 0x63, 0x0c,
0x00, 0x52, 0x9b, 0x54,
0x08, 0x30, 0x66, 0x92,
0xf6, 0x05, 0x00, 0xcc,
0x20, 0x0b, 0x9a, 0xf0,
0x17, 0x17, 0xa0, 0xcd,
0x1f, 0xb7, 0x81, 0x0d,
0x65, 0xdc, 0x1e, 0x04,
0x40, 0x58, 0xb8, 0x61,
0x21, 0xf0, 0xe3, 0x00,
0xc0, 0x22, 0x7a, 0x44,
0x5b, 0xca, 0x91, 0xa4,
0xb4, 0x74, 0x00, 0x10,
0x4a, 0xaf, 0xf6, 0x8e,
0x9e, 0x72, 0x9d, 0x0e,
0x00, 0x49, 0xc3, 0x39,
0xa5, 0xbf, 0x25, 0x10,
0xb7, 0x0b, 0xa1, 0xbe,
0x63, 0xb1, 0x37, 0x5d,
0x01, 0x80, 0x6e, 0x33,
0x9e, 0x47, 0x91, 0x4a,
0x27, 0x94, 0x23, 0xa2,
0x01, 0x00, 0x64, 0x70,
0x0e, 0x70, 0xe3, 0x59,
0xbb, 0x49, 0x00, 0x60,
0x9f, 0x99, 0x7e, 0xe7,
0xc9, 0x8f, 0x74, 0xdf,
0x75, 0x00, 0xc0, 0x1a,
0x86, 0x85, 0xba, 0xe9,
0xd5, 0xed, 0x22, 0x8f,
0x14, 0x61, 0x98, 0x62,
0x2d, 0x00, 0x40, 0x2c,
0xb8, 0x52, 0x44, 0x94,
0x80, 0x56, 0x01, 0x00,
0x22, 0x6e, 0x29, 0xc1,
0x35, 0x9e, 0xa9, 0x4a,
0xce, 0x00, 0x10, 0xa4,
0x50, 0xc0, 0x8d, 0x87,
0x1a, 0xf6, 0x74, 0x12,
0x00, 0x3e, 0xa6, 0x1b,
0x9a, 0x68, 0xf8, 0x9b,
0x4f, 0x54, 0x65, 0xeb,
0x97, 0x11, 0x7a, 0xe1,
0x19, 0x00, 0xcc, 0x5b,
0x25, 0x10, 0xdf, 0x06,
0x49, 0xe7, 0x00, 0x60,
0xb9, 0x7a, 0x48, 0x29,
0x3c, 0x7b, 0xdf, 0x8c,
0x9d, 0xa6, 0x14, 0x56,
0xb6, 0x63, 0x3a, 0x00,
0x94, 0xf7, 0x4a, 0x10,
0x66, 0xc0, 0xfc, 0x08,
0x04, 0x40, 0xc9, 0x88,
0xac, 0x75, 0xb2, 0x22,
0x4f, 0xf0, 0x4f, 0xab,
0xa6, 0xd5, 0x59, 0xee,
0xc4, 0x07, 0xfe, 0xff,
0xa6, 0xe1, 0x79, 0x5c,
0x6c, 0xfd, 0xff, 0xff,
0x3f, 0x40, 0xfe, 0x01,
0x7c, 0x40, 0x79, 0xf9,
0x7f, 0xe8, 0xa8, 0x51,
0x0e, 0x2a, 0xe6, 0xc4,
0xff, 0x67, 0xc3, 0x5f,
0xd9, 0xc7, 0xda, 0xd3,
0xfd, 0xff, 0x3f, 0x00,
0x40, 0xb1, 0xa5, 0x17,
0xf1, 0xff, 0x24, 0x15,
0xe4, 0x3b, 0x38, 0x65,
0xff, 0x3f, 0x63, 0x20,
0x0a, 0x14, 0x3a, 0x71,
0xe1, 0xff, 0xff, 0x1f,
0x00, 0x3e, 0x1c, 0xfe,
0x1b, 0xfe, 0x7f, 0x95,
0x3f, 0x29, 0x1c, 0xfc,
0xfd, 0xff, 0xff, 0x3f,
0x40, 0x93, 0x02, 0x00,
0xd7, 0x39, 0x00, 0x90,
0x3e, 0xb4, 0x38, 0x5e,
0xc6, 0xce, 0xd6, 0x46,
0x5d, 0x16, 0x05, 0xef,
0x8c, 0xb0, 0x46, 0x00,
0x90, 0x93, 0x3f, 0x9c,
0xfd, 0x78, 0x80, 0x6f,
0x01, 0x00, 0x34, 0xa0,
0x99, 0x76, 0x2f, 0xfa,
0xab, 0x1b, 0xe1, 0x6e,
0xa7, 0x9e, 0x0c, 0x62,
0x07, 0x80, 0x18, 0x5d,
0x22, 0xf9, 0x39, 0x11,
0xbf, 0x18, 0x02, 0x00,
0x84, 0x46, 0xb8, 0x5f,
0xee, 0xc2, 0x85, 0xa7,
0x29, 0x52, 0x05, 0x00,
0xd8, 0xc8, 0x44, 0x6c,
0x89, 0x03, 0x7e, 0x34,
0x0f, 0x00, 0x18, 0xd8,
0xe1, 0xbd, 0x08, 0x74,
0x0f, 0x2f, 0x01, 0x40,
0xa6, 0x22, 0xde, 0x47,
0x93, 0xc7, 0xd6, 0x6e,
0x8d, 0xb0, 0x20, 0x42,
0xe2, 0x16, 0x80, 0xda,
0x02, 0x00, 0xa3, 0x4c,
0x91, 0x94, 0x9b, 0x8e,
0xeb, 0x03, 0x00, 0x84,
0xed, 0xe4, 0xb5, 0xc5,
0x3c, 0x8b, 0x19, 0x1f,
0x00, 0x20, 0x51, 0x1f,
0x95, 0xd8, 0xf2, 0x87,
0x24, 0x6a, 0x00, 0x30,
0xba, 0xf8, 0xc0, 0x5e,
0x5a, 0xaf, 0xa7, 0xc3,
0xfc, 0x8f, 0xcb, 0xe5,
0x92, 0x67, 0x15, 0x00,
0xf2, 0x41, 0x91, 0x2f,
0x6a, 0xd6, 0x7f, 0x52,
0xa0, 0x82, 0x00, 0x70,
0x84, 0xa2, 0x48, 0xef,
0xbe, 0x34, 0x48, 0x35,
0x00, 0xb4, 0x28, 0x22,
0x91, 0x70, 0xf6, 0x55,
0x3b, 0x40, 0x3a, 0xdc,
0x09, 0x7b, 0x40, 0x00,
0x50, 0xe8, 0xc1, 0x71,
0x6f, 0x6e, 0xe9, 0x32,
0x8d, 0x6d, 0x56, 0x00,
0x80, 0xe8, 0x91, 0xce,
0x5a, 0x06, 0xf0, 0xb2,
0x03, 0x80, 0x86, 0xd5,
0x10, 0xec, 0xd6, 0xce,
0x62, 0x78, 0xbf, 0x00,
0x42, 0x64, 0x0d, 0xcc,
0x93, 0x15, 0x3c, 0xa9,
0x15, 0x00, 0x18, 0xcb,
0x6b, 0xb1, 0x84, 0xed,
0xd0, 0xee, 0x22, 0x08,
0xe5, 0x29, 0x32, 0xf4,
0x6e, 0x00, 0x10, 0x43,
0xa3, 0xa3, 0xc3, 0x43,
0x29, 0xb0, 0x3f, 0xa0,
0xa5, 0xf9, 0xff, 0xa5,
0x04, 0x65, 0x9f, 0x53,
0xcc, 0x2a, 0xff, 0xbf,
0xa6, 0xd8, 0xbb, 0xc3,
0x9a, 0xfe, 0xff, 0xff,
0x01, 0xc0, 0x7a, 0xe1,
0x7f, 0xe8, 0xff, 0xe7,
0xf0, 0x0e, 0xe0, 0x9d,
0xd0, 0xff, 0xff, 0xff,
0x03, 0x6c, 0x16, 0xc0,
0x8b, 0xab, 0xfa, 0xff,
0x2b, 0x3e, 0xbc, 0x3f,
0xdf, 0x48, 0xe1, 0xff,
0x07, 0xba, 0x71, 0x9c,
0x1d, 0xe9, 0xff, 0xff,
0x03, 0xe1, 0x03, 0x00,
0x00, 0xc3, 0xff, 0x6f,
0xf9, 0x10, 0x14, 0xd7,
0x63, 0xeb, 0xbf, 0xfa,
0xff, 0x49, 0x03, 0x6f,
0xac, 0xf2, 0x7b, 0xfc,
0xff, 0xff, 0x03, 0x80,
0x6e, 0x02, 0x00, 0x24,
0x6a, 0x00, 0xc0, 0x7e,
0x68, 0x95, 0x7b, 0x7e,
0x2f, 0xea, 0x14, 0x0b,
0x00, 0xd4, 0xbb, 0x72,
0x00, 0x53, 0xb6, 0x54,
0xe9, 0x87, 0xed, 0x45,
0xc6, 0xfd, 0x1f, 0x4b,
0x44, 0x03, 0x80, 0xe5,
0xbe, 0x5e, 0x7f, 0xf8,
0x94, 0x3e, 0x00, 0x18,
0xc2, 0x01, 0x99, 0x3f,
0x01, 0xd5, 0xba, 0x06,
0x80, 0x48, 0x07, 0xa7,
0x99, 0xab, 0x69, 0x92,
0x6c, 0xc3, 0x83, 0xdc,
0x50, 0xda, 0x7c, 0x02,
0x10, 0x94, 0x38, 0xc0,
0x7a, 0xbc, 0x1c, 0xc7,
0x15, 0x08, 0x00, 0xa9,
0xab, 0x04, 0xfd, 0x36,
0x72, 0xe3, 0xcb, 0x56,
0x41, 0x42, 0x40, 0x40,
0x4e, 0xc3, 0xa4, 0x17,
0x0f, 0x4b, 0x50, 0x00,
0xa0, 0x24, 0x23, 0xfb,
0x04, 0xc4, 0xf1, 0xf7,
0x11, 0x1a, 0x00, 0x58,
0x07, 0x82, 0xfd, 0x4c,
0xcf, 0xb9, 0x10, 0x74,
0x02, 0xc0, 0x30, 0x43,
0xd4, 0x04, 0x55, 0x2a,
0xb1, 0x06, 0x00, 0x6d,
0x8b, 0x5e, 0xb2, 0x62,
0xf0, 0xd4, 0x5b, 0xa9,
0x17, 0x77, 0xea, 0xf2,
0x05, 0xc1, 0x15, 0x00,
0x88, 0x59, 0x65, 0x06,
0xc9, 0x76, 0x34, 0x00,
0x70, 0xd6, 0x55, 0xa1,
0xba, 0x89, 0x6a, 0xe5,
0x28, 0x7e, 0xdb, 0xdb,
0x86, 0xb1, 0xf1, 0x43,
0x0f, 0x00, 0x42, 0xaa,
0x11, 0x11, 0xab, 0xb8,
0x7b, 0xf7, 0x00, 0x10,
0x6a, 0xa3, 0xe4, 0x23,
0x44, 0xe4, 0xc9, 0x1a,
0x0d, 0x00, 0xe9, 0xb8,
0x8c, 0x65, 0xa2, 0xab,
0x59, 0x6b, 0x1a, 0x05,
0x95, 0x65, 0x0d, 0x60,
0xa5, 0x00, 0x80, 0x3b,
0xe3, 0xfc, 0xdd, 0x02,
0x40, 0x26, 0x05, 0x00,
0x38, 0xda, 0x56, 0x30,
0x6d, 0x59, 0x55, 0x0b,
0x00, 0xd8, 0x50, 0xac,
0xe1, 0xf0, 0xd9, 0x42,
0x63, 0x2b, 0xc4, 0xc9,
0xd8, 0xa1, 0xbe, 0x09,
0xf0, 0x26, 0xaf, 0x8a,
0x02, 0x7e, 0xbf, 0x87,
0x36, 0xfe, 0xff, 0xcb,
0xff, 0xdf, 0xdb, 0xb7,
0x77, 0x31, 0xff, 0xff,
0x3f, 0x0c, 0x0d, 0x00,
0x40, 0xd3, 0xfd, 0x7f,
0x00, 0x09, 0x72, 0x39,
0xb1, 0x40, 0x78, 0xf6,
0xff, 0xd9, 0x7d, 0x95,
0x44, 0xb7, 0x3f, 0xe0,
0xe2, 0xff, 0xff, 0x1f,
0x00, 0xb6, 0x12, 0xfe,
0x25, 0xff, 0x7f, 0x7b,
0x86, 0xb3, 0x93, 0xca,
0xd5, 0xff, 0xff, 0xff,
0x03, 0x78, 0x27, 0xc0,
0x03, 0x6d, 0xce, 0xff,
0x0b, 0xd3, 0x96, 0xae,
0xaf, 0x6e, 0x13, 0xc5,
0xff, 0xdf, 0xa3, 0x39,
0x59, 0xb0, 0x30, 0xff,
0xff, 0xff, 0x03, 0x80,
0x14, 0x02, 0x00, 0x00,
0xba, 0x00, 0x00, 0x2c,
0x58, 0x1b, 0xfc, 0xe6,
0x56, 0xed, 0x9d, 0xaa,
0x09, 0x40, 0x58, 0x65,
0xd4, 0xef, 0xb7, 0xd0,
0x39, 0x34, 0xf6, 0x2a,
0x92, 0xe6, 0x4e, 0x63,
0xa9, 0xa0, 0x3f, 0x00,
0x84, 0xde, 0x5b, 0x81,
0x41, 0xde, 0xc9, 0x61,
0xd4, 0x58, 0x01, 0x40,
0x57, 0x36, 0xa7, 0x9b,
0x83, 0x40, 0x68, 0xc9,
0x01, 0x40, 0x05, 0x0b,
0x62, 0x36, 0xe0, 0x60,
0xcd, 0x00, 0x60, 0xe9,
0xa1, 0x55, 0x49, 0x8e,
0x2d, 0x29, 0x4a, 0x3c,
0x09, 0xe8, 0xa9, 0xb3,
0x14, 0x00, 0x18, 0x01,
0x94, 0x28, 0xac, 0xc6,
0x6f, 0x91, 0x77, 0x36,
0x75, 0x00, 0xe4, 0x34,
0xa6, 0xa8, 0x09, 0x63,
0xbe, 0x2b, 0x00, 0x08,
0x41, 0x9a, 0x27, 0x1e,
0x58, 0x60, 0xb9, 0x06,
0x00, 0x91, 0xdf, 0x90,
0x7d, 0xa0, 0x4d, 0x16,
0xa5, 0xf7, 0x08, 0x4a,
0x8e, 0x9e, 0x31, 0x2a,
0xb3, 0x4b, 0x01, 0x00,
0xde, 0x19, 0x0e, 0x37,
0xb9, 0x44, 0x36, 0x00,
0x90, 0x6f, 0x7a, 0xdd,
0x75, 0xdb, 0xda, 0xd1,
0x01, 0x80, 0xeb, 0xea,
0x3b, 0x35, 0xd5, 0xba,
0xb5, 0x36, 0x80, 0xa1,
0xfe, 0x97, 0xb5, 0x00,
0x00, 0x68, 0x4c, 0xdc,
0x96, 0xd0, 0x2c, 0xee,
0x45, 0x7e, 0x09, 0xf4,
0x35, 0x00, 0x04, 0x79,
0x99, 0x3d, 0x12, 0x5a,
0xe7, 0x3f, 0xdc, 0x2e,
0x00, 0x00, 0x62, 0x5a,
0x62, 0x52, 0x9a, 0xe1,
0xb4, 0xbd, 0x01, 0xe0,
0x02, 0x87, 0x65, 0xb1,
0x23, 0x2b, 0xdb, 0x73,
0xab, 0x00, 0x40, 0x2f,
0x1a, 0x1c, 0x3d, 0x06,
0x98, 0xda, 0x03, 0xed,
0xcf, 0x29, 0x20, 0x9a,
0x38, 0x00, 0x00, 0x76,
0x20, 0xf9, 0xd7, 0x71,
0x1f, 0x61, 0x36, 0x00,
0x88, 0x2c, 0xb7, 0x40,
0x7e, 0xfc, 0x2e, 0x46,
0x01, 0x2e, 0xf0, 0xaf,
0x38, 0x1e, 0xd6, 0xec,
0x8b, 0x80, 0xff, 0xff,
0x5b, 0x47, 0x81, 0x55,
0x23, 0x42, 0xff, 0xff,
0xff, 0x0f, 0x30, 0x9a,
0x00, 0x6f, 0x39, 0xfb,
0xff, 0x53, 0xaa, 0x43,
0xc6, 0xab, 0x61, 0xb0,
0xff, 0x57, 0xde, 0x4c,
0xfe, 0xae, 0x08, 0xff,
0xff, 0x0f, 0xd7, 0x05,
0x00, 0x88, 0x42, 0xfc,
0xff, 0xbb, 0xc6, 0x31,
0x57, 0xf6, 0x1b, 0xc0,
0xff, 0x2b, 0xfc, 0xe1,
0x08, 0x35, 0x9e, 0xff,
0xff, 0x7f, 0x00, 0xe0,
0x0a, 0xf8, 0xc7, 0xff,
0x5f, 0x33, 0xfa, 0x46,
0xb5, 0xb9, 0xcb, 0xff,
0xff, 0xff, 0x03, 0x54,
0x14, 0x00, 0x4c, 0xa9,
0x67, 0x61, 0xfe, 0x7a,
0xc6, 0x6d, 0x36, 0x52,
0x00, 0x00, 0x92, 0x22,
0x98, 0x8c, 0x2a, 0x5f,
0x99, 0x05, 0x80, 0xb2,
0x2a, 0xbe, 0x8d, 0x97,
0x70, 0x6c, 0xa4, 0x6f,
0x00, 0xb0, 0xfa, 0x27,
0xb5, 0x33, 0x22, 0x9a,
0x2e, 0x9d, 0x01, 0x25,
0x3c, 0xc0, 0x9b, 0xa8,
0x0b, 0x00, 0x33, 0x59,
0xe5, 0xb0, 0x50, 0x3c,
0x3d, 0x04, 0x0b, 0x02,
0x6d, 0x7f, 0x5e, 0x1b,
0xd5, 0x7c, 0x0e, 0x00,
0xc0, 0xb8, 0x00, 0x02,
0xaa, 0x36, 0x09, 0x32,
0x8f, 0x0e, 0x58, 0xa5,
0x4a, 0x52, 0x94, 0x04,
0x00, 0x49, 0x3b, 0xfa,
0xdf, 0xd8, 0x9e, 0x37,
0x71, 0x5d, 0x0b, 0x00,
0x90, 0xcb, 0x72, 0x6f,
0x6a, 0x26, 0xf2, 0x0e,
0x00, 0x22, 0xa5, 0xdc,
0x6a, 0xc1, 0xbf, 0xbf,
0xcb, 0x32, 0x6a, 0x5f,
0x5c, 0xe9, 0x8e, 0x1d,
0x00, 0xd8, 0xaa, 0xf0,
0xad, 0x1a, 0x5c, 0x86,
0x4b, 0x00, 0x00, 0x52,
0xf1, 0xa3, 0x1c, 0x6f,
0x4c, 0x66, 0x6d, 0x7e,
0x45, 0xf1, 0x59, 0x00,
0x48, 0x4f, 0xf5, 0x80,
0xd8, 0x28, 0x6c, 0x43,
0x03, 0x00, 0xc2, 0x03,
0x7a, 0x59, 0x99, 0xfc,
0xba, 0x09, 0x00, 0xc2,
0xd5, 0x36, 0x10, 0x30,
0x7b, 0x4e, 0x44, 0x0f,
0x00, 0x02, 0x9d, 0x20,
0x94, 0xb8, 0x80, 0x6d,
0xa9, 0x5f, 0x84, 0x70,
0x30, 0x63, 0x0f, 0x2d,
0x2c, 0x00, 0x54, 0x90,
0x2d, 0x62, 0x57, 0x95,
0x8d, 0xd6, 0x54, 0x2a,
0x00, 0x74, 0xf2, 0x64,
0xc9, 0x2d, 0x13, 0xce,
0xab, 0x01, 0x20, 0x05,
0x55, 0xa4, 0x50, 0x79,
0xb7, 0xd4, 0x5e, 0x03,
0xf3, 0x41, 0x1e, 0x54,
0xa3, 0x2d, 0x00, 0x50,
0xf8, 0xad, 0xc3, 0x04,
0x2f, 0xa8, 0x00, 0xc0,
0x98, 0xb8, 0x7b, 0x3a,
0xe7, 0x7c, 0xe2, 0x75,
0x10, 0xa0, 0xbb, 0x2b,
0x9f, 0x0d, 0x7e, 0x62,
0x17, 0x45, 0xa9, 0xc0,
0x06, 0xc7, 0x03, 0xf1,
0xff, 0xe5, 0x85, 0xd9,
0x04, 0x62, 0xe3, 0x5c,
0xff, 0xff, 0xff, 0xff,
0x0f, 0x04, 0x52, 0x22,
0xf0, 0xdf, 0xad, 0x09,
0xef, 0x80, 0x7d, 0x0d,
0xe4, 0xdc, 0xff, 0x27,
0xfc, 0xff, 0x57, 0x2f,
0x5d, 0x31, 0x2b, 0x1a,
0xfb, 0xff, 0x1f, 0x00,
0xf0, 0x81, 0xfc, 0xff,
0xe1, 0xff, 0x3b, 0x88,
0x17, 0x8e, 0xe9, 0x27,
0x37, 0xfc, 0xff, 0xff,
0x01, 0x01, 0xe6, 0x3d,
0x8c, 0x61, 0xfe, 0xff,
0x5c, 0xd3, 0xd6, 0x98,
0xc4, 0x23, 0xff, 0xef,
0x89, 0x38, 0x98, 0x94,
0x24, 0xfe, 0xff, 0xff,
0x01, 0xc0, 0xbf, 0x00,
0x20, 0xc4, 0x57, 0x03,
0x00, 0x10, 0x0f, 0x8c,
0xed, 0xeb, 0x3f, 0x33,
0xb3, 0x0c, 0x00, 0x48,
0xc6, 0x0d, 0x55, 0xfa,
0x8d, 0xc3, 0x4d, 0x8d,
0xfe, 0x68, 0xc1, 0x18,
0xea, 0x27, 0x4c, 0x5e,
0x14, 0x00, 0xa0, 0xa9,
0x25, 0xce, 0x4c, 0xa0,
0x02, 0x40, 0x6e, 0xb8,
0xa9, 0x83, 0xeb, 0x94,
0x67, 0x6a, 0x00, 0x40,
0xda, 0xcd, 0xee, 0xa8,
0xa8, 0x65, 0x2c, 0x32,
0xf7, 0x38, 0xd9, 0x20,
0x24, 0x56, 0x0c, 0x00,
0xe8, 0x41, 0xf5, 0x24,
0x85, 0xfb, 0x7e, 0x01,
0x00, 0x04, 0x87, 0xac,
0x84, 0xb8, 0x49, 0x10,
0x89, 0xa5, 0x17, 0x04,
0x00, 0x1c, 0x14, 0x4a,
0x60, 0xa5, 0x32, 0xbd,
0x6c, 0x8d, 0x68, 0x6e,
0x00, 0x00, 0xd9, 0x01,
0x6f, 0xcd, 0x70, 0xec,
0x71, 0x44, 0xb0, 0x00,
0xe8, 0x5c, 0xba, 0xc7,
0xd1, 0xcc, 0x28, 0x0a,
0x48, 0x00, 0x80, 0xb9,
0x31, 0xbe, 0x92, 0x4d,
0x25, 0xcd, 0x00, 0x00,
0xd4, 0x0d, 0xc3, 0x9e,
0x8e, 0xc1, 0xab, 0xad,
0x9d, 0x0b, 0x00, 0x40,
0xb5, 0x20, 0x92, 0x37,
0x15, 0x53, 0x24, 0x06,
0x00, 0xac, 0x00, 0x41,
0x77, 0x88, 0xe0, 0x86,
0x2c, 0x68, 0xb4, 0x32,
0x16, 0x27, 0x9f, 0xd8,
0x02, 0xc0, 0x91, 0xba,
0x41, 0x3d, 0x5c, 0xe3,
0x0d, 0x5d, 0xba, 0x35,
0x00, 0x40, 0x35, 0x61,
0x0b, 0x7b, 0x74, 0x0c,
0x8c, 0x05, 0x00, 0x30,
0xb0, 0x37, 0xea, 0x8a,
0x9a, 0x5b, 0x69, 0x03,
0x80, 0xcd, 0xaa, 0x4d,
0x2e, 0x2f, 0xb3, 0x03,
0xe8, 0x74, 0x1b, 0x00,
0x40, 0x56, 0x51, 0x8d,
0x11, 0x30, 0xc7, 0x96,
0x35, 0xfe, 0x6e, 0x4c,
0xad, 0x43, 0xe9, 0x04,
0x00, 0x89, 0x9e, 0xe3,
0xb3, 0x5f, 0x03, 0x41,
0x20, 0x7c, 0xef, 0xf8,
0xd6, 0xd6, 0x3f, 0x96,
0xa4, 0xd0, 0xcf, 0xff,
0x03, 0xff, 0x3f, 0x37,
0x8a, 0xe9, 0xaf, 0x77,
0x05, 0xf5, 0xff, 0xff,
0x00, 0x00, 0x2f, 0xcd,
0x06, 0xbb, 0xff, 0x0f,
0xb0, 0x14, 0x65, 0xa7,
0x22, 0xfe, 0xff, 0xd6,
0xa7, 0xea, 0x10, 0x65,
0x7e, 0xe1, 0xfd, 0xff,
0xff, 0x03, 0x40, 0x7c,
0xc1, 0xbf, 0xf8, 0xff,
0x4f, 0x6c, 0xbb, 0x8e,
0x7a, 0xc6, 0xff, 0xff,
0xff, 0x03, 0x10, 0x3d,
0xc0, 0x87, 0xb5, 0xfa,
0xff, 0x5d, 0x7c, 0x5b,
0xc7, 0x36, 0x83, 0x1b,
0xfe, 0xff, 0xc0, 0x1b,
0x4c, 0xe3, 0xff, 0xff,
0x0f, 0x94, 0x0d, 0x00,
0x29, 0xbd, 0x01, 0xc0,
0x95, 0xfd, 0xa4, 0x9b,
0x41, 0x02, 0x55, 0x7a,
0x21, 0x83, 0x76, 0x49,
0x98, 0x00, 0x10, 0xd1,
0xc3, 0xe4, 0x50, 0x9c,
0xde, 0xff, 0x11, 0x56,
0x86, 0x00, 0xa0, 0xd7,
0x03, 0x21, 0x99, 0xe2,
0x3c, 0x1d, 0x00, 0x42,
0xf4, 0x20, 0x83, 0x85,
0xf1, 0x13, 0x4a, 0x46,
0x8c, 0xad, 0x71, 0x9a,
0x3c, 0x3a, 0x00, 0x40,
0x4c, 0x08, 0x32, 0xb7,
0xb2, 0x13, 0x6d, 0x92,
0x5d, 0x4e, 0x00, 0x10,
0xbd, 0xf1, 0xde, 0x09,
0xc1, 0xe5, 0x2a, 0x00,
0xb0, 0x25, 0x10, 0x82,
0x81, 0x2a, 0xfe, 0xb2,
0x17, 0x00, 0x40, 0x08,
0xef, 0x35, 0x68, 0x1a,
0xcd, 0x24, 0xf8, 0x16,
0x25, 0x9b, 0x96, 0xf1,
0x44, 0x05, 0x80, 0x14,
0x61, 0x81, 0x7f, 0x96,
0xa9, 0x83, 0x49, 0x00,
0x00, 0x2c, 0x52, 0x92,
0xfe, 0x5d, 0xcf, 0xd5,
0x7b, 0xdb, 0x51, 0x6a,
0x19, 0x00, 0xd0, 0x78,
0xd1, 0x8b, 0x25, 0x64,
0x87, 0xa5, 0x00, 0x00,
0xb3, 0x08, 0x57, 0x55,
0x63, 0xcc, 0xbb, 0x02,
0x00, 0xd2, 0x1f, 0xa8,
0x3a, 0x87, 0x4f, 0x7a,
0xe2, 0x4c, 0xdc, 0x34,
0x88, 0x07, 0xa6, 0x40,
0x00, 0x30, 0xdf, 0x3f,
0xc9, 0x78, 0x45, 0x66,
0x5b, 0xd5, 0x9d, 0x16,
0x00, 0x12, 0x4c, 0x1c,
0xf5, 0x2b, 0x5c, 0x31,
0x00, 0x60, 0x3d, 0x31,
0xcb, 0x15, 0x25, 0x5d,
0xa4, 0x79, 0x40, 0x49,
0xbd, 0x2c, 0x41, 0xfa,
0x05, 0x00, 0x12, 0xd9,
0x20, 0xd8, 0x40, 0x43,
0x6d, 0xcb, 0x06, 0x00,
0x00, 0xfa, 0xe3, 0x14,
0xfa, 0x2e, 0x6b, 0xde,
0xdb, 0xdf, 0x84, 0x00,
0xc0, 0x12, 0x67, 0xe8,
0x48, 0x40, 0x5a, 0xcd,
0xcd, 0x2a, 0x4e, 0x00,
0x10, 0x62, 0x07, 0x40,
0xa9, 0x7e, 0x25, 0x17,
0x00, 0x60, 0x66, 0xc2,
0x6c, 0x08, 0xe7, 0x5d,
0x01, 0x0d, 0xc1, 0x7f,
0x83, 0xb1, 0xa7, 0x17,
0x92, 0xbe, 0x22, 0x3c,
0xff, 0x1f, 0xd0, 0x4b,
0x33, 0x5d, 0xa1, 0xcf,
0xff, 0x73, 0x23, 0x8b,
0x01, 0x84, 0xc4, 0x8f,
0xfe, 0xff, 0x01, 0x00,
0xbe, 0x17, 0xfe, 0x7f,
0xfa, 0xff, 0xd0, 0xda,
0x9f, 0xc3, 0xff, 0xf3,
0xff, 0xff, 0x30, 0x93,
0x00, 0x70, 0xd5, 0xee,
0xff, 0x1b, 0x25, 0xd8,
0x21, 0x4f, 0x22, 0xfc,
0xff, 0xe1, 0x32, 0x80,
0xaa, 0xdc, 0xfa, 0xff,
0xff, 0x07, 0x80, 0x03,
0x81, 0x7f, 0x8a, 0x8a,
0xff, 0x4f, 0xfb, 0x00,
0x52, 0x3c, 0xf3, 0xb4,
0xed, 0xff, 0x07, 0xd9,
0xb8, 0x41, 0x6c, 0x34,
0xf9, 0xff, 0x8f, 0x00,
0x00, 0xf8, 0x29, 0x02,
0x00, 0x7e, 0xd6, 0x80,
0x92, 0xec, 0x07, 0xaa,
0xdd, 0x32, 0x74, 0x01,
0x00, 0xaf, 0x2e, 0x98,
0x23, 0x4f, 0xc6, 0x66,
0x00, 0x50, 0x8a, 0x69,
0xad, 0xc9, 0xad, 0x84,
0xfe, 0x00, 0x9c, 0x27,
0x8d, 0x5c, 0x0d, 0x3b,
0x00, 0x00, 0x5d, 0x5a,
0xe7, 0x29, 0xb5, 0x93,
0x3f, 0x2d, 0xa6, 0x05,
0x02, 0xa4, 0x48, 0x15,
0x3b, 0xe2, 0xae, 0x7c,
0xd1, 0x6a, 0x52, 0x03,
0x00, 0xe2, 0x8e, 0x86,
0x80, 0xb3, 0x8f, 0x24,
0x00, 0x90, 0x54, 0x3e,
0x2c, 0x98, 0xa7, 0xe7,
0xd5, 0xdf, 0x02, 0x80,
0x10, 0x23, 0xe2, 0xd5,
0x13, 0xaa, 0x20, 0x0b,
0x37, 0x01, 0x00, 0xb2,
0xb4, 0xad, 0x5d, 0x10,
0xfd, 0xd0, 0xe2, 0x06,
0x80, 0xc4, 0x79, 0xd4,
0x45, 0x39, 0x0a, 0x39,
0xa7, 0xce, 0xa1, 0xba,
0x50, 0xa0, 0x94, 0xa1,
0xe4, 0x0f, 0x03, 0x80,
0x6c, 0x6a, 0x00, 0xf1,
0xc1, 0x9e, 0xe1, 0x30,
0x00, 0x10, 0x35, 0xbf,
0x61, 0x0b, 0x71, 0xe1,
0x08, 0x00, 0x29, 0x4e,
0x99, 0xea, 0xc6, 0x84,
0x8f, 0x88, 0x56, 0x00,
0x00, 0xcd, 0x78, 0xc0,
0x7f, 0xc8, 0xb4, 0xb1,
0x1d, 0xc5, 0x10, 0xa0,
0x8c, 0x90, 0x5e, 0x7d,
0x03, 0x00, 0x68, 0x99,
0x79, 0x54, 0x26, 0x04,
0x38, 0x42, 0xfe, 0x6f,
0x00, 0x00, 0xc1, 0x0c,
0x39, 0x8e, 0x33, 0x68,
0xd5, 0x75, 0x00, 0xc0,
0xa0, 0x1c, 0x48, 0x76,
0xf6, 0x6f, 0xfe, 0x6a,
0x22, 0x00, 0xa4, 0x14,
0x63, 0xf7, 0xcd, 0xcc,
0x06, 0x7b, 0x16, 0x00,
0xae, 0x28, 0x00, 0x5a,
0xd4, 0x74, 0xa4, 0x07,
0x2f, 0x24, 0x8b, 0x8b,
0x25, 0xce, 0x50, 0x04,
0x80, 0x13, 0x76, 0x97,
0xc2, 0x68, 0x05, 0xa3,
0x6f, 0x3e, 0x00, 0x28,
0x3a, 0xc4, 0xe1, 0x7b,
0x57, 0x77, 0x4b, 0xf0,
0xff, 0x07, 0xa2, 0xc9,
0x0d, 0x9d, 0x11, 0xfe,
0x3f, 0x1e, 0x7c, 0x59,
0xce, 0x07, 0xfd, 0xff,
0xff, 0x03, 0xd0, 0xc6,
0x12, 0xe0, 0xff, 0x81,
0x6c, 0x44, 0xc7, 0x4a,
0x18, 0xdb, 0xe9, 0xff,
0x2f, 0xf0, 0xff, 0x1f,
0x1e, 0x18, 0xa8, 0x08,
0x44, 0xd1, 0xff, 0x7f,
0x00, 0x80, 0xaf, 0xed,
0xff, 0x47, 0xf8, 0x7f,
0xdd, 0xff, 0x12, 0xb1,
0x93, 0x6a, 0xe3, 0xff,
0xff, 0x13, 0x00, 0xac,
0x88, 0xf3, 0x8e, 0xff,
0x47, 0xa2, 0xd2, 0x80,
0xad, 0xb4, 0xfd, 0xff,
0x8f, 0x9a, 0xec, 0x82,
0x1b, 0x20, 0xef, 0xff,
0xff, 0x1f, 0x00, 0x6a,
0x12, 0x00, 0x80, 0x84,
0x45, 0x00, 0x6a, 0x04,
0x78, 0xde, 0x18, 0x32,
0xbf, 0x55, 0x3c, 0x0d,
0x04, 0x00, 0xb6, 0x5c,
0xc8, 0x18, 0xe7, 0x1e,
0x51, 0x17, 0x08, 0x20,
0x42, 0x3d, 0xd8, 0xcf,
0x67, 0xf7, 0x98, 0x93,
0x6b, 0x00, 0x80, 0x3a,
0xd2, 0x98, 0xd1, 0x57,
0xb0, 0x84, 0x20, 0x1f,
0x00, 0x92, 0x84, 0x73,
0xde, 0x1b, 0xc2, 0x17,
0x86, 0x0a, 0x00, 0x36,
0x2b, 0xfd, 0x56, 0x79,
0xf0, 0x8e, 0xd2, 0x21,
0x6e, 0x93, 0x40, 0xc5,
0xb0, 0x72, 0x0b, 0x00,
0x0c, 0x52, 0x8f, 0x93,
0x42, 0x06, 0x22, 0x3e,
0xd5, 0x00, 0x80, 0xaa,
0xe1, 0x02, 0xc4, 0xb8,
0xb6, 0x4a, 0x59, 0x01,
0x80, 0x4a, 0x8a, 0x42,
0x0f, 0x8a, 0x5c, 0xf7,
0xa9, 0x70, 0xb9, 0xd1,
0x7b, 0xc1, 0x34, 0x01,
0x40, 0x1e, 0x8b, 0x3c,
0xbf, 0x59, 0xbf, 0x6f,
0x40, 0x34, 0x0f, 0x00,
0x02, 0x08, 0xde, 0x9d,
0xc8, 0xa2, 0xa9, 0x85,
0xe7, 0x07, 0x00, 0x40,
0x82, 0x6f, 0xb7, 0x06,
0x1f, 0x9f, 0x2a, 0xac,
0x05, 0x08, 0xae, 0x79,
0x6b, 0xb1, 0x69, 0xc6,
0x11, 0xa0, 0xed, 0x01,
0xa0, 0x80, 0xe0, 0x8a,
0xc0, 0x71, 0x3a, 0x49,
0x01, 0x40, 0x9f, 0x6a,
0x4e, 0xcb, 0xbe, 0xb2,
0xb5, 0x2b, 0x42, 0x78,
0x66, 0x81, 0xe3, 0xbd,
0x2a, 0xa5, 0x00, 0x40,
0xa2, 0x77, 0xf5, 0xec,
0x28, 0x77, 0x2b, 0x3d,
0x00, 0x20, 0x7e, 0x68,
0xfc, 0x8e, 0x35, 0x3b,
0x5d, 0xba, 0x10, 0x00,
0x00, 0xb4, 0xb3, 0x25,
0x0f, 0x25, 0x09, 0xe1,
0x09, 0x00, 0x70, 0x70,
0x44, 0x86, 0xf9, 0xea,
0xc6, 0x4f, 0x73, 0x27,
0x00, 0x10, 0x98, 0x97,
0xc4, 0x0b, 0xf9, 0x4d,
0xaa, 0x25, 0x80, 0xd7,
0x20, 0x43, 0xa1, 0x2f,
0x05, 0x32, 0x40, 0xef,
0xf9, 0xff, 0x01, 0x1e,
0x98, 0x7f, 0x1c, 0xfe,
0xc1, 0xff, 0x07, 0xe2,
0x68, 0x70, 0xe5, 0x75,
0x02, 0xfe, 0xff, 0x1f,
0x00, 0x00, 0xdd, 0xd2,
0x4f, 0xfe, 0x7f, 0x02,
0x06, 0xf1, 0x0e, 0x71,
0xed, 0xf0, 0xff, 0x84,
0x5f, 0xc2, 0x30, 0x75,
0x16, 0xf6, 0xff, 0xff,
0x7f, 0x00, 0x38, 0x51,
0xf8, 0x77, 0xfe, 0x7f,
0x06, 0xd4, 0x14, 0x05,
0x8b, 0xfc, 0xff, 0xff,
0x3f, 0x80, 0xb9, 0x02,
0xbc, 0xa8, 0xc0, 0xff,
0xdf, 0xd2, 0xd9, 0x4a,
0x85, 0xb0, 0x57, 0xf5,
0xff, 0x6e, 0x8e, 0x7f,
0x3b, 0xbc, 0xf3, 0xff,
0xff, 0x01, 0x00, 0xde,
0x1d, 0x08, 0x00, 0x20,
0xf8, 0x77, 0xfe, 0xfa,
0xba, 0x94, 0x2b, 0x51,
0xf5, 0x3d, 0x20, 0x0c,
0x08, 0x4a, 0xcc, 0xfd,
0x62, 0x91, 0xe4, 0xaa,
0x02, 0x80, 0x19, 0x04,
0x73, 0xc3, 0xea, 0x1b,
0xa9, 0x32, 0x00, 0x10,
0xb6, 0x85, 0x2e, 0x15,
0x9a, 0x2c, 0x6b, 0xe0,
0x37, 0x07, 0xdc, 0x3e,
0x44, 0x30, 0x01, 0xc0,
0x68, 0x72, 0xee, 0xaa,
0x2f, 0x91, 0x1f, 0x24,
0xef, 0x27, 0x20, 0x00,
0x20, 0xb4, 0x40, 0x24,
0x2e, 0xe8, 0xd5, 0x0c,
0x00, 0xce, 0x84, 0xf8,
0x8d, 0xbf, 0xb6, 0x60,
0x0c, 0x47, 0x05, 0x00,
0x98, 0x62, 0x15, 0x34,
0x74, 0xc0, 0xce, 0x02,
0x80, 0x80, 0x3b, 0xc9,
0xf2, 0x1d, 0xc3, 0x2e,
0x55, 0x05, 0x00, 0x6b,
0xc9, 0x2e, 0x03, 0x82,
0x41, 0x29, 0x9a, 0x92,
0x01, 0xdb, 0x8e, 0xa5,
0x4e, 0x17, 0x00, 0xd8,
0x5d, 0x0a, 0xde, 0xd2,
0xa7, 0x95, 0x16, 0xde,
0x00, 0x00, 0xe0, 0x10,
0x15, 0xdb, 0xc9, 0x0d,
0xd0, 0x00, 0x45, 0xfa,
0x22, 0x55, 0x00, 0xca,
0x01, 0x50, 0x94, 0x5d,
0x28, 0x2d, 0x03, 0x40,
0x8a, 0x56, 0x8e, 0x92,
0x55, 0x93, 0x2c, 0xd5,
0x02, 0x00, 0xd4, 0xd5,
0xfb, 0x7d, 0xa4, 0x49,
0xb7, 0xf3, 0x1f, 0x09,
0x67, 0xc6, 0x48, 0x5e,
0xc0, 0x44, 0x39, 0x00,
0x50, 0xf6, 0x0d, 0x82,
0xae, 0x00, 0x60, 0x5f,
0x2d, 0x99, 0xf1, 0x15,
0x46, 0xa9, 0x4e, 0x63,
0xc5, 0xa3, 0xb8, 0x92,
0x9c, 0x4c, 0x00, 0xb0,
0xec, 0x1a, 0x51, 0x02,
0xa1, 0x9a, 0xac, 0x02,
0x40, 0x66, 0x6e, 0x02,
0x03, 0xb4, 0x19, 0xfc,
0xf1, 0x02, 0x00, 0x3c,
0x3d, 0x4f, 0x0b, 0x54,
0x1d, 0x00, 0x28, 0x74,
0x8a, 0xa0, 0x43, 0xa4,
0xae, 0x04, 0x00, 0x0a,
0xbe, 0xfa, 0xb2, 0xe3,
0xe5, 0x85, 0x4e, 0x13,
0xfe, 0x49, 0xdd, 0x58,
0x73, 0x3e, 0x99, 0xb6,
0xfe, 0x7f, 0x93, 0x68,
0xd0, 0x03, 0x52, 0xcb,
0xff, 0xff, 0xff, 0x0f,
0xc0, 0x22, 0x00, 0xdf,
0x29, 0xf1, 0xff, 0xb8,
0xe2, 0xb9, 0x6b, 0xa7,
0x23, 0xfe, 0xff, 0x42,
0xab, 0x49, 0xd2, 0xfe,
0xcd, 0xfa, 0xff, 0xff,
0x00, 0x00, 0xbd, 0x2e,
0xde, 0xb9, 0xfe, 0x1f,
0x45, 0xb9, 0xa4, 0x49,
0x9b, 0xff, 0x3f, 0xad,
0x54, 0x82, 0x72, 0x26,
0xe8, 0xff, 0xff, 0x1f,
0x00, 0x4c, 0x1a, 0xfe,
0x55, 0x35, 0xfe, 0x7f,
0xc3, 0x11, 0xd0, 0x77,
0xcc, 0xa9, 0xfe, 0xff,
0x08, 0xca, 0x30, 0x1b,
0xfc, 0x5d, 0xff, 0xff,
0x00, 0x00, 0xc0, 0xad,
0x34, 0xd3, 0x04, 0x80,
0x68, 0x69, 0x90, 0x49,
0x2d, 0xe1, 0x54, 0x16,
0x00, 0xa4, 0xb8, 0x66,
0xad, 0x30, 0x46, 0x12,
0x42, 0x0d, 0x00, 0x9c,
0x99, 0x8e, 0x45, 0x4a,
0xe6, 0xe8, 0x52, 0xdc,
0xdf, 0xb9, 0xca, 0x16,
0x20, 0x35, 0x38, 0x00,
0x90, 0x61, 0xe6, 0x53,
0xd5, 0xa1, 0xbf, 0x3a,
0x01, 0x60, 0x18, 0xaa,
0xdc, 0xab, 0xd9, 0x06,
0x80, 0x0c, 0x81, 0xc0,
0x10, 0x73, 0xa4, 0x29,
0x6d, 0xd3, 0x5d, 0x03,
0x00, 0x14, 0x54, 0xca,
0x20, 0x6f, 0x9a, 0x31,
0x58, 0xbc, 0x8c, 0x81,
0xa9, 0x32, 0xee, 0xfc,
0x1e, 0x00, 0x6a, 0x02,
0x8d, 0x5f, 0x07, 0x2e,
0x44, 0x2b, 0x15, 0x02,
0xc0, 0x11, 0xdb, 0xe5,
0xd6, 0xf1, 0x0f, 0x2f,
0x4a, 0x00, 0x60, 0x27,
0xb0, 0xc7, 0xef, 0x28,
0xde, 0x38, 0x01, 0x00,
0xb0, 0x6f, 0xb1, 0xb2,
0xd6, 0x3d, 0x8e, 0x96,
0x00, 0x84, 0xba, 0xf2,
0xef, 0xf3, 0x16, 0x93,
0xd8, 0x96, 0x5c, 0x01,
0x40, 0x58, 0x2e, 0x0d,
0x6b, 0xf1, 0x4d, 0xc7,
0x2d, 0x52, 0x06, 0xdd,
0x2f, 0x0b, 0x81, 0x07,
0x04, 0x00, 0xaa, 0x66,
0x83, 0xcd, 0x32, 0xb8,
0x1b, 0x9d, 0x51, 0xfb,
0x00, 0xa2, 0xd1, 0xdf,
0x92, 0x06, 0x3b, 0xff,
0x1a, 0xd2, 0x02, 0x80,
0x49, 0x0b, 0x02, 0x72,
0x34, 0xde, 0xad, 0x00,
0x30, 0x6e, 0xd3, 0xbd,
0x69, 0x1e, 0x74, 0x6a,
0x0a, 0xff, 0x83, 0xfb,
0x9e, 0xcc, 0xaa, 0x03,
0x80, 0x4a, 0xe4, 0xd5,
0x8f, 0x06, 0xd7, 0x58,
0x5a, 0x00, 0xe8, 0x9a,
0x39, 0x9c, 0xb2, 0x04,
0x50, 0x2a, 0xb3, 0xa0,
0x4e, 0xaa, 0x67, 0x28,
0x16, 0x00, 0xd8, 0x46,
0x02, 0x83, 0x8b, 0xff,
0x20, 0x58, 0x01, 0xe0,
0xae, 0x65, 0x2c, 0xe8,
0xa5, 0xd5, 0x3f, 0x01,
0xd1, 0x1f, 0xc9, 0x1a,
0xc6, 0xff, 0x5f, 0xbc,
0xb2, 0x83, 0xa8, 0x1a,
0x09, 0xfc, 0xff, 0xff,
0xff, 0x7f, 0x00, 0x78,
0x1a, 0xcd, 0x84, 0xc1,
0x3f, 0x3d, 0xa1, 0xd0,
0xf6, 0x8b, 0x08, 0xff,
0x6f, 0xc0, 0x41, 0x9b,
0xe9, 0xa1, 0xc2, 0xff,
0xff, 0xff, 0x03, 0xb4,
0x22, 0xc0, 0x57, 0x07,
0xf6, 0xff, 0x60, 0xfd,
0x8b, 0xc4, 0x49, 0x30,
0xfd, 0xff, 0x64, 0x41,
0xe4, 0x75, 0x32, 0x68,
0x96, 0xfc, 0xff, 0x3f,
0x00, 0x40, 0xa1, 0xfe,
0xff, 0xfc, 0xff, 0x00,
0x64, 0xca, 0xfb, 0x6b,
0xf2, 0xff, 0xff, 0x0f,
0x00, 0xb0, 0x4c, 0x4d,
0x1a, 0x00, 0xb2, 0x83,
0x73, 0x02, 0x0e, 0x93,
0x68, 0xa3, 0x15, 0x00,
0xb2, 0xb0, 0xf2, 0x68,
0x30, 0x43, 0x76, 0xca,
0x10, 0x50, 0xf1, 0x40,
0xc2, 0x42, 0x4b, 0x9a,
0x9d, 0x49, 0x0e, 0x43,
0x1b, 0x4b, 0x06, 0x75,
0x00, 0x10, 0xa4, 0x7d,
0xd7, 0x91, 0xb2, 0x5d,
0x85, 0x2b, 0x2a, 0x00,
0xf2, 0xef, 0x90, 0x69,
0x10, 0x03, 0x1a, 0xe5,
0x01, 0x60, 0x99, 0xe0,
0x5d, 0xa3, 0x52, 0xba,
0x37, 0x20, 0xbe, 0x3d,
0xf4, 0x10, 0x53, 0x1f,
0x00, 0xf4, 0xf1, 0xc3,
0xa0, 0xde, 0x9a, 0x5a,
0x4b, 0x00, 0x00, 0x50,
0x2a, 0x6e, 0x67, 0xdf,
0xab, 0x58, 0x4d, 0x61,
0x55, 0xf7, 0x1f, 0x00,
0x42, 0x2d, 0xac, 0x0d,
0xaf, 0x79, 0x03, 0x08,
0x35, 0x00, 0xfe, 0x2d,
0x2b, 0xab, 0x0d, 0xd4,
0x1d, 0x31, 0x09, 0xad,
0xa7, 0xa6, 0x01, 0x00,
0x30, 0xb3, 0xbb, 0x17,
0x46, 0x81, 0xd4, 0x3e,
0x10, 0xd1, 0x00, 0x00,
0x2b, 0xa4, 0x80, 0x08,
0xc5, 0xdb, 0xc9, 0x0d,
0x00, 0x50, 0x12, 0x1b,
0xa8, 0xec, 0xb6, 0xd1,
0xfc, 0x6f, 0x05, 0x00,
0x88, 0xcf, 0x8c, 0x75,
0x40, 0x29, 0xda, 0xc8,
0x2e, 0x00, 0x20, 0x19,
0xd0, 0xd2, 0x14, 0x67,
0x4e, 0xa2, 0x7b, 0x00,
0x08, 0x18, 0x8e, 0xb9,
0x22, 0x31, 0xd0, 0x99,
0x42, 0x3a, 0x74, 0x8c,
0x42, 0x77, 0xb9, 0x78,
0x04, 0x00, 0xb8, 0x2f,
0xfa, 0xd9, 0x9f, 0x15,
0x47, 0x07, 0x00, 0x88,
0x40, 0xb4, 0x17, 0x60,
0x6a, 0x28, 0x2a, 0x25,
0x28, 0x01, 0x00, 0xda,
0x20, 0xec, 0x11, 0x31,
0x69, 0xc7, 0x28, 0x05,
0x00, 0xf8, 0x30, 0xa9,
0xfd, 0x8e, 0x75, 0xe8,
0x5e, 0x01, 0x00, 0x80,
0xf7, 0x43, 0x07, 0xe8,
0x50, 0x5e, 0x2a, 0xa8,
0xf0, 0xa2, 0xd8, 0x01,
0x7e, 0x59, 0x87, 0x39,
0x8a, 0x8f, 0x30, 0xe2,
0xdf, 0xff, 0x3f, 0x36,
0x47, 0xf7, 0x01, 0x25,
0x14, 0xff, 0x3f, 0x04,
0x16, 0xc7, 0x7e, 0xff,
0xff, 0x0f, 0x00, 0x70,
0x2c, 0xf5, 0x05, 0xfd,
0xbf, 0xc8, 0x5b, 0x95,
0x53, 0xde, 0xf8, 0xff,
0x13, 0xa9, 0x8a, 0x49,
0x7b, 0x06, 0xd1, 0xff,
0xff, 0x3f, 0x00, 0x84,
0x35, 0xfc, 0xa7, 0xff,
0xff, 0x2a, 0x49, 0x39,
0xaa, 0x81, 0xfe, 0xff,
0xff, 0x1f, 0x80, 0x82,
0x01, 0x7e, 0x75, 0xf7,
0xff, 0x91, 0x12, 0x20,
0xc7, 0x2a, 0xed, 0xe0,
0xff, 0xff, 0x61, 0xa4,
0x69, 0x23, 0x2a, 0xfa,
0xff, 0xff, 0x01, 0x00,
0x96, 0x07, 0x04, 0x80,
0x98, 0x87, 0x49, 0x19,
0x00, 0x05, 0x6e, 0xb1,
0x25, 0x29, 0x0e, 0x00,
0x42, 0x62, 0x6d, 0xfb,
0x2d, 0x2e, 0x3b, 0xa0,
0x09, 0x00, 0xc4, 0x93,
0x13, 0xb3, 0x1d, 0x48,
0xec, 0xa2, 0x5f, 0x00,
0x08, 0xa8, 0x9f, 0xb2,
0x33, 0x68, 0x82, 0xfe,
0xa2, 0x1e, 0x00, 0xc5,
0xe0, 0x83, 0x14, 0x77,
0x89, 0xd1, 0xa9, 0xd1,
0x01, 0x80, 0xc8, 0x47,
0x1a, 0x5b, 0xa8, 0x4f,
0xec, 0xa6, 0x08, 0x05,
0x91, 0xd7, 0x79, 0x5a,
0x46, 0x00, 0x80, 0x81,
0xeb, 0x28, 0x06, 0x02,
0xc6, 0x5c, 0xa9, 0xd2,
0x11, 0x00, 0x06, 0x75,
0x0d, 0x11, 0x26, 0xb1,
0x0e, 0xe9, 0x00, 0x20,
0x06, 0x0e, 0xde, 0x48,
0xa4, 0xca, 0xdf, 0x53,
0x00, 0x10, 0x97, 0x9d,
0x9b, 0x5f, 0x06, 0xb8,
0x2b, 0xf7, 0xa2, 0x84,
0x4c, 0xbd, 0x26, 0x60,
0x05, 0x00, 0xca, 0x0e,
0xca, 0x8c, 0xa7, 0xe9,
0x5f, 0x59, 0x86, 0xf4,
0x41, 0x40, 0x64, 0x4b,
0x63, 0xc4, 0xf1, 0x2c,
0x8c, 0xf8, 0x04, 0x80,
0x0c, 0x40, 0x9c, 0xc8,
0x08, 0x8b, 0x67, 0x3b,
0x02, 0x00, 0x62, 0xaa,
0xd9, 0xbf, 0x50, 0x0f,
0x7b, 0xb1, 0x00, 0x80,
0xfa, 0x67, 0xe4, 0x1d,
0x33, 0x64, 0xe8, 0x16,
0x00, 0x00, 0x1d, 0xf9,
0xe1, 0x04, 0x1c, 0x85,
0xc4, 0xc9, 0x04, 0x5a,
0xa8, 0x9e, 0x45, 0x25,
0x5a, 0x0f, 0x00, 0x68,
0x19, 0x68, 0x19, 0x7a,
0x23, 0x11, 0x47, 0x42,
0x00, 0xc0, 0x3e, 0x07,
0xb5, 0x75, 0xa9, 0x32,
0x55, 0xb6, 0x25, 0xcd,
0x06, 0x80, 0x62, 0x3a,
0x85, 0xca, 0x47, 0xae,
0xd3, 0x35, 0x00, 0x40,
0x8e, 0x19, 0x8a, 0xf7,
0xac, 0x16, 0xec, 0x44,
0x00, 0x80, 0x2e, 0xdc,
0xba, 0x67, 0x84, 0x88,
0xdd, 0x84, 0x7f, 0xe1,
0xd8, 0x5a, 0x5f, 0x75,
0xc3, 0x2d, 0xfd, 0x15,
0xb1, 0xff, 0x97, 0x84,
0x9d, 0x0d, 0xbb, 0xdd,
0xf5, 0xff, 0xb1, 0x56,
0x4f, 0xd5, 0x07, 0x2c,
0x90, 0xff, 0x7f, 0x00,
0x80, 0x37, 0x90, 0xff,
0xc7, 0xff, 0x83, 0x75,
0xb0, 0xff, 0x51, 0xee,
0x77, 0xf4, 0xff, 0xff,
0x03, 0x00, 0xdc, 0xa8,
0x96, 0x44, 0xfe, 0x7f,
0x77, 0xf2, 0x1e, 0x2f,
0x79, 0xff, 0xdf, 0xab,
0x0b, 0x60, 0xbe, 0x08,
0xd8, 0xff, 0xff, 0x3f,
0x02, 0xfc, 0x15, 0xfc,
0x0b, 0xfa, 0x7f, 0xb3,
0xf0, 0x05, 0x57, 0x8f,
0x09, 0xfe, 0xff, 0xff,
0x1f, 0xc0, 0x04, 0x00,
0xc0, 0x62, 0x0b, 0x00,
0xc1, 0x49, 0xc7, 0xb7,
0xcd, 0x0c, 0x0c, 0x9f,
0x0f, 0x00, 0x08, 0xa9,
0x9b, 0x5a, 0xd7, 0x37,
0x46, 0x29, 0x0e, 0x0a,
0x75, 0xc8, 0x7e, 0x58,
0x2b, 0x8a, 0x03, 0x00,
0x5d, 0x1c, 0xc5, 0x6b,
0xff, 0x0d, 0x34, 0xfd,
0x07, 0x00, 0x00, 0xc0,
0xae, 0xf1, 0xd7, 0x0d,
0x22, 0x55, 0x36, 0xed,
0x03, 0x8b, 0x16, 0x00,
0xac, 0xf8, 0x89, 0xf4,
0xc8, 0xae, 0xe8, 0xcd,
0x17, 0x00, 0x20, 0xc9,
0xa8, 0x86, 0xd7, 0x66,
0xb0, 0xcb, 0x01, 0x00,
0x95, 0x09, 0xdf, 0x4e,
0xad, 0x07, 0x9e, 0xb6,
0x4b, 0x09, 0x65, 0x87,
0x8e, 0x15, 0x75, 0x00,
0x30, 0xf1, 0xe1, 0x45,
0xcf, 0x5b, 0x22, 0x7d,
0x98, 0x5e, 0x00, 0x00,
0x21, 0x5e, 0x26, 0x50,
0xc1, 0xce, 0xd8, 0xc3,
0x05, 0x00, 0xe0, 0x71,
0x2a, 0xd1, 0xd7, 0x56,
0xd8, 0xd5, 0x78, 0x00,
0x48, 0x91, 0x84, 0x15,
0xc8, 0x90, 0xec, 0xaf,
0x63, 0xe2, 0x01, 0x40,
0xe2, 0xe3, 0xb4, 0xa0,
0xc2, 0x42, 0x48, 0x11,
0x00, 0x9c, 0x20, 0x5b,
0x79, 0x32, 0x69, 0xf8,
0xc7, 0x43, 0xad, 0x60,
0x90, 0xdd, 0xb8, 0xfc,
0x52, 0x07, 0x00, 0x01,
0x56, 0x56, 0x13, 0xe2,
0xce, 0x13, 0x26, 0x00,
0x68, 0x73, 0x22, 0xf8,
0xf5, 0x29, 0xf2, 0x0c,
0x33, 0x02, 0x80, 0x00,
0xa0, 0xfe, 0xe8, 0x46,
0x2f, 0xa0, 0x05, 0x00,
0x81, 0xab, 0x03, 0xed,
0x3e, 0xef, 0xd3, 0x17,
0x4d, 0x00, 0x10, 0x24,
0xe3, 0x11, 0x43, 0x41,
0xae, 0xe7, 0x93, 0x02,
0x00, 0x77, 0x1f, 0xc9,
0xb0, 0x8a, 0xce, 0x95,
0x6f, 0x95, 0xcf, 0x47,
0x51, 0x2e, 0x22, 0x0f,
0x1d, 0x03, 0x40, 0x32,
0xe3, 0x01, 0xcd, 0xfe,
0xe9, 0x6a, 0x00, 0xc0,
0x59, 0xa0, 0x0c, 0x1f,
0x5b, 0x2f, 0x43, 0xba,
0xe4, 0x9e, 0x11, 0x01,
0x88, 0x7e, 0xff, 0xff,
0x2d, 0x1d, 0xda, 0xc1,
0xc8, 0xf3, 0xff, 0xff,
0xff, 0xff, 0x01, 0xc0,
0x9b, 0x54, 0xd6, 0x01,
0xff, 0xa7, 0xc2, 0x03,
0x3d, 0x36, 0xc6, 0xfe,
0x7f, 0x33, 0x92, 0x2a,
0xdb, 0xaa, 0xff, 0xff,
0xff, 0x07, 0x70, 0x21,
0x80, 0x4f, 0xbf, 0xff,
0xff, 0x79, 0x80, 0x97,
0xa1, 0x05, 0xa5, 0x21,
0xe9, 0xff, 0x93, 0x9d,
0xc1, 0xb2, 0xf5, 0xff,
0xff, 0x70, 0xbe, 0x00,
0xc0, 0x08, 0xda, 0xff,
0x3f, 0x14, 0xd6, 0x70,
0xfc, 0xe4, 0x8e, 0xff,
0x2f, 0x5a, 0x65, 0x30,
0xbc, 0xbb, 0xe2, 0xff,
0xff, 0x3f, 0x40, 0x78,
0x33, 0x00, 0x04, 0x1d,
0x1a, 0x00, 0x20, 0xb9,
0x69, 0x36, 0x32, 0x9e,
0x75, 0x96, 0x13, 0x68,
0xb9, 0xda, 0x41, 0xba,
0x79, 0x40, 0x05, 0x80,
0x93, 0xd2, 0x89, 0x5c,
0xbb, 0x4d, 0xb3, 0x2c,
0x1f, 0x8c, 0x0a, 0x00,
0xfe, 0x8e, 0x1b, 0x5b,
0x00, 0xa7, 0x68, 0x13,
0x00, 0x50, 0xd3, 0x96,
0x13, 0xb2, 0x4a, 0x9e,
0x02, 0x00, 0x1d, 0xe3,
0xcc, 0x8d, 0x6d, 0x2e,
0xed, 0xb7, 0x6d, 0x40,
0x71, 0x44, 0xfa, 0x15,
0xce, 0xa5, 0x00, 0x00,
0x9a, 0x21, 0xed, 0x04,
0x76, 0x66, 0x55, 0x8d,
0x00, 0x80, 0xd9, 0xab,
0xe0, 0x9a, 0xc6, 0x73,
0xfb, 0x5c, 0x0a, 0x00,
0x58, 0x82, 0x9d, 0x6c,
0xdf, 0x1b, 0x25, 0xe5,
0x01, 0x00, 0x40, 0x16,
0x34, 0x09, 0xe7, 0xb4,
0x48, 0x5b, 0x00, 0x10,
0x0d, 0x20, 0xe6, 0x26,
0x68, 0xc9, 0x53, 0x77,
0x9e, 0xd3, 0xda, 0xe7,
0x77, 0x5b, 0x6c, 0x76,
0x96, 0x82, 0x00, 0xc0,
0x83, 0xe7, 0x20, 0x90,
0x0f, 0x6e, 0x09, 0x00,
0xc4, 0xfe, 0x3b, 0xb9,
0x0b, 0x98, 0x7e, 0x62,
0x0f, 0x00, 0x90, 0xe0,
0x9c, 0xb5, 0x7d, 0x3a,
0xfb, 0x5d, 0x18, 0x00,
0x30, 0x62, 0x1c, 0x4e,
0x71, 0x1f, 0x90, 0x5e,
0x53, 0x99, 0xe8, 0x15,
0x39, 0x76, 0xa9, 0xbe,
0xf3, 0x06, 0x80, 0xa2,
0xb8, 0x6b, 0x1a, 0x8a,
0xa2, 0x48, 0x0a, 0x00,
0x51, 0x61, 0x63, 0xa5,
0x3c, 0x30, 0x6a, 0x00,
0xa0, 0x3a, 0x88, 0x4b,
0x18, 0x01, 0x28, 0x39,
0xd7, 0x4c, 0xb8, 0x0c,
0xfb, 0x99, 0xda, 0xad,
0x00, 0xa0, 0x44, 0xec,
0x08, 0x07, 0xe0, 0x09,
0x8f, 0xb2, 0x6b, 0x14,
0x00, 0x84, 0xdf, 0x4e,
0x31, 0xe5, 0xcd, 0xf7,
0x04, 0x00, 0x44, 0xc8,
0xe5, 0x8a, 0x36, 0xf2,
0x85, 0xed, 0x12, 0x05,
0xf8, 0xdc, 0x7e, 0x14,
0xac, 0xfa, 0x41, 0xb1,
0x00, 0xfd, 0x7f, 0x38,
0x01, 0x43, 0xfc, 0xe6,
0xf7, 0xff, 0xd7, 0x1d,
0x78, 0x29, 0x32, 0xbf,
0xaa, 0xff, 0xff, 0x0f,
0x00, 0x80, 0x6e, 0xea,
0x73, 0xff, 0x3f, 0x56,
0x44, 0x30, 0x93, 0x3f,
0x82, 0xf0, 0xff, 0x9f,
0x79, 0x18, 0x36, 0x24,
0xff, 0xff, 0xff, 0x00,
0xa0, 0x9a, 0xf0, 0x4f,
0xfd, 0x7f, 0x4d, 0xc6,
0x9c, 0x23, 0x66, 0xf9,
0xff, 0xff, 0xff, 0x0f,
0x80, 0x14, 0x00, 0x8f,
0x84, 0xf9, 0x7f, 0x54,
0x7f, 0x1b, 0x07, 0xe0,
0xc8, 0xd6, 0x8d, 0xff,
0x4f, 0x35, 0x2f, 0x44,
0x92, 0x57, 0x86, 0xff,
0xff, 0x3f, 0x00, 0xc0,
0x48, 0x00, 0x00, 0x64,
0x04, 0x00, 0x14, 0x25,
0xbc, 0x89, 0x93, 0xe5,
0x52, 0x97, 0xce, 0x50,
0xf2, 0x37, 0x02, 0xab,
0x6f, 0x28, 0x09, 0x00,
0x32, 0x33, 0x92, 0xe1,
0x90, 0x19, 0xab, 0x3c,
0xa1, 0x0c, 0x02, 0x40,
0x9d, 0x93, 0x5a, 0xaf,
0xea, 0xde, 0x56, 0xe2,
0x00, 0xd0, 0xdc, 0x40,
0x62, 0x02, 0x03, 0x22,
0x34, 0xd8, 0x00, 0x30,
0x95, 0x9e, 0xc6, 0xea,
0xfe, 0x38, 0x41, 0xce,
0x14, 0x51, 0xa9, 0xfe,
0x05, 0x08, 0x00, 0x0f,
0xba, 0xdb, 0x34, 0xd7,
0x78, 0x10, 0x85, 0xdd,
0x17, 0x00, 0x9a, 0x37,
0xc4, 0x63, 0x75, 0xf1,
0xca, 0x80, 0x25, 0x00,
0xe0, 0x80, 0x0d, 0x8f,
0xde, 0x7e, 0x02, 0x16,
0x6e, 0xff, 0x1a, 0xd3,
0xac, 0x2c, 0x0f, 0x00,
0xc0, 0xf8, 0x19, 0xf9,
0x9d, 0x53, 0x2d, 0xcc,
0x0c, 0x00, 0x50, 0xf4,
0xe7, 0x70, 0x7f, 0x16,
0x5e, 0x9e, 0x12, 0x03,
0xc0, 0xf7, 0x79, 0x89,
0x73, 0x84, 0xdd, 0xdd,
0xe4, 0x15, 0x39, 0x2c,
0x57, 0x3a, 0x03, 0x80,
0x21, 0x6b, 0x6c, 0x10,
0x9c, 0x8f, 0xf6, 0x1a,
0x02, 0x00, 0xa0, 0x56,
0x06, 0x60, 0x50, 0x1a,
0x65, 0x0d, 0x3d, 0x7c,
0x35, 0x00, 0xc0, 0xb8,
0xaf, 0x8f, 0x25, 0x87,
0x0a, 0x4f, 0x69, 0x01,
0xe0, 0x39, 0x47, 0x76,
0x44, 0x45, 0x92, 0x75,
0x2d, 0x01, 0xc0, 0x47,
0x64, 0x72, 0x0d, 0xdd,
0xf7, 0xa1, 0x2c, 0x89,
0xc8, 0x6c, 0x9a, 0xb6,
0x10, 0x00, 0x20, 0xd4,
0xd6, 0x95, 0x2a, 0x1d,
0xa7, 0xb4, 0x00, 0xe0,
0x16, 0x91, 0x18, 0xd2,
0x4e, 0xa9, 0xa8, 0x95,
0xa0, 0x70, 0xf9, 0x8a,
0xd9, 0xf8, 0x00, 0x20,
0x77, 0x89, 0x72, 0x91,
0x3a, 0xa9, 0xe9, 0x09,
0x00, 0xe0, 0xfa, 0xf2,
0x28, 0x30, 0x5d, 0x46,
0x7f, 0x8d, 0x40, 0x56,
0x82, 0xff, 0x52, 0x1f,
0x75, 0x19, 0x07, 0xb9,
0xdc, 0xfa, 0xff, 0x85,
0xdf, 0x0d, 0xbf, 0x76,
0x80, 0xfe, 0xff, 0xff,
0x1f, 0x40, 0xb9, 0x00,
0xfe, 0x58, 0xba, 0xff,
0x7f, 0x9a, 0x09, 0xda,
0xd0, 0x60, 0x9e, 0xff,
0x2f, 0x06, 0x4d, 0x20,
0xd5, 0xff, 0xff, 0x03,
0x00, 0xe4, 0x3c, 0xe7,
0xb1, 0xfd, 0x7f, 0x44,
0xca, 0x38, 0x12, 0xb9,
0xf0, 0xff, 0x5f, 0x32,
0x42, 0x5e, 0xe2, 0x56,
0xfa, 0xff, 0xff, 0x07,
0x80, 0xa7, 0x80, 0x7f,
0xec, 0xff, 0x87, 0xff,
0x4b, 0xa4, 0xc1, 0x4c,
0xfb, 0xff, 0xff, 0x7f,
0x00, 0x46, 0x03, 0x00,
0x39, 0x4d, 0xa0, 0xf7,
0x31, 0xcc, 0x5a, 0x2c,
0xad, 0x00, 0x90, 0xc7,
0x43, 0x2a, 0x81, 0xd2,
0xed, 0x5a, 0x06, 0x09,
0x00, 0xa7, 0xcd, 0x22,
0xa1, 0x46, 0x28, 0xd1,
0x49, 0xae, 0x44, 0x00,
0x38, 0x0b, 0xf1, 0x39,
0xcd, 0x3d, 0x3e, 0x85,
0x01, 0x80, 0x95, 0x05,
0x02, 0x0f, 0x56, 0xe3,
0x62, 0x00, 0x80, 0xdc,
0xe5, 0xb6, 0x4e, 0xe1,
0xfe, 0x7d, 0xd2, 0x10,
0x70, 0x43, 0x12, 0x38,
0xcb, 0xce, 0x01, 0x00,
0x65, 0xc2, 0x54, 0xa7,
0xbd, 0xea, 0x4f, 0x1d,
0xb1, 0x92, 0x00, 0x60,
0x47, 0x2e, 0x1b, 0xee,
0xfc, 0x81, 0xdc, 0x1b,
0x00, 0x10, 0xb5, 0x48,
0xd8, 0x84, 0x36, 0xd2,
0x0e, 0x10, 0x28, 0x92,
0xc9, 0xd4, 0x26, 0x89,
0x78, 0xb3, 0x10, 0xee,
0xa0, 0xea, 0x00, 0xf2,
0x44, 0x01, 0xc0, 0x0b,
0x6e, 0xbe, 0x8d, 0x7b,
0xd3, 0x7a, 0xc5, 0x1c,
0x2b, 0x07, 0x00, 0x06,
0x0e, 0xe8, 0xd5, 0xe7,
0x56, 0xb3, 0x53, 0x00,
0x28, 0x9a, 0x0d, 0x0b,
0x88, 0xd0, 0x3d, 0x56,
0xc1, 0x00, 0x70, 0x72,
0xa3, 0xa1, 0xa9, 0x98,
0x01, 0xbf, 0x10, 0xc7,
0x93, 0x8c, 0xca, 0x1f,
0x30, 0x00, 0x30, 0x1e,
0x49, 0xd9, 0x98, 0x54,
0x3b, 0x91, 0x6a, 0x0b,
0x00, 0x10, 0x63, 0x64,
0x92, 0x49, 0xe4, 0x16,
0x6b, 0x62, 0x00, 0x10,
0x6d, 0xee, 0x43, 0x35,
0x9d, 0x0c, 0x48, 0x3c,
0x40, 0x08, 0x2c, 0x9e,
0x15, 0x40, 0x35, 0x8e,
0x70, 0x2f, 0x00, 0xa0,
0x74, 0x9e, 0xb7, 0x51,
0xfb, 0xa3, 0x2b, 0x25,
0x33, 0x04, 0x48, 0xd4,
0xb5, 0x85, 0xea, 0x09,
0xa0, 0xb4, 0x01, 0x20,
0xe1, 0xa8, 0xb5, 0xf4,
0x60, 0x69, 0x5e, 0x6a,
0x84, 0x08, 0xde, 0xd5,
0x73, 0x1c, 0xa2, 0x01,
0xe0, 0xfa, 0x85, 0x05,
0xa6, 0xe9, 0x4a, 0x95,
0xa2, 0xe4, 0xff, 0x97,
0x12, 0xe3, 0x6e, 0x16,
0xfe, 0xee, 0xff, 0xff,
0xff, 0xff, 0x0f, 0x00,
0x3b, 0x06, 0xbc, 0x74,
0xf8, 0x4f, 0xf1, 0x24,
0x94, 0x6e, 0x2c, 0x06,
0xb5, 0xfc, 0x3f, 0x12,
0x8b, 0x1b, 0x67, 0xd6,
0xf8, 0xff, 0xff, 0x7f,
0x00, 0x8c, 0x05, 0xf8,
0x30, 0x32, 0xff, 0xbf,
0x02, 0x37, 0xa5, 0x5e,
0x3f, 0xee, 0x83, 0xff,
0x5f, 0xaa, 0xcb, 0x40,
0xdf, 0xfc, 0xfe, 0xff,
0x1f, 0x00, 0xa0, 0x06,
0xfe, 0x7f, 0xff, 0x3f,
0x88, 0xd1, 0xda, 0x4a,
0x94, 0xfe, 0xff, 0xff,
0x03, 0x80, 0x96, 0x77,
0x5d, 0x08, 0x00, 0xd0,
0x0d, 0xe6, 0xa7, 0x77,
0x86, 0x15, 0x00, 0x0c,
0x70, 0x8a, 0x7e, 0xe1,
0x55, 0x83, 0x5a, 0x1d,
0x00, 0xc0, 0xe4, 0xea,
0xa4, 0x12, 0x4e, 0x77,
0x04, 0xee, 0x11, 0xfa,
0x6c, 0x49, 0x7d, 0x57,
0x0b, 0x00, 0x2e, 0x5c,
0x56, 0x92, 0x4b, 0x12,
0xc6, 0xed, 0x36, 0xba,
0xa8, 0x00, 0x60, 0xad,
0x33, 0xb4, 0x52, 0x40,
0x56, 0x31, 0x00, 0x9c,
0x23, 0xde, 0xb6, 0xe2,
0x12, 0x70, 0xe9, 0x5c,
0x95, 0xcc, 0x2e, 0xa2,
0x6e, 0xc1, 0x09, 0x00,
0xb1, 0xd2, 0xc3, 0x9a,
0x09, 0x48, 0x26, 0x01,
0x08, 0xf0, 0x94, 0xec,
0xbf, 0xf8, 0x01, 0x5c,
0x02, 0x00, 0x20, 0x11,
0x51, 0x2a, 0x09, 0xb4,
0xcb, 0xc1, 0x59, 0x49,
0x00, 0x00, 0x09, 0x62,
0x79, 0x1f, 0x1d, 0x4f,
0xec, 0x9e, 0x0e, 0x00,
0x9d, 0x06, 0xc7, 0xc9,
0xb7, 0xdc, 0xf5, 0x42,
0xf9, 0x0a, 0xed, 0xaa,
0x80, 0x01, 0x08, 0x00,
0x96, 0x6a, 0x92, 0xd5,
0x45, 0xec, 0x9c, 0x77,
0xa0, 0xa2, 0x06, 0x00,
0xcd, 0xbf, 0x97, 0x9d,
0xc0, 0x29, 0x81, 0xe9,
0x22, 0x00, 0xf3, 0x1c,
0xe2, 0xf5, 0x67, 0x96,
0xab, 0x69, 0x02, 0x08,
0x7a, 0xfe, 0x7c, 0xce,
0xa9, 0x49, 0x1a, 0xde,
0x6f, 0xb2, 0x72, 0xca,
0x61, 0x1a, 0x00, 0x96,
0xf1, 0x97, 0xbe, 0xd9,
0xfe, 0xce, 0xe6, 0xc1,
0xa3, 0x03, 0x40, 0xe6,
0x60, 0x30, 0x02, 0xfb,
0x94, 0xdb, 0xe5, 0x02,
0x00, 0x6a, 0xbc, 0x57,
0xfd, 0x98, 0xe9, 0xfe,
0x02, 0x80, 0x21, 0x61,
0xe6, 0xa3, 0x2b, 0x1f,
0x6d, 0x56, 0x9d, 0xc0,
0xb4, 0x00, 0x06, 0xca,
0x4e, 0x4e, 0x01, 0x60,
0xb0, 0x9e, 0xcd, 0xd2,
0xd0, 0xec, 0x2c, 0x00,
0x10, 0x32, 0x4a, 0x35,
0x06, 0x6d, 0xf5, 0x97,
0x53, 0x00, 0x1f, 0x43,
0x93, 0x91, 0xd9, 0x85,
0xbc, 0xb6, 0x7a, 0xff,
0xaf, 0x78, 0xe0, 0xd0,
0x44, 0xe3, 0xf9, 0xfe,
0xff, 0xc5, 0xf5, 0xc1,
0x24, 0x40, 0xfd, 0xff,
0x3f, 0xc8, 0x3d, 0x00,
0xac, 0xf4, 0xc6, 0xff,
0x4b, 0x1c, 0x11, 0xeb,
0xb5, 0x3b, 0xff, 0x1f,
0x9d, 0x14, 0x4a, 0x28,
0xae, 0xf9, 0xff, 0xff,
0x7f, 0x00, 0x60, 0x39,
0xf8, 0x37, 0xfe, 0xec,
0xff, 0x01, 0xb0, 0x47,
0x73, 0xe0, 0xc9, 0xa3,
0xfa, 0xff, 0xa4, 0xd9,
0xb9, 0xdc, 0x07, 0xfc,
0xa2, 0xfb, 0xff, 0x0f,
0x00, 0xf0, 0x18, 0xf7,
0xff, 0xfb, 0xff, 0xcd,
0xbb, 0x8d, 0xca, 0x62,
0xfe, 0xff, 0x1f, 0x4e,
0x1c, 0x00, 0xda, 0xb9,
0x04, 0x00, 0xb8, 0x3b,
0x76, 0xd0, 0xaf, 0xa7,
0xb5, 0x18, 0x4e, 0xbd,
0x31, 0x14, 0x73, 0x00,
0xa0, 0xb5, 0xe1, 0x98,
0x7f, 0xc9, 0xb2, 0xbd,
0xec, 0x15, 0x01, 0x80,
0x38, 0x3d, 0x99, 0x42,
0x90, 0xf5, 0x14, 0x10,
0x80, 0x90, 0x58, 0xe0,
0x53, 0xbe, 0x97, 0xf0,
0xff, 0xf5, 0x06, 0xf8,
0x58, 0x74, 0xe6, 0xff,
0xff, 0xff, 0xff, 0xff,
0xff, 0xff, 0xff, 0xff,
0xff, 0xff, 0xff, 0xff,
0xff, 0xff, 0xff, 0xff,
0xff, 0xff, 0xff, 0xff,
0xff, 0x01, 0x60, 0x0e,
0x80, 0x52, 0xbb, 0x00,
0x5e, 0xd2, 0xb7, 0xf0,
0xf4, 0x86, 0xd5, 0x0f,
0x00, 0x00, 0x08, 0x30,
0x5d, 0xcc, 0x0b, 0x8c,
0xcc, 0x3f, 0x00, 0x00,
0xff, 0xff, 0x0f, 0xf8, 

};






static inline const int8_t * Getfc_lif_layer_1WeightsPointer()
{
	return weight_fc_lif_layer_1;
}

static inline size_t Getfc_lif_layer_1WeightsLen()
{
	return sizeof(weight_fc_lif_layer_1);
}





static const int8_t lif_param_fc_lif_layer_1[] __attribute__((aligned(16))) = 
{


// ln(beta)_quant
124, 124, 124, 124, 124, 124, 124, 124, 124, 
124, 124, 124, 124, 124, 124, 124, 
// vth_quant
-1, -1, -1, -1, -1, -1, -1, -1, -1, 
-1, -1, -1, -1, -1, -1, -1, 

};







static inline const int8_t* Getfc_lif_layer_1LIFParamPointer()
{
	return lif_param_fc_lif_layer_1;
}
static inline size_t Getfc_lif_layer_1LIFParamLen()
{
	return sizeof(lif_param_fc_lif_layer_1);
}





static const int8_t lut_fc_lif_layer_1[] __attribute__((aligned(16))) = 
{


//lut index 0
-126, 
-126, -126, -126, -126, -126, -126, -126, -126, 
-126, -126, -126, -126, -126, -126, -126, -126, 
-126, -126, -126, -125, -125, -125, -125, -125, 
-125, -125, -125, -125, -125, -125, -125, -125, 
-125, -125, -125, -125, -124, -124, -124, -124, 
-124, -124, -124, -124, -124, -124, -124, -124, 
-124, -123, -123, -123, -123, -123, -123, -123, 
-123, -123, -123, -122, -122, -122, -122, -122, 
-122, -122, -122, -121, -121, -121, -121, -121, 
-121, -121, -121, -120, -120, -120, -120, -120, 
-120, -119, -119, -119, -119, -119, -119, -118, 
-118, -118, -118, -118, -117, -117, -117, -117, 
-116, -116, -116, -116, -116, -115, -115, -115, 
-115, -114, -114, -114, -113, -113, -113, -113, 
-112, -112, -112, -111, -111, -111, -110, -110, 
-110, -109, -109, -108, -108, -108, -107, -107, 
-106, -106, -106, -105, -105, -104, -104, -103, 
-103, -102, -102, -101, -101, -100, -100, -99, 
-98, -98, -97, -97, -96, -95, -95, -94, 
-93, -93, -92, -91, -91, -90, -89, -88, 
-88, -87, -86, -85, -84, -83, -83, -82, 
-81, -80, -79, -78, -77, -76, -75, -74, 
-73, -72, -71, -69, -68, -67, -66, -65, 
-63, -62, -61, -59, -58, -57, -55, -54, 
-52, -51, -49, -48, -46, -45, -43, -41, 
-40, -38, -36, -34, -32, -30, -29, -27, 
-25, -22, -20, -18, -16, -14, -12, -9, 
-7, -5, -2, 0, 3, 6, 8, 11, 
14, 16, 19, 22, 25, 28, 31, 34, 
38, 41, 44, 48, 51, 55, 58, 62, 
66, 70, 74, 78, 82, 86, 90, 94, 
99, 103, 108, 112, 117, 122, 127, 
//lut index 1
0, 
0, 0, 0, 0, 0, 0, 0, 0, 
0, 0, 0, 0, 0, 0, 0, 0, 
0, 0, 0, 0, 0, 0, 0, 0, 
0, 0, 0, 0, 0, 0, 0, 0, 
0, 0, 0, 0, 0, 0, 0, 0, 
0, 0, 0, 0, 0, 0, 0, 0, 
0, 0, 0, 0, 0, 0, 0, 0, 
0, 0, 0, 0, 0, 0, 0, 0, 
0, 0, 0, 0, 0, 0, 0, 0, 
0, 0, 0, 0, 0, 0, 0, 0, 
0, 0, 0, 0, 0, 0, 0, 0, 
0, 0, 0, 0, 0, 0, 0, 0, 
0, 0, 0, 0, 0, 0, 0, 0, 
0, 0, 0, 0, 0, 0, 0, 0, 
0, 0, 0, 0, 0, 0, 0, 0, 
0, 0, 0, 0, 0, 0, 0, 0, 
1, 1, 1, 1, 1, 1, 1, 1, 
1, 1, 1, 1, 1, 1, 1, 1, 
1, 1, 1, 1, 1, 1, 1, 1, 
1, 1, 1, 1, 1, 1, 1, 1, 
1, 1, 1, 1, 1, 1, 1, 1, 
1, 1, 1, 1, 1, 1, 1, 1, 
1, 1, 1, 1, 1, 1, 1, 1, 
1, 1, 1, 1, 1, 1, 1, 1, 
1, 1, 1, 1, 1, 1, 1, 1, 
1, 1, 1, 1, 1, 1, 1, 1, 
1, 1, 1, 1, 1, 1, 1, 1, 
1, 1, 1, 1, 1, 1, 1, 1, 
1, 1, 1, 1, 1, 1, 1, 1, 
1, 1, 1, 1, 1, 1, 1, 1, 
1, 1, 1, 1, 1, 1, 1, 1, 
1, 1, 1, 1, 1, 1, 1, 


};







static inline const int8_t* Getfc_lif_layer_1LUTPointer()
{
	return lut_fc_lif_layer_1;
}
static inline size_t Getfc_lif_layer_1LUTLen()
{
	return sizeof(lut_fc_lif_layer_1);
}

/*
Register Command Stream:
+---------------------------+-----------+-------------------------+
| Command Name              | Parameter | Payload Data            |
+---------------------------+-----------+-------------------------+
| NPU_SET_DMA0_SRC_REGION   | 4         | -                       |
| NPU_SET_DMA0_SRC          | 0         | 0x00000000 (0)          |
| NPU_SET_DMA0_DST_REGION   | 259       | -                       |
| NPU_SET_DMA0_DST          | 0         | 0x0000b800 (47104)      |
| NPU_SET_DMA0_LEN          | 0         | 0x00000100 (256)        |
| NPU_OP_DMA_START          | 0         | -                       |
| NPU_SET_OFM_SCALE         | 34        | 0x40404040 (1077952576) |
| NPU_SET_IFM_REGION        | 3         | -                       |
| NPU_SET_IFM_BASE0         | 0         | 0x00000000 (0)          |
| NPU_SET_IFM_BASE1         | 0         | 0x00000000 (0)          |
| NPU_SET_IFM_BASE2         | 0         | 0x00000000 (0)          |
| NPU_SET_IFM_BASE3         | 0         | 0x00000000 (0)          |
| NPU_SET_IFM_HEIGHT0_M1    | 0         | -                       |
| NPU_SET_IFM_HEIGHT1_M1    | 65535     | -                       |
| NPU_SET_IFM_WIDTH0_M1     | 0         | -                       |
| NPU_SET_IFM_DEPTH_M1      | 15        | -                       |
| NPU_SET_IFM_STRIDE_C      | 0         | 0x00000001 (1)          |
| NPU_SET_IFM_STRIDE_Y      | 0         | 0x00000010 (16)         |
| NPU_SET_IFM_STRIDE_X      | 0         | 0x00000010 (16)         |
| NPU_SET_IFM_ZERO_POINT    | 127       | -                       |
| NPU_SET_IFM_PRECISION     | 1         | -                       |
| NPU_SET_IFM_UPSCALE       | 0         | -                       |
| NPU_SET_OFM_REGION        | 1         | -                       |
| NPU_SET_OFM_BASE0         | 0         | 0x000029e0 (10720)      |
| NPU_SET_OFM_BASE1         | 0         | 0x00000000 (0)          |
| NPU_SET_OFM_BASE2         | 0         | 0x00000000 (0)          |
| NPU_SET_OFM_BASE3         | 0         | 0x00000000 (0)          |
| NPU_SET_OFM_HEIGHT0_M1    | 0         | -                       |
| NPU_SET_OFM_HEIGHT1_M1    | 65535     | -                       |
| NPU_SET_OFM_WIDTH0_M1     | 0         | -                       |
| NPU_SET_OFM_HEIGHT_M1     | 0         | -                       |
| NPU_SET_OFM_WIDTH_M1      | 0         | -                       |
| NPU_SET_OFM_DEPTH_M1      | 15        | -                       |
| NPU_SET_OFM_STRIDE_C      | 0         | 0x00000001 (1)          |
| NPU_SET_OFM_STRIDE_Y      | 0         | 0x00000010 (16)         |
| NPU_SET_OFM_STRIDE_X      | 0         | 0x00000010 (16)         |
| NPU_SET_OFM_ZERO_POINT    | 127       | -                       |
| NPU_SET_OFM_PRECISION     | 257       | -                       |
| NPU_SET_ACTIVATION        | 16        | -                       |
| NPU_SET_ACTIVATION_MIN    | 65408     | -                       |
| NPU_SET_ACTIVATION_MAX    | 127       | -                       |
| NPU_SET_OFM_BLK_HEIGHT_M1 | 1         | -                       |
| NPU_SET_OFM_BLK_WIDTH_M1  | 1         | -                       |
| NPU_SET_OFM_BLK_DEPTH_M1  | 15        | -                       |
| NPU_SET_IFM_IB_END        | 46        | -                       |
| NPU_SET_AB_START          | 46        | -                       |
| NPU_SET_IFM2_IB_START     | 10        | -                       |
| NPU_SET_ACC_FORMAT        | 0         | -                       |
| NPU_SET_IFM2_REGION       | 1         | -                       |
| NPU_SET_IFM2_BASE0        | 0         | 0x00002a10 (10768)      |
| NPU_SET_IFM2_BASE1        | 0         | 0x00000000 (0)          |
| NPU_SET_IFM2_BASE2        | 0         | 0x00000000 (0)          |
| NPU_SET_IFM2_BASE3        | 0         | 0x00000000 (0)          |
| NPU_SET_IFM2_HEIGHT0_M1   | 0         | -                       |
| NPU_SET_IFM2_HEIGHT1_M1   | 65535     | -                       |
| NPU_SET_IFM2_WIDTH0_M1    | 0         | -                       |
| NPU_SET_IFM2_STRIDE_C     | 0         | 0x00000001 (1)          |
| NPU_SET_IFM2_STRIDE_Y     | 0         | 0x00000001 (1)          |
| NPU_SET_IFM2_STRIDE_X     | 0         | 0x00000001 (1)          |
| NPU_SET_IFM2_ZERO_POINT   | 65408     | -                       |
| NPU_SET_IFM_PRECISION     | 1         | -                       |
| NPU_SET_IFM2_BROADCAST    | 4         | -                       |
| NPU_SET_BLOCKDEP          | 0         | -                       |
| NPU_OP_DMA_WAIT           | 0         | -                       |
| NPU_OP_ELEMENTWISE        | 0         | -                       |
| NPU_SET_DMA0_SRC_REGION   | 0         | -                       |
| NPU_SET_DMA0_DST_REGION   | 1         | -                       |
| NPU_SET_DMA0_DST          | 0         | 0x00000000 (0)          |
| NPU_SET_DMA0_LEN          | 0         | 0x000029e0 (10720)      |
| NPU_OP_DMA_START          | 0         | -                       |
| NPU_SET_IFM_REGION        | 5         | -                       |
| NPU_SET_IFM_DEPTH_M1      | 999       | -                       |
| NPU_SET_IFM_STRIDE_Y      | 0         | 0x000003e8 (1000)       |
| NPU_SET_IFM_STRIDE_X      | 0         | 0x000003e8 (1000)       |
| NPU_SET_IFM_ZERO_POINT    | 0         | -                       |
| NPU_SET_IFM_PAD_TOP       | 0         | -                       |
| NPU_SET_IFM_PAD_LEFT      | 0         | -                       |
| NPU_SET_IFM_PAD_BOTTOM    | 0         | -                       |
| NPU_SET_IFM_PAD_RIGHT     | 0         | -                       |
| NPU_SET_OFM_BASE0         | 0         | 0x000029f0 (10736)      |
| NPU_SET_OFM_ZERO_POINT    | 65408     | -                       |
| NPU_SET_OFM_PRECISION     | 1         | -                       |
| NPU_SET_KERNEL_HEIGHT_M1  | 0         | -                       |
| NPU_SET_KERNEL_WIDTH_M1   | 0         | -                       |
| NPU_SET_KERNEL_STRIDE     | 0         | -                       |
| NPU_SET_WEIGHT_REGION     | 1         | -                       |
| NPU_SET_WEIGHT_BASE       | 0         | 0x000000a0 (160)        |
| NPU_SET_WEIGHT_LENGTH     | 0         | 0x00002940 (10560)      |
| NPU_SET_SCALE_REGION      | 1         | -                       |
| NPU_SET_SCALE_BASE        | 0         | 0x00000000 (0)          |
| NPU_SET_SCALE_LENGTH      | 0         | 0x000000a0 (160)        |
| NPU_SET_ACTIVATION        | 0         | -                       |
| NPU_SET_IFM_IB_END        | 10        | -                       |
| NPU_SET_AB_START          | 30        | -                       |
| NPU_SET_BLOCKDEP          | 3         | -                       |
| NPU_OP_DMA_WAIT           | 0         | -                       |
| NPU_OP_CONV               | 0         | -                       |
| NPU_SET_OFM_SCALE         | 36        | 0x40404040 (1077952576) |
| NPU_SET_IFM_REGION        | 1         | -                       |
| NPU_SET_IFM_BASE0         | 0         | 0x00002a00 (10752)      |
| NPU_SET_IFM_DEPTH_M1      | 15        | -                       |
| NPU_SET_IFM_STRIDE_Y      | 0         | 0x00000010 (16)         |
| NPU_SET_IFM_STRIDE_X      | 0         | 0x00000010 (16)         |
| NPU_SET_IFM_ZERO_POINT    | 65408     | -                       |
| NPU_SET_OFM_BASE0         | 0         | 0x000029e0 (10720)      |
| NPU_SET_OFM_PRECISION     | 257       | -                       |
| NPU_SET_IFM_IB_END        | 46        | -                       |
| NPU_SET_AB_START          | 46        | -                       |
| NPU_SET_IFM2_BASE0        | 0         | 0x000029e0 (10720)      |
| NPU_SET_IFM2_STRIDE_Y     | 0         | 0x00000010 (16)         |
| NPU_SET_IFM2_STRIDE_X     | 0         | 0x00000010 (16)         |
| NPU_SET_IFM2_BROADCAST    | 0         | -                       |
| NPU_OP_ELEMENTWISE        | 0         | -                       |
| NPU_SET_OPA_SCALE         | 13        | 0x55555555 (1431655765) |
| NPU_SET_OPB_SCALE         | 0         | 0x00000000 (0)          |
| NPU_SET_OFM_SCALE         | 50        | 0x60000000 (1610612736) |
| NPU_SET_IFM_BASE0         | 0         | 0x000029e0 (10720)      |
| NPU_SET_IFM_PRECISION     | 257       | -                       |
| NPU_SET_OFM_BASE0         | 0         | 0x00002a00 (10752)      |
| NPU_SET_IFM2_BASE0        | 0         | 0x000029f0 (10736)      |
| NPU_SET_BLOCKDEP          | 0         | -                       |
| NPU_OP_ELEMENTWISE        | 1         | -                       |
| NPU_SET_DMA0_SRC_REGION   | 4         | -                       |
| NPU_SET_DMA0_SRC          | 0         | 0x00000100 (256)        |
| NPU_SET_DMA0_DST_REGION   | 259       | -                       |
| NPU_SET_DMA0_DST          | 0         | 0x0000b900 (47360)      |
| NPU_SET_DMA0_LEN          | 0         | 0x00000100 (256)        |
| NPU_OP_DMA_START          | 0         | -                       |
| NPU_SET_OPA_SCALE         | 13        | 0x40000000 (1073741824) |
| NPU_SET_OFM_SCALE         | 55        | 0x40404040 (1077952576) |
| NPU_SET_IFM_BASE0         | 0         | 0x00002a00 (10752)      |
| NPU_SET_IFM_PRECISION     | 513       | -                       |
| NPU_SET_OFM_REGION        | 6         | -                       |
| NPU_SET_OFM_BASE0         | 0         | 0x00000000 (0)          |
| NPU_SET_OFM_ZERO_POINT    | 0         | -                       |
| NPU_SET_ACTIVATION        | 17        | -                       |
| NPU_SET_IFM2_REGION       | 3         | -                       |
| NPU_SET_IFM2_BASE0        | 0         | 0x00000010 (16)         |
| NPU_SET_IFM2_ZERO_POINT   | 65280     | -                       |
| NPU_OP_DMA_WAIT           | 0         | -                       |
| NPU_OP_ELEMENTWISE        | 2         | -                       |
| NPU_SET_OFM_SCALE         | 31        | 0x55555555 (1431655765) |
| NPU_SET_IFM_REGION        | 3         | -                       |
| NPU_SET_IFM_BASE0         | 0         | 0x00000010 (16)         |
| NPU_SET_IFM_ZERO_POINT    | 65280     | -                       |
| NPU_SET_IFM_PRECISION     | 1         | -                       |
| NPU_SET_OFM_REGION        | 1         | -                       |
| NPU_SET_OFM_BASE0         | 0         | 0x000029f0 (10736)      |
| NPU_SET_OFM_ZERO_POINT    | 65408     | -                       |
| NPU_SET_ACTIVATION        | 0         | -                       |
| NPU_SET_IFM2_REGION       | 6         | -                       |
| NPU_SET_IFM2_BASE0        | 0         | 0x00000000 (0)          |
| NPU_SET_IFM2_ZERO_POINT   | 0         | -                       |
| NPU_OP_ELEMENTWISE        | 0         | -                       |
| NPU_SET_OPA_SCALE         | 13        | 0x60000000 (1610612736) |
| NPU_SET_OFM_SCALE         | 49        | 0x40000000 (1073741824) |
| NPU_SET_IFM_REGION        | 1         | -                       |
| NPU_SET_IFM_BASE0         | 0         | 0x00002a00 (10752)      |
| NPU_SET_IFM_ZERO_POINT    | 65408     | -                       |
| NPU_SET_IFM_PRECISION     | 513       | -                       |
| NPU_SET_OFM_BASE0         | 0         | 0x00002a00 (10752)      |
| NPU_SET_IFM2_REGION       | 1         | -                       |
| NPU_SET_IFM2_BASE0        | 0         | 0x000029f0 (10736)      |
| NPU_SET_IFM2_ZERO_POINT   | 65408     | -                       |
| NPU_OP_ELEMENTWISE        | 2         | -                       |
| NPU_SET_IFM_REGION        | 6         | -                       |
| NPU_SET_IFM_BASE0         | 0         | 0x00000000 (0)          |
| NPU_SET_IFM_ZERO_POINT    | 0         | -                       |
| NPU_SET_IFM_PRECISION     | 1         | -                       |
| NPU_SET_OFM_BASE0         | 0         | 0x00002a11 (10769)      |
| NPU_SET_OFM_DEPTH_M1      | 0         | -                       |
| NPU_SET_OFM_STRIDE_Y      | 0         | 0x00000001 (1)          |
| NPU_SET_OFM_STRIDE_X      | 0         | 0x00000001 (1)          |
| NPU_SET_OFM_BLK_DEPTH_M1  | 7         | -                       |
| NPU_SET_IFM_IB_END        | 10        | -                       |
| NPU_SET_AB_START          | 30        | -                       |
| NPU_SET_OFM_SCALE         | 22        | 0x3fc000ff (1069547775) |
| NPU_SET_BLOCKDEP          | 3         | -                       |
| NPU_OP_POOL               | 2         | -                       |
| NPU_SET_OFM_SCALE         | 30        | 0x40000000 (1073741824) |
| NPU_SET_IFM_REGION        | 1         | -                       |
| NPU_SET_IFM_BASE0         | 0         | 0x00002a10 (10768)      |
| NPU_SET_IFM_DEPTH_M1      | 0         | -                       |
| NPU_SET_IFM_STRIDE_Y      | 0         | 0x00000001 (1)          |
| NPU_SET_IFM_STRIDE_X      | 0         | 0x00000001 (1)          |
| NPU_SET_IFM_ZERO_POINT    | 65408     | -                       |
| NPU_SET_OFM_BASE0         | 0         | 0x00002a10 (10768)      |
| NPU_SET_ACTIVATION_MAX    | 65408     | -                       |
| NPU_SET_IFM_IB_END        | 46        | -                       |
| NPU_SET_AB_START          | 46        | -                       |
| NPU_SET_IFM2_ZERO_POINT   | 0         | -                       |
| NPU_SET_IFM_PRECISION     | 0         | -                       |
| NPU_SET_IFM2_BROADCAST    | 128       | -                       |
| NPU_SET_IFM2_SCALAR       | 0         | -                       |
| NPU_OP_ELEMENTWISE        | 0         | -                       |
| NPU_OP_STOP               | 65535     | -                       |
+---------------------------+-----------+-------------------------+
*/
