#pragma once
#include <stddef.h>
#include <stdint.h>




// Tensor sizes

#define FC_LIF_LAYER_2_IS_LAST_LAYER 1
#define FC_LIF_LAYER_2_MAX_NUM_TENSORS_TO_TRACK 8
#define FC_LIF_LAYER_2_TENSOR_ARENA_SIZE  66
#define FC_LIF_LAYER_2_INPUT_LAYER_SIZE  64
#define FC_LIF_LAYER_2_OUTPUT_LAYER_SIZE  16
#define FC_LIF_LAYER_2_WEIGHT_LEN 768
#define FC_LIF_LAYER_2_BIAS_LEN 160








static const uint8_t cms_fc_lif_layer_2[] __attribute__((aligned(16))) =
{
0x43, 0x4f, 0x50, 0x31,
0x01, 0x00, 0x10, 0x00,
0x08, 0x30, 0x00, 0x00,
0x00, 0x00, 0x06, 0x10,
0x05, 0x00, 0x00, 0x00,
0x05, 0x00, 0x00, 0x00,
0x05, 0x00, 0x00, 0x00,
0x02, 0x00, 0x39, 0x01,
0x30, 0x01, 0x04, 0x00,
0x30, 0x40, 0x00, 0x00,
0x00, 0x00, 0x00, 0x00,
0x31, 0x01, 0x03, 0x01,
0x31, 0x40, 0x00, 0x00,
0x00, 0xb8, 0x00, 0x00,
0x32, 0x40, 0x00, 0x00,
0x00, 0x01, 0x00, 0x00,
0x10, 0x00, 0x00, 0x00,
0x24, 0x40, 0x25, 0x00,
0x9a, 0x33, 0xcd, 0x66,
0x0f, 0x01, 0x03, 0x00,
0x00, 0x40, 0x00, 0x00,
0x00, 0x00, 0x00, 0x00,
0x01, 0x40, 0x00, 0x00,
0x00, 0x00, 0x00, 0x00,
0x02, 0x40, 0x00, 0x00,
0x00, 0x00, 0x00, 0x00,
0x03, 0x40, 0x00, 0x00,
0x00, 0x00, 0x00, 0x00,
0x0b, 0x01, 0x00, 0x00,
0x0c, 0x01, 0xff, 0xff,
0x0a, 0x01, 0x00, 0x00,
0x04, 0x01, 0x0f, 0x00,
0x06, 0x40, 0x00, 0x00,
0x01, 0x00, 0x00, 0x00,
0x05, 0x40, 0x00, 0x00,
0x10, 0x00, 0x00, 0x00,
0x04, 0x40, 0x00, 0x00,
0x10, 0x00, 0x00, 0x00,
0x09, 0x01, 0x41, 0x00,
0x05, 0x01, 0x01, 0x00,
0x07, 0x01, 0x00, 0x00,
0x1f, 0x01, 0x01, 0x00,
0x10, 0x40, 0x00, 0x00,
0x00, 0x00, 0x00, 0x00,
0x11, 0x40, 0x00, 0x00,
0x00, 0x00, 0x00, 0x00,
0x12, 0x40, 0x00, 0x00,
0x00, 0x00, 0x00, 0x00,
0x13, 0x40, 0x00, 0x00,
0x00, 0x00, 0x00, 0x00,
0x1b, 0x01, 0x00, 0x00,
0x1c, 0x01, 0xff, 0xff,
0x1a, 0x01, 0x00, 0x00,
0x12, 0x01, 0x00, 0x00,
0x11, 0x01, 0x00, 0x00,
0x13, 0x01, 0x0f, 0x00,
0x16, 0x40, 0x00, 0x00,
0x10, 0x00, 0x00, 0x00,
0x15, 0x40, 0x00, 0x00,
0x10, 0x00, 0x00, 0x00,
0x14, 0x40, 0x00, 0x00,
0x10, 0x00, 0x00, 0x00,
0x18, 0x01, 0x7f, 0x00,
0x14, 0x01, 0x41, 0x01,
0x25, 0x01, 0x10, 0x00,
0x26, 0x01, 0x80, 0xff,
0x27, 0x01, 0x7f, 0x00,
0x16, 0x01, 0x01, 0x00,
0x15, 0x01, 0x01, 0x00,
0x17, 0x01, 0x0f, 0x00,
0x0d, 0x01, 0x2e, 0x00,
0x2d, 0x01, 0x2e, 0x00,
0x8d, 0x01, 0x0a, 0x00,
0x24, 0x01, 0x00, 0x00,
0x8f, 0x01, 0x01, 0x00,
0x80, 0x40, 0x00, 0x00,
0x40, 0x00, 0x00, 0x00,
0x81, 0x40, 0x00, 0x00,
0x00, 0x00, 0x00, 0x00,
0x82, 0x40, 0x00, 0x00,
0x00, 0x00, 0x00, 0x00,
0x83, 0x40, 0x00, 0x00,
0x00, 0x00, 0x00, 0x00,
0x8b, 0x01, 0x00, 0x00,
0x8c, 0x01, 0xff, 0xff,
0x8a, 0x01, 0x00, 0x00,
0x86, 0x40, 0x00, 0x00,
0x01, 0x00, 0x00, 0x00,
0x85, 0x40, 0x00, 0x00,
0x01, 0x00, 0x00, 0x00,
0x84, 0x40, 0x00, 0x00,
0x01, 0x00, 0x00, 0x00,
0x89, 0x01, 0x80, 0xff,
0x85, 0x01, 0x01, 0x00,
0x80, 0x01, 0x04, 0x00,
0x2f, 0x01, 0x00, 0x00,
0x11, 0x00, 0x00, 0x00,
0x06, 0x00, 0x00, 0x00,
0x0f, 0x01, 0x05, 0x00,
0x04, 0x01, 0x3f, 0x00,
0x05, 0x40, 0x00, 0x00,
0x40, 0x00, 0x00, 0x00,
0x04, 0x40, 0x00, 0x00,
0x40, 0x00, 0x00, 0x00,
0x09, 0x01, 0x00, 0x00,
0x00, 0x01, 0x00, 0x00,
0x01, 0x01, 0x00, 0x00,
0x03, 0x01, 0x00, 0x00,
0x02, 0x01, 0x00, 0x00,
0x10, 0x40, 0x00, 0x00,
0x10, 0x00, 0x00, 0x00,
0x18, 0x01, 0x00, 0x00,
0x14, 0x01, 0x41, 0x00,
0x21, 0x01, 0x00, 0x00,
0x20, 0x01, 0x00, 0x00,
0x22, 0x01, 0x00, 0x00,
0x28, 0x01, 0x00, 0x00,
0x20, 0x40, 0x00, 0x00,
0xa0, 0x00, 0x00, 0x00,
0x21, 0x40, 0x00, 0x00,
0x00, 0x03, 0x00, 0x00,
0x29, 0x01, 0x00, 0x00,
0x22, 0x40, 0x00, 0x00,
0x00, 0x00, 0x00, 0x00,
0x23, 0x40, 0x00, 0x00,
0xa0, 0x00, 0x00, 0x00,
0x25, 0x01, 0x00, 0x00,
0x0d, 0x01, 0x0a, 0x00,
0x2d, 0x01, 0x1e, 0x00,
0x2f, 0x01, 0x03, 0x00,
0x02, 0x00, 0x00, 0x00,
0x24, 0x40, 0x26, 0x00,
0x25, 0xf6, 0x3b, 0x53,
0x0f, 0x01, 0x01, 0x00,
0x00, 0x40, 0x00, 0x00,
0x20, 0x00, 0x00, 0x00,
0x04, 0x01, 0x0f, 0x00,
0x05, 0x40, 0x00, 0x00,
0x10, 0x00, 0x00, 0x00,
0x04, 0x40, 0x00, 0x00,
0x10, 0x00, 0x00, 0x00,
0x09, 0x01, 0xe6, 0xff,
0x10, 0x40, 0x00, 0x00,
0x00, 0x00, 0x00, 0x00,
0x18, 0x01, 0xdd, 0xff,
0x14, 0x01, 0x41, 0x01,
0x0d, 0x01, 0x2e, 0x00,
0x2d, 0x01, 0x2e, 0x00,
0x80, 0x40, 0x00, 0x00,
0x00, 0x00, 0x00, 0x00,
0x86, 0x40, 0x00, 0x00,
0x10, 0x00, 0x00, 0x00,
0x85, 0x40, 0x00, 0x00,
0x10, 0x00, 0x00, 0x00,
0x84, 0x40, 0x00, 0x00,
0x10, 0x00, 0x00, 0x00,
0x85, 0x01, 0x41, 0x00,
0x80, 0x01, 0x00, 0x00,
0x06, 0x00, 0x00, 0x00,
0x25, 0x40, 0x0c, 0x00,
0x8e, 0xe3, 0x38, 0x4e,
0x26, 0x40, 0x00, 0x00,
0x00, 0x00, 0x00, 0x00,
0x24, 0x40, 0x31, 0x00,
0xcd, 0xcc, 0xcc, 0x4c,
0x00, 0x40, 0x00, 0x00,
0x00, 0x00, 0x00, 0x00,
0x06, 0x40, 0x00, 0x00,
0x10, 0x00, 0x00, 0x00,
0x09, 0x01, 0xdd, 0xff,
0x05, 0x01, 0x41, 0x01,
0x10, 0x40, 0x00, 0x00,
0x20, 0x00, 0x00, 0x00,
0x16, 0x40, 0x00, 0x00,
0x01, 0x00, 0x00, 0x00,
0x18, 0x01, 0xe6, 0xff,
0x14, 0x01, 0x01, 0x01,
0x80, 0x40, 0x00, 0x00,
0x10, 0x00, 0x00, 0x00,
0x89, 0x01, 0x00, 0x00,
0x2f, 0x01, 0x00, 0x00,
0x06, 0x00, 0x01, 0x00,
0x30, 0x40, 0x00, 0x00,
0x00, 0x01, 0x00, 0x00,
0x31, 0x40, 0x00, 0x00,
0x00, 0xb9, 0x00, 0x00,
0x10, 0x00, 0x00, 0x00,
0x25, 0x40, 0x12, 0x00,
0xd4, 0x06, 0x3a, 0x6d,
0x24, 0x40, 0x2f, 0x00,
0x00, 0x00, 0x00, 0x78,
0x00, 0x40, 0x00, 0x00,
0x20, 0x00, 0x00, 0x00,
0x06, 0x40, 0x00, 0x00,
0x01, 0x00, 0x00, 0x00,
0x09, 0x01, 0xe6, 0xff,
0x05, 0x01, 0x01, 0x02,
0x1f, 0x01, 0x06, 0x00,
0x10, 0x40, 0x00, 0x00,
0x00, 0x00, 0x00, 0x00,
0x18, 0x01, 0x00, 0x00,
0x25, 0x01, 0x11, 0x00,
0x8f, 0x01, 0x03, 0x00,
0x86, 0x40, 0x00, 0x00,
0x01, 0x00, 0x00, 0x00,
0x89, 0x01, 0x05, 0xfb,
0x85, 0x01, 0x01, 0x00,
0x11, 0x00, 0x00, 0x00,
0x06, 0x00, 0x02, 0x00,
0x24, 0x40, 0x21, 0x00,
0xd1, 0x45, 0x17, 0x5d,
0x0f, 0x01, 0x03, 0x00,
0x00, 0x40, 0x00, 0x00,
0x10, 0x00, 0x00, 0x00,
0x09, 0x01, 0x05, 0xfb,
0x05, 0x01, 0x01, 0x00,
0x1f, 0x01, 0x01, 0x00,
0x10, 0x40, 0x00, 0x00,
0x10, 0x00, 0x00, 0x00,
0x16, 0x40, 0x00, 0x00,
0x10, 0x00, 0x00, 0x00,
0x18, 0x01, 0x80, 0xff,
0x14, 0x01, 0x41, 0x01,
0x25, 0x01, 0x00, 0x00,
0x8f, 0x01, 0x06, 0x00,
0x80, 0x40, 0x00, 0x00,
0x00, 0x00, 0x00, 0x00,
0x89, 0x01, 0x00, 0x00,
0x06, 0x00, 0x00, 0x00,
0x25, 0x40, 0x0f, 0x00,
0xb1, 0xe4, 0x17, 0x4b,
0x24, 0x40, 0x31, 0x00,
0x00, 0x00, 0x00, 0x40,
0x0f, 0x01, 0x01, 0x00,
0x00, 0x40, 0x00, 0x00,
0x20, 0x00, 0x00, 0x00,
0x09, 0x01, 0xe6, 0xff,
0x05, 0x01, 0x01, 0x02,
0x10, 0x40, 0x00, 0x00,
0x20, 0x00, 0x00, 0x00,
0x16, 0x40, 0x00, 0x00,
0x01, 0x00, 0x00, 0x00,
0x18, 0x01, 0xe6, 0xff,
0x14, 0x01, 0x01, 0x01,
0x8f, 0x01, 0x01, 0x00,
0x80, 0x40, 0x00, 0x00,
0x10, 0x00, 0x00, 0x00,
0x86, 0x40, 0x00, 0x00,
0x10, 0x00, 0x00, 0x00,
0x89, 0x01, 0x80, 0xff,
0x85, 0x01, 0x41, 0x00,
0x06, 0x00, 0x02, 0x00,
0x0f, 0x01, 0x06, 0x00,
0x00, 0x40, 0x00, 0x00,
0x00, 0x00, 0x00, 0x00,
0x09, 0x01, 0x00, 0x00,
0x05, 0x01, 0x01, 0x00,
0x10, 0x40, 0x00, 0x00,
0x41, 0x00, 0x00, 0x00,
0x13, 0x01, 0x00, 0x00,
0x15, 0x40, 0x00, 0x00,
0x01, 0x00, 0x00, 0x00,
0x14, 0x40, 0x00, 0x00,
0x01, 0x00, 0x00, 0x00,
0x18, 0x01, 0x80, 0xff,
0x17, 0x01, 0x07, 0x00,
0x0d, 0x01, 0x0a, 0x00,
0x2d, 0x01, 0x1e, 0x00,
0x24, 0x40, 0x16, 0x00,
0xff, 0x00, 0xc0, 0x3f,
0x2f, 0x01, 0x03, 0x00,
0x05, 0x00, 0x02, 0x00,
0x24, 0x40, 0x1e, 0x00,
0x00, 0x00, 0x00, 0x40,
0x0f, 0x01, 0x01, 0x00,
0x00, 0x40, 0x00, 0x00,
0x40, 0x00, 0x00, 0x00,
0x04, 0x01, 0x00, 0x00,
0x05, 0x40, 0x00, 0x00,
0x01, 0x00, 0x00, 0x00,
0x04, 0x40, 0x00, 0x00,
0x01, 0x00, 0x00, 0x00,
0x09, 0x01, 0x80, 0xff,
0x10, 0x40, 0x00, 0x00,
0x40, 0x00, 0x00, 0x00,
0x0d, 0x01, 0x2e, 0x00,
0x2d, 0x01, 0x2e, 0x00,
0x89, 0x01, 0x00, 0x00,
0x85, 0x01, 0x00, 0x00,
0x80, 0x01, 0x80, 0x00,
0x81, 0x01, 0x00, 0x00,
0x06, 0x00, 0x00, 0x00,
0x25, 0x40, 0x0f, 0x00,
0x64, 0x64, 0x64, 0x64,
0x24, 0x40, 0x2e, 0x00,
0x9a, 0x99, 0x99, 0x51,
0x00, 0x40, 0x00, 0x00,
0x30, 0x00, 0x00, 0x00,
0x04, 0x01, 0x0f, 0x00,
0x05, 0x40, 0x00, 0x00,
0x10, 0x00, 0x00, 0x00,
0x04, 0x40, 0x00, 0x00,
0x10, 0x00, 0x00, 0x00,
0x05, 0x01, 0x01, 0x01,
0x10, 0x40, 0x00, 0x00,
0x30, 0x00, 0x00, 0x00,
0x13, 0x01, 0x0f, 0x00,
0x15, 0x40, 0x00, 0x00,
0x10, 0x00, 0x00, 0x00,
0x14, 0x40, 0x00, 0x00,
0x10, 0x00, 0x00, 0x00,
0x17, 0x01, 0x0f, 0x00,
0x8f, 0x01, 0x06, 0x00,
0x80, 0x40, 0x00, 0x00,
0x00, 0x00, 0x00, 0x00,
0x86, 0x40, 0x00, 0x00,
0x01, 0x00, 0x00, 0x00,
0x85, 0x01, 0x01, 0x00,
0x80, 0x01, 0x00, 0x00,
0x06, 0x00, 0x01, 0x00,
0x00, 0x00, 0xff, 0xff, };

static inline const uint8_t* Getcmsfc_lif_layer_2Pointer()
{
	return cms_fc_lif_layer_2;
}


static inline const size_t Getcmsfc_lif_layer_2Len()
{
	return sizeof(cms_fc_lif_layer_2);
}


static const int8_t WEIGHTS_AND_BIASES_REGION_fc_lif_layer_2[] __attribute__((aligned(16))) =
{
//biases
0xfe, 0xff, 0xff, 0xff,
0xff, 0x1c, 0x3f, 0x5c,
0x50, 0x22, 0xf5, 0xff,
0xff, 0xff, 0xff, 0x1c,
0x3f, 0x5c, 0x50, 0x22,
0x09, 0x00, 0x00, 0x00,
0x00, 0x1c, 0x3f, 0x5c,
0x50, 0x22, 0xf6, 0xff,
0xff, 0xff, 0xff, 0x1c,
0x3f, 0x5c, 0x50, 0x22,
0xf3, 0xff, 0xff, 0xff,
0xff, 0x1c, 0x3f, 0x5c,
0x50, 0x22, 0x0d, 0x00,
0x00, 0x00, 0x00, 0x1c,
0x3f, 0x5c, 0x50, 0x22,
0xf3, 0xff, 0xff, 0xff,
0xff, 0x1c, 0x3f, 0x5c,
0x50, 0x22, 0xf2, 0xff,
0xff, 0xff, 0xff, 0x1c,
0x3f, 0x5c, 0x50, 0x22,
0x13, 0x00, 0x00, 0x00,
0x00, 0x1c, 0x3f, 0x5c,
0x50, 0x22, 0x0b, 0x00,
0x00, 0x00, 0x00, 0x1c,
0x3f, 0x5c, 0x50, 0x22,
0x00, 0x00, 0x00, 0x00,
0x00, 0x1c, 0x3f, 0x5c,
0x50, 0x22, 0x00, 0x00,
0x00, 0x00, 0x00, 0x1c,
0x3f, 0x5c, 0x50, 0x22,
0x00, 0x00, 0x00, 0x00,
0x00, 0x1c, 0x3f, 0x5c,
0x50, 0x22, 0x00, 0x00,
0x00, 0x00, 0x00, 0x1c,
0x3f, 0x5c, 0x50, 0x22,
0x00, 0x00, 0x00, 0x00,
0x00, 0x1c, 0x3f, 0x5c,
0x50, 0x22, 0x00, 0x00,
0x00, 0x00, 0x00, 0x1c,
0x3f, 0x5c, 0x50, 0x22, 
//weights
0xc8, 0x13, 0x54, 0x01,
0xfe, 0x5f, 0x00, 0x70,
0xae, 0xfb, 0xde, 0xdd,
0xe0, 0x5b, 0x76, 0xcd,
0x75, 0xeb, 0xa4, 0x31,
0x9d, 0x1e, 0x00, 0xde,
0xd0, 0x1a, 0xa0, 0xfd,
0x68, 0x3e, 0xdf, 0xfa,
0x49, 0x93, 0xf9, 0xbf,
0x01, 0x40, 0x5d, 0x59,
0xf6, 0x7c, 0xda, 0x7c,
0x74, 0x77, 0x7a, 0x53,
0xf4, 0x6f, 0x07, 0x80,
0xb1, 0x47, 0xbe, 0xd9,
0xe6, 0xf1, 0xf5, 0x00,
0x90, 0x79, 0xf0, 0xb9,
0x92, 0x62, 0x97, 0xbc,
0x84, 0x22, 0xd2, 0xe8,
0xf7, 0x00, 0xe0, 0x3c,
0x5d, 0x70, 0x3f, 0x7f,
0x15, 0xdf, 0xbf, 0x6d,
0xdc, 0xd4, 0xe7, 0xdf,
0x03, 0x40, 0xe7, 0x6a,
0x6f, 0x39, 0x75, 0xfd,
0xbe, 0x15, 0xdf, 0x48,
0xd4, 0x7b, 0x55, 0x75,
0xa7, 0x71, 0x7d, 0x00,
0xb0, 0x37, 0xd4, 0xd4,
0x89, 0xfb, 0xf6, 0xef,
0x78, 0x78, 0x78, 0x47,
0xf7, 0x05, 0x00, 0xd4,
0x92, 0xd5, 0x77, 0xd2,
0xfa, 0x01, 0xc0, 0x5b,
0xd8, 0x54, 0x1c, 0xdd,
0x80, 0xe7, 0xbf, 0x73,
0x9d, 0xb8, 0xa8, 0x7d,
0x6f, 0xbe, 0x55, 0xcc,
0xb8, 0xed, 0x00, 0xd0,
0x1b, 0x4f, 0xee, 0x60,
0xf8, 0x7a, 0x75, 0x53,
0x2f, 0xa8, 0xfd, 0x3d,
0x00, 0x4c, 0xeb, 0xa8,
0xe8, 0x43, 0xb2, 0xf7,
0xef, 0x3d, 0xa8, 0x96,
0xaa, 0xd7, 0x00, 0x00,
0xbe, 0xb0, 0xe8, 0xbf,
0x96, 0x77, 0x03, 0xab,
0xe6, 0xb6, 0xda, 0xad,
0x02, 0xc0, 0xf2, 0x94,
0x6b, 0x2e, 0xf1, 0xb9,
0xfb, 0xf2, 0x21, 0x59,
0x0b, 0xbe, 0xff, 0x00,
0x60, 0xcb, 0x40, 0x47,
0x42, 0xfd, 0x5f, 0xb8,
0xff, 0x55, 0x88, 0xe9,
0xbd, 0x01, 0x40, 0xd7,
0x70, 0xa1, 0xdf, 0xe9,
0xb6, 0xef, 0xaf, 0xf2,
0x53, 0xf8, 0x6e, 0xee,
0x01, 0x60, 0x5e, 0x8a,
0xf7, 0xde, 0xfc, 0x7f,
0x10, 0x63, 0xf2, 0x5f,
0xec, 0xf8, 0x00, 0x68,
0x26, 0x7d, 0xaa, 0x2e,
0xe4, 0x77, 0x03, 0x40,
0x8b, 0x41, 0xa8, 0x2a,
0x5b, 0xf6, 0xbd, 0x76,
0x39, 0xd6, 0xbb, 0x40,
0xa5, 0x1b, 0x00, 0xf8,
0x37, 0x28, 0x7e, 0x97,
0xf7, 0x3d, 0x9c, 0x17,
0xf6, 0x67, 0xcb, 0x17,
0x00, 0x78, 0x06, 0x38,
0xe2, 0x7c, 0x6d, 0x35,
0xa8, 0x26, 0x5b, 0xac,
0x67, 0xec, 0x00, 0x40,
0x2b, 0x07, 0xb2, 0x33,
0x0b, 0x72, 0xd9, 0x77,
0x01, 0xfc, 0x78, 0x2f,
0x7f, 0xd2, 0x45, 0xa9,
0x31, 0xff, 0x7f, 0x5f,
0x98, 0x89, 0x55, 0x37,
0xeb, 0xff, 0xbf, 0x77,
0x3e, 0x3e, 0x41, 0xcc,
0xff, 0x6f, 0x13, 0xa7,
0xb7, 0xff, 0x01, 0x00,
0xee, 0xc4, 0xff, 0xdb,
0xff, 0xbf, 0x7e, 0x7d,
0x65, 0x2d, 0xd9, 0x9a,
0xff, 0xef, 0x1b, 0x1d,
0xd4, 0xff, 0x4f, 0x4f,
0xb7, 0x94, 0xdd, 0xff,
0x03, 0xc0, 0x5d, 0xc3,
0x7f, 0x6f, 0x68, 0xfe,
0x7f, 0x37, 0x71, 0x44,
0xfd, 0xff, 0x1b, 0xc5,
0x74, 0xb3, 0xf5, 0xd3,
0xff, 0x3f, 0x80, 0x3a,
0x03, 0xbc, 0x7b, 0x67,
0xff, 0xdf, 0xad, 0x92,
0xf2, 0x2a, 0x43, 0xff,
0x8f, 0x54, 0x8c, 0xfa,
0x91, 0xff, 0xff, 0x87,
0x9d, 0x03, 0x80, 0x7f,
0xcf, 0xb1, 0x87, 0xc0,
0xfa, 0xf2, 0x02, 0x40,
0x5a, 0x54, 0xdb, 0xec,
0x31, 0x26, 0x15, 0x00,
0xea, 0x40, 0xc4, 0x89,
0xfd, 0x98, 0x35, 0xdf,
0x86, 0x00, 0xcd, 0x2a,
0xed, 0x33, 0x6b, 0x00,
0xa0, 0x95, 0x04, 0x83,
0x3d, 0x8e, 0x0e, 0x00,
0xaf, 0x13, 0xe5, 0x66,
0xdd, 0x61, 0x94, 0x97,
0xe7, 0xfe, 0x23, 0xa3,
0xfa, 0xf7, 0x1e, 0x00,
0x3c, 0x9d, 0xf7, 0x26,
0xf4, 0x72, 0xae, 0xb9,
0xc5, 0x02, 0x2a, 0x1e,
0x55, 0x03, 0x00, 0x97,
0xbb, 0x99, 0x42, 0x76,
0x6b, 0xcd, 0x3d, 0xda,
0x28, 0xc6, 0xb8, 0x1f,
0xfb, 0x00, 0xe0, 0x3b,
0xf7, 0x1b, 0x6f, 0x24,
0xce, 0x06, 0x80, 0xfc,
0x31, 0x41, 0x9c, 0x29,
0x17, 0xbb, 0x4a, 0x10,
0x6b, 0xfc, 0x73, 0x0f,
0x00, 0x92, 0xc7, 0x25,
0x20, 0xc1, 0xec, 0x77,
0x3b, 0xdb, 0x89, 0x22,
0x8d, 0x75, 0x7a, 0x70,
0x01, 0x80, 0x5a, 0xfa,
0x07, 0x6f, 0x8d, 0x75,
0x00, 0x00, 0xf3, 0x07,
0xa3, 0x75, 0xb7, 0xf8,
0xa7, 0x4e, 0x07, 0xd0,
0x48, 0x8e, 0xae, 0x52,
0x6a, 0xc2, 0x72, 0xaf,
0x07, 0x00, 0x54, 0x4c,
0x9c, 0xfa, 0x03, 0x50,
0xbd, 0x26, 0x82, 0xa6,
0x00, 0x8d, 0x2a, 0x0d,
0x00, 0x80, 0xbc, 0x4c,
0x6a, 0xe6, 0xed, 0xea,
0x3e, 0x2e, 0x0e, 0x78,
0x00, 0x80, 0x0b, 0xdb,
0x74, 0xa6, 0x53, 0xe8,
0x42, 0x4f, 0x05, 0x60,
0xd8, 0x4c, 0x5e, 0x6f,
0x86, 0x84, 0xcc, 0x19,
0x00, 0x46, 0xe2, 0x33,
0x51, 0x81, 0x2d, 0xb4,
0xd8, 0xf1, 0x86, 0x8d,
0x55, 0xcd, 0x8f, 0xa3,
0xd8, 0x01, 0x00, 0x67,
0x59, 0x11, 0x71, 0x8c,
0x5c, 0x3e, 0x00, 0x00,
0x7b, 0x5c, 0x85, 0x9d,
0xd3, 0x79, 0xd5, 0x01,
0x00, 0xfc, 0xa9, 0xb7,
0x1d, 0x71, 0xf6, 0x4b,
0xb9, 0xcb, 0x8b, 0xf9,
0x69, 0x75, 0x27, 0xb9,
0x5f, 0x00, 0x40, 0x64,
0x84, 0x32, 0x6e, 0x1a,
0x66, 0x0a, 0xff, 0xb5,
0x58, 0x0b, 0x88, 0x13,
0x7a, 0x66, 0xf1, 0xf5,
0xff, 0x3b, 0x76, 0x6a,
0xa9, 0xa3, 0xec, 0xff,
0x27, 0x27, 0xd4, 0xcb,
0xdf, 0xff, 0x3f, 0x40,
0xee, 0x01, 0xfc, 0x47,
0x46, 0xfd, 0xbf, 0x09,
0xa7, 0xa4, 0x0c, 0xe6,
0xff, 0x6f, 0xb4, 0xfe,
0xba, 0xa6, 0x99, 0xfc,
0xff, 0xff, 0x00, 0x00,
0x08, 0x99, 0xff, 0xc7,
0x78, 0x7e, 0x33, 0x02,
0x04, 0x82, 0xfc, 0xff,
0xff, 0xff, 0x3f, 0x00,
0x9d, 0xc1, 0x01, 0x80,
0x0a, 0x14, 0x19, 0x00,
0xa0, 0x00, 0xc0, 0x0f,
0xc6, 0xff, 0xff, 0xff,
0xff, 0xff, 0xff, 0xff,
0xff, 0xff, 0xff, 0xff, };

static inline const int8_t* GetWEIGHTS_AND_BIASES_REGIONfc_lif_layer_2Pointer()
{
	return WEIGHTS_AND_BIASES_REGION_fc_lif_layer_2;
}


static inline const size_t GetWEIGHTS_AND_BIASES_REGIONfc_lif_layer_2Len()
{
	return sizeof(WEIGHTS_AND_BIASES_REGION_fc_lif_layer_2);
}


static int8_t SRAM_SCRATCH_REGION_fc_lif_layer_2 [66] __attribute__((section("model_params_dtcm"))) __attribute__((aligned(16)));

static inline int8_t* GetSRAM_SCRATCH_REGIONfc_lif_layer_2Pointer()
{
	return SRAM_SCRATCH_REGION_fc_lif_layer_2;
}


static inline const size_t GetSRAM_SCRATCH_REGIONfc_lif_layer_2Len()
{
	return sizeof(SRAM_SCRATCH_REGION_fc_lif_layer_2);
}


static int8_t SRAM_FAST_SCRATCH_REGION_fc_lif_layer_2 [0] __attribute__((section("model_params_dtcm"))) __attribute__((aligned(16)));

static inline int8_t* GetSRAM_FAST_SCRATCH_REGIONfc_lif_layer_2Pointer()
{
	return SRAM_FAST_SCRATCH_REGION_fc_lif_layer_2;
}


static inline const size_t GetSRAM_FAST_SCRATCH_REGIONfc_lif_layer_2Len()
{
	return sizeof(SRAM_FAST_SCRATCH_REGION_fc_lif_layer_2);
}


static const int8_t PARAMS_REGIONS_fc_lif_layer_2[] __attribute__((aligned(16))) =
{

// ln(beta)_quant
0, 0, 0, 0, 0, 0, 0, 0, 0, 
0, 0, 0, 0, 0, 0, 0, 
// vth_quant
0, 0, 0, 0, 0, 0, 0, 0, 0, 
0, 0, 0, 0, 0, 0, 0, };

static inline const int8_t* GetPARAMS_REGIONSfc_lif_layer_2Pointer()
{
	return PARAMS_REGIONS_fc_lif_layer_2;
}


static inline const size_t GetPARAMS_REGIONSfc_lif_layer_2Len()
{
	return sizeof(PARAMS_REGIONS_fc_lif_layer_2);
}


static const int8_t LUT_REGION_fc_lif_layer_2[] __attribute__((aligned(16))) =
{

//lut index 0
-29, 
-29, -28, -28, -28, -27, -27, -27, -26, 
-26, -25, -25, -24, -24, -24, -23, -23, 
-22, -22, -22, -21, -21, -20, -20, -20, 
-19, -19, -18, -18, -17, -17, -16, -16, 
-16, -15, -15, -14, -14, -13, -13, -12, 
-12, -12, -11, -11, -10, -10, -9, -9, 
-8, -8, -7, -7, -6, -6, -5, -5, 
-5, -4, -4, -3, -3, -2, -2, -1, 
-1, 0, 0, 1, 1, 2, 2, 3, 
3, 4, 5, 5, 6, 6, 7, 7, 
8, 8, 9, 9, 10, 10, 11, 11, 
12, 13, 13, 14, 14, 15, 15, 16, 
16, 17, 18, 18, 19, 19, 20, 20, 
21, 22, 22, 23, 23, 24, 25, 25, 
26, 26, 27, 28, 28, 29, 29, 30, 
31, 31, 32, 33, 33, 34, 34, 35, 
36, 36, 37, 38, 38, 39, 40, 40, 
41, 42, 42, 43, 44, 44, 45, 46, 
46, 47, 48, 48, 49, 50, 51, 51, 
52, 53, 53, 54, 55, 55, 56, 57, 
58, 58, 59, 60, 61, 61, 62, 63, 
64, 64, 65, 66, 67, 67, 68, 69, 
70, 70, 71, 72, 73, 74, 74, 75, 
76, 77, 78, 78, 79, 80, 81, 82, 
82, 83, 84, 85, 86, 87, 87, 88, 
89, 90, 91, 92, 93, 93, 94, 95, 
96, 97, 98, 99, 100, 101, 101, 102, 
103, 104, 105, 106, 107, 108, 109, 110, 
111, 112, 113, 113, 114, 115, 116, 117, 
118, 119, 120, 121, 122, 123, 124, 125, 
126, 127, 127, 127, 127, 127, 127, 127, 
127, 127, 127, 127, 127, 127, 127, 
//lut index 1
0, 
0, 0, 0, 0, 0, 0, 0, 0, 
0, 0, 0, 0, 0, 0, 0, 0, 
0, 0, 0, 0, 0, 0, 0, 0, 
0, 0, 0, 0, 0, 0, 0, 0, 
0, 0, 0, 0, 0, 0, 0, 0, 
0, 0, 0, 0, 0, 0, 0, 0, 
0, 0, 0, 0, 0, 0, 0, 0, 
0, 0, 0, 0, 0, 0, 0, 0, 
0, 0, 0, 0, 0, 0, 0, 0, 
0, 0, 0, 0, 0, 0, 0, 0, 
0, 0, 0, 0, 0, 0, 0, 0, 
0, 0, 0, 0, 0, 0, 0, 0, 
0, 0, 0, 0, 0, 0, 0, 0, 
0, 0, 0, 0, 0, 0, 0, 0, 
0, 0, 0, 0, 0, 0, 0, 0, 
0, 0, 0, 0, 0, 0, 0, 0, 
1, 1, 1, 1, 1, 1, 1, 1, 
1, 1, 1, 1, 1, 1, 1, 1, 
1, 1, 1, 1, 1, 1, 1, 1, 
1, 1, 1, 1, 1, 1, 1, 1, 
1, 1, 1, 1, 1, 1, 1, 1, 
1, 1, 1, 1, 1, 1, 1, 1, 
1, 1, 1, 1, 1, 1, 1, 1, 
1, 1, 1, 1, 1, 1, 1, 1, 
1, 1, 1, 1, 1, 1, 1, 1, 
1, 1, 1, 1, 1, 1, 1, 1, 
1, 1, 1, 1, 1, 1, 1, 1, 
1, 1, 1, 1, 1, 1, 1, 1, 
1, 1, 1, 1, 1, 1, 1, 1, 
1, 1, 1, 1, 1, 1, 1, 1, 
1, 1, 1, 1, 1, 1, 1, 1, 
1, 1, 1, 1, 1, 1, 1, 
};

static inline const int8_t* GetLUT_REGIONfc_lif_layer_2Pointer()
{
	return LUT_REGION_fc_lif_layer_2;
}


static inline const size_t GetLUT_REGIONfc_lif_layer_2Len()
{
	return sizeof(LUT_REGION_fc_lif_layer_2);
}


static int8_t OUTPUT_REGION_fc_lif_layer_2 [16] __attribute__((section("model_params_dtcm"))) __attribute__((aligned(16)));

static inline int8_t* GetOUTPUT_REGIONfc_lif_layer_2Pointer()
{
	return OUTPUT_REGION_fc_lif_layer_2;
}


static inline const size_t GetOUTPUT_REGIONfc_lif_layer_2Len()
{
	return sizeof(OUTPUT_REGION_fc_lif_layer_2);
}


char* name_fc_lif_layer_2 [16] =
{
	"LN_BETA",
	"BIAS",
	"DECAY",
	"OUT_SPK",
	"v_mem_sub_vth",
	"TIME_NOT_UPDATED",
	"RESET",
	"WEIGHT",
	"V_MEM",
	"OUT_SPK_SUM",
	"UPDATE_NXT_LAYER",
	"VTH",
	"IN_SPK",
	"IN_CURR",
	"DECAYED_MEM",
	"DECAY_ACC",
};

size_t relative_addr_fc_lif_layer_2 [16] =
{
	0,
	0,
	0,
	0,
	0,
	64,
	16,
	160,
	32,
	48,
	65,
	16,
	0,
	16,
	0,
	0,
};

size_t region_fc_lif_layer_2 [16] =
{
	3,
	0,
	1,
	6,
	6,
	1,
	1,
	0,
	1,
	1,
	1,
	3,
	5,
	1,
	1,
	1,
};

size_t size_fc_lif_layer_2 [16] =
{
	16,
	160,
	16,
	16,
	16,
	1,
	16,
	768,
	16,
	16,
	1,
	16,
	64,
	16,
	16,
	16,
};

float scale_fc_lif_layer_2 [16] =
{
	0.0007843137254901962,
	0.0008337327078276989,
	0.0037254901960784314,
	1.0,
	0.00784313725490196,
	0.06274509803921569,
	0.004313725490196079,
	0.005539545358396044,
	0.058823529411764705,
	0.09803921568627451,
	0.00392156862745098,
	0.0007843137254901964,
	1.0,
	0.07058823529411765,
	0.043137254901960784,
	0.00392156862745098,
};

int zero_point_fc_lif_layer_2 [16] =
{
	65,
	0,
	-128,
	0,
	0,
	-128,
	-128,
	0,
	-26,
	-128,
	-128,
	-1275,
	0,
	0,
	-35,
	127,
};

static inline char** Getnamefc_lif_layer_2Pointer()
{
	return name_fc_lif_layer_2;
}


static inline size_t* Getrelative_addrfc_lif_layer_2Pointer()
{
	return relative_addr_fc_lif_layer_2;
}


static inline size_t* Getregionfc_lif_layer_2Pointer()
{
	return region_fc_lif_layer_2;
}


static inline size_t* Getsizefc_lif_layer_2Pointer()
{
	return size_fc_lif_layer_2;
}


static inline float* Getscalefc_lif_layer_2Pointer()
{
	return scale_fc_lif_layer_2;
}


static inline int* Getzero_pointfc_lif_layer_2Pointer()
{
	return zero_point_fc_lif_layer_2;
}

/*
Register Command Stream:
+---------------------------+-----------+-------------------------+
| Command Name              | Parameter | Payload Data            |
+---------------------------+-----------+-------------------------+
| NPU_SET_DMA0_SRC_REGION   | 4         | -                       |
| NPU_SET_DMA0_SRC          | 0         | 0x00000000 (0)          |
| NPU_SET_DMA0_DST_REGION   | 259       | -                       |
| NPU_SET_DMA0_DST          | 0         | 0x0000b800 (47104)      |
| NPU_SET_DMA0_LEN          | 0         | 0x00000100 (256)        |
| NPU_OP_DMA_START          | 0         | -                       |
| NPU_SET_OFM_SCALE         | 37        | 0x66cd339a (1724724122) |
| NPU_SET_IFM_REGION        | 3         | -                       |
| NPU_SET_IFM_BASE0         | 0         | 0x00000000 (0)          |
| NPU_SET_IFM_BASE1         | 0         | 0x00000000 (0)          |
| NPU_SET_IFM_BASE2         | 0         | 0x00000000 (0)          |
| NPU_SET_IFM_BASE3         | 0         | 0x00000000 (0)          |
| NPU_SET_IFM_HEIGHT0_M1    | 0         | -                       |
| NPU_SET_IFM_HEIGHT1_M1    | 65535     | -                       |
| NPU_SET_IFM_WIDTH0_M1     | 0         | -                       |
| NPU_SET_IFM_DEPTH_M1      | 15        | -                       |
| NPU_SET_IFM_STRIDE_C      | 0         | 0x00000001 (1)          |
| NPU_SET_IFM_STRIDE_Y      | 0         | 0x00000010 (16)         |
| NPU_SET_IFM_STRIDE_X      | 0         | 0x00000010 (16)         |
| NPU_SET_IFM_ZERO_POINT    | 65        | -                       |
| NPU_SET_IFM_PRECISION     | 1         | -                       |
| NPU_SET_IFM_UPSCALE       | 0         | -                       |
| NPU_SET_OFM_REGION        | 1         | -                       |
| NPU_SET_OFM_BASE0         | 0         | 0x00000000 (0)          |
| NPU_SET_OFM_BASE1         | 0         | 0x00000000 (0)          |
| NPU_SET_OFM_BASE2         | 0         | 0x00000000 (0)          |
| NPU_SET_OFM_BASE3         | 0         | 0x00000000 (0)          |
| NPU_SET_OFM_HEIGHT0_M1    | 0         | -                       |
| NPU_SET_OFM_HEIGHT1_M1    | 65535     | -                       |
| NPU_SET_OFM_WIDTH0_M1     | 0         | -                       |
| NPU_SET_OFM_HEIGHT_M1     | 0         | -                       |
| NPU_SET_OFM_WIDTH_M1      | 0         | -                       |
| NPU_SET_OFM_DEPTH_M1      | 15        | -                       |
| NPU_SET_OFM_STRIDE_C      | 0         | 0x00000010 (16)         |
| NPU_SET_OFM_STRIDE_Y      | 0         | 0x00000010 (16)         |
| NPU_SET_OFM_STRIDE_X      | 0         | 0x00000010 (16)         |
| NPU_SET_OFM_ZERO_POINT    | 127       | -                       |
| NPU_SET_OFM_PRECISION     | 321       | -                       |
| NPU_SET_ACTIVATION        | 16        | -                       |
| NPU_SET_ACTIVATION_MIN    | 65408     | -                       |
| NPU_SET_ACTIVATION_MAX    | 127       | -                       |
| NPU_SET_OFM_BLK_HEIGHT_M1 | 1         | -                       |
| NPU_SET_OFM_BLK_WIDTH_M1  | 1         | -                       |
| NPU_SET_OFM_BLK_DEPTH_M1  | 15        | -                       |
| NPU_SET_IFM_IB_END        | 46        | -                       |
| NPU_SET_AB_START          | 46        | -                       |
| NPU_SET_IFM2_IB_START     | 10        | -                       |
| NPU_SET_ACC_FORMAT        | 0         | -                       |
| NPU_SET_IFM2_REGION       | 1         | -                       |
| NPU_SET_IFM2_BASE0        | 0         | 0x00000040 (64)         |
| NPU_SET_IFM2_BASE1        | 0         | 0x00000000 (0)          |
| NPU_SET_IFM2_BASE2        | 0         | 0x00000000 (0)          |
| NPU_SET_IFM2_BASE3        | 0         | 0x00000000 (0)          |
| NPU_SET_IFM2_HEIGHT0_M1   | 0         | -                       |
| NPU_SET_IFM2_HEIGHT1_M1   | 65535     | -                       |
| NPU_SET_IFM2_WIDTH0_M1    | 0         | -                       |
| NPU_SET_IFM2_STRIDE_C     | 0         | 0x00000001 (1)          |
| NPU_SET_IFM2_STRIDE_Y     | 0         | 0x00000001 (1)          |
| NPU_SET_IFM2_STRIDE_X     | 0         | 0x00000001 (1)          |
| NPU_SET_IFM2_ZERO_POINT   | 65408     | -                       |
| NPU_SET_IFM_PRECISION     | 1         | -                       |
| NPU_SET_IFM2_BROADCAST    | 4         | -                       |
| NPU_SET_BLOCKDEP          | 0         | -                       |
| NPU_OP_DMA_WAIT           | 0         | -                       |
| NPU_OP_ELEMENTWISE        | 0         | -                       |
| NPU_SET_IFM_REGION        | 5         | -                       |
| NPU_SET_IFM_DEPTH_M1      | 63        | -                       |
| NPU_SET_IFM_STRIDE_Y      | 0         | 0x00000040 (64)         |
| NPU_SET_IFM_STRIDE_X      | 0         | 0x00000040 (64)         |
| NPU_SET_IFM_ZERO_POINT    | 0         | -                       |
| NPU_SET_IFM_PAD_TOP       | 0         | -                       |
| NPU_SET_IFM_PAD_LEFT      | 0         | -                       |
| NPU_SET_IFM_PAD_BOTTOM    | 0         | -                       |
| NPU_SET_IFM_PAD_RIGHT     | 0         | -                       |
| NPU_SET_OFM_BASE0         | 0         | 0x00000010 (16)         |
| NPU_SET_OFM_ZERO_POINT    | 0         | -                       |
| NPU_SET_OFM_PRECISION     | 65        | -                       |
| NPU_SET_KERNEL_HEIGHT_M1  | 0         | -                       |
| NPU_SET_KERNEL_WIDTH_M1   | 0         | -                       |
| NPU_SET_KERNEL_STRIDE     | 0         | -                       |
| NPU_SET_WEIGHT_REGION     | 0         | -                       |
| NPU_SET_WEIGHT_BASE       | 0         | 0x000000a0 (160)        |
| NPU_SET_WEIGHT_LENGTH     | 0         | 0x00000300 (768)        |
| NPU_SET_SCALE_REGION      | 0         | -                       |
| NPU_SET_SCALE_BASE        | 0         | 0x00000000 (0)          |
| NPU_SET_SCALE_LENGTH      | 0         | 0x000000a0 (160)        |
| NPU_SET_ACTIVATION        | 0         | -                       |
| NPU_SET_IFM_IB_END        | 10        | -                       |
| NPU_SET_AB_START          | 30        | -                       |
| NPU_SET_BLOCKDEP          | 3         | -                       |
| NPU_OP_CONV               | 0         | -                       |
| NPU_SET_OFM_SCALE         | 38        | 0x533bf625 (1396438565) |
| NPU_SET_IFM_REGION        | 1         | -                       |
| NPU_SET_IFM_BASE0         | 0         | 0x00000020 (32)         |
| NPU_SET_IFM_DEPTH_M1      | 15        | -                       |
| NPU_SET_IFM_STRIDE_Y      | 0         | 0x00000010 (16)         |
| NPU_SET_IFM_STRIDE_X      | 0         | 0x00000010 (16)         |
| NPU_SET_IFM_ZERO_POINT    | 65510     | -                       |
| NPU_SET_OFM_BASE0         | 0         | 0x00000000 (0)          |
| NPU_SET_OFM_ZERO_POINT    | 65501     | -                       |
| NPU_SET_OFM_PRECISION     | 321       | -                       |
| NPU_SET_IFM_IB_END        | 46        | -                       |
| NPU_SET_AB_START          | 46        | -                       |
| NPU_SET_IFM2_BASE0        | 0         | 0x00000000 (0)          |
| NPU_SET_IFM2_STRIDE_C     | 0         | 0x00000010 (16)         |
| NPU_SET_IFM2_STRIDE_Y     | 0         | 0x00000010 (16)         |
| NPU_SET_IFM2_STRIDE_X     | 0         | 0x00000010 (16)         |
| NPU_SET_IFM_PRECISION     | 65        | -                       |
| NPU_SET_IFM2_BROADCAST    | 0         | -                       |
| NPU_OP_ELEMENTWISE        | 0         | -                       |
| NPU_SET_OPA_SCALE         | 12        | 0x4e38e38e (1312351118) |
| NPU_SET_OPB_SCALE         | 0         | 0x00000000 (0)          |
| NPU_SET_OFM_SCALE         | 49        | 0x4ccccccd (1288490189) |
| NPU_SET_IFM_BASE0         | 0         | 0x00000000 (0)          |
| NPU_SET_IFM_STRIDE_C      | 0         | 0x00000010 (16)         |
| NPU_SET_IFM_ZERO_POINT    | 65501     | -                       |
| NPU_SET_IFM_PRECISION     | 321       | -                       |
| NPU_SET_OFM_BASE0         | 0         | 0x00000020 (32)         |
| NPU_SET_OFM_STRIDE_C      | 0         | 0x00000001 (1)          |
| NPU_SET_OFM_ZERO_POINT    | 65510     | -                       |
| NPU_SET_OFM_PRECISION     | 257       | -                       |
| NPU_SET_IFM2_BASE0        | 0         | 0x00000010 (16)         |
| NPU_SET_IFM2_ZERO_POINT   | 0         | -                       |
| NPU_SET_BLOCKDEP          | 0         | -                       |
| NPU_OP_ELEMENTWISE        | 1         | -                       |
| NPU_SET_DMA0_SRC          | 0         | 0x00000100 (256)        |
| NPU_SET_DMA0_DST          | 0         | 0x0000b900 (47360)      |
| NPU_OP_DMA_START          | 0         | -                       |
| NPU_SET_OPA_SCALE         | 18        | 0x6d3a06d4 (1832519380) |
| NPU_SET_OFM_SCALE         | 47        | 0x78000000 (2013265920) |
| NPU_SET_IFM_BASE0         | 0         | 0x00000020 (32)         |
| NPU_SET_IFM_STRIDE_C      | 0         | 0x00000001 (1)          |
| NPU_SET_IFM_ZERO_POINT    | 65510     | -                       |
| NPU_SET_IFM_PRECISION     | 513       | -                       |
| NPU_SET_OFM_REGION        | 6         | -                       |
| NPU_SET_OFM_BASE0         | 0         | 0x00000000 (0)          |
| NPU_SET_OFM_ZERO_POINT    | 0         | -                       |
| NPU_SET_ACTIVATION        | 17        | -                       |
| NPU_SET_IFM2_REGION       | 3         | -                       |
| NPU_SET_IFM2_STRIDE_C     | 0         | 0x00000001 (1)          |
| NPU_SET_IFM2_ZERO_POINT   | 64261     | -                       |
| NPU_SET_IFM_PRECISION     | 1         | -                       |
| NPU_OP_DMA_WAIT           | 0         | -                       |
| NPU_OP_ELEMENTWISE        | 2         | -                       |
| NPU_SET_OFM_SCALE         | 33        | 0x5d1745d1 (1561806289) |
| NPU_SET_IFM_REGION        | 3         | -                       |
| NPU_SET_IFM_BASE0         | 0         | 0x00000010 (16)         |
| NPU_SET_IFM_ZERO_POINT    | 64261     | -                       |
| NPU_SET_IFM_PRECISION     | 1         | -                       |
| NPU_SET_OFM_REGION        | 1         | -                       |
| NPU_SET_OFM_BASE0         | 0         | 0x00000010 (16)         |
| NPU_SET_OFM_STRIDE_C      | 0         | 0x00000010 (16)         |
| NPU_SET_OFM_ZERO_POINT    | 65408     | -                       |
| NPU_SET_OFM_PRECISION     | 321       | -                       |
| NPU_SET_ACTIVATION        | 0         | -                       |
| NPU_SET_IFM2_REGION       | 6         | -                       |
| NPU_SET_IFM2_BASE0        | 0         | 0x00000000 (0)          |
| NPU_SET_IFM2_ZERO_POINT   | 0         | -                       |
| NPU_OP_ELEMENTWISE        | 0         | -                       |
| NPU_SET_OPA_SCALE         | 15        | 0x4b17e4b1 (1259857073) |
| NPU_SET_OFM_SCALE         | 49        | 0x40000000 (1073741824) |
| NPU_SET_IFM_REGION        | 1         | -                       |
| NPU_SET_IFM_BASE0         | 0         | 0x00000020 (32)         |
| NPU_SET_IFM_ZERO_POINT    | 65510     | -                       |
| NPU_SET_IFM_PRECISION     | 513       | -                       |
| NPU_SET_OFM_BASE0         | 0         | 0x00000020 (32)         |
| NPU_SET_OFM_STRIDE_C      | 0         | 0x00000001 (1)          |
| NPU_SET_OFM_ZERO_POINT    | 65510     | -                       |
| NPU_SET_OFM_PRECISION     | 257       | -                       |
| NPU_SET_IFM2_REGION       | 1         | -                       |
| NPU_SET_IFM2_BASE0        | 0         | 0x00000010 (16)         |
| NPU_SET_IFM2_STRIDE_C     | 0         | 0x00000010 (16)         |
| NPU_SET_IFM2_ZERO_POINT   | 65408     | -                       |
| NPU_SET_IFM_PRECISION     | 65        | -                       |
| NPU_OP_ELEMENTWISE        | 2         | -                       |
| NPU_SET_IFM_REGION        | 6         | -                       |
| NPU_SET_IFM_BASE0         | 0         | 0x00000000 (0)          |
| NPU_SET_IFM_ZERO_POINT    | 0         | -                       |
| NPU_SET_IFM_PRECISION     | 1         | -                       |
| NPU_SET_OFM_BASE0         | 0         | 0x00000041 (65)         |
| NPU_SET_OFM_DEPTH_M1      | 0         | -                       |
| NPU_SET_OFM_STRIDE_Y      | 0         | 0x00000001 (1)          |
| NPU_SET_OFM_STRIDE_X      | 0         | 0x00000001 (1)          |
| NPU_SET_OFM_ZERO_POINT    | 65408     | -                       |
| NPU_SET_OFM_BLK_DEPTH_M1  | 7         | -                       |
| NPU_SET_IFM_IB_END        | 10        | -                       |
| NPU_SET_AB_START          | 30        | -                       |
| NPU_SET_OFM_SCALE         | 22        | 0x3fc000ff (1069547775) |
| NPU_SET_BLOCKDEP          | 3         | -                       |
| NPU_OP_POOL               | 2         | -                       |
| NPU_SET_OFM_SCALE         | 30        | 0x40000000 (1073741824) |
| NPU_SET_IFM_REGION        | 1         | -                       |
| NPU_SET_IFM_BASE0         | 0         | 0x00000040 (64)         |
| NPU_SET_IFM_DEPTH_M1      | 0         | -                       |
| NPU_SET_IFM_STRIDE_Y      | 0         | 0x00000001 (1)          |
| NPU_SET_IFM_STRIDE_X      | 0         | 0x00000001 (1)          |
| NPU_SET_IFM_ZERO_POINT    | 65408     | -                       |
| NPU_SET_OFM_BASE0         | 0         | 0x00000040 (64)         |
| NPU_SET_IFM_IB_END        | 46        | -                       |
| NPU_SET_AB_START          | 46        | -                       |
| NPU_SET_IFM2_ZERO_POINT   | 0         | -                       |
| NPU_SET_IFM_PRECISION     | 0         | -                       |
| NPU_SET_IFM2_BROADCAST    | 128       | -                       |
| NPU_SET_IFM2_SCALAR       | 0         | -                       |
| NPU_OP_ELEMENTWISE        | 0         | -                       |
| NPU_SET_OPA_SCALE         | 15        | 0x64646464 (1684300900) |
| NPU_SET_OFM_SCALE         | 46        | 0x5199999a (1369020826) |
| NPU_SET_IFM_BASE0         | 0         | 0x00000030 (48)         |
| NPU_SET_IFM_DEPTH_M1      | 15        | -                       |
| NPU_SET_IFM_STRIDE_Y      | 0         | 0x00000010 (16)         |
| NPU_SET_IFM_STRIDE_X      | 0         | 0x00000010 (16)         |
| NPU_SET_IFM_PRECISION     | 257       | -                       |
| NPU_SET_OFM_BASE0         | 0         | 0x00000030 (48)         |
| NPU_SET_OFM_DEPTH_M1      | 15        | -                       |
| NPU_SET_OFM_STRIDE_Y      | 0         | 0x00000010 (16)         |
| NPU_SET_OFM_STRIDE_X      | 0         | 0x00000010 (16)         |
| NPU_SET_OFM_BLK_DEPTH_M1  | 15        | -                       |
| NPU_SET_IFM2_REGION       | 6         | -                       |
| NPU_SET_IFM2_BASE0        | 0         | 0x00000000 (0)          |
| NPU_SET_IFM2_STRIDE_C     | 0         | 0x00000001 (1)          |
| NPU_SET_IFM_PRECISION     | 1         | -                       |
| NPU_SET_IFM2_BROADCAST    | 0         | -                       |
| NPU_OP_ELEMENTWISE        | 1         | -                       |
| NPU_OP_STOP               | 65535     | -                       |
+---------------------------+-----------+-------------------------+
*/
