#pragma once
#include <stddef.h>
#include <stdint.h>




// Tensor sizes

#define FC_LIF_LAYER_1_IS_LAST_LAYER 0
#define FC_LIF_LAYER_1_MAX_NUM_TENSORS_TO_TRACK 8
#define FC_LIF_LAYER_1_TENSOR_ARENA_SIZE  194
#define FC_LIF_LAYER_1_INPUT_LAYER_SIZE  64
#define FC_LIF_LAYER_1_OUTPUT_LAYER_SIZE  64
#define FC_LIF_LAYER_1_WEIGHT_LEN 3792
#define FC_LIF_LAYER_1_BIAS_LEN 640








static const uint8_t cms_fc_lif_layer_1[] __attribute__((aligned(16))) =
{
0x43, 0x4f, 0x50, 0x31,
0x01, 0x00, 0x10, 0x00,
0x08, 0x30, 0x00, 0x00,
0x00, 0x00, 0x06, 0x10,
0x05, 0x00, 0x00, 0x00,
0x05, 0x00, 0x00, 0x00,
0x05, 0x00, 0x00, 0x00,
0x02, 0x00, 0x21, 0x01,
0x30, 0x01, 0x04, 0x00,
0x30, 0x40, 0x00, 0x00,
0x00, 0x00, 0x00, 0x00,
0x31, 0x01, 0x03, 0x01,
0x31, 0x40, 0x00, 0x00,
0x00, 0xb8, 0x00, 0x00,
0x32, 0x40, 0x00, 0x00,
0x00, 0x01, 0x00, 0x00,
0x10, 0x00, 0x00, 0x00,
0x24, 0x40, 0x25, 0x00,
0x9a, 0x33, 0xcd, 0x66,
0x0f, 0x01, 0x03, 0x00,
0x00, 0x40, 0x00, 0x00,
0x00, 0x00, 0x00, 0x00,
0x01, 0x40, 0x00, 0x00,
0x00, 0x00, 0x00, 0x00,
0x02, 0x40, 0x00, 0x00,
0x00, 0x00, 0x00, 0x00,
0x03, 0x40, 0x00, 0x00,
0x00, 0x00, 0x00, 0x00,
0x0b, 0x01, 0x00, 0x00,
0x0c, 0x01, 0xff, 0xff,
0x0a, 0x01, 0x00, 0x00,
0x04, 0x01, 0x3f, 0x00,
0x06, 0x40, 0x00, 0x00,
0x01, 0x00, 0x00, 0x00,
0x05, 0x40, 0x00, 0x00,
0x40, 0x00, 0x00, 0x00,
0x04, 0x40, 0x00, 0x00,
0x40, 0x00, 0x00, 0x00,
0x09, 0x01, 0x41, 0x00,
0x05, 0x01, 0x01, 0x00,
0x07, 0x01, 0x00, 0x00,
0x1f, 0x01, 0x01, 0x00,
0x10, 0x40, 0x00, 0x00,
0x00, 0x00, 0x00, 0x00,
0x11, 0x40, 0x00, 0x00,
0x00, 0x00, 0x00, 0x00,
0x12, 0x40, 0x00, 0x00,
0x00, 0x00, 0x00, 0x00,
0x13, 0x40, 0x00, 0x00,
0x00, 0x00, 0x00, 0x00,
0x1b, 0x01, 0x00, 0x00,
0x1c, 0x01, 0xff, 0xff,
0x1a, 0x01, 0x00, 0x00,
0x12, 0x01, 0x00, 0x00,
0x11, 0x01, 0x00, 0x00,
0x13, 0x01, 0x3f, 0x00,
0x16, 0x40, 0x00, 0x00,
0x10, 0x00, 0x00, 0x00,
0x15, 0x40, 0x00, 0x00,
0x40, 0x00, 0x00, 0x00,
0x14, 0x40, 0x00, 0x00,
0x10, 0x00, 0x00, 0x00,
0x18, 0x01, 0x7f, 0x00,
0x14, 0x01, 0x41, 0x01,
0x25, 0x01, 0x10, 0x00,
0x26, 0x01, 0x80, 0xff,
0x27, 0x01, 0x7f, 0x00,
0x16, 0x01, 0x01, 0x00,
0x15, 0x01, 0x01, 0x00,
0x17, 0x01, 0x3f, 0x00,
0x0d, 0x01, 0x2e, 0x00,
0x2d, 0x01, 0x2e, 0x00,
0x8d, 0x01, 0x0a, 0x00,
0x24, 0x01, 0x00, 0x00,
0x8f, 0x01, 0x01, 0x00,
0x80, 0x40, 0x00, 0x00,
0xc0, 0x00, 0x00, 0x00,
0x81, 0x40, 0x00, 0x00,
0x00, 0x00, 0x00, 0x00,
0x82, 0x40, 0x00, 0x00,
0x00, 0x00, 0x00, 0x00,
0x83, 0x40, 0x00, 0x00,
0x00, 0x00, 0x00, 0x00,
0x8b, 0x01, 0x00, 0x00,
0x8c, 0x01, 0xff, 0xff,
0x8a, 0x01, 0x00, 0x00,
0x86, 0x40, 0x00, 0x00,
0x01, 0x00, 0x00, 0x00,
0x85, 0x40, 0x00, 0x00,
0x01, 0x00, 0x00, 0x00,
0x84, 0x40, 0x00, 0x00,
0x01, 0x00, 0x00, 0x00,
0x89, 0x01, 0x80, 0xff,
0x85, 0x01, 0x01, 0x00,
0x80, 0x01, 0x04, 0x00,
0x2f, 0x01, 0x00, 0x00,
0x11, 0x00, 0x00, 0x00,
0x06, 0x00, 0x00, 0x00,
0x0f, 0x01, 0x05, 0x00,
0x09, 0x01, 0x00, 0x00,
0x00, 0x01, 0x00, 0x00,
0x01, 0x01, 0x00, 0x00,
0x03, 0x01, 0x00, 0x00,
0x02, 0x01, 0x00, 0x00,
0x10, 0x40, 0x00, 0x00,
0x40, 0x00, 0x00, 0x00,
0x18, 0x01, 0x00, 0x00,
0x14, 0x01, 0x41, 0x00,
0x21, 0x01, 0x00, 0x00,
0x20, 0x01, 0x00, 0x00,
0x22, 0x01, 0x00, 0x00,
0x28, 0x01, 0x00, 0x00,
0x20, 0x40, 0x00, 0x00,
0x80, 0x02, 0x00, 0x00,
0x21, 0x40, 0x00, 0x00,
0xd0, 0x0e, 0x00, 0x00,
0x29, 0x01, 0x00, 0x00,
0x22, 0x40, 0x00, 0x00,
0x00, 0x00, 0x00, 0x00,
0x23, 0x40, 0x00, 0x00,
0x80, 0x02, 0x00, 0x00,
0x25, 0x01, 0x00, 0x00,
0x0d, 0x01, 0x0a, 0x00,
0x2d, 0x01, 0x1e, 0x00,
0x2f, 0x01, 0x03, 0x00,
0x02, 0x00, 0x00, 0x00,
0x24, 0x40, 0x26, 0x00,
0x25, 0xf6, 0x3b, 0x53,
0x0f, 0x01, 0x01, 0x00,
0x00, 0x40, 0x00, 0x00,
0x80, 0x00, 0x00, 0x00,
0x09, 0x01, 0xe6, 0xff,
0x10, 0x40, 0x00, 0x00,
0x00, 0x00, 0x00, 0x00,
0x18, 0x01, 0xdd, 0xff,
0x14, 0x01, 0x41, 0x01,
0x0d, 0x01, 0x2e, 0x00,
0x2d, 0x01, 0x2e, 0x00,
0x80, 0x40, 0x00, 0x00,
0x00, 0x00, 0x00, 0x00,
0x86, 0x40, 0x00, 0x00,
0x10, 0x00, 0x00, 0x00,
0x85, 0x40, 0x00, 0x00,
0x40, 0x00, 0x00, 0x00,
0x84, 0x40, 0x00, 0x00,
0x10, 0x00, 0x00, 0x00,
0x85, 0x01, 0x41, 0x00,
0x80, 0x01, 0x00, 0x00,
0x06, 0x00, 0x00, 0x00,
0x25, 0x40, 0x0c, 0x00,
0x8e, 0xe3, 0x38, 0x4e,
0x26, 0x40, 0x00, 0x00,
0x00, 0x00, 0x00, 0x00,
0x24, 0x40, 0x31, 0x00,
0xcd, 0xcc, 0xcc, 0x4c,
0x00, 0x40, 0x00, 0x00,
0x00, 0x00, 0x00, 0x00,
0x06, 0x40, 0x00, 0x00,
0x10, 0x00, 0x00, 0x00,
0x04, 0x40, 0x00, 0x00,
0x10, 0x00, 0x00, 0x00,
0x09, 0x01, 0xdd, 0xff,
0x05, 0x01, 0x41, 0x01,
0x10, 0x40, 0x00, 0x00,
0x80, 0x00, 0x00, 0x00,
0x16, 0x40, 0x00, 0x00,
0x01, 0x00, 0x00, 0x00,
0x14, 0x40, 0x00, 0x00,
0x40, 0x00, 0x00, 0x00,
0x18, 0x01, 0xe6, 0xff,
0x14, 0x01, 0x01, 0x01,
0x80, 0x40, 0x00, 0x00,
0x40, 0x00, 0x00, 0x00,
0x89, 0x01, 0x00, 0x00,
0x2f, 0x01, 0x00, 0x00,
0x06, 0x00, 0x01, 0x00,
0x30, 0x40, 0x00, 0x00,
0x00, 0x01, 0x00, 0x00,
0x31, 0x40, 0x00, 0x00,
0x00, 0xb9, 0x00, 0x00,
0x10, 0x00, 0x00, 0x00,
0x25, 0x40, 0x12, 0x00,
0xd4, 0x06, 0x3a, 0x6d,
0x24, 0x40, 0x2f, 0x00,
0x00, 0x00, 0x00, 0x78,
0x00, 0x40, 0x00, 0x00,
0x80, 0x00, 0x00, 0x00,
0x06, 0x40, 0x00, 0x00,
0x01, 0x00, 0x00, 0x00,
0x04, 0x40, 0x00, 0x00,
0x40, 0x00, 0x00, 0x00,
0x09, 0x01, 0xe6, 0xff,
0x05, 0x01, 0x01, 0x02,
0x1f, 0x01, 0x06, 0x00,
0x10, 0x40, 0x00, 0x00,
0x00, 0x00, 0x00, 0x00,
0x18, 0x01, 0x00, 0x00,
0x25, 0x01, 0x11, 0x00,
0x8f, 0x01, 0x03, 0x00,
0x86, 0x40, 0x00, 0x00,
0x01, 0x00, 0x00, 0x00,
0x84, 0x40, 0x00, 0x00,
0x40, 0x00, 0x00, 0x00,
0x89, 0x01, 0x05, 0xfb,
0x85, 0x01, 0x01, 0x00,
0x11, 0x00, 0x00, 0x00,
0x06, 0x00, 0x02, 0x00,
0x24, 0x40, 0x21, 0x00,
0xd1, 0x45, 0x17, 0x5d,
0x0f, 0x01, 0x03, 0x00,
0x00, 0x40, 0x00, 0x00,
0x40, 0x00, 0x00, 0x00,
0x09, 0x01, 0x05, 0xfb,
0x05, 0x01, 0x01, 0x00,
0x1f, 0x01, 0x01, 0x00,
0x10, 0x40, 0x00, 0x00,
0x40, 0x00, 0x00, 0x00,
0x16, 0x40, 0x00, 0x00,
0x10, 0x00, 0x00, 0x00,
0x14, 0x40, 0x00, 0x00,
0x10, 0x00, 0x00, 0x00,
0x18, 0x01, 0x80, 0xff,
0x14, 0x01, 0x41, 0x01,
0x25, 0x01, 0x00, 0x00,
0x8f, 0x01, 0x06, 0x00,
0x80, 0x40, 0x00, 0x00,
0x00, 0x00, 0x00, 0x00,
0x89, 0x01, 0x00, 0x00,
0x06, 0x00, 0x00, 0x00,
0x25, 0x40, 0x0f, 0x00,
0xb1, 0xe4, 0x17, 0x4b,
0x24, 0x40, 0x31, 0x00,
0x00, 0x00, 0x00, 0x40,
0x0f, 0x01, 0x01, 0x00,
0x00, 0x40, 0x00, 0x00,
0x80, 0x00, 0x00, 0x00,
0x09, 0x01, 0xe6, 0xff,
0x05, 0x01, 0x01, 0x02,
0x10, 0x40, 0x00, 0x00,
0x80, 0x00, 0x00, 0x00,
0x16, 0x40, 0x00, 0x00,
0x01, 0x00, 0x00, 0x00,
0x14, 0x40, 0x00, 0x00,
0x40, 0x00, 0x00, 0x00,
0x18, 0x01, 0xe6, 0xff,
0x14, 0x01, 0x01, 0x01,
0x8f, 0x01, 0x01, 0x00,
0x80, 0x40, 0x00, 0x00,
0x40, 0x00, 0x00, 0x00,
0x86, 0x40, 0x00, 0x00,
0x10, 0x00, 0x00, 0x00,
0x84, 0x40, 0x00, 0x00,
0x10, 0x00, 0x00, 0x00,
0x89, 0x01, 0x80, 0xff,
0x85, 0x01, 0x41, 0x00,
0x06, 0x00, 0x02, 0x00,
0x0f, 0x01, 0x06, 0x00,
0x00, 0x40, 0x00, 0x00,
0x00, 0x00, 0x00, 0x00,
0x09, 0x01, 0x00, 0x00,
0x05, 0x01, 0x01, 0x00,
0x10, 0x40, 0x00, 0x00,
0xc1, 0x00, 0x00, 0x00,
0x13, 0x01, 0x00, 0x00,
0x15, 0x40, 0x00, 0x00,
0x01, 0x00, 0x00, 0x00,
0x14, 0x40, 0x00, 0x00,
0x01, 0x00, 0x00, 0x00,
0x18, 0x01, 0x80, 0xff,
0x17, 0x01, 0x07, 0x00,
0x0d, 0x01, 0x0a, 0x00,
0x2d, 0x01, 0x1e, 0x00,
0x24, 0x40, 0x16, 0x00,
0xff, 0x00, 0xc0, 0x3f,
0x2f, 0x01, 0x03, 0x00,
0x05, 0x00, 0x02, 0x00,
0x24, 0x40, 0x1e, 0x00,
0x00, 0x00, 0x00, 0x40,
0x0f, 0x01, 0x01, 0x00,
0x00, 0x40, 0x00, 0x00,
0xc0, 0x00, 0x00, 0x00,
0x04, 0x01, 0x00, 0x00,
0x05, 0x40, 0x00, 0x00,
0x01, 0x00, 0x00, 0x00,
0x04, 0x40, 0x00, 0x00,
0x01, 0x00, 0x00, 0x00,
0x09, 0x01, 0x80, 0xff,
0x10, 0x40, 0x00, 0x00,
0xc0, 0x00, 0x00, 0x00,
0x0d, 0x01, 0x2e, 0x00,
0x2d, 0x01, 0x2e, 0x00,
0x89, 0x01, 0x00, 0x00,
0x85, 0x01, 0x00, 0x00,
0x80, 0x01, 0x80, 0x00,
0x81, 0x01, 0x00, 0x00,
0x06, 0x00, 0x00, 0x00,
0x00, 0x00, 0xff, 0xff, };

static inline const uint8_t* Getcmsfc_lif_layer_1Pointer()
{
	return cms_fc_lif_layer_1;
}


static inline const size_t Getcmsfc_lif_layer_1Len()
{
	return sizeof(cms_fc_lif_layer_1);
}


static const int8_t WEIGHTS_AND_BIASES_REGION_fc_lif_layer_1[] __attribute__((aligned(16))) =
{
//biases
0xc9, 0xff, 0xff, 0xff,
0xff, 0x72, 0x0c, 0x6c,
0x7c, 0x23, 0xa5, 0xff,
0xff, 0xff, 0xff, 0x72,
0x0c, 0x6c, 0x7c, 0x23,
0xf7, 0xff, 0xff, 0xff,
0xff, 0x72, 0x0c, 0x6c,
0x7c, 0x23, 0xcb, 0xff,
0xff, 0xff, 0xff, 0x72,
0x0c, 0x6c, 0x7c, 0x23,
0xbc, 0xff, 0xff, 0xff,
0xff, 0x72, 0x0c, 0x6c,
0x7c, 0x23, 0xdb, 0xff,
0xff, 0xff, 0xff, 0x72,
0x0c, 0x6c, 0x7c, 0x23,
0x17, 0x00, 0x00, 0x00,
0x00, 0x72, 0x0c, 0x6c,
0x7c, 0x23, 0xe8, 0xff,
0xff, 0xff, 0xff, 0x72,
0x0c, 0x6c, 0x7c, 0x23,
0xc2, 0xff, 0xff, 0xff,
0xff, 0x72, 0x0c, 0x6c,
0x7c, 0x23, 0xfa, 0xff,
0xff, 0xff, 0xff, 0x72,
0x0c, 0x6c, 0x7c, 0x23,
0xb8, 0xff, 0xff, 0xff,
0xff, 0x72, 0x0c, 0x6c,
0x7c, 0x23, 0xd0, 0xff,
0xff, 0xff, 0xff, 0x72,
0x0c, 0x6c, 0x7c, 0x23,
0xdb, 0xff, 0xff, 0xff,
0xff, 0x72, 0x0c, 0x6c,
0x7c, 0x23, 0xb9, 0xff,
0xff, 0xff, 0xff, 0x72,
0x0c, 0x6c, 0x7c, 0x23,
0xed, 0xff, 0xff, 0xff,
0xff, 0x72, 0x0c, 0x6c,
0x7c, 0x23, 0xcf, 0xff,
0xff, 0xff, 0xff, 0x72,
0x0c, 0x6c, 0x7c, 0x23,
0xd0, 0xff, 0xff, 0xff,
0xff, 0x72, 0x0c, 0x6c,
0x7c, 0x23, 0xfb, 0xff,
0xff, 0xff, 0xff, 0x72,
0x0c, 0x6c, 0x7c, 0x23,
0xd4, 0xff, 0xff, 0xff,
0xff, 0x72, 0x0c, 0x6c,
0x7c, 0x23, 0xeb, 0xff,
0xff, 0xff, 0xff, 0x72,
0x0c, 0x6c, 0x7c, 0x23,
0xcc, 0xff, 0xff, 0xff,
0xff, 0x72, 0x0c, 0x6c,
0x7c, 0x23, 0xe6, 0xff,
0xff, 0xff, 0xff, 0x72,
0x0c, 0x6c, 0x7c, 0x23,
0xd7, 0xff, 0xff, 0xff,
0xff, 0x72, 0x0c, 0x6c,
0x7c, 0x23, 0xed, 0xff,
0xff, 0xff, 0xff, 0x72,
0x0c, 0x6c, 0x7c, 0x23,
0xb8, 0xff, 0xff, 0xff,
0xff, 0x72, 0x0c, 0x6c,
0x7c, 0x23, 0xcb, 0xff,
0xff, 0xff, 0xff, 0x72,
0x0c, 0x6c, 0x7c, 0x23,
0xaa, 0xff, 0xff, 0xff,
0xff, 0x72, 0x0c, 0x6c,
0x7c, 0x23, 0x04, 0x00,
0x00, 0x00, 0x00, 0x72,
0x0c, 0x6c, 0x7c, 0x23,
0xc0, 0xff, 0xff, 0xff,
0xff, 0x72, 0x0c, 0x6c,
0x7c, 0x23, 0xbc, 0xff,
0xff, 0xff, 0xff, 0x72,
0x0c, 0x6c, 0x7c, 0x23,
0xc5, 0xff, 0xff, 0xff,
0xff, 0x72, 0x0c, 0x6c,
0x7c, 0x23, 0xc4, 0xff,
0xff, 0xff, 0xff, 0x72,
0x0c, 0x6c, 0x7c, 0x23,
0xd7, 0xff, 0xff, 0xff,
0xff, 0x72, 0x0c, 0x6c,
0x7c, 0x23, 0xdc, 0xff,
0xff, 0xff, 0xff, 0x72,
0x0c, 0x6c, 0x7c, 0x23,
0xdf, 0xff, 0xff, 0xff,
0xff, 0x72, 0x0c, 0x6c,
0x7c, 0x23, 0x0f, 0x00,
0x00, 0x00, 0x00, 0x72,
0x0c, 0x6c, 0x7c, 0x23,
0xc1, 0xff, 0xff, 0xff,
0xff, 0x72, 0x0c, 0x6c,
0x7c, 0x23, 0xe8, 0xff,
0xff, 0xff, 0xff, 0x72,
0x0c, 0x6c, 0x7c, 0x23,
0xa1, 0xff, 0xff, 0xff,
0xff, 0x72, 0x0c, 0x6c,
0x7c, 0x23, 0x95, 0xff,
0xff, 0xff, 0xff, 0x72,
0x0c, 0x6c, 0x7c, 0x23,
0xd6, 0xff, 0xff, 0xff,
0xff, 0x72, 0x0c, 0x6c,
0x7c, 0x23, 0x8f, 0xff,
0xff, 0xff, 0xff, 0x72,
0x0c, 0x6c, 0x7c, 0x23,
0xdc, 0xff, 0xff, 0xff,
0xff, 0x72, 0x0c, 0x6c,
0x7c, 0x23, 0xd0, 0xff,
0xff, 0xff, 0xff, 0x72,
0x0c, 0x6c, 0x7c, 0x23,
0xc6, 0xff, 0xff, 0xff,
0xff, 0x72, 0x0c, 0x6c,
0x7c, 0x23, 0xd6, 0xff,
0xff, 0xff, 0xff, 0x72,
0x0c, 0x6c, 0x7c, 0x23,
0xea, 0xff, 0xff, 0xff,
0xff, 0x72, 0x0c, 0x6c,
0x7c, 0x23, 0x04, 0x00,
0x00, 0x00, 0x00, 0x72,
0x0c, 0x6c, 0x7c, 0x23,
0xdf, 0xff, 0xff, 0xff,
0xff, 0x72, 0x0c, 0x6c,
0x7c, 0x23, 0xe8, 0xff,
0xff, 0xff, 0xff, 0x72,
0x0c, 0x6c, 0x7c, 0x23,
0xd5, 0xff, 0xff, 0xff,
0xff, 0x72, 0x0c, 0x6c,
0x7c, 0x23, 0xb7, 0xff,
0xff, 0xff, 0xff, 0x72,
0x0c, 0x6c, 0x7c, 0x23,
0x97, 0xff, 0xff, 0xff,
0xff, 0x72, 0x0c, 0x6c,
0x7c, 0x23, 0xcd, 0xff,
0xff, 0xff, 0xff, 0x72,
0x0c, 0x6c, 0x7c, 0x23,
0xcb, 0xff, 0xff, 0xff,
0xff, 0x72, 0x0c, 0x6c,
0x7c, 0x23, 0xc0, 0xff,
0xff, 0xff, 0xff, 0x72,
0x0c, 0x6c, 0x7c, 0x23,
0x9c, 0xff, 0xff, 0xff,
0xff, 0x72, 0x0c, 0x6c,
0x7c, 0x23, 0xb2, 0xff,
0xff, 0xff, 0xff, 0x72,
0x0c, 0x6c, 0x7c, 0x23,
0xe2, 0xff, 0xff, 0xff,
0xff, 0x72, 0x0c, 0x6c,
0x7c, 0x23, 0xf0, 0xff,
0xff, 0xff, 0xff, 0x72,
0x0c, 0x6c, 0x7c, 0x23,
0x83, 0xff, 0xff, 0xff,
0xff, 0x72, 0x0c, 0x6c,
0x7c, 0x23, 0xa1, 0xff,
0xff, 0xff, 0xff, 0x72,
0x0c, 0x6c, 0x7c, 0x23,
0xc1, 0xff, 0xff, 0xff,
0xff, 0x72, 0x0c, 0x6c,
0x7c, 0x23, 0xd2, 0xff,
0xff, 0xff, 0xff, 0x72,
0x0c, 0x6c, 0x7c, 0x23, 
//weights
0xfe, 0x7f, 0x54, 0x00,
0x4e, 0x8d, 0x31, 0xf4,
0x71, 0xa9, 0x61, 0x03,
0x09, 0xd8, 0xe1, 0x24,
0x07, 0xda, 0x42, 0xdb,
0xa6, 0x12, 0x2d, 0x5a,
0x4d, 0x50, 0x4e, 0x4d,
0xd6, 0xdc, 0x91, 0xa3,
0x1b, 0x7f, 0xf0, 0x45,
0x68, 0xdd, 0x34, 0x8c,
0x26, 0xc1, 0xe2, 0x30,
0x9e, 0x1e, 0x62, 0x32,
0x5d, 0x98, 0x1f, 0x98,
0x13, 0x4f, 0x1d, 0xab,
0xbe, 0x28, 0xb2, 0x57,
0x81, 0x12, 0x72, 0xc6,
0x0c, 0xe7, 0x47, 0xd7,
0x5f, 0xb3, 0xb7, 0xba,
0x76, 0xc1, 0x94, 0x8a,
0xe7, 0x9a, 0x15, 0xf3,
0x7a, 0x5a, 0x8f, 0x3b,
0x46, 0xd8, 0x0a, 0xe9,
0xe2, 0x40, 0x5f, 0x1a,
0x69, 0x7a, 0x62, 0xe3,
0x53, 0x8b, 0xbb, 0xdb,
0xc2, 0xff, 0x6c, 0xf5,
0x22, 0x2c, 0x8e, 0xdb,
0x32, 0x33, 0xaf, 0x53,
0xdc, 0x2d, 0x3c, 0xaf,
0x31, 0x0e, 0x17, 0x21,
0xba, 0xfe, 0x98, 0xa8,
0xb6, 0xa9, 0x04, 0xf6,
0x4b, 0x1b, 0xac, 0xb3,
0xe5, 0x5b, 0x11, 0x6e,
0x2f, 0x88, 0x6c, 0x61,
0xb8, 0x50, 0x87, 0xb7,
0x5f, 0xdb, 0xcd, 0x42,
0xdb, 0xe7, 0x3e, 0xca,
0x89, 0xc8, 0xfd, 0x6c,
0x8c, 0xc0, 0x56, 0x3b,
0x28, 0x4c, 0x0c, 0x81,
0x51, 0x1f, 0x4a, 0xa8,
0x3c, 0x69, 0x45, 0x18,
0x58, 0x0b, 0xbb, 0x45,
0xdc, 0x0d, 0xfe, 0xc1,
0x32, 0xa2, 0xa8, 0xac,
0x00, 0xbf, 0x5d, 0xc0,
0x68, 0x4b, 0x8e, 0xd5,
0x8e, 0x50, 0xb4, 0x09,
0x6d, 0x34, 0x37, 0xe0,
0xb2, 0x09, 0x1e, 0x6c,
0x6c, 0xea, 0x0d, 0x6e,
0xfc, 0x66, 0xac, 0xb0,
0xed, 0x99, 0x44, 0x17,
0x30, 0x69, 0x43, 0xee,
0x3a, 0xfc, 0x82, 0x8d,
0xd7, 0xf5, 0x73, 0xf0,
0x41, 0xea, 0xdb, 0x1e,
0x34, 0x5a, 0x17, 0x5c,
0x84, 0x85, 0xdf, 0x10,
0x2f, 0xd6, 0x24, 0x45,
0x67, 0xfd, 0xba, 0x00,
0xc8, 0x5c, 0x2b, 0x55,
0x72, 0x2e, 0x31, 0x01,
0xdf, 0xd1, 0x51, 0x11,
0xc8, 0xd0, 0x14, 0xb7,
0x5d, 0x61, 0x78, 0x6c,
0x92, 0x30, 0x76, 0xf5,
0x1b, 0xc0, 0xdb, 0x5a,
0xbb, 0x9d, 0x8a, 0xd0,
0xf7, 0x0d, 0x09, 0x59,
0x00, 0x37, 0xa6, 0x98,
0x63, 0xb2, 0x7f, 0x83,
0xcb, 0xba, 0x60, 0xcc,
0xf5, 0x89, 0x97, 0xd9,
0xeb, 0xb1, 0x2b, 0x20,
0xa3, 0x7f, 0x06, 0xf6,
0xa9, 0x16, 0xb1, 0xe1,
0x27, 0x09, 0x84, 0xc6,
0x85, 0x22, 0xf4, 0xb2,
0xdd, 0x6c, 0xc9, 0x61,
0x63, 0x0e, 0x51, 0xa1,
0x4c, 0x7c, 0x1f, 0x84,
0x6d, 0x3e, 0xf7, 0xb9,
0xee, 0x7f, 0x63, 0x4b,
0x26, 0x29, 0x11, 0x2c,
0x44, 0x4e, 0x62, 0x4b,
0x87, 0x9a, 0x9a, 0x7a,
0x6a, 0x66, 0x99, 0x47,
0xf7, 0x3a, 0xbc, 0xfa,
0x7f, 0x08, 0x3c, 0x17,
0xe3, 0x5e, 0xe2, 0xcc,
0xcf, 0x83, 0x18, 0x9b,
0x0f, 0x3f, 0x1a, 0x0f,
0xf9, 0x96, 0x3d, 0xf3,
0x92, 0xbf, 0x43, 0x93,
0x5d, 0xd6, 0xf0, 0x65,
0x17, 0xf7, 0xae, 0x8d,
0x55, 0x8e, 0x08, 0xf8,
0xa3, 0x55, 0xd6, 0x0c,
0xff, 0xb7, 0x01, 0x6c,
0x23, 0xef, 0x3c, 0x25,
0x82, 0xfa, 0xc1, 0x9b,
0xca, 0x8d, 0x55, 0x15,
0x52, 0xb9, 0x1f, 0x06,
0x7c, 0x55, 0xb4, 0x5f,
0xea, 0xe1, 0x37, 0xfc,
0x2b, 0x0d, 0x62, 0x1b,
0x5e, 0xea, 0xce, 0x1b,
0x3e, 0x32, 0xac, 0xd8,
0x30, 0xca, 0x37, 0x0c,
0x50, 0x8a, 0x79, 0x7b,
0xf2, 0x80, 0x4f, 0x1d,
0x48, 0xa4, 0x9d, 0x7a,
0x4b, 0x03, 0x0f, 0x31,
0x77, 0x88, 0xa8, 0x77,
0x4d, 0xdc, 0x28, 0x10,
0xb6, 0x05, 0x39, 0x84,
0x2a, 0xf9, 0xa7, 0x40,
0x4a, 0x9c, 0x34, 0xd5,
0x51, 0x59, 0xf6, 0x0d,
0x06, 0xaa, 0x25, 0x38,
0x99, 0x1f, 0x0c, 0xc4,
0xac, 0x06, 0x74, 0x60,
0xf2, 0xec, 0x9a, 0x1f,
0xe3, 0x13, 0xd2, 0xe3,
0x84, 0xc1, 0x8b, 0x49,
0x46, 0xf6, 0xd8, 0x94,
0x23, 0x7a, 0xa9, 0x91,
0x3f, 0x5e, 0x9a, 0xed,
0x6e, 0x73, 0x4e, 0x90,
0xf2, 0x9f, 0x63, 0x6e,
0x3e, 0xdf, 0xf1, 0x58,
0x32, 0x2d, 0x31, 0x72,
0xa8, 0x16, 0x0f, 0xf4,
0x04, 0xf7, 0x15, 0x43,
0x56, 0xeb, 0x33, 0x8a,
0x1f, 0x0e, 0xf5, 0x5d,
0x2d, 0xa6, 0xfd, 0xd7,
0x74, 0xdd, 0xcc, 0x6b,
0x90, 0x96, 0xdc, 0x29,
0xb6, 0x95, 0x64, 0xd4,
0x91, 0x65, 0x79, 0xbf,
0x30, 0xb9, 0xf1, 0xd2,
0x20, 0x6c, 0xeb, 0x71,
0x1e, 0x5e, 0xeb, 0x3f,
0xa6, 0x5d, 0x60, 0x6b,
0x8f, 0x8a, 0x61, 0x57,
0x9d, 0xf4, 0x1c, 0xe7,
0x73, 0x7a, 0xe6, 0x35,
0xe9, 0xc9, 0x3b, 0x17,
0x22, 0x7e, 0xe7, 0x48,
0xdb, 0x37, 0x72, 0x9c,
0x66, 0xcb, 0xeb, 0x7a,
0x7f, 0x87, 0xd3, 0x14,
0xa8, 0xcf, 0xa6, 0x7e,
0x0c, 0xf9, 0x2a, 0x05,
0xc1, 0x34, 0xd5, 0xcd,
0x07, 0x87, 0xc0, 0x3c,
0x00, 0x44, 0x74, 0x4f,
0x05, 0x52, 0xdf, 0xe5,
0xb5, 0xf6, 0x9e, 0xdd,
0xe1, 0xb7, 0xec, 0xda,
0x34, 0xd3, 0x89, 0xd2,
0x4b, 0x07, 0xbf, 0x34,
0x10, 0xb3, 0xa6, 0x79,
0x12, 0xc0, 0x48, 0x25,
0x69, 0xfb, 0x14, 0x0d,
0x4e, 0x80, 0x13, 0xb7,
0xf3, 0x51, 0xbd, 0x69,
0x0b, 0xde, 0xbf, 0x57,
0xd4, 0x47, 0xfa, 0xd1,
0x8a, 0xcb, 0xa5, 0xa0,
0xa6, 0xd4, 0x36, 0x33,
0x37, 0x61, 0xa5, 0x47,
0xf0, 0x5b, 0x41, 0x66,
0x9f, 0x41, 0x2f, 0x04,
0x8c, 0xdb, 0xeb, 0x39,
0xd6, 0x3e, 0x07, 0xdb,
0xa2, 0x42, 0x45, 0x55,
0xed, 0x4f, 0xb2, 0x5c,
0x7b, 0x62, 0xad, 0x4a,
0xda, 0x35, 0x0f, 0x11,
0x79, 0x1e, 0xdd, 0xb6,
0x5e, 0x18, 0x9f, 0x00,
0x8b, 0x50, 0xb9, 0xd7,
0x75, 0xf8, 0xff, 0x8c,
0xdc, 0x2d, 0x12, 0x29,
0x0c, 0x89, 0xb2, 0xe0,
0x26, 0x97, 0xc2, 0xd7,
0xd5, 0xad, 0xd3, 0x3f,
0x9f, 0xdf, 0xce, 0xed,
0xe7, 0xda, 0x3d, 0x8f,
0xd8, 0x37, 0x7b, 0x1b,
0x75, 0xa9, 0x19, 0x3f,
0xad, 0xfb, 0xd4, 0xc3,
0x1f, 0x2f, 0x31, 0xc5,
0x15, 0x66, 0x59, 0xf1,
0x29, 0xfc, 0x9c, 0xbf,
0xad, 0x7a, 0xdc, 0xe3,
0x2c, 0x03, 0x23, 0x57,
0xc8, 0x72, 0x2b, 0x75,
0x37, 0xfb, 0xc2, 0xf6,
0x4f, 0xaf, 0x8c, 0x59,
0x5d, 0x06, 0xef, 0xd5,
0x05, 0x95, 0xf9, 0x9e,
0xdb, 0x54, 0x49, 0xa6,
0x2a, 0x74, 0xd8, 0xfe,
0x98, 0xc9, 0xed, 0xe7,
0xb3, 0x70, 0x9e, 0xe2,
0x61, 0x56, 0x64, 0x06,
0xa9, 0xf6, 0xc8, 0x7c,
0xa3, 0x65, 0x36, 0xc7,
0xfd, 0x0c, 0x71, 0xff,
0x20, 0x7d, 0xf5, 0x32,
0x77, 0xe2, 0xab, 0x8a,
0xa5, 0x98, 0x52, 0xcc,
0xee, 0x8e, 0x7d, 0x46,
0x89, 0xe6, 0x15, 0xcd,
0xaf, 0x1b, 0x76, 0x0c,
0x49, 0xae, 0x71, 0x69,
0xe1, 0x14, 0x39, 0x47,
0x1b, 0xe2, 0x8f, 0x37,
0x74, 0x4f, 0x8f, 0x5d,
0x9c, 0xa9, 0xeb, 0x19,
0x9b, 0xfb, 0xad, 0x70,
0x46, 0x58, 0x3f, 0xdf,
0xe0, 0x8d, 0xa6, 0x4f,
0x76, 0xf7, 0x36, 0x3e,
0x52, 0x6a, 0x4e, 0xa7,
0x90, 0x51, 0x8f, 0x18,
0xbb, 0x88, 0x6c, 0x65,
0x85, 0x94, 0xec, 0x55,
0xc5, 0x61, 0xea, 0x9a,
0x2b, 0xaf, 0xc1, 0xc0,
0x78, 0xce, 0x44, 0x2b,
0x03, 0x8c, 0x34, 0x07,
0x94, 0xb6, 0x25, 0xc2,
0xbd, 0xe0, 0xa3, 0x1e,
0x12, 0xe6, 0xde, 0x19,
0x9d, 0xe5, 0xed, 0xfa,
0x6f, 0x11, 0xe4, 0x11,
0xbd, 0x56, 0xab, 0x9a,
0x32, 0xce, 0xfe, 0x31,
0x52, 0x57, 0x28, 0xf9,
0x94, 0x98, 0x67, 0xcf,
0x78, 0x60, 0x54, 0x80,
0x5c, 0xb5, 0x03, 0x81,
0x25, 0x37, 0x8d, 0xef,
0xf9, 0x3c, 0x98, 0x49,
0x52, 0xaa, 0x92, 0x2d,
0xd9, 0x7b, 0x3e, 0xb7,
0x8e, 0xa0, 0xe1, 0x90,
0x06, 0x99, 0x7c, 0xc5,
0xa7, 0xc4, 0xd6, 0x96,
0x8c, 0x75, 0xce, 0x47,
0xba, 0xf6, 0xbc, 0x3a,
0xb6, 0x84, 0x37, 0x0e,
0x24, 0x99, 0xe7, 0xf6,
0xf0, 0x27, 0xbf, 0xe1,
0x26, 0x70, 0x88, 0x44,
0xe3, 0xcd, 0x7e, 0xa7,
0x6c, 0xab, 0x78, 0x3f,
0x88, 0x9f, 0x74, 0x75,
0x9d, 0x66, 0x18, 0xf3,
0xf1, 0x66, 0x2f, 0xa8,
0xb1, 0x08, 0x3b, 0xbc,
0x38, 0x42, 0x70, 0x39,
0xb2, 0xb5, 0xe8, 0x2a,
0x9c, 0xc8, 0xa2, 0xb4,
0xe7, 0xfe, 0x8f, 0x93,
0x31, 0x6d, 0x4b, 0x37,
0x66, 0x4f, 0x27, 0xbe,
0x04, 0x1f, 0x1f, 0xb6,
0x16, 0x24, 0x57, 0xc6,
0x58, 0xb7, 0x3d, 0xf0,
0x5a, 0xad, 0x11, 0xe6,
0xa7, 0xf4, 0xc6, 0x5f,
0xcb, 0x3a, 0x7b, 0x75,
0x3c, 0x71, 0x03, 0x5f,
0xa6, 0xb1, 0x41, 0x2e,
0x6d, 0x39, 0xc9, 0xd1,
0x7c, 0x1b, 0xa3, 0x5f,
0xc3, 0xdd, 0x4f, 0x58,
0x9a, 0xbc, 0xa3, 0xe5,
0xbe, 0x1b, 0x7c, 0x8d,
0x4a, 0x39, 0x61, 0x2d,
0x21, 0x6e, 0x84, 0xdc,
0x59, 0xc4, 0xf6, 0xc0,
0xe3, 0x4d, 0x72, 0xd7,
0x92, 0x5a, 0xb9, 0xf5,
0x82, 0xd4, 0x38, 0xd1,
0x0b, 0xd1, 0x89, 0x73,
0x5f, 0x05, 0x30, 0x2b,
0x1d, 0x8f, 0x8b, 0x83,
0x96, 0x28, 0xa3, 0x82,
0x2b, 0x5d, 0x03, 0x14,
0xc2, 0xff, 0xbe, 0x3d,
0x30, 0x0d, 0x50, 0x8e,
0x58, 0x41, 0x5b, 0x64,
0x8d, 0x01, 0x49, 0x39,
0x57, 0x0e, 0x2e, 0x0e,
0xd7, 0xc7, 0x49, 0x2c,
0x27, 0x31, 0xcc, 0x2f,
0xca, 0x7c, 0xf8, 0x7e,
0x42, 0xbf, 0x15, 0xa6,
0xec, 0x8b, 0x5f, 0x4f,
0xc6, 0xe7, 0xd4, 0x06,
0xda, 0xc9, 0xdb, 0xe1,
0xfa, 0xc1, 0xcc, 0x35,
0xc9, 0xd5, 0x3e, 0xf4,
0x52, 0x69, 0x66, 0x1c,
0x76, 0xba, 0x63, 0x4b,
0x65, 0xd4, 0x1a, 0x64,
0x3f, 0x9a, 0x1f, 0x67,
0xf6, 0xdd, 0x57, 0x3d,
0x5f, 0xe3, 0xa6, 0x36,
0xa9, 0x7a, 0xfe, 0xbd,
0x85, 0x4b, 0x2d, 0x36,
0xfd, 0x88, 0xe1, 0x2d,
0x8f, 0x8f, 0xee, 0x08,
0x9e, 0xbe, 0x1c, 0x33,
0x29, 0xc5, 0xa8, 0x9a,
0x1b, 0xb9, 0x6a, 0x60,
0x39, 0x85, 0x7f, 0x87,
0xdb, 0x06, 0x60, 0xb1,
0x15, 0x58, 0xcb, 0x3b,
0x2a, 0x4a, 0x35, 0xc5,
0x4b, 0x3c, 0x6c, 0x9d,
0x80, 0x1c, 0x2b, 0x89,
0xc1, 0x65, 0xdc, 0x83,
0xe7, 0x10, 0x4b, 0x20,
0xa5, 0x73, 0xcc, 0x7a,
0x77, 0x1f, 0xe6, 0x2a,
0x03, 0x2b, 0x53, 0xfe,
0xd8, 0xc6, 0xdc, 0xf9,
0x76, 0x62, 0x5e, 0xc5,
0xc3, 0x74, 0x8c, 0xb4,
0x97, 0x62, 0x2f, 0x8f,
0x59, 0x18, 0x8a, 0x3f,
0x3c, 0x57, 0x39, 0x54,
0x09, 0xce, 0xa4, 0xc0,
0xde, 0xb7, 0xc1, 0x3b,
0x76, 0xc9, 0xde, 0x55,
0xb6, 0x6b, 0x1f, 0xab,
0x44, 0x03, 0x26, 0xa0,
0x7b, 0x3c, 0x3c, 0xe7,
0x2c, 0x4b, 0x40, 0xed,
0x02, 0x69, 0xdb, 0x1e,
0x5d, 0x49, 0xa2, 0x93,
0x0b, 0x25, 0xb6, 0x4b,
0x1f, 0x7a, 0xad, 0xdd,
0x38, 0x82, 0x0e, 0x76,
0xb7, 0x52, 0xdf, 0x12,
0xc4, 0x38, 0x29, 0x5b,
0x52, 0x29, 0x3b, 0x2d,
0xbc, 0x1f, 0x02, 0x5f,
0x76, 0xf1, 0x1f, 0x5e,
0x1b, 0x51, 0xe7, 0xfa,
0xa9, 0x94, 0xd2, 0xce,
0xe7, 0x81, 0xed, 0xf6,
0x3a, 0x7e, 0x85, 0x3f,
0x73, 0xec, 0x34, 0xe8,
0x4b, 0xba, 0xcf, 0x27,
0xd7, 0x7e, 0xc1, 0x42,
0x7d, 0xb4, 0xe2, 0xd7,
0x91, 0xcf, 0x64, 0x26,
0xcc, 0x35, 0xee, 0x53,
0xfc, 0x0b, 0xb5, 0x16,
0xf2, 0xfa, 0x2b, 0x4f,
0x39, 0xfe, 0x3f, 0x83,
0xc5, 0x2b, 0x47, 0x6f,
0x7d, 0x5e, 0xca, 0x62,
0x58, 0x11, 0x94, 0xef,
0x34, 0x27, 0xa4, 0xdc,
0xe2, 0xc2, 0x4a, 0x57,
0xd7, 0x1b, 0xee, 0x64,
0xd0, 0x75, 0x16, 0xb7,
0x56, 0x77, 0x90, 0x86,
0x29, 0x68, 0xd9, 0xe9,
0xd8, 0x03, 0xb5, 0xf7,
0x92, 0xff, 0x14, 0x34,
0x27, 0x45, 0x59, 0x4b,
0xb9, 0x7b, 0x23, 0xb4,
0x49, 0xf1, 0x73, 0x91,
0x28, 0xed, 0xb3, 0x89,
0x02, 0x5d, 0x56, 0xe9,
0x0b, 0xe9, 0xdf, 0x10,
0xc6, 0xae, 0xed, 0x97,
0xab, 0x3a, 0xf8, 0xa9,
0x5c, 0xa4, 0x9d, 0x66,
0x10, 0x97, 0x5d, 0xbc,
0x41, 0x8d, 0xbb, 0x48,
0xf8, 0xdd, 0x05, 0x57,
0x03, 0x37, 0x55, 0x76,
0xfb, 0xf6, 0xc1, 0x0e,
0xde, 0x73, 0x2b, 0x7a,
0x06, 0xae, 0x1e, 0x21,
0x46, 0xb4, 0x69, 0x8f,
0x37, 0xde, 0x4a, 0x29,
0x2c, 0x66, 0xeb, 0x80,
0x7e, 0x1b, 0xa5, 0xa8,
0x47, 0x16, 0x76, 0x9d,
0x62, 0x76, 0x1f, 0x96,
0xc9, 0xb3, 0x31, 0x30,
0xc2, 0xa6, 0x91, 0x27,
0x7d, 0x01, 0xe1, 0x0c,
0x12, 0xd0, 0x0e, 0xc4,
0x17, 0x4c, 0xfe, 0x8c,
0x29, 0x13, 0x63, 0x7b,
0x50, 0xe4, 0x61, 0xac,
0x4d, 0x44, 0x31, 0x0a,
0x17, 0xb1, 0x09, 0x29,
0xf2, 0xcf, 0x06, 0xca,
0x5d, 0x9b, 0xc6, 0xf4,
0x10, 0x93, 0xf2, 0x1d,
0x76, 0x10, 0x45, 0x45,
0x9a, 0xdf, 0x62, 0xbe,
0xb9, 0x9d, 0x12, 0x3c,
0x72, 0xbb, 0x79, 0x1d,
0x3f, 0xf9, 0x67, 0xb8,
0xd2, 0xd0, 0xf7, 0x0c,
0x2d, 0xdd, 0x25, 0x5a,
0xe7, 0xfa, 0x85, 0x1f,
0x22, 0x3b, 0xec, 0xce,
0xe9, 0x59, 0xde, 0xfe,
0xcb, 0x59, 0xae, 0x38,
0xa7, 0xa8, 0x23, 0xce,
0x5d, 0xd8, 0xda, 0x7d,
0x21, 0xd5, 0x6a, 0x53,
0xf3, 0xbb, 0x59, 0x66,
0x97, 0xc3, 0x5a, 0xaf,
0x3f, 0x2f, 0xcc, 0x49,
0xed, 0x90, 0xd0, 0xbf,
0x7b, 0x23, 0x94, 0xaa,
0x5e, 0xef, 0xec, 0xa5,
0x68, 0x3b, 0xaf, 0x35,
0x1b, 0x5a, 0xd6, 0x17,
0x8e, 0xe9, 0xba, 0x96,
0xad, 0xea, 0xd7, 0x8b,
0xb7, 0x4e, 0x4b, 0xf7,
0x19, 0xdf, 0x9a, 0x07,
0x6f, 0xaf, 0x5d, 0xa6,
0xfa, 0xdf, 0x82, 0xfb,
0x96, 0x6b, 0x55, 0xb6,
0x74, 0x3e, 0x1a, 0xfd,
0x14, 0x01, 0x84, 0x84,
0xff, 0x8d, 0xc3, 0xc2,
0x01, 0xb4, 0x82, 0x27,
0xbf, 0x36, 0xde, 0xd2,
0x9a, 0x8b, 0xa2, 0xf5,
0x42, 0x70, 0x58, 0xc1,
0xf2, 0xcd, 0xf1, 0xe0,
0xa5, 0x38, 0xa9, 0xf3,
0xd3, 0x7a, 0x5d, 0x78,
0x47, 0x0f, 0x96, 0x90,
0xb3, 0x5e, 0x0f, 0xf3,
0x89, 0x9b, 0xb1, 0x21,
0x11, 0x23, 0xc3, 0xbb,
0xff, 0xa0, 0x35, 0xe1,
0x68, 0x91, 0xe0, 0x1d,
0xfd, 0xd6, 0x53, 0x59,
0x04, 0xf9, 0x79, 0xc1,
0xe9, 0xce, 0x4e, 0x90,
0x9f, 0x1d, 0x8e, 0xe8,
0x36, 0x76, 0xdc, 0xe9,
0x78, 0xc7, 0x55, 0x88,
0x7b, 0xa4, 0x7e, 0xfe,
0x86, 0x63, 0x61, 0x68,
0x23, 0x8a, 0x5f, 0xc5,
0x88, 0x02, 0xbd, 0xfb,
0x95, 0x5b, 0x35, 0x8c,
0x78, 0x32, 0xe2, 0x66,
0x8e, 0x93, 0x3f, 0x09,
0x96, 0xec, 0x5b, 0xc6,
0xb7, 0x07, 0xab, 0xfd,
0x12, 0x19, 0x73, 0x0b,
0xd1, 0xd1, 0x3b, 0x98,
0x8e, 0xc6, 0x4a, 0xe5,
0xed, 0xeb, 0x0d, 0x56,
0x94, 0x9b, 0x7e, 0xb7,
0xff, 0xb1, 0x32, 0x61,
0x5c, 0xf9, 0xc2, 0x9d,
0x71, 0x13, 0x04, 0xf6,
0x6b, 0xc4, 0xee, 0x3f,
0xb6, 0x74, 0x96, 0x6b,
0x82, 0xb6, 0xde, 0x3f,
0xd6, 0x34, 0xac, 0xa5,
0xcb, 0xf2, 0xa6, 0x73,
0x46, 0x9d, 0xbe, 0x5b,
0xbc, 0xb1, 0xcf, 0xb8,
0x1d, 0xc1, 0xeb, 0x8c,
0x13, 0x8b, 0x70, 0x36,
0xd7, 0xe8, 0xe5, 0x49,
0xef, 0xe4, 0xc1, 0x78,
0x32, 0x89, 0x08, 0xb5,
0x10, 0x1e, 0xca, 0x71,
0x3b, 0x14, 0xce, 0x22,
0xb2, 0x39, 0x3b, 0xeb,
0x92, 0xc8, 0xb0, 0x9c,
0x0e, 0xb1, 0x12, 0xb9,
0x19, 0x63, 0x12, 0x18,
0xff, 0x39, 0xd3, 0xb7,
0x2a, 0x59, 0x4b, 0xbf,
0xd3, 0xf1, 0x1d, 0xdb,
0x3d, 0x18, 0x04, 0x98,
0xef, 0xda, 0xf7, 0x3e,
0x97, 0x4d, 0xf6, 0x72,
0x7f, 0xb1, 0x17, 0x50,
0xc0, 0x6d, 0xec, 0xde,
0x5a, 0xfd, 0x1b, 0x17,
0xfb, 0xdb, 0x85, 0x29,
0x45, 0xac, 0xe4, 0xce,
0xbf, 0xa7, 0xe2, 0x14,
0x42, 0x7f, 0xb3, 0xa7,
0x5f, 0x63, 0x8d, 0xdc,
0x7b, 0x83, 0xa4, 0xb1,
0xd2, 0x4e, 0xcf, 0xb7,
0x18, 0x3c, 0x9b, 0xff,
0x3d, 0xfd, 0x34, 0x45,
0xcb, 0x9e, 0xfe, 0x8b,
0xe1, 0xfb, 0xf1, 0x25,
0x7a, 0xa6, 0x06, 0x16,
0x7e, 0x7b, 0x84, 0x4d,
0x73, 0x73, 0xe3, 0xe3,
0x08, 0xa3, 0xec, 0xa0,
0xac, 0x1d, 0x7d, 0x00,
0xcd, 0x4a, 0x30, 0x6d,
0xd9, 0x07, 0xd1, 0x0e,
0x2a, 0x25, 0x4e, 0xe9,
0x56, 0xf2, 0xa3, 0x59,
0x6f, 0xea, 0xfe, 0x3e,
0x25, 0x89, 0xa7, 0xc5,
0xe0, 0x1e, 0x4a, 0x37,
0x7d, 0xc2, 0x4f, 0xed,
0x44, 0xcb, 0x0c, 0x9f,
0x1f, 0x0c, 0xf3, 0xf9,
0x9b, 0x9d, 0x68, 0x40,
0xb7, 0xfe, 0x13, 0xb7,
0x48, 0x66, 0xb4, 0xbe,
0x6f, 0x6f, 0x68, 0x4c,
0x09, 0x3a, 0xc5, 0x65,
0xd9, 0x8e, 0x77, 0xec,
0x8c, 0xde, 0xfa, 0xcf,
0x1f, 0x78, 0x1f, 0x9b,
0xd3, 0x56, 0xb3, 0xbb,
0x1e, 0xe6, 0x78, 0x1e,
0xa4, 0xc3, 0x2e, 0xfd,
0x98, 0xbc, 0x6a, 0x16,
0x85, 0x78, 0xcd, 0x8f,
0xa5, 0xab, 0x5c, 0xd0,
0xb2, 0xcd, 0xcf, 0xa0,
0xcd, 0x04, 0xb1, 0x8c,
0x0f, 0xf6, 0x72, 0x84,
0xa9, 0x87, 0x52, 0xaa,
0xbc, 0xfc, 0x33, 0x99,
0xa6, 0xa4, 0xa8, 0x6b,
0x36, 0x69, 0x08, 0x10,
0xeb, 0x8c, 0x5c, 0x80,
0xeb, 0x39, 0xfe, 0xec,
0xe3, 0xca, 0x92, 0x74,
0x6f, 0xb9, 0xc4, 0x93,
0x3d, 0x3f, 0x4c, 0x3b,
0xe5, 0xf3, 0x70, 0x18,
0xf3, 0xe0, 0x29, 0x6a,
0xf8, 0x7c, 0xea, 0xae,
0xe0, 0xea, 0xb0, 0x2c,
0x9d, 0xb4, 0x7e, 0x4d,
0x20, 0xd0, 0x9d, 0x77,
0xf7, 0xdc, 0xb8, 0x7c,
0x51, 0x30, 0xb7, 0xdf,
0x47, 0x5f, 0x8a, 0x6b,
0xb8, 0x1e, 0xb5, 0x3d,
0xb7, 0x4a, 0x56, 0xfd,
0x66, 0x8c, 0xad, 0xaf,
0x3a, 0x02, 0xca, 0x9f,
0xf5, 0x6f, 0xed, 0x6f,
0x3e, 0xea, 0xe6, 0x76,
0xa5, 0x61, 0xac, 0x5c,
0xf0, 0x36, 0x1f, 0x65,
0xe0, 0xd9, 0xff, 0xd3,
0x37, 0x2d, 0xf0, 0xf2,
0xb8, 0xef, 0x66, 0x3e,
0x69, 0xdc, 0x14, 0x15,
0xa3, 0xce, 0x47, 0xcb,
0x19, 0x7b, 0x3d, 0xd8,
0x4c, 0x36, 0x6d, 0xb3,
0xc4, 0xb9, 0xf3, 0x8f,
0xff, 0xc8, 0xf3, 0x48,
0xa3, 0x3e, 0xef, 0x22,
0x72, 0xfb, 0xb7, 0x9c,
0x49, 0x28, 0xb6, 0xcd,
0x10, 0x63, 0xa2, 0x98,
0x89, 0x18, 0x6a, 0xfe,
0xb4, 0x50, 0xe0, 0x8e,
0x45, 0xa8, 0x7d, 0x83,
0xb7, 0x1d, 0x22, 0x39,
0xdf, 0xde, 0xff, 0xb6,
0x89, 0x0b, 0x35, 0x3b,
0x07, 0xfb, 0x7d, 0xb8,
0x83, 0x9a, 0x77, 0x74,
0x52, 0x44, 0x54, 0x5b,
0x01, 0x07, 0xfe, 0xac,
0xd7, 0x08, 0x9d, 0x9e,
0x6a, 0x1f, 0xda, 0x7d,
0x8f, 0x77, 0x99, 0xf6,
0xd2, 0xf6, 0x5b, 0x06,
0xb2, 0x79, 0xb0, 0xd9,
0xe4, 0xd5, 0x50, 0x85,
0x44, 0x0c, 0xf8, 0x35,
0x17, 0xd2, 0xf7, 0x1d,
0xa9, 0xd7, 0xf7, 0x07,
0x5f, 0xda, 0xb0, 0xfd,
0x42, 0x54, 0x78, 0x87,
0x41, 0x9c, 0xff, 0xc3,
0x46, 0x77, 0x2f, 0x19,
0xda, 0xe9, 0x24, 0x43,
0x35, 0x9a, 0x91, 0x90,
0xdf, 0x34, 0xc0, 0x7a,
0x09, 0xb1, 0x0e, 0xd4,
0x69, 0xf4, 0x66, 0xdd,
0x7c, 0x36, 0xb4, 0xd7,
0x14, 0x19, 0x17, 0x74,
0x56, 0x55, 0xa0, 0x2b,
0x4d, 0xcf, 0x79, 0x4c,
0xaa, 0xcc, 0x0b, 0x3c,
0x66, 0xf1, 0xfc, 0x35,
0x96, 0x61, 0xd4, 0x6d,
0x4c, 0x5b, 0xf5, 0x7b,
0x7b, 0x5b, 0xba, 0xee,
0xed, 0xdf, 0x7d, 0x3a,
0x73, 0xfd, 0x76, 0xec,
0x6f, 0xc0, 0x63, 0xfe,
0xce, 0xfe, 0x5d, 0xc9,
0x0f, 0xe6, 0xb0, 0xf9,
0x60, 0x9f, 0xc8, 0x7f,
0xb0, 0x43, 0xd4, 0xef,
0xe1, 0x7d, 0x6f, 0xb3,
0x8f, 0xb6, 0xf2, 0xd8,
0x58, 0xf7, 0xd6, 0xc9,
0x73, 0xf7, 0xf1, 0x7d,
0x25, 0xdf, 0xcb, 0xce,
0xd0, 0xf8, 0xdc, 0x0f,
0xad, 0x1c, 0x6c, 0xee,
0x54, 0xfb, 0xab, 0x1a,
0xc2, 0xb2, 0xab, 0x61,
0x57, 0x9e, 0xa0, 0xad,
0xb8, 0x2c, 0xf9, 0xb9,
0x84, 0x45, 0xce, 0x71,
0xc7, 0x20, 0x22, 0xde,
0x39, 0x32, 0x1b, 0x60,
0x65, 0x62, 0x58, 0x69,
0xfc, 0x91, 0x2c, 0xd1,
0xeb, 0xd3, 0x25, 0x5d,
0x0b, 0xd7, 0xa1, 0x8d,
0x50, 0x96, 0xb3, 0xd6,
0xda, 0xd0, 0x6f, 0x97,
0x0c, 0xea, 0xe0, 0x24,
0xed, 0x85, 0xea, 0x78,
0x82, 0x58, 0x0b, 0xd1,
0x96, 0x6f, 0xec, 0x51,
0x05, 0x46, 0x05, 0x43,
0xd3, 0xe7, 0x11, 0xd8,
0x2e, 0x48, 0xeb, 0x46,
0x36, 0x1f, 0x31, 0xfb,
0x2b, 0x4c, 0x73, 0x1f,
0x7b, 0xfa, 0xe9, 0x79,
0xf5, 0x7e, 0xfa, 0xc5,
0x6d, 0x23, 0x40, 0xc0,
0xec, 0xbe, 0xbb, 0xf0,
0xee, 0xb2, 0x6e, 0x49,
0xfb, 0xef, 0xc0, 0x71,
0xda, 0x86, 0xab, 0xf8,
0xbd, 0x6c, 0x6c, 0xe2,
0x9c, 0x05, 0xd4, 0xfc,
0x3c, 0xc2, 0x83, 0x7d,
0xb5, 0x44, 0x90, 0xbd,
0x0f, 0x46, 0x7e, 0x63,
0xd1, 0x27, 0x72, 0x5a,
0x1c, 0x00, 0xc4, 0x39,
0xcf, 0xa2, 0x4d, 0x2e,
0x37, 0xbb, 0x60, 0xc0,
0x78, 0x9a, 0xdd, 0xe2,
0x12, 0x9d, 0xb6, 0x0b,
0xab, 0x01, 0xbb, 0x3a,
0xcb, 0x37, 0x6b, 0x4e,
0x83, 0xfe, 0xc8, 0x98,
0xf4, 0x6e, 0x1f, 0xf7,
0x20, 0xe6, 0x24, 0x72,
0xb2, 0xcc, 0xf6, 0x3b,
0x4e, 0x77, 0x4c, 0x3e,
0xbc, 0x75, 0xa6, 0x07,
0x94, 0xee, 0xcd, 0x0b,
0xc9, 0x01, 0xbf, 0x90,
0x7f, 0x9f, 0xdf, 0x31,
0xa3, 0xd0, 0x8a, 0xd8,
0x5c, 0x76, 0x35, 0xc3,
0xde, 0xfd, 0x67, 0x32,
0xc5, 0xeb, 0xb5, 0xff,
0xfb, 0xfb, 0x2e, 0x7d,
0xd1, 0x85, 0xa2, 0x8d,
0x5f, 0x23, 0x85, 0x5b,
0x17, 0x3e, 0x99, 0x3a,
0xdc, 0xbd, 0x5e, 0x50,
0xbd, 0x2f, 0x56, 0x0b,
0xd0, 0xa8, 0x28, 0x09,
0x84, 0xb1, 0x6d, 0xcc,
0x70, 0x6b, 0xef, 0x21,
0xf3, 0xee, 0xc8, 0xaa,
0xca, 0x9e, 0x9d, 0xc1,
0xfa, 0xd6, 0xa7, 0xea,
0xc0, 0x55, 0xf0, 0xad,
0xf1, 0x22, 0x83, 0x36,
0xe3, 0xf2, 0xb9, 0xc3,
0xfb, 0x3b, 0x23, 0xed,
0xf5, 0xec, 0x72, 0x80,
0x79, 0xe7, 0xaf, 0xef,
0xed, 0x3f, 0x1b, 0xf2,
0xfc, 0x67, 0x78, 0xb2,
0x06, 0x17, 0xf6, 0xf7,
0x22, 0x8e, 0xba, 0x9a,
0xa3, 0xde, 0x5f, 0xcc,
0xd4, 0x1f, 0xb3, 0xb3,
0xfd, 0xea, 0x14, 0x48,
0xab, 0x60, 0x3a, 0x5b,
0x5e, 0xbe, 0x03, 0xc5,
0xb7, 0x77, 0xe7, 0x17,
0xc9, 0xfb, 0xf9, 0x65,
0xd6, 0x6b, 0x92, 0xb3,
0xd6, 0xfb, 0x7d, 0x97,
0x83, 0x1b, 0x7e, 0xa9,
0x9b, 0x2f, 0xda, 0xa9,
0x9d, 0xf8, 0x1e, 0x9c,
0xf0, 0xa9, 0xe5, 0x87,
0x93, 0x5f, 0xf2, 0x4f,
0xe0, 0x58, 0xfb, 0x42,
0x32, 0xbc, 0x2b, 0x5d,
0x6e, 0x01, 0x3e, 0x12,
0xcc, 0xf9, 0x64, 0x28,
0x54, 0xcc, 0x65, 0xc3,
0xd7, 0xd2, 0x99, 0xe4,
0xbf, 0x3f, 0x11, 0xe9,
0xe3, 0xc7, 0x4f, 0xb2,
0xd9, 0xe0, 0xdc, 0xba,
0xb2, 0x69, 0x54, 0x1c,
0x97, 0x38, 0x30, 0xb6,
0x67, 0xf9, 0xc8, 0x7e,
0x8b, 0x71, 0xb3, 0xf3,
0xad, 0x3e, 0xf5, 0xe4,
0xd2, 0xf3, 0xbe, 0x93,
0x86, 0xf3, 0xa4, 0x5e,
0x5a, 0x27, 0x5f, 0x07,
0x5c, 0xb3, 0xa6, 0xf5,
0xde, 0x3e, 0xa5, 0x9a,
0x1e, 0x94, 0xc4, 0xfe,
0xde, 0x9c, 0x17, 0xb1,
0x70, 0xff, 0x6b, 0x6c,
0x63, 0x4a, 0x4c, 0x5a,
0xd3, 0xfd, 0xe3, 0x1d,
0x94, 0xaa, 0xbb, 0xfe,
0xe2, 0xad, 0x46, 0xe7,
0x7b, 0x97, 0xff, 0x9c,
0x03, 0xdd, 0xff, 0x8e,
0x79, 0xda, 0x7c, 0x5e,
0xb7, 0x0f, 0xa8, 0x56,
0x14, 0x98, 0x71, 0x86,
0xc5, 0x7e, 0x8c, 0x52,
0x74, 0xcf, 0x16, 0xbf,
0x1a, 0x5f, 0xb7, 0x4c,
0xdf, 0x2e, 0x92, 0x5a,
0xb3, 0x27, 0xda, 0xd8,
0x59, 0x70, 0x7f, 0xbe,
0x0b, 0x5b, 0x2c, 0x6d,
0x4c, 0xf2, 0x6c, 0xb9,
0x7b, 0x18, 0xdb, 0xd6,
0x58, 0x4b, 0x7d, 0x0f,
0x05, 0x80, 0x27, 0x2e,
0x29, 0x62, 0xdb, 0x9d,
0x9f, 0xa3, 0x8d, 0x70,
0x83, 0x50, 0xd8, 0xd6,
0xc7, 0x33, 0xbc, 0xa8,
0x0c, 0x7f, 0x5d, 0xf8,
0x8b, 0x51, 0x16, 0x88,
0x56, 0x3c, 0x67, 0x09,
0xf3, 0x34, 0x42, 0x2a,
0xf1, 0xee, 0x29, 0x4d,
0x94, 0x8d, 0xbc, 0x74,
0xe3, 0x48, 0x26, 0xb0,
0xd6, 0xd8, 0x76, 0xfc,
0x72, 0x9c, 0x49, 0x9b,
0x1a, 0xf5, 0x46, 0xb3,
0xce, 0x48, 0x24, 0x6a,
0xcf, 0xa3, 0x49, 0xa9,
0x37, 0x24, 0x30, 0xed,
0xbf, 0x80, 0x87, 0xdb,
0x40, 0x86, 0x82, 0xf3,
0x74, 0x30, 0x15, 0xde,
0x5d, 0x0e, 0x35, 0x42,
0x22, 0x93, 0x0f, 0xf0,
0x58, 0xd6, 0x70, 0x71,
0x9f, 0x05, 0x5d, 0x1c,
0x4a, 0x09, 0x5d, 0x20,
0x96, 0x73, 0x0f, 0xe8,
0xed, 0xd2, 0x4b, 0x32,
0xf0, 0xdb, 0x5d, 0x20,
0x3b, 0xf1, 0x54, 0x8c,
0x67, 0xcf, 0xe8, 0xa7,
0xc3, 0x82, 0x2d, 0x22,
0x5e, 0xe5, 0x53, 0x6c,
0x2e, 0x37, 0x7a, 0xe7,
0xbf, 0xcb, 0x2c, 0xed,
0xd1, 0xca, 0xea, 0xb7,
0x7d, 0x9d, 0xbb, 0x4f,
0xfa, 0x7e, 0xbc, 0x77,
0x9b, 0xe7, 0x87, 0x4d,
0x91, 0xbd, 0x45, 0xb6,
0xe3, 0xdf, 0xb2, 0x62,
0x9f, 0x88, 0xb3, 0xdd,
0xfd, 0x03, 0x18, 0x29,
0x75, 0xe7, 0xd3, 0xf4,
0xe7, 0xfd, 0xc3, 0xee,
0x3a, 0x5d, 0x24, 0xba,
0xfd, 0x65, 0xe7, 0xcd,
0x8e, 0x60, 0xfe, 0xbf,
0xd9, 0x86, 0x00, 0x6b,
0xa7, 0x9f, 0x3c, 0xd4,
0xb9, 0x6b, 0x83, 0x6e,
0x06, 0x48, 0x61, 0xc2,
0xb2, 0x3e, 0x7a, 0xeb,
0xd5, 0x1d, 0xe3, 0x7a,
0x66, 0xd0, 0xd7, 0x04,
0xd1, 0xd4, 0xdb, 0x01,
0x1d, 0x4d, 0x6e, 0x8a,
0xc5, 0xc5, 0xcc, 0x73,
0x4f, 0xcc, 0x30, 0x26,
0x6d, 0x5b, 0x0e, 0x9c,
0x30, 0xb2, 0xa4, 0xc5,
0x0a, 0xd7, 0x65, 0x0f,
0xcb, 0x6c, 0x7c, 0x55,
0x91, 0x42, 0x0f, 0x2b,
0x3c, 0x59, 0x4d, 0xd5,
0x00, 0x65, 0xe6, 0xf3,
0x1e, 0x29, 0x51, 0xe3,
0x9a, 0x00, 0xfe, 0x35,
0x71, 0xaf, 0xc9, 0xcc,
0x74, 0xf5, 0x63, 0x46,
0x2b, 0x18, 0xfa, 0xb1,
0xff, 0x37, 0xf0, 0x13,
0x2d, 0x62, 0xf8, 0xb3,
0x9b, 0xf9, 0xdc, 0x11,
0x72, 0xb1, 0xa7, 0x3b,
0x36, 0x8e, 0x6b, 0xdd,
0x66, 0x7c, 0x37, 0xff,
0xf4, 0xfe, 0x06, 0x1b,
0x19, 0x33, 0xfb, 0xe3,
0x84, 0x18, 0x99, 0xf8,
0x66, 0x36, 0x77, 0x73,
0xcd, 0x22, 0x33, 0x9e,
0xe9, 0xfb, 0x2e, 0x24,
0xa9, 0xe7, 0xe5, 0x5d,
0x37, 0x43, 0x83, 0x78,
0x62, 0xea, 0x2b, 0x49,
0x39, 0x7b, 0xa1, 0x61,
0x5c, 0x57, 0xe1, 0xce,
0x12, 0x1f, 0xed, 0x37,
0x9d, 0x93, 0x78, 0xcf,
0x34, 0xf2, 0xfb, 0x9b,
0xbe, 0x1e, 0xfd, 0x5d,
0x70, 0x01, 0xa5, 0xc5,
0xb4, 0xbb, 0xd3, 0x3d,
0xeb, 0x76, 0x36, 0x36,
0xff, 0x65, 0x6f, 0x67,
0x6e, 0x87, 0xf8, 0x58,
0x1c, 0xba, 0x28, 0xf1,
0xfa, 0xd1, 0x9e, 0xa3,
0x3d, 0x34, 0x25, 0x24,
0xfe, 0xbe, 0xbe, 0xc7,
0x3b, 0xef, 0xe5, 0x5f,
0xc5, 0x3e, 0xe2, 0xca,
0xde, 0x3b, 0x33, 0xaf,
0x7a, 0x7d, 0xff, 0x6b,
0xf7, 0xdc, 0x9a, 0x7b,
0x09, 0xf6, 0xdb, 0xf5,
0x3f, 0xda, 0x66, 0x6e,
0x46, 0xfe, 0x1d, 0x9d,
0x78, 0x2c, 0x6c, 0xa7,
0xdf, 0x23, 0x7a, 0xce,
0x17, 0x7e, 0x26, 0x71,
0x8b, 0xa2, 0x77, 0xba,
0xc6, 0x39, 0x12, 0xe5,
0xcb, 0x3c, 0x26, 0x9f,
0x49, 0xc9, 0x91, 0x5d,
0xd2, 0x8e, 0xe5, 0x2c,
0x8e, 0xf7, 0xd7, 0x7d,
0x07, 0xc9, 0x2c, 0x77,
0x8a, 0x1a, 0x39, 0xae,
0xfd, 0xb3, 0x03, 0x67,
0xd0, 0xed, 0x59, 0xc5,
0x88, 0xe2, 0x0f, 0x9b,
0x5a, 0xb1, 0x5f, 0x65,
0xa5, 0xde, 0xbb, 0x61,
0x85, 0x4e, 0x36, 0x1a,
0xc9, 0xfc, 0xd9, 0x8a,
0xf7, 0x74, 0x46, 0xb6,
0xf7, 0xdd, 0x06, 0x84,
0x9e, 0xa1, 0x96, 0x30,
0x8d, 0xdf, 0x78, 0x1c,
0x4f, 0xc1, 0x33, 0x1e,
0x7d, 0xdf, 0x5e, 0x98,
0x36, 0x29, 0x3b, 0x3b,
0xea, 0x3c, 0x74, 0x6d,
0x59, 0x38, 0x59, 0x67,
0xbc, 0xf1, 0x43, 0xb7,
0x24, 0xad, 0x6e, 0xbe,
0xe2, 0x67, 0x96, 0xe3,
0x39, 0x98, 0xd1, 0xce,
0x61, 0x27, 0x97, 0x7c,
0x05, 0x1d, 0x94, 0xef,
0xb0, 0xee, 0x16, 0xfa,
0xbb, 0xf7, 0xc6, 0xfc,
0xc0, 0xe0, 0xbc, 0x8e,
0xfa, 0xaa, 0xb4, 0x6e,
0x77, 0x80, 0xc0, 0x2b,
0xa4, 0xbc, 0x55, 0xbc,
0x99, 0x3d, 0xb7, 0x97,
0x1d, 0x63, 0x7c, 0x20,
0x17, 0xcd, 0x33, 0x45,
0xa3, 0x13, 0x94, 0xff,
0x4f, 0xec, 0x43, 0x76,
0x60, 0x78, 0xfa, 0x95,
0xfe, 0x6a, 0x67, 0x6d,
0xe4, 0xed, 0xdd, 0xff,
0x6c, 0xe3, 0x7e, 0xe7,
0xe9, 0xfe, 0xd6, 0xbe,
0x14, 0x23, 0xaf, 0xfb,
0xab, 0x4d, 0x5b, 0x0d,
0xe1, 0xbb, 0xcd, 0xf6,
0xb2, 0xe0, 0x7c, 0x75,
0xfb, 0xa7, 0xb9, 0xca,
0x07, 0xbc, 0xb6, 0xfd,
0x03, 0x46, 0x48, 0x63,
0xc4, 0xbf, 0x93, 0x67,
0x28, 0x37, 0xf7, 0xf2,
0xfc, 0xef, 0xae, 0x9d,
0xbb, 0xfd, 0x97, 0x42,
0x6b, 0xdb, 0x20, 0xbb,
0xdb, 0x4f, 0xf9, 0xaf,
0x5c, 0xdc, 0xad, 0xff, };

static inline const int8_t* GetWEIGHTS_AND_BIASES_REGIONfc_lif_layer_1Pointer()
{
	return WEIGHTS_AND_BIASES_REGION_fc_lif_layer_1;
}


static inline const size_t GetWEIGHTS_AND_BIASES_REGIONfc_lif_layer_1Len()
{
	return sizeof(WEIGHTS_AND_BIASES_REGION_fc_lif_layer_1);
}


static int8_t SRAM_SCRATCH_REGION_fc_lif_layer_1 [194] __attribute__((section("model_params_dtcm"))) __attribute__((aligned(16)));

static inline int8_t* GetSRAM_SCRATCH_REGIONfc_lif_layer_1Pointer()
{
	return SRAM_SCRATCH_REGION_fc_lif_layer_1;
}


static inline const size_t GetSRAM_SCRATCH_REGIONfc_lif_layer_1Len()
{
	return sizeof(SRAM_SCRATCH_REGION_fc_lif_layer_1);
}


static int8_t SRAM_FAST_SCRATCH_REGION_fc_lif_layer_1 [0] __attribute__((section("model_params_dtcm"))) __attribute__((aligned(16)));

static inline int8_t* GetSRAM_FAST_SCRATCH_REGIONfc_lif_layer_1Pointer()
{
	return SRAM_FAST_SCRATCH_REGION_fc_lif_layer_1;
}


static inline const size_t GetSRAM_FAST_SCRATCH_REGIONfc_lif_layer_1Len()
{
	return sizeof(SRAM_FAST_SCRATCH_REGION_fc_lif_layer_1);
}


static const int8_t PARAMS_REGIONS_fc_lif_layer_1[] __attribute__((aligned(16))) =
{

// ln(beta)_quant
0, 0, 0, 0, 0, 0, 0, 0, 0, 
0, 0, 0, 0, 0, 0, 0, 0, 
0, 0, 0, 0, 0, 0, 0, 0, 
0, 0, 0, 0, 0, 0, 0, 0, 
0, 0, 0, 0, 0, 0, 0, 0, 
0, 0, 0, 0, 0, 0, 0, 0, 
0, 0, 0, 0, 0, 0, 0, 0, 
0, 0, 0, 0, 0, 0, 0, 
// vth_quant
0, 0, 0, 0, 0, 0, 0, 0, 0, 
0, 0, 0, 0, 0, 0, 0, 0, 
0, 0, 0, 0, 0, 0, 0, 0, 
0, 0, 0, 0, 0, 0, 0, 0, 
0, 0, 0, 0, 0, 0, 0, 0, 
0, 0, 0, 0, 0, 0, 0, 0, 
0, 0, 0, 0, 0, 0, 0, 0, 
0, 0, 0, 0, 0, 0, 0, };

static inline const int8_t* GetPARAMS_REGIONSfc_lif_layer_1Pointer()
{
	return PARAMS_REGIONS_fc_lif_layer_1;
}


static inline const size_t GetPARAMS_REGIONSfc_lif_layer_1Len()
{
	return sizeof(PARAMS_REGIONS_fc_lif_layer_1);
}


static const int8_t LUT_REGION_fc_lif_layer_1[] __attribute__((aligned(16))) =
{

//lut index 0
-29, 
-29, -28, -28, -28, -27, -27, -27, -26, 
-26, -25, -25, -24, -24, -24, -23, -23, 
-22, -22, -22, -21, -21, -20, -20, -20, 
-19, -19, -18, -18, -17, -17, -16, -16, 
-16, -15, -15, -14, -14, -13, -13, -12, 
-12, -12, -11, -11, -10, -10, -9, -9, 
-8, -8, -7, -7, -6, -6, -5, -5, 
-5, -4, -4, -3, -3, -2, -2, -1, 
-1, 0, 0, 1, 1, 2, 2, 3, 
3, 4, 5, 5, 6, 6, 7, 7, 
8, 8, 9, 9, 10, 10, 11, 11, 
12, 13, 13, 14, 14, 15, 15, 16, 
16, 17, 18, 18, 19, 19, 20, 20, 
21, 22, 22, 23, 23, 24, 25, 25, 
26, 26, 27, 28, 28, 29, 29, 30, 
31, 31, 32, 33, 33, 34, 34, 35, 
36, 36, 37, 38, 38, 39, 40, 40, 
41, 42, 42, 43, 44, 44, 45, 46, 
46, 47, 48, 48, 49, 50, 51, 51, 
52, 53, 53, 54, 55, 55, 56, 57, 
58, 58, 59, 60, 61, 61, 62, 63, 
64, 64, 65, 66, 67, 67, 68, 69, 
70, 70, 71, 72, 73, 74, 74, 75, 
76, 77, 78, 78, 79, 80, 81, 82, 
82, 83, 84, 85, 86, 87, 87, 88, 
89, 90, 91, 92, 93, 93, 94, 95, 
96, 97, 98, 99, 100, 101, 101, 102, 
103, 104, 105, 106, 107, 108, 109, 110, 
111, 112, 113, 113, 114, 115, 116, 117, 
118, 119, 120, 121, 122, 123, 124, 125, 
126, 127, 127, 127, 127, 127, 127, 127, 
127, 127, 127, 127, 127, 127, 127, 
//lut index 1
0, 
0, 0, 0, 0, 0, 0, 0, 0, 
0, 0, 0, 0, 0, 0, 0, 0, 
0, 0, 0, 0, 0, 0, 0, 0, 
0, 0, 0, 0, 0, 0, 0, 0, 
0, 0, 0, 0, 0, 0, 0, 0, 
0, 0, 0, 0, 0, 0, 0, 0, 
0, 0, 0, 0, 0, 0, 0, 0, 
0, 0, 0, 0, 0, 0, 0, 0, 
0, 0, 0, 0, 0, 0, 0, 0, 
0, 0, 0, 0, 0, 0, 0, 0, 
0, 0, 0, 0, 0, 0, 0, 0, 
0, 0, 0, 0, 0, 0, 0, 0, 
0, 0, 0, 0, 0, 0, 0, 0, 
0, 0, 0, 0, 0, 0, 0, 0, 
0, 0, 0, 0, 0, 0, 0, 0, 
0, 0, 0, 0, 0, 0, 0, 0, 
1, 1, 1, 1, 1, 1, 1, 1, 
1, 1, 1, 1, 1, 1, 1, 1, 
1, 1, 1, 1, 1, 1, 1, 1, 
1, 1, 1, 1, 1, 1, 1, 1, 
1, 1, 1, 1, 1, 1, 1, 1, 
1, 1, 1, 1, 1, 1, 1, 1, 
1, 1, 1, 1, 1, 1, 1, 1, 
1, 1, 1, 1, 1, 1, 1, 1, 
1, 1, 1, 1, 1, 1, 1, 1, 
1, 1, 1, 1, 1, 1, 1, 1, 
1, 1, 1, 1, 1, 1, 1, 1, 
1, 1, 1, 1, 1, 1, 1, 1, 
1, 1, 1, 1, 1, 1, 1, 1, 
1, 1, 1, 1, 1, 1, 1, 1, 
1, 1, 1, 1, 1, 1, 1, 1, 
1, 1, 1, 1, 1, 1, 1, 
};

static inline const int8_t* GetLUT_REGIONfc_lif_layer_1Pointer()
{
	return LUT_REGION_fc_lif_layer_1;
}


static inline const size_t GetLUT_REGIONfc_lif_layer_1Len()
{
	return sizeof(LUT_REGION_fc_lif_layer_1);
}


static int8_t OUTPUT_REGION_fc_lif_layer_1 [64] __attribute__((section("model_params_dtcm"))) __attribute__((aligned(16)));

static inline int8_t* GetOUTPUT_REGIONfc_lif_layer_1Pointer()
{
	return OUTPUT_REGION_fc_lif_layer_1;
}


static inline const size_t GetOUTPUT_REGIONfc_lif_layer_1Len()
{
	return sizeof(OUTPUT_REGION_fc_lif_layer_1);
}


char* name_fc_lif_layer_1 [15] =
{
	"WEIGHT",
	"v_mem_sub_vth",
	"DECAYED_MEM",
	"VTH",
	"TIME_NOT_UPDATED",
	"LN_BETA",
	"DECAY_ACC",
	"DECAY",
	"OUT_SPK",
	"IN_CURR",
	"V_MEM",
	"BIAS",
	"UPDATE_NXT_LAYER",
	"IN_SPK",
	"RESET",
};

size_t relative_addr_fc_lif_layer_1 [15] =
{
	640,
	0,
	0,
	64,
	192,
	0,
	0,
	0,
	0,
	64,
	128,
	0,
	193,
	0,
	64,
};

size_t region_fc_lif_layer_1 [15] =
{
	0,
	6,
	1,
	3,
	1,
	3,
	1,
	1,
	6,
	1,
	1,
	0,
	1,
	5,
	1,
};

size_t size_fc_lif_layer_1 [15] =
{
	3792,
	64,
	64,
	64,
	1,
	64,
	64,
	64,
	64,
	64,
	64,
	640,
	1,
	64,
	64,
};

float scale_fc_lif_layer_1 [15] =
{
	0.004288444332048005,
	0.00784313725490196,
	0.043137254901960784,
	0.0007843137254901964,
	0.06274509803921569,
	0.0007843137254901962,
	0.00392156862745098,
	0.0037254901960784314,
	1.0,
	0.07058823529411765,
	0.058823529411764705,
	0.004207639133228976,
	0.00392156862745098,
	1.0,
	0.004313725490196079,
};

int zero_point_fc_lif_layer_1 [15] =
{
	0,
	0,
	-35,
	-1275,
	-128,
	65,
	127,
	-128,
	0,
	0,
	-26,
	0,
	-128,
	0,
	-128,
};

static inline char** Getnamefc_lif_layer_1Pointer()
{
	return name_fc_lif_layer_1;
}


static inline size_t* Getrelative_addrfc_lif_layer_1Pointer()
{
	return relative_addr_fc_lif_layer_1;
}


static inline size_t* Getregionfc_lif_layer_1Pointer()
{
	return region_fc_lif_layer_1;
}


static inline size_t* Getsizefc_lif_layer_1Pointer()
{
	return size_fc_lif_layer_1;
}


static inline float* Getscalefc_lif_layer_1Pointer()
{
	return scale_fc_lif_layer_1;
}


static inline int* Getzero_pointfc_lif_layer_1Pointer()
{
	return zero_point_fc_lif_layer_1;
}

/*
Register Command Stream:
+---------------------------+-----------+-------------------------+
| Command Name              | Parameter | Payload Data            |
+---------------------------+-----------+-------------------------+
| NPU_SET_DMA0_SRC_REGION   | 4         | -                       |
| NPU_SET_DMA0_SRC          | 0         | 0x00000000 (0)          |
| NPU_SET_DMA0_DST_REGION   | 259       | -                       |
| NPU_SET_DMA0_DST          | 0         | 0x0000b800 (47104)      |
| NPU_SET_DMA0_LEN          | 0         | 0x00000100 (256)        |
| NPU_OP_DMA_START          | 0         | -                       |
| NPU_SET_OFM_SCALE         | 37        | 0x66cd339a (1724724122) |
| NPU_SET_IFM_REGION        | 3         | -                       |
| NPU_SET_IFM_BASE0         | 0         | 0x00000000 (0)          |
| NPU_SET_IFM_BASE1         | 0         | 0x00000000 (0)          |
| NPU_SET_IFM_BASE2         | 0         | 0x00000000 (0)          |
| NPU_SET_IFM_BASE3         | 0         | 0x00000000 (0)          |
| NPU_SET_IFM_HEIGHT0_M1    | 0         | -                       |
| NPU_SET_IFM_HEIGHT1_M1    | 65535     | -                       |
| NPU_SET_IFM_WIDTH0_M1     | 0         | -                       |
| NPU_SET_IFM_DEPTH_M1      | 63        | -                       |
| NPU_SET_IFM_STRIDE_C      | 0         | 0x00000001 (1)          |
| NPU_SET_IFM_STRIDE_Y      | 0         | 0x00000040 (64)         |
| NPU_SET_IFM_STRIDE_X      | 0         | 0x00000040 (64)         |
| NPU_SET_IFM_ZERO_POINT    | 65        | -                       |
| NPU_SET_IFM_PRECISION     | 1         | -                       |
| NPU_SET_IFM_UPSCALE       | 0         | -                       |
| NPU_SET_OFM_REGION        | 1         | -                       |
| NPU_SET_OFM_BASE0         | 0         | 0x00000000 (0)          |
| NPU_SET_OFM_BASE1         | 0         | 0x00000000 (0)          |
| NPU_SET_OFM_BASE2         | 0         | 0x00000000 (0)          |
| NPU_SET_OFM_BASE3         | 0         | 0x00000000 (0)          |
| NPU_SET_OFM_HEIGHT0_M1    | 0         | -                       |
| NPU_SET_OFM_HEIGHT1_M1    | 65535     | -                       |
| NPU_SET_OFM_WIDTH0_M1     | 0         | -                       |
| NPU_SET_OFM_HEIGHT_M1     | 0         | -                       |
| NPU_SET_OFM_WIDTH_M1      | 0         | -                       |
| NPU_SET_OFM_DEPTH_M1      | 63        | -                       |
| NPU_SET_OFM_STRIDE_C      | 0         | 0x00000010 (16)         |
| NPU_SET_OFM_STRIDE_Y      | 0         | 0x00000040 (64)         |
| NPU_SET_OFM_STRIDE_X      | 0         | 0x00000010 (16)         |
| NPU_SET_OFM_ZERO_POINT    | 127       | -                       |
| NPU_SET_OFM_PRECISION     | 321       | -                       |
| NPU_SET_ACTIVATION        | 16        | -                       |
| NPU_SET_ACTIVATION_MIN    | 65408     | -                       |
| NPU_SET_ACTIVATION_MAX    | 127       | -                       |
| NPU_SET_OFM_BLK_HEIGHT_M1 | 1         | -                       |
| NPU_SET_OFM_BLK_WIDTH_M1  | 1         | -                       |
| NPU_SET_OFM_BLK_DEPTH_M1  | 63        | -                       |
| NPU_SET_IFM_IB_END        | 46        | -                       |
| NPU_SET_AB_START          | 46        | -                       |
| NPU_SET_IFM2_IB_START     | 10        | -                       |
| NPU_SET_ACC_FORMAT        | 0         | -                       |
| NPU_SET_IFM2_REGION       | 1         | -                       |
| NPU_SET_IFM2_BASE0        | 0         | 0x000000c0 (192)        |
| NPU_SET_IFM2_BASE1        | 0         | 0x00000000 (0)          |
| NPU_SET_IFM2_BASE2        | 0         | 0x00000000 (0)          |
| NPU_SET_IFM2_BASE3        | 0         | 0x00000000 (0)          |
| NPU_SET_IFM2_HEIGHT0_M1   | 0         | -                       |
| NPU_SET_IFM2_HEIGHT1_M1   | 65535     | -                       |
| NPU_SET_IFM2_WIDTH0_M1    | 0         | -                       |
| NPU_SET_IFM2_STRIDE_C     | 0         | 0x00000001 (1)          |
| NPU_SET_IFM2_STRIDE_Y     | 0         | 0x00000001 (1)          |
| NPU_SET_IFM2_STRIDE_X     | 0         | 0x00000001 (1)          |
| NPU_SET_IFM2_ZERO_POINT   | 65408     | -                       |
| NPU_SET_IFM_PRECISION     | 1         | -                       |
| NPU_SET_IFM2_BROADCAST    | 4         | -                       |
| NPU_SET_BLOCKDEP          | 0         | -                       |
| NPU_OP_DMA_WAIT           | 0         | -                       |
| NPU_OP_ELEMENTWISE        | 0         | -                       |
| NPU_SET_IFM_REGION        | 5         | -                       |
| NPU_SET_IFM_ZERO_POINT    | 0         | -                       |
| NPU_SET_IFM_PAD_TOP       | 0         | -                       |
| NPU_SET_IFM_PAD_LEFT      | 0         | -                       |
| NPU_SET_IFM_PAD_BOTTOM    | 0         | -                       |
| NPU_SET_IFM_PAD_RIGHT     | 0         | -                       |
| NPU_SET_OFM_BASE0         | 0         | 0x00000040 (64)         |
| NPU_SET_OFM_ZERO_POINT    | 0         | -                       |
| NPU_SET_OFM_PRECISION     | 65        | -                       |
| NPU_SET_KERNEL_HEIGHT_M1  | 0         | -                       |
| NPU_SET_KERNEL_WIDTH_M1   | 0         | -                       |
| NPU_SET_KERNEL_STRIDE     | 0         | -                       |
| NPU_SET_WEIGHT_REGION     | 0         | -                       |
| NPU_SET_WEIGHT_BASE       | 0         | 0x00000280 (640)        |
| NPU_SET_WEIGHT_LENGTH     | 0         | 0x00000ed0 (3792)       |
| NPU_SET_SCALE_REGION      | 0         | -                       |
| NPU_SET_SCALE_BASE        | 0         | 0x00000000 (0)          |
| NPU_SET_SCALE_LENGTH      | 0         | 0x00000280 (640)        |
| NPU_SET_ACTIVATION        | 0         | -                       |
| NPU_SET_IFM_IB_END        | 10        | -                       |
| NPU_SET_AB_START          | 30        | -                       |
| NPU_SET_BLOCKDEP          | 3         | -                       |
| NPU_OP_CONV               | 0         | -                       |
| NPU_SET_OFM_SCALE         | 38        | 0x533bf625 (1396438565) |
| NPU_SET_IFM_REGION        | 1         | -                       |
| NPU_SET_IFM_BASE0         | 0         | 0x00000080 (128)        |
| NPU_SET_IFM_ZERO_POINT    | 65510     | -                       |
| NPU_SET_OFM_BASE0         | 0         | 0x00000000 (0)          |
| NPU_SET_OFM_ZERO_POINT    | 65501     | -                       |
| NPU_SET_OFM_PRECISION     | 321       | -                       |
| NPU_SET_IFM_IB_END        | 46        | -                       |
| NPU_SET_AB_START          | 46        | -                       |
| NPU_SET_IFM2_BASE0        | 0         | 0x00000000 (0)          |
| NPU_SET_IFM2_STRIDE_C     | 0         | 0x00000010 (16)         |
| NPU_SET_IFM2_STRIDE_Y     | 0         | 0x00000040 (64)         |
| NPU_SET_IFM2_STRIDE_X     | 0         | 0x00000010 (16)         |
| NPU_SET_IFM_PRECISION     | 65        | -                       |
| NPU_SET_IFM2_BROADCAST    | 0         | -                       |
| NPU_OP_ELEMENTWISE        | 0         | -                       |
| NPU_SET_OPA_SCALE         | 12        | 0x4e38e38e (1312351118) |
| NPU_SET_OPB_SCALE         | 0         | 0x00000000 (0)          |
| NPU_SET_OFM_SCALE         | 49        | 0x4ccccccd (1288490189) |
| NPU_SET_IFM_BASE0         | 0         | 0x00000000 (0)          |
| NPU_SET_IFM_STRIDE_C      | 0         | 0x00000010 (16)         |
| NPU_SET_IFM_STRIDE_X      | 0         | 0x00000010 (16)         |
| NPU_SET_IFM_ZERO_POINT    | 65501     | -                       |
| NPU_SET_IFM_PRECISION     | 321       | -                       |
| NPU_SET_OFM_BASE0         | 0         | 0x00000080 (128)        |
| NPU_SET_OFM_STRIDE_C      | 0         | 0x00000001 (1)          |
| NPU_SET_OFM_STRIDE_X      | 0         | 0x00000040 (64)         |
| NPU_SET_OFM_ZERO_POINT    | 65510     | -                       |
| NPU_SET_OFM_PRECISION     | 257       | -                       |
| NPU_SET_IFM2_BASE0        | 0         | 0x00000040 (64)         |
| NPU_SET_IFM2_ZERO_POINT   | 0         | -                       |
| NPU_SET_BLOCKDEP          | 0         | -                       |
| NPU_OP_ELEMENTWISE        | 1         | -                       |
| NPU_SET_DMA0_SRC          | 0         | 0x00000100 (256)        |
| NPU_SET_DMA0_DST          | 0         | 0x0000b900 (47360)      |
| NPU_OP_DMA_START          | 0         | -                       |
| NPU_SET_OPA_SCALE         | 18        | 0x6d3a06d4 (1832519380) |
| NPU_SET_OFM_SCALE         | 47        | 0x78000000 (2013265920) |
| NPU_SET_IFM_BASE0         | 0         | 0x00000080 (128)        |
| NPU_SET_IFM_STRIDE_C      | 0         | 0x00000001 (1)          |
| NPU_SET_IFM_STRIDE_X      | 0         | 0x00000040 (64)         |
| NPU_SET_IFM_ZERO_POINT    | 65510     | -                       |
| NPU_SET_IFM_PRECISION     | 513       | -                       |
| NPU_SET_OFM_REGION        | 6         | -                       |
| NPU_SET_OFM_BASE0         | 0         | 0x00000000 (0)          |
| NPU_SET_OFM_ZERO_POINT    | 0         | -                       |
| NPU_SET_ACTIVATION        | 17        | -                       |
| NPU_SET_IFM2_REGION       | 3         | -                       |
| NPU_SET_IFM2_STRIDE_C     | 0         | 0x00000001 (1)          |
| NPU_SET_IFM2_STRIDE_X     | 0         | 0x00000040 (64)         |
| NPU_SET_IFM2_ZERO_POINT   | 64261     | -                       |
| NPU_SET_IFM_PRECISION     | 1         | -                       |
| NPU_OP_DMA_WAIT           | 0         | -                       |
| NPU_OP_ELEMENTWISE        | 2         | -                       |
| NPU_SET_OFM_SCALE         | 33        | 0x5d1745d1 (1561806289) |
| NPU_SET_IFM_REGION        | 3         | -                       |
| NPU_SET_IFM_BASE0         | 0         | 0x00000040 (64)         |
| NPU_SET_IFM_ZERO_POINT    | 64261     | -                       |
| NPU_SET_IFM_PRECISION     | 1         | -                       |
| NPU_SET_OFM_REGION        | 1         | -                       |
| NPU_SET_OFM_BASE0         | 0         | 0x00000040 (64)         |
| NPU_SET_OFM_STRIDE_C      | 0         | 0x00000010 (16)         |
| NPU_SET_OFM_STRIDE_X      | 0         | 0x00000010 (16)         |
| NPU_SET_OFM_ZERO_POINT    | 65408     | -                       |
| NPU_SET_OFM_PRECISION     | 321       | -                       |
| NPU_SET_ACTIVATION        | 0         | -                       |
| NPU_SET_IFM2_REGION       | 6         | -                       |
| NPU_SET_IFM2_BASE0        | 0         | 0x00000000 (0)          |
| NPU_SET_IFM2_ZERO_POINT   | 0         | -                       |
| NPU_OP_ELEMENTWISE        | 0         | -                       |
| NPU_SET_OPA_SCALE         | 15        | 0x4b17e4b1 (1259857073) |
| NPU_SET_OFM_SCALE         | 49        | 0x40000000 (1073741824) |
| NPU_SET_IFM_REGION        | 1         | -                       |
| NPU_SET_IFM_BASE0         | 0         | 0x00000080 (128)        |
| NPU_SET_IFM_ZERO_POINT    | 65510     | -                       |
| NPU_SET_IFM_PRECISION     | 513       | -                       |
| NPU_SET_OFM_BASE0         | 0         | 0x00000080 (128)        |
| NPU_SET_OFM_STRIDE_C      | 0         | 0x00000001 (1)          |
| NPU_SET_OFM_STRIDE_X      | 0         | 0x00000040 (64)         |
| NPU_SET_OFM_ZERO_POINT    | 65510     | -                       |
| NPU_SET_OFM_PRECISION     | 257       | -                       |
| NPU_SET_IFM2_REGION       | 1         | -                       |
| NPU_SET_IFM2_BASE0        | 0         | 0x00000040 (64)         |
| NPU_SET_IFM2_STRIDE_C     | 0         | 0x00000010 (16)         |
| NPU_SET_IFM2_STRIDE_X     | 0         | 0x00000010 (16)         |
| NPU_SET_IFM2_ZERO_POINT   | 65408     | -                       |
| NPU_SET_IFM_PRECISION     | 65        | -                       |
| NPU_OP_ELEMENTWISE        | 2         | -                       |
| NPU_SET_IFM_REGION        | 6         | -                       |
| NPU_SET_IFM_BASE0         | 0         | 0x00000000 (0)          |
| NPU_SET_IFM_ZERO_POINT    | 0         | -                       |
| NPU_SET_IFM_PRECISION     | 1         | -                       |
| NPU_SET_OFM_BASE0         | 0         | 0x000000c1 (193)        |
| NPU_SET_OFM_DEPTH_M1      | 0         | -                       |
| NPU_SET_OFM_STRIDE_Y      | 0         | 0x00000001 (1)          |
| NPU_SET_OFM_STRIDE_X      | 0         | 0x00000001 (1)          |
| NPU_SET_OFM_ZERO_POINT    | 65408     | -                       |
| NPU_SET_OFM_BLK_DEPTH_M1  | 7         | -                       |
| NPU_SET_IFM_IB_END        | 10        | -                       |
| NPU_SET_AB_START          | 30        | -                       |
| NPU_SET_OFM_SCALE         | 22        | 0x3fc000ff (1069547775) |
| NPU_SET_BLOCKDEP          | 3         | -                       |
| NPU_OP_POOL               | 2         | -                       |
| NPU_SET_OFM_SCALE         | 30        | 0x40000000 (1073741824) |
| NPU_SET_IFM_REGION        | 1         | -                       |
| NPU_SET_IFM_BASE0         | 0         | 0x000000c0 (192)        |
| NPU_SET_IFM_DEPTH_M1      | 0         | -                       |
| NPU_SET_IFM_STRIDE_Y      | 0         | 0x00000001 (1)          |
| NPU_SET_IFM_STRIDE_X      | 0         | 0x00000001 (1)          |
| NPU_SET_IFM_ZERO_POINT    | 65408     | -                       |
| NPU_SET_OFM_BASE0         | 0         | 0x000000c0 (192)        |
| NPU_SET_IFM_IB_END        | 46        | -                       |
| NPU_SET_AB_START          | 46        | -                       |
| NPU_SET_IFM2_ZERO_POINT   | 0         | -                       |
| NPU_SET_IFM_PRECISION     | 0         | -                       |
| NPU_SET_IFM2_BROADCAST    | 128       | -                       |
| NPU_SET_IFM2_SCALAR       | 0         | -                       |
| NPU_OP_ELEMENTWISE        | 0         | -                       |
| NPU_OP_STOP               | 65535     | -                       |
+---------------------------+-----------+-------------------------+
*/
