#pragma once
#include <stddef.h>
#include <stdint.h>




// Tensor sizes

#define FC_LIF_LAYER_1_IS_LAST_LAYER 0
#define FC_LIF_LAYER_1_MAX_NUM_TENSORS_TO_TRACK 8
#define FC_LIF_LAYER_1_TENSOR_ARENA_SIZE  208
#define FC_LIF_LAYER_1_INPUT_LAYER_SIZE  64
#define FC_LIF_LAYER_1_OUTPUT_LAYER_SIZE  64
#define FC_LIF_LAYER_1_WEIGHT_LEN 3216
#define FC_LIF_LAYER_1_BIAS_LEN 640

// Input/output addresses (Relative Addressing)

#define FC_LIF_LAYER_1_IN_SPK_ADDR 0
#define FC_LIF_LAYER_1_BIAS_ADDR 0
#define FC_LIF_LAYER_1_WEIGHT_ADDR 640
#define FC_LIF_LAYER_1_LN_BETA_ADDR 0
#define FC_LIF_LAYER_1_VTH_ADDR 64
#define FC_LIF_LAYER_1_V_MEM_ADDR 128
#define FC_LIF_LAYER_1_TIME_NOT_UPDATED_ADDR 192
#define FC_LIF_LAYER_1_IN_CURR_ADDR 64
#define FC_LIF_LAYER_1_DECAY_ADDR 0
#define FC_LIF_LAYER_1_DECAYED_MEM_ADDR 0
#define FC_LIF_LAYER_1_UPDATE_NXT_LAYER_ADDR 193
#define FC_LIF_LAYER_1_OUT_SPK_ADDR 0
#define FC_LIF_LAYER_1_OUT_SPK_SUM_ADDR -1

//Quantization Params

#define FC_LIF_LAYER_1_IN_SPK_SCALE 1.0
#define FC_LIF_LAYER_1_IN_SPK_ZERO_POINT 0
#define FC_LIF_LAYER_1_BIAS_SCALE 0.011599599426867916
#define FC_LIF_LAYER_1_BIAS_ZERO_POINT 0
#define FC_LIF_LAYER_1_WEIGHT_SCALE 0.011599599426867916
#define FC_LIF_LAYER_1_WEIGHT_ZERO_POINT 0
#define FC_LIF_LAYER_1_LN_BETA_SCALE 0.0007843137254901962
#define FC_LIF_LAYER_1_LN_BETA_ZERO_POINT 65
#define FC_LIF_LAYER_1_VTH_SCALE 0.0007843137254901964
#define FC_LIF_LAYER_1_VTH_ZERO_POINT -1275
#define FC_LIF_LAYER_1_V_MEM_SCALE 0.058823529411764705
#define FC_LIF_LAYER_1_V_MEM_ZERO_POINT -26
#define FC_LIF_LAYER_1_TIME_NOT_UPDATED_SCALE 0.06274509803921569
#define FC_LIF_LAYER_1_TIME_NOT_UPDATED_ZERO_POINT -128
#define FC_LIF_LAYER_1_DECAY_SCALE 0.0037254901960784314
#define FC_LIF_LAYER_1_DECAY_ZERO_POINT -128
#define FC_LIF_LAYER_1_IN_CURR_SCALE 0.07058823529411765
#define FC_LIF_LAYER_1_IN_CURR_ZERO_POINT 0
#define FC_LIF_LAYER_1_DECAYED_MEM_SCALE 0.043137254901960784
#define FC_LIF_LAYER_1_DECAYED_MEM_ZERO_POINT -35
#define FC_LIF_LAYER_1_UPDATE_NXT_LAYER_SCALE 0.00392156862745098
#define FC_LIF_LAYER_1_UPDATE_NXT_LAYER_ZERO_POINT -128
#define FC_LIF_LAYER_1_OUT_SPK_SCALE 1.0
#define FC_LIF_LAYER_1_OUT_SPK_ZERO_POINT 0
#define FC_LIF_LAYER_1_OUT_SPK_SUM_SCALE 0
#define FC_LIF_LAYER_1_OUT_SPK_SUM_ZERO_POINT 0











static const uint8_t cms_fc_lif_layer_1[] __attribute__((aligned(16))) = 
{

0x43, 0x4f, 0x50, 0x31,
0x01, 0x00, 0x10, 0x00,
0x08, 0x30, 0x00, 0x00,
0x00, 0x00, 0x06, 0x10,
0x05, 0x00, 0x00, 0x00,
0x05, 0x00, 0x00, 0x00,
0x05, 0x00, 0x00, 0x00,
0x02, 0x00, 0x2a, 0x01,
0x30, 0x01, 0x04, 0x00,
0x30, 0x40, 0x00, 0x00,
0x00, 0x00, 0x00, 0x00,
0x31, 0x01, 0x03, 0x01,
0x31, 0x40, 0x00, 0x00,
0x00, 0xb8, 0x00, 0x00,
0x32, 0x40, 0x00, 0x00,
0x00, 0x01, 0x00, 0x00,
0x10, 0x00, 0x00, 0x00,
0x24, 0x40, 0x25, 0x00,
0x9a, 0x33, 0xcd, 0x66,
0x0f, 0x01, 0x03, 0x00,
0x00, 0x40, 0x00, 0x00,
0x00, 0x00, 0x00, 0x00,
0x01, 0x40, 0x00, 0x00,
0x00, 0x00, 0x00, 0x00,
0x02, 0x40, 0x00, 0x00,
0x00, 0x00, 0x00, 0x00,
0x03, 0x40, 0x00, 0x00,
0x00, 0x00, 0x00, 0x00,
0x0b, 0x01, 0x00, 0x00,
0x0c, 0x01, 0xff, 0xff,
0x0a, 0x01, 0x00, 0x00,
0x04, 0x01, 0x3f, 0x00,
0x06, 0x40, 0x00, 0x00,
0x01, 0x00, 0x00, 0x00,
0x05, 0x40, 0x00, 0x00,
0x40, 0x00, 0x00, 0x00,
0x04, 0x40, 0x00, 0x00,
0x40, 0x00, 0x00, 0x00,
0x09, 0x01, 0x41, 0x00,
0x05, 0x01, 0x01, 0x00,
0x07, 0x01, 0x00, 0x00,
0x1f, 0x01, 0x01, 0x00,
0x10, 0x40, 0x00, 0x00,
0x00, 0x00, 0x00, 0x00,
0x11, 0x40, 0x00, 0x00,
0x00, 0x00, 0x00, 0x00,
0x12, 0x40, 0x00, 0x00,
0x00, 0x00, 0x00, 0x00,
0x13, 0x40, 0x00, 0x00,
0x00, 0x00, 0x00, 0x00,
0x1b, 0x01, 0x00, 0x00,
0x1c, 0x01, 0xff, 0xff,
0x1a, 0x01, 0x00, 0x00,
0x12, 0x01, 0x00, 0x00,
0x11, 0x01, 0x00, 0x00,
0x13, 0x01, 0x3f, 0x00,
0x16, 0x40, 0x00, 0x00,
0x10, 0x00, 0x00, 0x00,
0x15, 0x40, 0x00, 0x00,
0x40, 0x00, 0x00, 0x00,
0x14, 0x40, 0x00, 0x00,
0x10, 0x00, 0x00, 0x00,
0x18, 0x01, 0x7f, 0x00,
0x14, 0x01, 0x41, 0x01,
0x25, 0x01, 0x10, 0x00,
0x26, 0x01, 0x80, 0xff,
0x27, 0x01, 0x7f, 0x00,
0x16, 0x01, 0x01, 0x00,
0x15, 0x01, 0x01, 0x00,
0x17, 0x01, 0x3f, 0x00,
0x0d, 0x01, 0x2e, 0x00,
0x2d, 0x01, 0x2e, 0x00,
0x8d, 0x01, 0x0a, 0x00,
0x24, 0x01, 0x00, 0x00,
0x8f, 0x01, 0x01, 0x00,
0x80, 0x40, 0x00, 0x00,
0xc0, 0x00, 0x00, 0x00,
0x81, 0x40, 0x00, 0x00,
0x00, 0x00, 0x00, 0x00,
0x82, 0x40, 0x00, 0x00,
0x00, 0x00, 0x00, 0x00,
0x83, 0x40, 0x00, 0x00,
0x00, 0x00, 0x00, 0x00,
0x8b, 0x01, 0x00, 0x00,
0x8c, 0x01, 0xff, 0xff,
0x8a, 0x01, 0x00, 0x00,
0x86, 0x40, 0x00, 0x00,
0x01, 0x00, 0x00, 0x00,
0x85, 0x40, 0x00, 0x00,
0x01, 0x00, 0x00, 0x00,
0x84, 0x40, 0x00, 0x00,
0x01, 0x00, 0x00, 0x00,
0x89, 0x01, 0x80, 0xff,
0x85, 0x01, 0x01, 0x00,
0x80, 0x01, 0x04, 0x00,
0x2f, 0x01, 0x00, 0x00,
0x11, 0x00, 0x00, 0x00,
0x06, 0x00, 0x00, 0x00,
0x0f, 0x01, 0x05, 0x00,
0x09, 0x01, 0x00, 0x00,
0x00, 0x01, 0x00, 0x00,
0x01, 0x01, 0x00, 0x00,
0x03, 0x01, 0x00, 0x00,
0x02, 0x01, 0x00, 0x00,
0x10, 0x40, 0x00, 0x00,
0x40, 0x00, 0x00, 0x00,
0x18, 0x01, 0x00, 0x00,
0x14, 0x01, 0x41, 0x00,
0x21, 0x01, 0x00, 0x00,
0x20, 0x01, 0x00, 0x00,
0x22, 0x01, 0x00, 0x00,
0x28, 0x01, 0x00, 0x00,
0x20, 0x40, 0x00, 0x00,
0x80, 0x02, 0x00, 0x00,
0x21, 0x40, 0x00, 0x00,
0x90, 0x0c, 0x00, 0x00,
0x29, 0x01, 0x00, 0x00,
0x22, 0x40, 0x00, 0x00,
0x00, 0x00, 0x00, 0x00,
0x23, 0x40, 0x00, 0x00,
0x80, 0x02, 0x00, 0x00,
0x25, 0x01, 0x00, 0x00,
0x0d, 0x01, 0x0a, 0x00,
0x2d, 0x01, 0x1e, 0x00,
0x2f, 0x01, 0x03, 0x00,
0x02, 0x00, 0x00, 0x00,
0x24, 0x40, 0x26, 0x00,
0x25, 0xf6, 0x3b, 0x53,
0x0f, 0x01, 0x01, 0x00,
0x00, 0x40, 0x00, 0x00,
0x80, 0x00, 0x00, 0x00,
0x09, 0x01, 0xe6, 0xff,
0x10, 0x40, 0x00, 0x00,
0x00, 0x00, 0x00, 0x00,
0x18, 0x01, 0xdd, 0xff,
0x14, 0x01, 0x41, 0x01,
0x0d, 0x01, 0x2e, 0x00,
0x2d, 0x01, 0x2e, 0x00,
0x80, 0x40, 0x00, 0x00,
0x00, 0x00, 0x00, 0x00,
0x86, 0x40, 0x00, 0x00,
0x10, 0x00, 0x00, 0x00,
0x85, 0x40, 0x00, 0x00,
0x40, 0x00, 0x00, 0x00,
0x84, 0x40, 0x00, 0x00,
0x10, 0x00, 0x00, 0x00,
0x85, 0x01, 0x41, 0x00,
0x80, 0x01, 0x00, 0x00,
0x06, 0x00, 0x00, 0x00,
0x25, 0x40, 0x0c, 0x00,
0x8e, 0xe3, 0x38, 0x4e,
0x26, 0x40, 0x00, 0x00,
0x00, 0x00, 0x00, 0x00,
0x24, 0x40, 0x31, 0x00,
0xcd, 0xcc, 0xcc, 0x4c,
0x00, 0x40, 0x00, 0x00,
0x00, 0x00, 0x00, 0x00,
0x06, 0x40, 0x00, 0x00,
0x10, 0x00, 0x00, 0x00,
0x04, 0x40, 0x00, 0x00,
0x10, 0x00, 0x00, 0x00,
0x09, 0x01, 0xdd, 0xff,
0x05, 0x01, 0x41, 0x01,
0x10, 0x40, 0x00, 0x00,
0x80, 0x00, 0x00, 0x00,
0x18, 0x01, 0xe6, 0xff,
0x80, 0x40, 0x00, 0x00,
0x40, 0x00, 0x00, 0x00,
0x89, 0x01, 0x00, 0x00,
0x2f, 0x01, 0x00, 0x00,
0x06, 0x00, 0x01, 0x00,
0x30, 0x40, 0x00, 0x00,
0x00, 0x01, 0x00, 0x00,
0x31, 0x40, 0x00, 0x00,
0x00, 0xb9, 0x00, 0x00,
0x10, 0x00, 0x00, 0x00,
0x25, 0x40, 0x12, 0x00,
0xd4, 0x06, 0x3a, 0x6d,
0x24, 0x40, 0x2f, 0x00,
0x00, 0x00, 0x00, 0x78,
0x00, 0x40, 0x00, 0x00,
0x80, 0x00, 0x00, 0x00,
0x09, 0x01, 0xe6, 0xff,
0x05, 0x01, 0x41, 0x02,
0x1f, 0x01, 0x06, 0x00,
0x10, 0x40, 0x00, 0x00,
0x00, 0x00, 0x00, 0x00,
0x16, 0x40, 0x00, 0x00,
0x01, 0x00, 0x00, 0x00,
0x14, 0x40, 0x00, 0x00,
0x40, 0x00, 0x00, 0x00,
0x18, 0x01, 0x00, 0x00,
0x14, 0x01, 0x01, 0x01,
0x25, 0x01, 0x11, 0x00,
0x8f, 0x01, 0x03, 0x00,
0x86, 0x40, 0x00, 0x00,
0x01, 0x00, 0x00, 0x00,
0x84, 0x40, 0x00, 0x00,
0x40, 0x00, 0x00, 0x00,
0x89, 0x01, 0x05, 0xfb,
0x85, 0x01, 0x01, 0x00,
0x11, 0x00, 0x00, 0x00,
0x06, 0x00, 0x02, 0x00,
0x24, 0x40, 0x21, 0x00,
0xd1, 0x45, 0x17, 0x5d,
0x0f, 0x01, 0x03, 0x00,
0x00, 0x40, 0x00, 0x00,
0x40, 0x00, 0x00, 0x00,
0x06, 0x40, 0x00, 0x00,
0x01, 0x00, 0x00, 0x00,
0x04, 0x40, 0x00, 0x00,
0x40, 0x00, 0x00, 0x00,
0x09, 0x01, 0x05, 0xfb,
0x05, 0x01, 0x01, 0x00,
0x1f, 0x01, 0x01, 0x00,
0x10, 0x40, 0x00, 0x00,
0x40, 0x00, 0x00, 0x00,
0x16, 0x40, 0x00, 0x00,
0x10, 0x00, 0x00, 0x00,
0x14, 0x40, 0x00, 0x00,
0x10, 0x00, 0x00, 0x00,
0x18, 0x01, 0x80, 0xff,
0x14, 0x01, 0x41, 0x01,
0x25, 0x01, 0x00, 0x00,
0x8f, 0x01, 0x06, 0x00,
0x80, 0x40, 0x00, 0x00,
0x00, 0x00, 0x00, 0x00,
0x89, 0x01, 0x00, 0x00,
0x06, 0x00, 0x00, 0x00,
0x25, 0x40, 0x0f, 0x00,
0xb1, 0xe4, 0x17, 0x4b,
0x24, 0x40, 0x31, 0x00,
0x00, 0x00, 0x00, 0x40,
0x0f, 0x01, 0x01, 0x00,
0x00, 0x40, 0x00, 0x00,
0x80, 0x00, 0x00, 0x00,
0x06, 0x40, 0x00, 0x00,
0x10, 0x00, 0x00, 0x00,
0x04, 0x40, 0x00, 0x00,
0x10, 0x00, 0x00, 0x00,
0x09, 0x01, 0xe6, 0xff,
0x05, 0x01, 0x41, 0x02,
0x10, 0x40, 0x00, 0x00,
0x80, 0x00, 0x00, 0x00,
0x16, 0x40, 0x00, 0x00,
0x01, 0x00, 0x00, 0x00,
0x14, 0x40, 0x00, 0x00,
0x40, 0x00, 0x00, 0x00,
0x18, 0x01, 0xe6, 0xff,
0x14, 0x01, 0x01, 0x01,
0x8f, 0x01, 0x01, 0x00,
0x80, 0x40, 0x00, 0x00,
0x40, 0x00, 0x00, 0x00,
0x86, 0x40, 0x00, 0x00,
0x10, 0x00, 0x00, 0x00,
0x84, 0x40, 0x00, 0x00,
0x10, 0x00, 0x00, 0x00,
0x89, 0x01, 0x80, 0xff,
0x85, 0x01, 0x41, 0x00,
0x06, 0x00, 0x02, 0x00,
0x0f, 0x01, 0x06, 0x00,
0x00, 0x40, 0x00, 0x00,
0x00, 0x00, 0x00, 0x00,
0x06, 0x40, 0x00, 0x00,
0x01, 0x00, 0x00, 0x00,
0x04, 0x40, 0x00, 0x00,
0x40, 0x00, 0x00, 0x00,
0x09, 0x01, 0x00, 0x00,
0x05, 0x01, 0x01, 0x00,
0x10, 0x40, 0x00, 0x00,
0xc1, 0x00, 0x00, 0x00,
0x13, 0x01, 0x00, 0x00,
0x15, 0x40, 0x00, 0x00,
0x01, 0x00, 0x00, 0x00,
0x14, 0x40, 0x00, 0x00,
0x01, 0x00, 0x00, 0x00,
0x18, 0x01, 0x80, 0xff,
0x17, 0x01, 0x07, 0x00,
0x0d, 0x01, 0x0a, 0x00,
0x2d, 0x01, 0x1e, 0x00,
0x24, 0x40, 0x16, 0x00,
0xff, 0x00, 0xc0, 0x3f,
0x2f, 0x01, 0x03, 0x00,
0x05, 0x00, 0x02, 0x00,
0x24, 0x40, 0x1e, 0x00,
0x00, 0x00, 0x00, 0x40,
0x0f, 0x01, 0x01, 0x00,
0x00, 0x40, 0x00, 0x00,
0xc0, 0x00, 0x00, 0x00,
0x04, 0x01, 0x00, 0x00,
0x05, 0x40, 0x00, 0x00,
0x01, 0x00, 0x00, 0x00,
0x04, 0x40, 0x00, 0x00,
0x01, 0x00, 0x00, 0x00,
0x09, 0x01, 0x80, 0xff,
0x10, 0x40, 0x00, 0x00,
0xc0, 0x00, 0x00, 0x00,
0x27, 0x01, 0x80, 0xff,
0x0d, 0x01, 0x2e, 0x00,
0x2d, 0x01, 0x2e, 0x00,
0x89, 0x01, 0x00, 0x00,
0x85, 0x01, 0x00, 0x00,
0x80, 0x01, 0x80, 0x00,
0x81, 0x01, 0x00, 0x00,
0x06, 0x00, 0x00, 0x00,
0x00, 0x00, 0xff, 0xff, 

};







static inline const uint8_t * Getfc_lif_layer_1CMSPointer()
{
	return cms_fc_lif_layer_1;
}

static inline size_t Getfc_lif_layer_1CMSLen()
{
	return sizeof(cms_fc_lif_layer_1);
}





static const int8_t weight_fc_lif_layer_1[] __attribute__((aligned(16))) = 
{

//biases
0xe6, 0xff, 0xff, 0xff,
0xff, 0x3f, 0xc1, 0x22,
0x54, 0x21, 0xfa, 0xff,
0xff, 0xff, 0xff, 0x3f,
0xc1, 0x22, 0x54, 0x21,
0xe7, 0xff, 0xff, 0xff,
0xff, 0x3f, 0xc1, 0x22,
0x54, 0x21, 0xed, 0xff,
0xff, 0xff, 0xff, 0x3f,
0xc1, 0x22, 0x54, 0x21,
0xe2, 0xff, 0xff, 0xff,
0xff, 0x3f, 0xc1, 0x22,
0x54, 0x21, 0xeb, 0xff,
0xff, 0xff, 0xff, 0x3f,
0xc1, 0x22, 0x54, 0x21,
0xeb, 0xff, 0xff, 0xff,
0xff, 0x3f, 0xc1, 0x22,
0x54, 0x21, 0xef, 0xff,
0xff, 0xff, 0xff, 0x3f,
0xc1, 0x22, 0x54, 0x21,
0xf1, 0xff, 0xff, 0xff,
0xff, 0x3f, 0xc1, 0x22,
0x54, 0x21, 0xdd, 0xff,
0xff, 0xff, 0xff, 0x3f,
0xc1, 0x22, 0x54, 0x21,
0xfd, 0xff, 0xff, 0xff,
0xff, 0x3f, 0xc1, 0x22,
0x54, 0x21, 0x02, 0x00,
0x00, 0x00, 0x00, 0x3f,
0xc1, 0x22, 0x54, 0x21,
0xd8, 0xff, 0xff, 0xff,
0xff, 0x3f, 0xc1, 0x22,
0x54, 0x21, 0xfc, 0xff,
0xff, 0xff, 0xff, 0x3f,
0xc1, 0x22, 0x54, 0x21,
0xe1, 0xff, 0xff, 0xff,
0xff, 0x3f, 0xc1, 0x22,
0x54, 0x21, 0xf8, 0xff,
0xff, 0xff, 0xff, 0x3f,
0xc1, 0x22, 0x54, 0x21,
0xdd, 0xff, 0xff, 0xff,
0xff, 0x3f, 0xc1, 0x22,
0x54, 0x21, 0xed, 0xff,
0xff, 0xff, 0xff, 0x3f,
0xc1, 0x22, 0x54, 0x21,
0xef, 0xff, 0xff, 0xff,
0xff, 0x3f, 0xc1, 0x22,
0x54, 0x21, 0xe7, 0xff,
0xff, 0xff, 0xff, 0x3f,
0xc1, 0x22, 0x54, 0x21,
0xfd, 0xff, 0xff, 0xff,
0xff, 0x3f, 0xc1, 0x22,
0x54, 0x21, 0xed, 0xff,
0xff, 0xff, 0xff, 0x3f,
0xc1, 0x22, 0x54, 0x21,
0xf9, 0xff, 0xff, 0xff,
0xff, 0x3f, 0xc1, 0x22,
0x54, 0x21, 0xd8, 0xff,
0xff, 0xff, 0xff, 0x3f,
0xc1, 0x22, 0x54, 0x21,
0xf5, 0xff, 0xff, 0xff,
0xff, 0x3f, 0xc1, 0x22,
0x54, 0x21, 0xf1, 0xff,
0xff, 0xff, 0xff, 0x3f,
0xc1, 0x22, 0x54, 0x21,
0xe8, 0xff, 0xff, 0xff,
0xff, 0x3f, 0xc1, 0x22,
0x54, 0x21, 0xe8, 0xff,
0xff, 0xff, 0xff, 0x3f,
0xc1, 0x22, 0x54, 0x21,
0xe3, 0xff, 0xff, 0xff,
0xff, 0x3f, 0xc1, 0x22,
0x54, 0x21, 0xf8, 0xff,
0xff, 0xff, 0xff, 0x3f,
0xc1, 0x22, 0x54, 0x21,
0xee, 0xff, 0xff, 0xff,
0xff, 0x3f, 0xc1, 0x22,
0x54, 0x21, 0xff, 0xff,
0xff, 0xff, 0xff, 0x3f,
0xc1, 0x22, 0x54, 0x21,
0xf2, 0xff, 0xff, 0xff,
0xff, 0x3f, 0xc1, 0x22,
0x54, 0x21, 0x04, 0x00,
0x00, 0x00, 0x00, 0x3f,
0xc1, 0x22, 0x54, 0x21,
0xf1, 0xff, 0xff, 0xff,
0xff, 0x3f, 0xc1, 0x22,
0x54, 0x21, 0xe4, 0xff,
0xff, 0xff, 0xff, 0x3f,
0xc1, 0x22, 0x54, 0x21,
0xe2, 0xff, 0xff, 0xff,
0xff, 0x3f, 0xc1, 0x22,
0x54, 0x21, 0xf1, 0xff,
0xff, 0xff, 0xff, 0x3f,
0xc1, 0x22, 0x54, 0x21,
0xe1, 0xff, 0xff, 0xff,
0xff, 0x3f, 0xc1, 0x22,
0x54, 0x21, 0xe3, 0xff,
0xff, 0xff, 0xff, 0x3f,
0xc1, 0x22, 0x54, 0x21,
0xf0, 0xff, 0xff, 0xff,
0xff, 0x3f, 0xc1, 0x22,
0x54, 0x21, 0xf1, 0xff,
0xff, 0xff, 0xff, 0x3f,
0xc1, 0x22, 0x54, 0x21,
0xd7, 0xff, 0xff, 0xff,
0xff, 0x3f, 0xc1, 0x22,
0x54, 0x21, 0xed, 0xff,
0xff, 0xff, 0xff, 0x3f,
0xc1, 0x22, 0x54, 0x21,
0xee, 0xff, 0xff, 0xff,
0xff, 0x3f, 0xc1, 0x22,
0x54, 0x21, 0xea, 0xff,
0xff, 0xff, 0xff, 0x3f,
0xc1, 0x22, 0x54, 0x21,
0xed, 0xff, 0xff, 0xff,
0xff, 0x3f, 0xc1, 0x22,
0x54, 0x21, 0xdc, 0xff,
0xff, 0xff, 0xff, 0x3f,
0xc1, 0x22, 0x54, 0x21,
0xfe, 0xff, 0xff, 0xff,
0xff, 0x3f, 0xc1, 0x22,
0x54, 0x21, 0xef, 0xff,
0xff, 0xff, 0xff, 0x3f,
0xc1, 0x22, 0x54, 0x21,
0xec, 0xff, 0xff, 0xff,
0xff, 0x3f, 0xc1, 0x22,
0x54, 0x21, 0xe3, 0xff,
0xff, 0xff, 0xff, 0x3f,
0xc1, 0x22, 0x54, 0x21,
0xe6, 0xff, 0xff, 0xff,
0xff, 0x3f, 0xc1, 0x22,
0x54, 0x21, 0xfd, 0xff,
0xff, 0xff, 0xff, 0x3f,
0xc1, 0x22, 0x54, 0x21,
0xed, 0xff, 0xff, 0xff,
0xff, 0x3f, 0xc1, 0x22,
0x54, 0x21, 0xf0, 0xff,
0xff, 0xff, 0xff, 0x3f,
0xc1, 0x22, 0x54, 0x21,
0xf5, 0xff, 0xff, 0xff,
0xff, 0x3f, 0xc1, 0x22,
0x54, 0x21, 0xf2, 0xff,
0xff, 0xff, 0xff, 0x3f,
0xc1, 0x22, 0x54, 0x21,
0xed, 0xff, 0xff, 0xff,
0xff, 0x3f, 0xc1, 0x22,
0x54, 0x21, 0xd7, 0xff,
0xff, 0xff, 0xff, 0x3f,
0xc1, 0x22, 0x54, 0x21,
0x04, 0x00, 0x00, 0x00,
0x00, 0x3f, 0xc1, 0x22,
0x54, 0x21, 0xf4, 0xff,
0xff, 0xff, 0xff, 0x3f,
0xc1, 0x22, 0x54, 0x21,
0xed, 0xff, 0xff, 0xff,
0xff, 0x3f, 0xc1, 0x22,
0x54, 0x21, 0xe4, 0xff,
0xff, 0xff, 0xff, 0x3f,
0xc1, 0x22, 0x54, 0x21, 
//weights
0xfe, 0x7f, 0x50, 0xf0,
0x7b, 0x30, 0x44, 0x04,
0x83, 0x06, 0xa4, 0xc2,
0xa0, 0x2c, 0x10, 0x05,
0x42, 0xe2, 0x01, 0x90,
0x38, 0x26, 0x8a, 0xcb,
0x29, 0x57, 0x5b, 0x8d,
0x7a, 0xaf, 0xcc, 0xe7,
0x98, 0xa7, 0x06, 0x1e,
0xb8, 0x19, 0x19, 0x26,
0x1b, 0x1b, 0xa7, 0x99,
0x57, 0x7d, 0xc0, 0x4c,
0xf8, 0x05, 0x8f, 0x9a,
0xa8, 0xb8, 0x76, 0x32,
0xf7, 0xfb, 0x89, 0x47,
0xa5, 0xba, 0xc0, 0x7b,
0x10, 0x94, 0x67, 0x5a,
0x50, 0x44, 0x74, 0x0b,
0x49, 0xc0, 0xcf, 0x95,
0x6c, 0x52, 0x19, 0x53,
0xf8, 0xe6, 0xde, 0x4f,
0x98, 0xd6, 0x4a, 0xd9,
0xe6, 0xe3, 0x60, 0xd1,
0x3c, 0xf9, 0xf0, 0xcf,
0x2a, 0xb1, 0xce, 0x20,
0x8b, 0x12, 0x0a, 0x8b,
0x80, 0x7e, 0xf3, 0x48,
0x66, 0xbe, 0x8c, 0x0e,
0x00, 0x88, 0x24, 0x51,
0x2f, 0xd2, 0xb0, 0x49,
0xa6, 0x9d, 0x07, 0x7c,
0x18, 0xfc, 0xe7, 0x2e,
0xce, 0x3d, 0x0c, 0xa0,
0x16, 0xbc, 0xfc, 0xd9,
0xc6, 0xc4, 0x9e, 0xfd,
0x1a, 0xc3, 0x44, 0x7a,
0x86, 0x0f, 0xfb, 0x85,
0x8b, 0x77, 0x80, 0x9f,
0xf3, 0x23, 0x97, 0x58,
0xb9, 0xe1, 0xbf, 0xf1,
0x65, 0x4c, 0xf7, 0xf3,
0xf2, 0xf9, 0xfb, 0x21,
0x6c, 0xc4, 0xf6, 0x90,
0x0b, 0x95, 0xf0, 0x0f,
0xdc, 0xff, 0x86, 0xd1,
0x01, 0xfe, 0x78, 0x77,
0x5a, 0x97, 0x7f, 0xfc,
0xd7, 0x5b, 0xee, 0xe3,
0x06, 0xf8, 0xf7, 0x80,
0xbe, 0x4a, 0x98, 0x7e,
0xc8, 0x26, 0x99, 0xb0,
0x80, 0x91, 0xc1, 0x16,
0x2d, 0xb3, 0x87, 0x06,
0x0c, 0x30, 0xc3, 0x16,
0xce, 0xee, 0x0b, 0x3d,
0x62, 0x0d, 0x04, 0xe1,
0x68, 0xca, 0x30, 0x84,
0x4d, 0xaa, 0xc5, 0x8f,
0xf6, 0xa0, 0x5a, 0xbd,
0x20, 0xb4, 0xdb, 0xe2,
0x48, 0x81, 0x46, 0xd5,
0xe7, 0x19, 0xae, 0x55,
0x50, 0x95, 0xb1, 0x57,
0x3c, 0x8c, 0xe4, 0x00,
0x09, 0x5b, 0x8c, 0xbd,
0x52, 0x14, 0x9d, 0x23,
0x03, 0xfe, 0x63, 0x88,
0x0c, 0x10, 0x7c, 0x66,
0x54, 0xe8, 0x39, 0xc4,
0x57, 0x7e, 0xbe, 0x31,
0x41, 0xa8, 0xf4, 0x1d,
0x78, 0x0b, 0x10, 0x6a,
0x26, 0x79, 0xfe, 0x95,
0x44, 0xf2, 0xef, 0x86,
0xa1, 0x84, 0x39, 0x06,
0x05, 0x78, 0xa0, 0x94,
0x97, 0xa4, 0x88, 0x84,
0x9b, 0x3d, 0x38, 0x88,
0x33, 0x28, 0x38, 0xb1,
0x1c, 0x33, 0x0e, 0x1c,
0x09, 0x2a, 0xbe, 0xf5,
0x03, 0xcf, 0x70, 0x1d,
0x11, 0x84, 0x9d, 0x7c,
0xd1, 0xc3, 0x43, 0xdb,
0x97, 0xba, 0x49, 0x3c,
0xd0, 0xfe, 0xf7, 0xbb,
0xd7, 0xd8, 0xa6, 0xbb,
0xcf, 0x77, 0x3c, 0xa6,
0xf6, 0xa7, 0x9d, 0x6c,
0x71, 0xbd, 0x4f, 0x1c,
0x9b, 0xfe, 0x9f, 0xdf,
0xe3, 0xad, 0x82, 0x1f,
0x8a, 0x1f, 0xbe, 0x9f,
0xec, 0xd2, 0x64, 0x6b,
0xbd, 0x8f, 0xe7, 0x80,
0x16, 0xc7, 0xf5, 0xc8,
0xf7, 0xcc, 0x64, 0x88,
0x0f, 0x34, 0x57, 0xa8,
0x09, 0xbf, 0xc0, 0xeb,
0x1c, 0x28, 0x02, 0x56,
0x1b, 0xf0, 0x71, 0x55,
0x85, 0xb9, 0x47, 0x7a,
0x7e, 0x64, 0xc7, 0x8c,
0xbc, 0x60, 0xbb, 0x76,
0x83, 0x13, 0xba, 0x0f,
0xbf, 0xcb, 0xa8, 0x04,
0x39, 0x2e, 0x3b, 0x32,
0x6e, 0x0f, 0xbd, 0xf0,
0x55, 0x89, 0x07, 0x85,
0x88, 0x17, 0x30, 0x22,
0x6e, 0x79, 0xe8, 0xc0,
0xd8, 0xee, 0x19, 0xf6,
0xce, 0x1b, 0x76, 0xf9,
0x64, 0x0b, 0xcb, 0x84,
0x88, 0x61, 0x6f, 0x77,
0xf5, 0x94, 0x5b, 0x6c,
0xea, 0x61, 0x0e, 0x2b,
0x92, 0x4e, 0x6c, 0x48,
0x43, 0x17, 0x30, 0x5a,
0x20, 0x70, 0x4d, 0xb4,
0x9c, 0x87, 0x46, 0x38,
0x30, 0x2b, 0x98, 0xc1,
0x2c, 0x68, 0x03, 0x67,
0x6a, 0x61, 0x28, 0xd5,
0xeb, 0x87, 0x63, 0x84,
0xb1, 0x81, 0xf1, 0x21,
0x8b, 0xe9, 0x0f, 0x66,
0x89, 0x06, 0x58, 0x84,
0x60, 0xb6, 0xe1, 0x6b,
0x8c, 0xce, 0xfc, 0x7c,
0x1a, 0xd3, 0x46, 0x23,
0x9c, 0x1f, 0xb0, 0x95,
0x9b, 0x1a, 0x45, 0x89,
0xc1, 0x9f, 0x24, 0x84,
0x3d, 0xe9, 0x39, 0x8e,
0x5c, 0x81, 0x99, 0x18,
0x2d, 0xf3, 0xde, 0xb8,
0x08, 0xad, 0xa2, 0xa1,
0xe1, 0xe7, 0xbd, 0x48,
0xfe, 0xb4, 0x8a, 0xaf,
0x43, 0x20, 0xa1, 0xe2,
0x70, 0xbf, 0x7c, 0x1b,
0xae, 0x6b, 0x62, 0x01,
0x09, 0xd3, 0x6f, 0xe4,
0xb7, 0x8d, 0xe1, 0xc2,
0xd6, 0x7f, 0x1e, 0x13,
0xbb, 0xaf, 0x71, 0x20,
0xf0, 0x47, 0x39, 0xc0,
0x88, 0xd6, 0x32, 0x79,
0x30, 0xc6, 0xc1, 0x0c,
0x06, 0xaf, 0x04, 0x74,
0x82, 0x1b, 0x59, 0x3e,
0xb4, 0x27, 0xf1, 0xc0,
0x8b, 0x00, 0x43, 0x09,
0xe3, 0x4f, 0x3c, 0x86,
0x02, 0x8b, 0x91, 0x19,
0xb8, 0x7e, 0x38, 0x34,
0x63, 0xc4, 0x9c, 0x43,
0x15, 0x46, 0x0e, 0xf9,
0xc1, 0x49, 0x8b, 0x11,
0x03, 0xe1, 0x60, 0xe0,
0x3b, 0x9c, 0xfd, 0x11,
0xf8, 0x2e, 0xeb, 0xaf,
0x9b, 0x14, 0x98, 0xde,
0x13, 0x1c, 0x78, 0x3e,
0x70, 0xfa, 0xfe, 0x08,
0xe1, 0x79, 0xf5, 0xb3,
0x0e, 0xd6, 0x90, 0x38,
0x9b, 0x49, 0x13, 0xc9,
0x84, 0x3f, 0xb8, 0x65,
0x7d, 0x8e, 0x08, 0x30,
0xdd, 0xc0, 0x61, 0xee,
0xb9, 0x30, 0xc5, 0x80,
0xa2, 0xcd, 0x4a, 0x85,
0xcd, 0x4f, 0x87, 0x91,
0xa4, 0x41, 0xba, 0xec,
0x33, 0x3c, 0x74, 0x82,
0xf2, 0xa6, 0x06, 0xe3,
0x16, 0x5f, 0xf0, 0xd7,
0x57, 0x42, 0x70, 0xd7,
0xaf, 0xa2, 0x2d, 0x05,
0xe9, 0x91, 0xe5, 0x8d,
0x52, 0x7a, 0x1f, 0xeb,
0x98, 0x67, 0x6d, 0x8a,
0xcf, 0x65, 0x87, 0x47,
0x78, 0x0e, 0xdd, 0xf8,
0x12, 0xb5, 0x13, 0x1b,
0xd9, 0x61, 0xfe, 0x9e,
0x51, 0x28, 0xf0, 0x0d,
0x43, 0xa6, 0x98, 0x3e,
0x5d, 0xf7, 0xfe, 0x2e,
0x9e, 0xa2, 0x1d, 0xe5,
0x78, 0x67, 0x11, 0xdc,
0xea, 0x0f, 0xef, 0x52,
0x34, 0x0f, 0xd0, 0x25,
0x44, 0xbc, 0x17, 0xd6,
0xa5, 0x1f, 0x42, 0xaf,
0xd0, 0x2a, 0x34, 0xd5,
0x6a, 0x0e, 0x3e, 0x4c,
0xea, 0x81, 0xc1, 0x61,
0x33, 0x10, 0x35, 0x72,
0x21, 0x70, 0x70, 0x2c,
0x03, 0x0b, 0x39, 0x1d,
0xbf, 0xe2, 0xa9, 0xf8,
0x5b, 0x88, 0x0a, 0x0c,
0x7c, 0x34, 0x46, 0xf4,
0x50, 0xc2, 0x25, 0x63,
0xf5, 0xd5, 0x3b, 0x71,
0xc0, 0x2d, 0xfc, 0x2b,
0x11, 0xe1, 0x0c, 0x7b,
0xfb, 0x2d, 0x7b, 0x13,
0x3c, 0x1d, 0xb8, 0x6e,
0x65, 0x6b, 0x0d, 0x73,
0x0b, 0x3e, 0x7d, 0x62,
0x25, 0x31, 0x30, 0x31,
0x3b, 0x0f, 0xe2, 0x9f,
0x36, 0x09, 0x9e, 0x2a,
0x20, 0x69, 0xa7, 0xec,
0xc2, 0xc7, 0x59, 0x9a,
0x0e, 0xb2, 0x20, 0xee,
0xe0, 0xe5, 0x7f, 0x23,
0xb8, 0x27, 0x0e, 0xec,
0xcf, 0x61, 0x2f, 0x2a,
0x1a, 0xf1, 0x22, 0xfb,
0x78, 0x71, 0x1c, 0x78,
0xbe, 0x01, 0x2c, 0x84,
0x53, 0xf8, 0xf8, 0xd3,
0x28, 0x62, 0x30, 0x07,
0xf0, 0x81, 0xc1, 0x4e,
0xcf, 0x38, 0xb7, 0xa3,
0xba, 0x87, 0x2e, 0xe6,
0xe6, 0x36, 0xdc, 0x9d,
0xe9, 0xe8, 0xc3, 0xa7,
0xcf, 0x78, 0xba, 0x87,
0x38, 0xda, 0x1b, 0xbd,
0x25, 0x4d, 0x7a, 0x9c,
0xfd, 0x05, 0xa8, 0x64,
0xf6, 0x63, 0x7d, 0x34,
0x5c, 0x70, 0x9c, 0x7f,
0x77, 0x42, 0x4f, 0xd6,
0xf0, 0x7d, 0xe8, 0x69,
0xfa, 0xe7, 0x9d, 0xab,
0x80, 0xc9, 0x9b, 0xfb,
0xbf, 0x5d, 0xef, 0x6c,
0x35, 0xce, 0xed, 0x51,
0x93, 0xc0, 0x6f, 0x6f,
0xe6, 0x54, 0xee, 0xe0,
0xcf, 0x2f, 0x64, 0x06,
0x7a, 0x9c, 0x0e, 0x96,
0x1b, 0x91, 0xd4, 0xc0,
0x77, 0xf6, 0x65, 0xa2,
0x05, 0x8e, 0x80, 0x63,
0x44, 0x1e, 0x93, 0xd3,
0xc1, 0x1f, 0x79, 0x74,
0xa0, 0xba, 0x07, 0x17,
0x08, 0x44, 0x60, 0x6f,
0x87, 0x3d, 0x76, 0xe8,
0xf3, 0x98, 0xda, 0xfb,
0x4d, 0xbd, 0xc1, 0x4f,
0xac, 0x29, 0x13, 0x34,
0xfd, 0xeb, 0x8d, 0x9b,
0x38, 0x7a, 0x0a, 0x09,
0x98, 0xd9, 0x02, 0x98,
0x01, 0x49, 0xd9, 0x5f,
0xec, 0x2d, 0x8d, 0x3b,
0x82, 0xad, 0x3f, 0x7c,
0x47, 0x09, 0x01, 0x67,
0x1c, 0x10, 0xc4, 0x22,
0x48, 0xe8, 0x3d, 0x7a,
0x00, 0xc6, 0x53, 0x4d,
0xd8, 0x45, 0x9e, 0x1d,
0x86, 0x36, 0xe0, 0x07,
0xbc, 0x5b, 0x61, 0x13,
0x08, 0x1f, 0x30, 0xf4,
0x97, 0x6d, 0x77, 0xc2,
0x83, 0x75, 0x5b, 0xb5,
0x23, 0x11, 0x4c, 0x3e,
0xe0, 0x36, 0xb9, 0x43,
0x8e, 0xfe, 0x1c, 0xbc,
0x43, 0xcd, 0xad, 0x0a,
0x83, 0x8f, 0x1d, 0x26,
0xc7, 0x27, 0x88, 0x8e,
0x18, 0x23, 0x66, 0xc4,
0x04, 0xff, 0xfa, 0xe7,
0x78, 0x47, 0xca, 0xbc,
0x2b, 0xdd, 0xe5, 0xef,
0x3f, 0xc1, 0xd4, 0xea,
0x8c, 0xa7, 0x6a, 0x18,
0xb7, 0xef, 0x7c, 0xec,
0xe1, 0x96, 0x11, 0x90,
0xd0, 0x8d, 0x36, 0xfd,
0xa8, 0x53, 0x09, 0x8d,
0x79, 0x0b, 0xa0, 0x8d,
0x8b, 0xe7, 0xad, 0x57,
0xad, 0xd1, 0x01, 0xdd,
0x84, 0xa2, 0xa4, 0x44,
0xf6, 0xe0, 0x8f, 0x8d,
0x7c, 0x47, 0x85, 0x1e,
0x70, 0x3f, 0x40, 0x55,
0x2f, 0xe0, 0xe2, 0x52,
0x0a, 0x7e, 0xf2, 0x2f,
0xee, 0x24, 0x1a, 0x78,
0x8c, 0x18, 0x83, 0x56,
0x13, 0xad, 0xf0, 0x49,
0x0e, 0x00, 0xcf, 0x14,
0x2a, 0x62, 0x07, 0xdc,
0x6c, 0x20, 0x89, 0x5b,
0x1c, 0xfa, 0x5c, 0x4c,
0x70, 0x80, 0x33, 0x85,
0x3e, 0x6f, 0x34, 0x28,
0x34, 0x2e, 0x40, 0x71,
0x9b, 0x64, 0xa6, 0x83,
0x85, 0x90, 0x37, 0x4e,
0x94, 0x5a, 0xe2, 0x32,
0x58, 0x20, 0x0e, 0x1f,
0xa2, 0xe6, 0x1d, 0x7c,
0x0d, 0x12, 0xc1, 0xcc,
0x41, 0xb2, 0x05, 0xf4,
0x0f, 0x1e, 0xed, 0x10,
0xb9, 0xa8, 0x41, 0x06,
0xf8, 0x47, 0xed, 0x20,
0x7c, 0x96, 0x7e, 0xb0,
0x81, 0xad, 0x8e, 0x27,
0xb0, 0x7d, 0xf5, 0x1b,
0xe0, 0x80, 0xfa, 0xe2,
0x73, 0x0b, 0x03, 0x8a,
0x75, 0x0f, 0xb6, 0x14,
0x20, 0x12, 0x9a, 0x98,
0x4d, 0x20, 0x11, 0x97,
0xf0, 0xb3, 0xce, 0xb2,
0x5c, 0x9c, 0x74, 0xfc,
0x61, 0x8f, 0x42, 0x41,
0x7e, 0xdf, 0x7f, 0xf6,
0xd8, 0xab, 0x14, 0xbc,
0xf5, 0x0e, 0xd3, 0xf6,
0xe9, 0xef, 0x9f, 0xc2,
0xf7, 0xde, 0xfd, 0x67,
0x31, 0x44, 0x93, 0xdf,
0x36, 0xeb, 0x39, 0x6f,
0xf6, 0x39, 0x07, 0x65,
0xdc, 0xe5, 0x42, 0x00,
0x82, 0x61, 0xb4, 0x78,
0xfc, 0x5d, 0xd8, 0x42,
0xe6, 0x85, 0x69, 0x12,
0xe0, 0x5d, 0x0d, 0x7f,
0x0f, 0xfc, 0xbb, 0xc5,
0xd6, 0x43, 0xe9, 0x0c,
0xb8, 0xd8, 0xe6, 0xa4,
0xcf, 0xe0, 0x2b, 0x43,
0x00, 0x7b, 0xba, 0x0f,
0x34, 0x0f, 0xbc, 0x6c,
0x95, 0x9e, 0x12, 0x97,
0x3f, 0x75, 0x04, 0x14,
0x67, 0x42, 0x12, 0x2d,
0x14, 0x0c, 0xb1, 0x10,
0x3b, 0xf8, 0x10, 0x9a,
0x0b, 0x12, 0x60, 0x74,
0xd0, 0x8f, 0xfc, 0xa9,
0x64, 0x30, 0xc0, 0xad,
0x5e, 0x60, 0xb4, 0x44,
0x3b, 0x2d, 0x9d, 0xef,
0x57, 0x10, 0xa2, 0x23,
0x11, 0x22, 0xf4, 0x78,
0x8a, 0xaf, 0x01, 0x0d,
0x60, 0x19, 0x85, 0x6e,
0xf9, 0x13, 0x87, 0x58,
0x98, 0x99, 0x7f, 0x46,
0x96, 0x73, 0xfc, 0xe1,
0x54, 0x6e, 0x17, 0xa7,
0x0d, 0x82, 0xf4, 0x00,
0xeb, 0x44, 0xcf, 0x90,
0xee, 0x34, 0x0a, 0x7b,
0xf9, 0xc0, 0xf1, 0xdf,
0x8c, 0x0a, 0xfc, 0x0d,
0x8f, 0x5d, 0x15, 0x42,
0x73, 0x50, 0x3f, 0x01,
0x93, 0x41, 0x01, 0x28,
0x7a, 0x81, 0xa5, 0x63,
0xd4, 0xcc, 0xaa, 0xc2,
0x39, 0xdc, 0x57, 0x5b,
0x9f, 0x69, 0x6b, 0x77,
0xa3, 0xf7, 0xe7, 0xdd,
0x24, 0xf8, 0xab, 0x57,
0x7a, 0xb3, 0x83, 0xfc,
0x6b, 0x3e, 0xa8, 0xc2,
0x3f, 0x96, 0x7f, 0xb7,
0xec, 0x05, 0xc4, 0x3c,
0x6e, 0x62, 0xd6, 0x7a,
0x7d, 0xf6, 0xe6, 0x6e,
0xb0, 0x02, 0xbd, 0x6b,
0x2c, 0xe2, 0x5e, 0xda,
0xf5, 0xcf, 0xdf, 0x5f,
0x26, 0x05, 0xc6, 0xb1,
0x0f, 0xed, 0x52, 0xdf,
0x1e, 0xf8, 0xcc, 0xd8,
0x92, 0x54, 0x70, 0xc6,
0x00, 0x0a, 0x92, 0x2b,
0xb8, 0x1e, 0x0f, 0x80,
0x67, 0x5b, 0x87, 0x7d,
0xfe, 0x18, 0x13, 0xe2,
0x38, 0xf0, 0x2c, 0x49,
0x63, 0x42, 0x1e, 0xfb,
0x20, 0x34, 0xcc, 0xcc,
0xf7, 0xc8, 0x0f, 0xb7,
0x5e, 0x18, 0xd5, 0x72,
0x00, 0xa2, 0x9a, 0x2e,
0xa9, 0x73, 0x10, 0x11,
0x6f, 0x49, 0xc2, 0x25,
0x58, 0x37, 0x1d, 0x04,
0xa0, 0xb8, 0xfc, 0x22,
0x6c, 0x71, 0x86, 0x08,
0x22, 0x4a, 0xa4, 0x13,
0x34, 0xa9, 0x07, 0x00,
0xaa, 0x28, 0xa0, 0x19,
0x91, 0x10, 0x80, 0x25,
0x04, 0x15, 0xdd, 0x0d,
0x09, 0xcd, 0xc8, 0x0c,
0x6b, 0x9e, 0x51, 0xba,
0x61, 0x81, 0x8f, 0xb1,
0x07, 0x40, 0xa7, 0x20,
0xd7, 0x3d, 0x76, 0xa4,
0x93, 0x1b, 0x3b, 0x44,
0x98, 0xf3, 0x60, 0xaf,
0xc7, 0x10, 0x3c, 0x0e,
0x84, 0xeb, 0xc7, 0x23,
0x06, 0x0c, 0x24, 0x81,
0x15, 0xf9, 0x37, 0x3d,
0x3c, 0x26, 0x21, 0xf4,
0x20, 0xfc, 0xea, 0x8f,
0xae, 0x18, 0x40, 0xee,
0xb6, 0xf3, 0xbf, 0x54,
0xf3, 0x8f, 0xb7, 0xbf,
0x7d, 0x08, 0xdb, 0xff,
0xf0, 0xe3, 0x05, 0xfa,
0xdf, 0xf3, 0xee, 0x4a,
0x24, 0x7b, 0x77, 0xba,
0x6f, 0x7b, 0xfe, 0x62,
0x2f, 0x64, 0x6f, 0xd2,
0xb7, 0xfd, 0x6f, 0xac,
0x96, 0xd6, 0x39, 0xf7,
0xe0, 0xc7, 0x77, 0xae,
0x7b, 0xec, 0xed, 0xdf,
0xff, 0x70, 0xf7, 0xfe,
0x62, 0x25, 0x36, 0x08,
0xaf, 0xa0, 0x15, 0x03,
0xbb, 0x5c, 0x99, 0xf7,
0x64, 0x05, 0x3d, 0xf2,
0x54, 0xae, 0x83, 0xc1,
0xa6, 0x7b, 0xc0, 0xf5,
0xd0, 0x14, 0xe9, 0x8d,
0x1e, 0x82, 0x52, 0x64,
0x00, 0xba, 0x60, 0x61,
0x57, 0x69, 0x54, 0xa3,
0x1a, 0x09, 0x00, 0xf8,
0x06, 0x91, 0x26, 0x0b,
0x29, 0x05, 0xaa, 0xe6,
0xce, 0x0a, 0x41, 0x24,
0x11, 0x40, 0x58, 0x80,
0x09, 0x1f, 0x9d, 0x80,
0x11, 0x41, 0x86, 0xce,
0xe1, 0x80, 0x57, 0x98,
0x20, 0x70, 0x22, 0x60,
0x02, 0xed, 0x1a, 0x0f,
0x02, 0x64, 0x26, 0x96,
0x09, 0x92, 0x03, 0x6c,
0x22, 0xe0, 0xc7, 0x01,
0x84, 0x75, 0xdc, 0x8e,
0xf0, 0x3e, 0x23, 0x15,
0xa9, 0xa0, 0xb2, 0x44,
0xcf, 0x33, 0x54, 0x6a,
0x70, 0x30, 0x02, 0x15,
0x31, 0x10, 0x4e, 0x9d,
0xe5, 0x2b, 0x12, 0x21,
0x72, 0x3d, 0x20, 0x44,
0x6b, 0x10, 0x3c, 0xaf,
0x0a, 0x26, 0x3b, 0x1f,
0xc4, 0x1b, 0x17, 0x26,
0x03, 0x5d, 0x57, 0x8e,
0xf9, 0x34, 0x61, 0xfb,
0xfe, 0xff, 0xd2, 0xc2,
0x4e, 0x7d, 0xde, 0xf1,
0x0a, 0xcb, 0xdc, 0x02,
0xb5, 0x20, 0x2e, 0xdd,
0xdc, 0x5d, 0x8e, 0x8b,
0x81, 0xe7, 0x7e, 0x28,
0xa9, 0xaa, 0x56, 0xbf,
0xec, 0xdf, 0x96, 0x4e,
0xfa, 0xde, 0xf1, 0x1c,
0x4d, 0xf0, 0xfe, 0xff,
0x07, 0x4a, 0x47, 0x63,
0x7b, 0xf8, 0x27, 0x11,
0x86, 0xef, 0xaf, 0xde,
0x2d, 0x82, 0x03, 0x87,
0xd3, 0x8f, 0x04, 0xe6,
0xc6, 0xcb, 0x04, 0xbf,
0xfb, 0x83, 0x0e, 0x80,
0xbc, 0xc2, 0xd6, 0x1f,
0xc0, 0xcf, 0xa4, 0x68,
0x5e, 0xbd, 0xf0, 0xfa,
0x51, 0x95, 0x7c, 0xa0,
0x97, 0x0f, 0x7c, 0x87,
0x0c, 0xc1, 0x96, 0x03,
0x7c, 0x2a, 0x20, 0x5e,
0x1e, 0x61, 0x64, 0x8b,
0xb4, 0x4e, 0x34, 0x10,
0xa0, 0x10, 0x20, 0x0a,
0x57, 0x01, 0x80, 0x39,
0xf1, 0x94, 0x00, 0x6c,
0x2a, 0x00, 0x61, 0x7f,
0xa4, 0x79, 0xdf, 0x27,
0x81, 0x44, 0x88, 0xe8,
0x18, 0x1c, 0x3e, 0x2a,
0x41, 0x00, 0x74, 0x45,
0x06, 0xc0, 0x77, 0xc4,
0xff, 0xb0, 0x16, 0x36,
0x73, 0xb9, 0x70, 0x14,
0xa4, 0x63, 0xce, 0x5b,
0x00, 0x56, 0x07, 0x1c,
0x20, 0xda, 0x0e, 0x91,
0x9c, 0x0d, 0x70, 0x3a,
0x00, 0x1f, 0x05, 0x46,
0xaa, 0x04, 0x22, 0x08,
0x8a, 0xde, 0x09, 0x6e,
0xe9, 0x60, 0x2b, 0x15,
0x46, 0xa6, 0x96, 0x1c,
0xec, 0xff, 0x5d, 0xe5,
0x86, 0x1c, 0xe1, 0xe0,
0xce, 0xf2, 0xc7, 0xa3,
0xfe, 0xdf, 0xfb, 0x16,
0x73, 0x45, 0xa6, 0x7f,
0x39, 0xdf, 0x6f, 0xed,
0x78, 0x54, 0xd7, 0x62,
0xff, 0xbf, 0x6f, 0xf0,
0xb2, 0x8e, 0xe9, 0x99,
0x9f, 0x79, 0x31, 0xfb,
0xbf, 0xf4, 0x58, 0xdf,
0xff, 0xf7, 0x7d, 0xfb,
0xf2, 0xc4, 0x35, 0xdf,
0xfe, 0xfd, 0x7f, 0x7e,
0x07, 0x42, 0xe5, 0xc6,
0xbe, 0x7d, 0xec, 0xd6,
0x17, 0xdc, 0xee, 0x65,
0xb0, 0x5f, 0xec, 0x52,
0xf2, 0x3a, 0x22, 0x8a,
0xd1, 0xc1, 0x8d, 0x9a,
0xa8, 0x18, 0xfd, 0x71,
0x7b, 0xc6, 0x2c, 0x9e,
0x89, 0x96, 0x78, 0x36,
0xb5, 0x20, 0x04, 0x06,
0xec, 0xe6, 0xd7, 0x00,
0x83, 0x18, 0x28, 0xa1,
0x06, 0x57, 0x40, 0x7b,
0x3d, 0xc3, 0xc1, 0xdd,
0x9f, 0x18, 0x09, 0x5f,
0x80, 0x04, 0xe8, 0x38,
0x68, 0xc6, 0x20, 0x80,
0x90, 0xb6, 0x2e, 0x1c,
0x19, 0x0c, 0x04, 0x0a,
0x44, 0x8a, 0x44, 0x4d,
0x99, 0xc0, 0x18, 0x18,
0xc8, 0x54, 0x27, 0x81,
0xa3, 0xb6, 0x90, 0x10,
0x90, 0x03, 0x0d, 0x90,
0x86, 0x11, 0xd0, 0x60,
0xc7, 0xa8, 0x61, 0x30,
0x2c, 0xa0, 0x38, 0x30,
0x1c, 0x80, 0xbb, 0x4e,
0xef, 0x1e, 0x36, 0x4d,
0xd8, 0x9d, 0xf9, 0x3e,
0x1a, 0xe2, 0x64, 0xac,
0x08, 0x8c, 0x2d, 0x98,
0x86, 0xf7, 0x72, 0xd7,
0xf8, 0x1e, 0xdc, 0x0e,
0x15, 0xa0, 0xa3, 0x3f,
0x75, 0xd3, 0xf0, 0xb6,
0x99, 0xaf, 0x03, 0xa1,
0x19, 0xbd, 0x77, 0xdc,
0xa7, 0xbb, 0x93, 0xf3,
0xcf, 0x7e, 0x24, 0x5d,
0x56, 0xca, 0x3f, 0xe2,
0xbb, 0x39, 0x54, 0xf1,
0x77, 0xfe, 0xb0, 0x37,
0x1c, 0xbb, 0xfe, 0xb8,
0xd7, 0x6c, 0xc5, 0xfb,
0xfd, 0xd7, 0x38, 0x5e,
0xa9, 0xef, 0xbc, 0xeb,
0xef, 0xce, 0xf5, 0x69,
0xe5, 0x22, 0xfe, 0x7f,
0xef, 0x6f, 0x27, 0x22,
0x2d, 0xf6, 0x78, 0xe7,
0xce, 0xed, 0x17, 0xa7,
0x86, 0x3d, 0xc1, 0xdf,
0x8d, 0x73, 0xf2, 0xc0,
0x04, 0xd6, 0x7c, 0x31,
0xe0, 0x85, 0x26, 0xc2,
0x08, 0x2c, 0xc6, 0x11,
0xfd, 0xc0, 0x53, 0x65,
0x2b, 0x41, 0x82, 0xa6,
0xdc, 0x7c, 0x24, 0x61,
0x9c, 0x60, 0xd7, 0x08,
0x09, 0x76, 0x14, 0x74,
0x80, 0xd3, 0xc5, 0xa3,
0x80, 0xd3, 0xa1, 0x06,
0x80, 0xe8, 0x5c, 0xf4,
0xca, 0x00, 0x90, 0x60,
0x23, 0x0a, 0xf4, 0x11,
0xe3, 0x07, 0x20, 0x81,
0xe0, 0x98, 0xea, 0x21,
0xa8, 0x13, 0x40, 0xc0,
0x2e, 0x44, 0x4f, 0x82,
0x91, 0x52, 0x00, 0x19,
0x21, 0x3c, 0xc0, 0x65,
0x27, 0x03, 0x03, 0x31,
0x14, 0x39, 0x1a, 0x02,
0x6a, 0xbe, 0xe3, 0x2e,
0x30, 0x4f, 0xb6, 0x5e,
0x70, 0x0e, 0x27, 0x77,
0x31, 0x62, 0x98, 0x92,
0x00, 0x6c, 0x20, 0x2c,
0xc9, 0x01, 0xcd, 0x42,
0x98, 0xb1, 0x5d, 0x35,
0xa2, 0x61, 0x6f, 0x47,
0x3f, 0x91, 0x1e, 0x9b,
0xce, 0x4c, 0x5d, 0xac,
0x62, 0x02, 0x86, 0x6f,
0x7f, 0x22, 0x66, 0x55,
0xf2, 0x1f, 0xdf, 0x9e,
0x12, 0xee, 0xfa, 0xd8,
0xfe, 0xa3, 0xfc, 0xd7,
0x23, 0xec, 0xa0, 0x85,
0xc7, 0xf7, 0xde, 0x3a,
0x12, 0x32, 0xb1, 0xc9,
0x78, 0xf7, 0xd9, 0xd6,
0x38, 0x7f, 0xfe, 0x26,
0x77, 0x82, 0x67, 0xff,
0xf7, 0x3d, 0x5b, 0x48,
0x7e, 0xec, 0xba, 0xef,
0xfc, 0xff, 0xfb, 0xdb,
0x32, 0x54, 0xbf, 0xba,
0xb1, 0xef, 0x1e, 0x7f,
0xfa, 0xd2, 0x29, 0xef,
0x18, 0x4e, 0xc7, 0x99,
0x8c, 0xee, 0xfb, 0xa9,
0x1b, 0x90, 0x24, 0xea,
0x31, 0x06, 0x4e, 0x26,
0x6a, 0x78, 0xe0, 0x4a,
0x92, 0xca, 0x38, 0x85,
0x66, 0x50, 0x9e, 0x95,
0x68, 0x08, 0xe9, 0xaa,
0x03, 0x1b, 0x6d, 0x1c,
0x45, 0x92, 0x43, 0x3c,
0x6e, 0x9a, 0x26, 0x0d,
0xce, 0x38, 0x0a, 0xc0,
0x48, 0xf3, 0x10, 0x06,
0xc0, 0x10, 0xa1, 0xe9,
0x58, 0x5c, 0x8d, 0x39,
0x04, 0x12, 0x56, 0x27,
0x65, 0x16, 0x72, 0x44,
0x80, 0x19, 0x92, 0xd4,
0x71, 0xf8, 0x44, 0x00,
0x68, 0x2d, 0xf2, 0xa1,
0x87, 0x44, 0x02, 0x22,
0x26, 0xbf, 0x1e, 0x23,
0xcf, 0xc1, 0x65, 0x43,
0x24, 0x9b, 0x55, 0x09,
0xdc, 0x1d, 0xf9, 0x02,
0x17, 0x30, 0x69, 0xbc,
0x01, 0x24, 0x73, 0xf9,
0x81, 0x8f, 0x8d, 0xa9,
0xb0, 0xd7, 0x06, 0xd5,
0x9a, 0x71, 0x06, 0x0e,
0xfc, 0xc3, 0xe0, 0xb4,
0xc2, 0x68, 0xb9, 0xe0,
0x70, 0x44, 0xc0, 0xe6,
0xfc, 0xb1, 0x07, 0x75,
0x9a, 0x23, 0xa5, 0x3f,
0xf0, 0xcf, 0x13, 0xda,
0xfe, 0x1b, 0x3e, 0x3b,
0x10, 0xcf, 0xfe, 0x6f,
0xef, 0xd3, 0xf9, 0x92,
0xfd, 0xb5, 0xdf, 0x73,
0x33, 0xfe, 0xc6, 0xe7,
0xd3, 0xf2, 0xfc, 0xe7,
0x3e, 0xe5, 0xf9, 0xad,
0x17, 0x7f, 0x8d, 0x78,
0xdf, 0xde, 0xfb, 0xbf,
0x8c, 0x0a, 0xcb, 0xec,
0xf5, 0x9a, 0xf8, 0xbd,
0xed, 0x55, 0xdc, 0xc0,
0xc4, 0xbd, 0xfd, 0x0f,
0x8a, 0xfe, 0xdd, 0x0b,
0xe5, 0x91, 0x0c, 0xc8,
0x68, 0x73, 0xc0, 0x9a,
0xfa, 0x70, 0x00, 0xd5,
0x3f, 0x86, 0x90, 0x09,
0x7c, 0x0e, 0xc7, 0x23,
0xca, 0x56, 0x1b, 0xc0,
0x98, 0xa3, 0xe2, 0x70,
0xb2, 0xe0, 0x94, 0xc0,
0xd4, 0x1c, 0x0b, 0x15,
0x14, 0x05, 0x64, 0x95,
0x02, 0x42, 0x55, 0x0c,
0x00, 0x3a, 0x62, 0xa5,
0x52, 0xf7, 0x5f, 0x00,
0x85, 0x10, 0x1d, 0x31,
0x42, 0xc0, 0x0d, 0x80,
0x62, 0xb0, 0x09, 0xe6,
0x0e, 0x06, 0x02, 0x10,
0xde, 0x8e, 0x07, 0x22,
0x04, 0x04, 0x52, 0x00,
0x99, 0x35, 0x31, 0x6a,
0x32, 0x51, 0x8c, 0x4d,
0x01, 0x41, 0x0d, 0x20,
0x66, 0x34, 0x03, 0xe6,
0x2b, 0x0b, 0x6a, 0xb9,
0x87, 0xe3, 0x47, 0x20,
0x09, 0x40, 0xaa, 0xcd,
0x0b, 0x88, 0x16, 0x22,
0x1d, 0x0c, 0x32, 0x31,
0xdd, 0xc3, 0xa5, 0x91,
0x64, 0x28, 0x55, 0x79,
0xc0, 0x3b, 0x6e, 0x78,
0xa8, 0x6a, 0xa0, 0x77,
0x98, 0x50, 0xeb, 0x7b,
0xf8, 0xbf, 0x17, 0xc4,
0x71, 0x27, 0xee, 0xfd,
0xee, 0x1d, 0x75, 0x17,
0xef, 0xfe, 0x41, 0x09,
0xbf, 0x7e, 0xf3, 0x86,
0xd9, 0x77, 0xf7, 0xff,
0x09, 0xf1, 0x7a, 0xf0,
0x67, 0xc4, 0xfe, 0xf7,
0x7e, 0x1e, 0x62, 0x36,
0x6d, 0xff, 0x9b, 0xff,
0x9d, 0xe3, 0x3f, 0x7f,
0xda, 0x3e, 0xfc, 0xcf,
0xf9, 0x08, 0x4e, 0xb2,
0x6f, 0xf8, 0x84, 0xe9,
0x80, 0xf9, 0x73, 0x15,
0xab, 0xb5, 0xfd, 0xc7,
0x1d, 0x1d, 0xe0, 0xd1,
0xeb, 0x05, 0x2c, 0x26,
0xf5, 0x5c, 0xdd, 0xe4,
0x01, 0x89, 0x52, 0x83,
0x24, 0x65, 0xeb, 0x90,
0xc5, 0x76, 0x4c, 0xcf,
0x0b, 0x3e, 0x62, 0x3e,
0x10, 0x48, 0xbf, 0x81,
0xe3, 0x4d, 0x22, 0x58,
0x85, 0x40, 0xc2, 0x57,
0x11, 0x6c, 0x8a, 0x37,
0x05, 0x40, 0xa1, 0x26,
0x70, 0x67, 0x32, 0x05,
0x80, 0x40, 0xb2, 0xbe,
0x92, 0x08, 0xa9, 0x00,
0x90, 0x83, 0x95, 0xf8,
0x16, 0x63, 0xcb, 0x00,
0x88, 0x57, 0x71, 0x4b,
0xef, 0x14, 0x00, 0xbc,
0x84, 0x0c, 0xfc, 0x18,
0xe5, 0x85, 0x00, 0xc0,
0x6c, 0xd3, 0x96, 0x1d,
0xd9, 0x30, 0xcf, 0x4f,
0x4a, 0x22, 0x8f, 0x95,
0x64, 0x36, 0x0c, 0x4c,
0x52, 0xf1, 0xf0, 0x4e,
0x72, 0x01, 0x62, 0x10,
0xf6, 0x7e, 0xdc, 0xb1,
0x8b, 0x31, 0x54, 0x53,
0xa0, 0x81, 0x1f, 0x6f,
0x76, 0x4e, 0x89, 0x01,
0x9a, 0xfe, 0xd0, 0x88,
0x47, 0xe8, 0x32, 0xaa,
0x89, 0xe3, 0x53, 0x79,
0x31, 0xf6, 0x30, 0x0f,
0x20, 0x18, 0xe3, 0x76,
0x6c, 0xff, 0xfb, 0xd4,
0x3d, 0xbe, 0x22, 0xe6,
0xfd, 0x91, 0xbd, 0xef,
0xff, 0xff, 0x8b, 0x23,
0x14, 0xd6, 0x7c, 0xf9,
0xf2, 0xbf, 0x1f, 0xd2,
0xaa, 0xe9, 0xfa, 0x3b,
0xb8, 0xfb, 0x0c, 0xfc,
0xf8, 0xdd, 0xff, 0x26,
0x20, 0x92, 0x7c, 0xfd,
0xe1, 0x24, 0xbc, 0xfe,
0x7b, 0x5f, 0x18, 0x78,
0x9d, 0xbb, 0xcf, 0x8f,
0xcc, 0xdc, 0xff, 0x7f,
0x4d, 0x6c, 0xb6, 0x32,
0xc0, 0xf6, 0x42, 0xa0,
0xaa, 0x63, 0x47, 0xe4,
0xd2, 0x54, 0x3d, 0xf0,
0x28, 0x64, 0xbc, 0x6f,
0x30, 0x5a, 0x60, 0x3d,
0x26, 0x0e, 0x6d, 0x6b,
0x60, 0xc3, 0x2d, 0x21,
0x9a, 0xae, 0x36, 0x04,
0x20, 0xd6, 0x49, 0xe5,
0x2e, 0xc5, 0x07, 0x38,
0x40, 0x21, 0xcf, 0x22,
0x1a, 0x5b, 0xcf, 0x59,
0xfc, 0xff, 0xff, 0xff, 

};






static inline const int8_t * Getfc_lif_layer_1WeightsPointer()
{
	return weight_fc_lif_layer_1;
}

static inline size_t Getfc_lif_layer_1WeightsLen()
{
	return sizeof(weight_fc_lif_layer_1);
}





static const int8_t lif_param_fc_lif_layer_1[]  __attribute__((aligned(16))) = 
{


// ln(beta)_quant
0, 0, 0, 0, 0, 0, 0, 0, 0, 
0, 0, 0, 0, 0, 0, 0, 0, 
0, 0, 0, 0, 0, 0, 0, 0, 
0, 0, 0, 0, 0, 0, 0, 0, 
0, 0, 0, 0, 0, 0, 0, 0, 
0, 0, 0, 0, 0, 0, 0, 0, 
0, 0, 0, 0, 0, 0, 0, 0, 
0, 0, 0, 0, 0, 0, 0, 
// vth_quant
0, 0, 0, 0, 0, 0, 0, 0, 0, 
0, 0, 0, 0, 0, 0, 0, 0, 
0, 0, 0, 0, 0, 0, 0, 0, 
0, 0, 0, 0, 0, 0, 0, 0, 
0, 0, 0, 0, 0, 0, 0, 0, 
0, 0, 0, 0, 0, 0, 0, 0, 
0, 0, 0, 0, 0, 0, 0, 0, 
0, 0, 0, 0, 0, 0, 0, 

};







static inline const int8_t* Getfc_lif_layer_1LIFParamPointer()
{
	return lif_param_fc_lif_layer_1;
}
static inline size_t Getfc_lif_layer_1LIFParamLen()
{
	return sizeof(lif_param_fc_lif_layer_1);
}





static const int8_t lut_fc_lif_layer_1[] __attribute__((aligned(16))) = 
{


//lut index 0
-29, 
-29, -28, -28, -28, -27, -27, -27, -26, 
-26, -25, -25, -24, -24, -24, -23, -23, 
-22, -22, -22, -21, -21, -20, -20, -20, 
-19, -19, -18, -18, -17, -17, -16, -16, 
-16, -15, -15, -14, -14, -13, -13, -12, 
-12, -12, -11, -11, -10, -10, -9, -9, 
-8, -8, -7, -7, -6, -6, -5, -5, 
-5, -4, -4, -3, -3, -2, -2, -1, 
-1, 0, 0, 1, 1, 2, 2, 3, 
3, 4, 5, 5, 6, 6, 7, 7, 
8, 8, 9, 9, 10, 10, 11, 11, 
12, 13, 13, 14, 14, 15, 15, 16, 
16, 17, 18, 18, 19, 19, 20, 20, 
21, 22, 22, 23, 23, 24, 25, 25, 
26, 26, 27, 28, 28, 29, 29, 30, 
31, 31, 32, 33, 33, 34, 34, 35, 
36, 36, 37, 38, 38, 39, 40, 40, 
41, 42, 42, 43, 44, 44, 45, 46, 
46, 47, 48, 48, 49, 50, 51, 51, 
52, 53, 53, 54, 55, 55, 56, 57, 
58, 58, 59, 60, 61, 61, 62, 63, 
64, 64, 65, 66, 67, 67, 68, 69, 
70, 70, 71, 72, 73, 74, 74, 75, 
76, 77, 78, 78, 79, 80, 81, 82, 
82, 83, 84, 85, 86, 87, 87, 88, 
89, 90, 91, 92, 93, 93, 94, 95, 
96, 97, 98, 99, 100, 101, 101, 102, 
103, 104, 105, 106, 107, 108, 109, 110, 
111, 112, 113, 113, 114, 115, 116, 117, 
118, 119, 120, 121, 122, 123, 124, 125, 
126, 127, 127, 127, 127, 127, 127, 127, 
127, 127, 127, 127, 127, 127, 127, 
//lut index 1
0, 
0, 0, 0, 0, 0, 0, 0, 0, 
0, 0, 0, 0, 0, 0, 0, 0, 
0, 0, 0, 0, 0, 0, 0, 0, 
0, 0, 0, 0, 0, 0, 0, 0, 
0, 0, 0, 0, 0, 0, 0, 0, 
0, 0, 0, 0, 0, 0, 0, 0, 
0, 0, 0, 0, 0, 0, 0, 0, 
0, 0, 0, 0, 0, 0, 0, 0, 
0, 0, 0, 0, 0, 0, 0, 0, 
0, 0, 0, 0, 0, 0, 0, 0, 
0, 0, 0, 0, 0, 0, 0, 0, 
0, 0, 0, 0, 0, 0, 0, 0, 
0, 0, 0, 0, 0, 0, 0, 0, 
0, 0, 0, 0, 0, 0, 0, 0, 
0, 0, 0, 0, 0, 0, 0, 0, 
0, 0, 0, 0, 0, 0, 0, 0, 
1, 1, 1, 1, 1, 1, 1, 1, 
1, 1, 1, 1, 1, 1, 1, 1, 
1, 1, 1, 1, 1, 1, 1, 1, 
1, 1, 1, 1, 1, 1, 1, 1, 
1, 1, 1, 1, 1, 1, 1, 1, 
1, 1, 1, 1, 1, 1, 1, 1, 
1, 1, 1, 1, 1, 1, 1, 1, 
1, 1, 1, 1, 1, 1, 1, 1, 
1, 1, 1, 1, 1, 1, 1, 1, 
1, 1, 1, 1, 1, 1, 1, 1, 
1, 1, 1, 1, 1, 1, 1, 1, 
1, 1, 1, 1, 1, 1, 1, 1, 
1, 1, 1, 1, 1, 1, 1, 1, 
1, 1, 1, 1, 1, 1, 1, 1, 
1, 1, 1, 1, 1, 1, 1, 1, 
1, 1, 1, 1, 1, 1, 1, 


};







static inline const int8_t* Getfc_lif_layer_1LUTPointer()
{
	return lut_fc_lif_layer_1;
}
static inline size_t Getfc_lif_layer_1LUTLen()
{
	return sizeof(lut_fc_lif_layer_1);
}

/*
Register Command Stream:
+---------------------------+-----------+-------------------------+
| Command Name              | Parameter | Payload Data            |
+---------------------------+-----------+-------------------------+
| NPU_SET_DMA0_SRC_REGION   | 4         | -                       |
| NPU_SET_DMA0_SRC          | 0         | 0x00000000 (0)          |
| NPU_SET_DMA0_DST_REGION   | 259       | -                       |
| NPU_SET_DMA0_DST          | 0         | 0x0000b800 (47104)      |
| NPU_SET_DMA0_LEN          | 0         | 0x00000100 (256)        |
| NPU_OP_DMA_START          | 0         | -                       |
| NPU_SET_OFM_SCALE         | 37        | 0x66cd339a (1724724122) |
| NPU_SET_IFM_REGION        | 3         | -                       |
| NPU_SET_IFM_BASE0         | 0         | 0x00000000 (0)          |
| NPU_SET_IFM_BASE1         | 0         | 0x00000000 (0)          |
| NPU_SET_IFM_BASE2         | 0         | 0x00000000 (0)          |
| NPU_SET_IFM_BASE3         | 0         | 0x00000000 (0)          |
| NPU_SET_IFM_HEIGHT0_M1    | 0         | -                       |
| NPU_SET_IFM_HEIGHT1_M1    | 65535     | -                       |
| NPU_SET_IFM_WIDTH0_M1     | 0         | -                       |
| NPU_SET_IFM_DEPTH_M1      | 63        | -                       |
| NPU_SET_IFM_STRIDE_C      | 0         | 0x00000001 (1)          |
| NPU_SET_IFM_STRIDE_Y      | 0         | 0x00000040 (64)         |
| NPU_SET_IFM_STRIDE_X      | 0         | 0x00000040 (64)         |
| NPU_SET_IFM_ZERO_POINT    | 65        | -                       |
| NPU_SET_IFM_PRECISION     | 1         | -                       |
| NPU_SET_IFM_UPSCALE       | 0         | -                       |
| NPU_SET_OFM_REGION        | 1         | -                       |
| NPU_SET_OFM_BASE0         | 0         | 0x00000000 (0)          |
| NPU_SET_OFM_BASE1         | 0         | 0x00000000 (0)          |
| NPU_SET_OFM_BASE2         | 0         | 0x00000000 (0)          |
| NPU_SET_OFM_BASE3         | 0         | 0x00000000 (0)          |
| NPU_SET_OFM_HEIGHT0_M1    | 0         | -                       |
| NPU_SET_OFM_HEIGHT1_M1    | 65535     | -                       |
| NPU_SET_OFM_WIDTH0_M1     | 0         | -                       |
| NPU_SET_OFM_HEIGHT_M1     | 0         | -                       |
| NPU_SET_OFM_WIDTH_M1      | 0         | -                       |
| NPU_SET_OFM_DEPTH_M1      | 63        | -                       |
| NPU_SET_OFM_STRIDE_C      | 0         | 0x00000010 (16)         |
| NPU_SET_OFM_STRIDE_Y      | 0         | 0x00000040 (64)         |
| NPU_SET_OFM_STRIDE_X      | 0         | 0x00000010 (16)         |
| NPU_SET_OFM_ZERO_POINT    | 127       | -                       |
| NPU_SET_OFM_PRECISION     | 321       | -                       |
| NPU_SET_ACTIVATION        | 16        | -                       |
| NPU_SET_ACTIVATION_MIN    | 65408     | -                       |
| NPU_SET_ACTIVATION_MAX    | 127       | -                       |
| NPU_SET_OFM_BLK_HEIGHT_M1 | 1         | -                       |
| NPU_SET_OFM_BLK_WIDTH_M1  | 1         | -                       |
| NPU_SET_OFM_BLK_DEPTH_M1  | 63        | -                       |
| NPU_SET_IFM_IB_END        | 46        | -                       |
| NPU_SET_AB_START          | 46        | -                       |
| NPU_SET_IFM2_IB_START     | 10        | -                       |
| NPU_SET_ACC_FORMAT        | 0         | -                       |
| NPU_SET_IFM2_REGION       | 1         | -                       |
| NPU_SET_IFM2_BASE0        | 0         | 0x000000c0 (192)        |
| NPU_SET_IFM2_BASE1        | 0         | 0x00000000 (0)          |
| NPU_SET_IFM2_BASE2        | 0         | 0x00000000 (0)          |
| NPU_SET_IFM2_BASE3        | 0         | 0x00000000 (0)          |
| NPU_SET_IFM2_HEIGHT0_M1   | 0         | -                       |
| NPU_SET_IFM2_HEIGHT1_M1   | 65535     | -                       |
| NPU_SET_IFM2_WIDTH0_M1    | 0         | -                       |
| NPU_SET_IFM2_STRIDE_C     | 0         | 0x00000001 (1)          |
| NPU_SET_IFM2_STRIDE_Y     | 0         | 0x00000001 (1)          |
| NPU_SET_IFM2_STRIDE_X     | 0         | 0x00000001 (1)          |
| NPU_SET_IFM2_ZERO_POINT   | 65408     | -                       |
| NPU_SET_IFM_PRECISION     | 1         | -                       |
| NPU_SET_IFM2_BROADCAST    | 4         | -                       |
| NPU_SET_BLOCKDEP          | 0         | -                       |
| NPU_OP_DMA_WAIT           | 0         | -                       |
| NPU_OP_ELEMENTWISE        | 0         | -                       |
| NPU_SET_IFM_REGION        | 5         | -                       |
| NPU_SET_IFM_ZERO_POINT    | 0         | -                       |
| NPU_SET_IFM_PAD_TOP       | 0         | -                       |
| NPU_SET_IFM_PAD_LEFT      | 0         | -                       |
| NPU_SET_IFM_PAD_BOTTOM    | 0         | -                       |
| NPU_SET_IFM_PAD_RIGHT     | 0         | -                       |
| NPU_SET_OFM_BASE0         | 0         | 0x00000040 (64)         |
| NPU_SET_OFM_ZERO_POINT    | 0         | -                       |
| NPU_SET_OFM_PRECISION     | 65        | -                       |
| NPU_SET_KERNEL_HEIGHT_M1  | 0         | -                       |
| NPU_SET_KERNEL_WIDTH_M1   | 0         | -                       |
| NPU_SET_KERNEL_STRIDE     | 0         | -                       |
| NPU_SET_WEIGHT_REGION     | 0         | -                       |
| NPU_SET_WEIGHT_BASE       | 0         | 0x00000280 (640)        |
| NPU_SET_WEIGHT_LENGTH     | 0         | 0x00000c90 (3216)       |
| NPU_SET_SCALE_REGION      | 0         | -                       |
| NPU_SET_SCALE_BASE        | 0         | 0x00000000 (0)          |
| NPU_SET_SCALE_LENGTH      | 0         | 0x00000280 (640)        |
| NPU_SET_ACTIVATION        | 0         | -                       |
| NPU_SET_IFM_IB_END        | 10        | -                       |
| NPU_SET_AB_START          | 30        | -                       |
| NPU_SET_BLOCKDEP          | 3         | -                       |
| NPU_OP_CONV               | 0         | -                       |
| NPU_SET_OFM_SCALE         | 38        | 0x533bf625 (1396438565) |
| NPU_SET_IFM_REGION        | 1         | -                       |
| NPU_SET_IFM_BASE0         | 0         | 0x00000080 (128)        |
| NPU_SET_IFM_ZERO_POINT    | 65510     | -                       |
| NPU_SET_OFM_BASE0         | 0         | 0x00000000 (0)          |
| NPU_SET_OFM_ZERO_POINT    | 65501     | -                       |
| NPU_SET_OFM_PRECISION     | 321       | -                       |
| NPU_SET_IFM_IB_END        | 46        | -                       |
| NPU_SET_AB_START          | 46        | -                       |
| NPU_SET_IFM2_BASE0        | 0         | 0x00000000 (0)          |
| NPU_SET_IFM2_STRIDE_C     | 0         | 0x00000010 (16)         |
| NPU_SET_IFM2_STRIDE_Y     | 0         | 0x00000040 (64)         |
| NPU_SET_IFM2_STRIDE_X     | 0         | 0x00000010 (16)         |
| NPU_SET_IFM_PRECISION     | 65        | -                       |
| NPU_SET_IFM2_BROADCAST    | 0         | -                       |
| NPU_OP_ELEMENTWISE        | 0         | -                       |
| NPU_SET_OPA_SCALE         | 12        | 0x4e38e38e (1312351118) |
| NPU_SET_OPB_SCALE         | 0         | 0x00000000 (0)          |
| NPU_SET_OFM_SCALE         | 49        | 0x4ccccccd (1288490189) |
| NPU_SET_IFM_BASE0         | 0         | 0x00000000 (0)          |
| NPU_SET_IFM_STRIDE_C      | 0         | 0x00000010 (16)         |
| NPU_SET_IFM_STRIDE_X      | 0         | 0x00000010 (16)         |
| NPU_SET_IFM_ZERO_POINT    | 65501     | -                       |
| NPU_SET_IFM_PRECISION     | 321       | -                       |
| NPU_SET_OFM_BASE0         | 0         | 0x00000080 (128)        |
| NPU_SET_OFM_ZERO_POINT    | 65510     | -                       |
| NPU_SET_IFM2_BASE0        | 0         | 0x00000040 (64)         |
| NPU_SET_IFM2_ZERO_POINT   | 0         | -                       |
| NPU_SET_BLOCKDEP          | 0         | -                       |
| NPU_OP_ELEMENTWISE        | 1         | -                       |
| NPU_SET_DMA0_SRC          | 0         | 0x00000100 (256)        |
| NPU_SET_DMA0_DST          | 0         | 0x0000b900 (47360)      |
| NPU_OP_DMA_START          | 0         | -                       |
| NPU_SET_OPA_SCALE         | 18        | 0x6d3a06d4 (1832519380) |
| NPU_SET_OFM_SCALE         | 47        | 0x78000000 (2013265920) |
| NPU_SET_IFM_BASE0         | 0         | 0x00000080 (128)        |
| NPU_SET_IFM_ZERO_POINT    | 65510     | -                       |
| NPU_SET_IFM_PRECISION     | 577       | -                       |
| NPU_SET_OFM_REGION        | 6         | -                       |
| NPU_SET_OFM_BASE0         | 0         | 0x00000000 (0)          |
| NPU_SET_OFM_STRIDE_C      | 0         | 0x00000001 (1)          |
| NPU_SET_OFM_STRIDE_X      | 0         | 0x00000040 (64)         |
| NPU_SET_OFM_ZERO_POINT    | 0         | -                       |
| NPU_SET_OFM_PRECISION     | 257       | -                       |
| NPU_SET_ACTIVATION        | 17        | -                       |
| NPU_SET_IFM2_REGION       | 3         | -                       |
| NPU_SET_IFM2_STRIDE_C     | 0         | 0x00000001 (1)          |
| NPU_SET_IFM2_STRIDE_X     | 0         | 0x00000040 (64)         |
| NPU_SET_IFM2_ZERO_POINT   | 64261     | -                       |
| NPU_SET_IFM_PRECISION     | 1         | -                       |
| NPU_OP_DMA_WAIT           | 0         | -                       |
| NPU_OP_ELEMENTWISE        | 2         | -                       |
| NPU_SET_OFM_SCALE         | 33        | 0x5d1745d1 (1561806289) |
| NPU_SET_IFM_REGION        | 3         | -                       |
| NPU_SET_IFM_BASE0         | 0         | 0x00000040 (64)         |
| NPU_SET_IFM_STRIDE_C      | 0         | 0x00000001 (1)          |
| NPU_SET_IFM_STRIDE_X      | 0         | 0x00000040 (64)         |
| NPU_SET_IFM_ZERO_POINT    | 64261     | -                       |
| NPU_SET_IFM_PRECISION     | 1         | -                       |
| NPU_SET_OFM_REGION        | 1         | -                       |
| NPU_SET_OFM_BASE0         | 0         | 0x00000040 (64)         |
| NPU_SET_OFM_STRIDE_C      | 0         | 0x00000010 (16)         |
| NPU_SET_OFM_STRIDE_X      | 0         | 0x00000010 (16)         |
| NPU_SET_OFM_ZERO_POINT    | 65408     | -                       |
| NPU_SET_OFM_PRECISION     | 321       | -                       |
| NPU_SET_ACTIVATION        | 0         | -                       |
| NPU_SET_IFM2_REGION       | 6         | -                       |
| NPU_SET_IFM2_BASE0        | 0         | 0x00000000 (0)          |
| NPU_SET_IFM2_ZERO_POINT   | 0         | -                       |
| NPU_OP_ELEMENTWISE        | 0         | -                       |
| NPU_SET_OPA_SCALE         | 15        | 0x4b17e4b1 (1259857073) |
| NPU_SET_OFM_SCALE         | 49        | 0x40000000 (1073741824) |
| NPU_SET_IFM_REGION        | 1         | -                       |
| NPU_SET_IFM_BASE0         | 0         | 0x00000080 (128)        |
| NPU_SET_IFM_STRIDE_C      | 0         | 0x00000010 (16)         |
| NPU_SET_IFM_STRIDE_X      | 0         | 0x00000010 (16)         |
| NPU_SET_IFM_ZERO_POINT    | 65510     | -                       |
| NPU_SET_IFM_PRECISION     | 577       | -                       |
| NPU_SET_OFM_BASE0         | 0         | 0x00000080 (128)        |
| NPU_SET_OFM_STRIDE_C      | 0         | 0x00000001 (1)          |
| NPU_SET_OFM_STRIDE_X      | 0         | 0x00000040 (64)         |
| NPU_SET_OFM_ZERO_POINT    | 65510     | -                       |
| NPU_SET_OFM_PRECISION     | 257       | -                       |
| NPU_SET_IFM2_REGION       | 1         | -                       |
| NPU_SET_IFM2_BASE0        | 0         | 0x00000040 (64)         |
| NPU_SET_IFM2_STRIDE_C     | 0         | 0x00000010 (16)         |
| NPU_SET_IFM2_STRIDE_X     | 0         | 0x00000010 (16)         |
| NPU_SET_IFM2_ZERO_POINT   | 65408     | -                       |
| NPU_SET_IFM_PRECISION     | 65        | -                       |
| NPU_OP_ELEMENTWISE        | 2         | -                       |
| NPU_SET_IFM_REGION        | 6         | -                       |
| NPU_SET_IFM_BASE0         | 0         | 0x00000000 (0)          |
| NPU_SET_IFM_STRIDE_C      | 0         | 0x00000001 (1)          |
| NPU_SET_IFM_STRIDE_X      | 0         | 0x00000040 (64)         |
| NPU_SET_IFM_ZERO_POINT    | 0         | -                       |
| NPU_SET_IFM_PRECISION     | 1         | -                       |
| NPU_SET_OFM_BASE0         | 0         | 0x000000c1 (193)        |
| NPU_SET_OFM_DEPTH_M1      | 0         | -                       |
| NPU_SET_OFM_STRIDE_Y      | 0         | 0x00000001 (1)          |
| NPU_SET_OFM_STRIDE_X      | 0         | 0x00000001 (1)          |
| NPU_SET_OFM_ZERO_POINT    | 65408     | -                       |
| NPU_SET_OFM_BLK_DEPTH_M1  | 7         | -                       |
| NPU_SET_IFM_IB_END        | 10        | -                       |
| NPU_SET_AB_START          | 30        | -                       |
| NPU_SET_OFM_SCALE         | 22        | 0x3fc000ff (1069547775) |
| NPU_SET_BLOCKDEP          | 3         | -                       |
| NPU_OP_POOL               | 2         | -                       |
| NPU_SET_OFM_SCALE         | 30        | 0x40000000 (1073741824) |
| NPU_SET_IFM_REGION        | 1         | -                       |
| NPU_SET_IFM_BASE0         | 0         | 0x000000c0 (192)        |
| NPU_SET_IFM_DEPTH_M1      | 0         | -                       |
| NPU_SET_IFM_STRIDE_Y      | 0         | 0x00000001 (1)          |
| NPU_SET_IFM_STRIDE_X      | 0         | 0x00000001 (1)          |
| NPU_SET_IFM_ZERO_POINT    | 65408     | -                       |
| NPU_SET_OFM_BASE0         | 0         | 0x000000c0 (192)        |
| NPU_SET_ACTIVATION_MAX    | 65408     | -                       |
| NPU_SET_IFM_IB_END        | 46        | -                       |
| NPU_SET_AB_START          | 46        | -                       |
| NPU_SET_IFM2_ZERO_POINT   | 0         | -                       |
| NPU_SET_IFM_PRECISION     | 0         | -                       |
| NPU_SET_IFM2_BROADCAST    | 128       | -                       |
| NPU_SET_IFM2_SCALAR       | 0         | -                       |
| NPU_OP_ELEMENTWISE        | 0         | -                       |
| NPU_OP_STOP               | 65535     | -                       |
+---------------------------+-----------+-------------------------+
*/
