#pragma once
#include <stddef.h>
#include <stdint.h>




// Tensor sizes

#define FC_LIF_LAYER_1_IS_LAST_LAYER 0
#define FC_LIF_LAYER_1_MAX_NUM_TENSORS_TO_TRACK 8
#define FC_LIF_LAYER_1_TENSOR_ARENA_SIZE  194
#define FC_LIF_LAYER_1_INPUT_LAYER_SIZE  64
#define FC_LIF_LAYER_1_OUTPUT_LAYER_SIZE  64
#define FC_LIF_LAYER_1_WEIGHT_LEN 3840
#define FC_LIF_LAYER_1_BIAS_LEN 640

// Input/output addresses (Relative Addressing)

#define FC_LIF_LAYER_1_IN_SPK_ADDR 0
#define FC_LIF_LAYER_1_BIAS_ADDR 0
#define FC_LIF_LAYER_1_WEIGHT_ADDR 640
#define FC_LIF_LAYER_1_LN_BETA_ADDR 0
#define FC_LIF_LAYER_1_VTH_ADDR 64
#define FC_LIF_LAYER_1_V_MEM_ADDR 128
#define FC_LIF_LAYER_1_TIME_NOT_UPDATED_ADDR 192
#define FC_LIF_LAYER_1_IN_CURR_ADDR 64
#define FC_LIF_LAYER_1_DECAY_ADDR 0
#define FC_LIF_LAYER_1_DECAYED_MEM_ADDR 0
#define FC_LIF_LAYER_1_UPDATE_NXT_LAYER_ADDR 193
#define FC_LIF_LAYER_1_OUT_SPK_ADDR 0
#define FC_LIF_LAYER_1_OUT_SPK_SUM_ADDR -1

//Quantization Params

#define FC_LIF_LAYER_1_IN_SPK_SCALE 1.0
#define FC_LIF_LAYER_1_IN_SPK_ZERO_POINT 0
#define FC_LIF_LAYER_1_BIAS_SCALE 0.005072758057538201
#define FC_LIF_LAYER_1_BIAS_ZERO_POINT 0
#define FC_LIF_LAYER_1_WEIGHT_SCALE 0.005072758057538201
#define FC_LIF_LAYER_1_WEIGHT_ZERO_POINT 0
#define FC_LIF_LAYER_1_LN_BETA_SCALE 0.0007843137254901962
#define FC_LIF_LAYER_1_LN_BETA_ZERO_POINT 65
#define FC_LIF_LAYER_1_VTH_SCALE 0.0007843137254901964
#define FC_LIF_LAYER_1_VTH_ZERO_POINT -1275
#define FC_LIF_LAYER_1_V_MEM_SCALE 0.058823529411764705
#define FC_LIF_LAYER_1_V_MEM_ZERO_POINT -26
#define FC_LIF_LAYER_1_TIME_NOT_UPDATED_SCALE 0.06274509803921569
#define FC_LIF_LAYER_1_TIME_NOT_UPDATED_ZERO_POINT -128
#define FC_LIF_LAYER_1_DECAY_SCALE 0.0037254901960784314
#define FC_LIF_LAYER_1_DECAY_ZERO_POINT -128
#define FC_LIF_LAYER_1_IN_CURR_SCALE 0.07058823529411765
#define FC_LIF_LAYER_1_IN_CURR_ZERO_POINT 0
#define FC_LIF_LAYER_1_DECAYED_MEM_SCALE 0.043137254901960784
#define FC_LIF_LAYER_1_DECAYED_MEM_ZERO_POINT -35
#define FC_LIF_LAYER_1_UPDATE_NXT_LAYER_SCALE 0.00392156862745098
#define FC_LIF_LAYER_1_UPDATE_NXT_LAYER_ZERO_POINT -128
#define FC_LIF_LAYER_1_OUT_SPK_SCALE 1.0
#define FC_LIF_LAYER_1_OUT_SPK_ZERO_POINT 0
#define FC_LIF_LAYER_1_OUT_SPK_SUM_SCALE 0
#define FC_LIF_LAYER_1_OUT_SPK_SUM_ZERO_POINT 0











static const uint8_t cms_fc_lif_layer_1[] __attribute__((aligned(16))) = 
{

0x43, 0x4f, 0x50, 0x31,
0x01, 0x00, 0x10, 0x00,
0x08, 0x30, 0x00, 0x00,
0x00, 0x00, 0x06, 0x10,
0x05, 0x00, 0x00, 0x00,
0x05, 0x00, 0x00, 0x00,
0x05, 0x00, 0x00, 0x00,
0x02, 0x00, 0x2a, 0x01,
0x30, 0x01, 0x04, 0x00,
0x30, 0x40, 0x00, 0x00,
0x00, 0x00, 0x00, 0x00,
0x31, 0x01, 0x03, 0x01,
0x31, 0x40, 0x00, 0x00,
0x00, 0xb8, 0x00, 0x00,
0x32, 0x40, 0x00, 0x00,
0x00, 0x01, 0x00, 0x00,
0x10, 0x00, 0x00, 0x00,
0x24, 0x40, 0x25, 0x00,
0x80, 0x33, 0xcd, 0x66,
0x0f, 0x01, 0x03, 0x00,
0x00, 0x40, 0x00, 0x00,
0x00, 0x00, 0x00, 0x00,
0x01, 0x40, 0x00, 0x00,
0x00, 0x00, 0x00, 0x00,
0x02, 0x40, 0x00, 0x00,
0x00, 0x00, 0x00, 0x00,
0x03, 0x40, 0x00, 0x00,
0x00, 0x00, 0x00, 0x00,
0x0b, 0x01, 0x00, 0x00,
0x0c, 0x01, 0xff, 0xff,
0x0a, 0x01, 0x00, 0x00,
0x04, 0x01, 0x3f, 0x00,
0x06, 0x40, 0x00, 0x00,
0x01, 0x00, 0x00, 0x00,
0x05, 0x40, 0x00, 0x00,
0x40, 0x00, 0x00, 0x00,
0x04, 0x40, 0x00, 0x00,
0x40, 0x00, 0x00, 0x00,
0x09, 0x01, 0x41, 0x00,
0x05, 0x01, 0x01, 0x00,
0x07, 0x01, 0x00, 0x00,
0x1f, 0x01, 0x01, 0x00,
0x10, 0x40, 0x00, 0x00,
0x00, 0x00, 0x00, 0x00,
0x11, 0x40, 0x00, 0x00,
0x00, 0x00, 0x00, 0x00,
0x12, 0x40, 0x00, 0x00,
0x00, 0x00, 0x00, 0x00,
0x13, 0x40, 0x00, 0x00,
0x00, 0x00, 0x00, 0x00,
0x1b, 0x01, 0x00, 0x00,
0x1c, 0x01, 0xff, 0xff,
0x1a, 0x01, 0x00, 0x00,
0x12, 0x01, 0x00, 0x00,
0x11, 0x01, 0x00, 0x00,
0x13, 0x01, 0x3f, 0x00,
0x16, 0x40, 0x00, 0x00,
0x10, 0x00, 0x00, 0x00,
0x15, 0x40, 0x00, 0x00,
0x40, 0x00, 0x00, 0x00,
0x14, 0x40, 0x00, 0x00,
0x10, 0x00, 0x00, 0x00,
0x18, 0x01, 0x7f, 0x00,
0x14, 0x01, 0x41, 0x01,
0x25, 0x01, 0x10, 0x00,
0x26, 0x01, 0x80, 0xff,
0x27, 0x01, 0x7f, 0x00,
0x16, 0x01, 0x01, 0x00,
0x15, 0x01, 0x01, 0x00,
0x17, 0x01, 0x3f, 0x00,
0x0d, 0x01, 0x2e, 0x00,
0x2d, 0x01, 0x2e, 0x00,
0x8d, 0x01, 0x0a, 0x00,
0x24, 0x01, 0x00, 0x00,
0x8f, 0x01, 0x01, 0x00,
0x80, 0x40, 0x00, 0x00,
0xc0, 0x00, 0x00, 0x00,
0x81, 0x40, 0x00, 0x00,
0x00, 0x00, 0x00, 0x00,
0x82, 0x40, 0x00, 0x00,
0x00, 0x00, 0x00, 0x00,
0x83, 0x40, 0x00, 0x00,
0x00, 0x00, 0x00, 0x00,
0x8b, 0x01, 0x00, 0x00,
0x8c, 0x01, 0xff, 0xff,
0x8a, 0x01, 0x00, 0x00,
0x86, 0x40, 0x00, 0x00,
0x01, 0x00, 0x00, 0x00,
0x85, 0x40, 0x00, 0x00,
0x01, 0x00, 0x00, 0x00,
0x84, 0x40, 0x00, 0x00,
0x01, 0x00, 0x00, 0x00,
0x89, 0x01, 0x80, 0xff,
0x85, 0x01, 0x01, 0x00,
0x80, 0x01, 0x04, 0x00,
0x2f, 0x01, 0x00, 0x00,
0x11, 0x00, 0x00, 0x00,
0x06, 0x00, 0x00, 0x00,
0x0f, 0x01, 0x05, 0x00,
0x09, 0x01, 0x00, 0x00,
0x00, 0x01, 0x00, 0x00,
0x01, 0x01, 0x00, 0x00,
0x03, 0x01, 0x00, 0x00,
0x02, 0x01, 0x00, 0x00,
0x10, 0x40, 0x00, 0x00,
0x40, 0x00, 0x00, 0x00,
0x18, 0x01, 0x00, 0x00,
0x14, 0x01, 0x41, 0x00,
0x21, 0x01, 0x00, 0x00,
0x20, 0x01, 0x00, 0x00,
0x22, 0x01, 0x00, 0x00,
0x28, 0x01, 0x00, 0x00,
0x20, 0x40, 0x00, 0x00,
0x80, 0x02, 0x00, 0x00,
0x21, 0x40, 0x00, 0x00,
0x00, 0x0f, 0x00, 0x00,
0x29, 0x01, 0x00, 0x00,
0x22, 0x40, 0x00, 0x00,
0x00, 0x00, 0x00, 0x00,
0x23, 0x40, 0x00, 0x00,
0x80, 0x02, 0x00, 0x00,
0x25, 0x01, 0x00, 0x00,
0x0d, 0x01, 0x0a, 0x00,
0x2d, 0x01, 0x1e, 0x00,
0x2f, 0x01, 0x03, 0x00,
0x02, 0x00, 0x00, 0x00,
0x24, 0x40, 0x26, 0x00,
0x00, 0xf6, 0x3b, 0x53,
0x0f, 0x01, 0x01, 0x00,
0x00, 0x40, 0x00, 0x00,
0x80, 0x00, 0x00, 0x00,
0x09, 0x01, 0xe6, 0xff,
0x10, 0x40, 0x00, 0x00,
0x00, 0x00, 0x00, 0x00,
0x18, 0x01, 0xdd, 0xff,
0x14, 0x01, 0x41, 0x01,
0x0d, 0x01, 0x2e, 0x00,
0x2d, 0x01, 0x2e, 0x00,
0x80, 0x40, 0x00, 0x00,
0x00, 0x00, 0x00, 0x00,
0x86, 0x40, 0x00, 0x00,
0x10, 0x00, 0x00, 0x00,
0x85, 0x40, 0x00, 0x00,
0x40, 0x00, 0x00, 0x00,
0x84, 0x40, 0x00, 0x00,
0x10, 0x00, 0x00, 0x00,
0x85, 0x01, 0x41, 0x00,
0x80, 0x01, 0x00, 0x00,
0x06, 0x00, 0x00, 0x00,
0x25, 0x40, 0x0c, 0x00,
0x8e, 0xe3, 0x38, 0x4e,
0x26, 0x40, 0x00, 0x00,
0x00, 0x00, 0x00, 0x00,
0x24, 0x40, 0x31, 0x00,
0xcd, 0xcc, 0xcc, 0x4c,
0x00, 0x40, 0x00, 0x00,
0x00, 0x00, 0x00, 0x00,
0x06, 0x40, 0x00, 0x00,
0x10, 0x00, 0x00, 0x00,
0x04, 0x40, 0x00, 0x00,
0x10, 0x00, 0x00, 0x00,
0x09, 0x01, 0xdd, 0xff,
0x05, 0x01, 0x41, 0x01,
0x10, 0x40, 0x00, 0x00,
0x80, 0x00, 0x00, 0x00,
0x18, 0x01, 0xe6, 0xff,
0x80, 0x40, 0x00, 0x00,
0x40, 0x00, 0x00, 0x00,
0x89, 0x01, 0x00, 0x00,
0x2f, 0x01, 0x00, 0x00,
0x06, 0x00, 0x01, 0x00,
0x30, 0x40, 0x00, 0x00,
0x00, 0x01, 0x00, 0x00,
0x31, 0x40, 0x00, 0x00,
0x00, 0xb9, 0x00, 0x00,
0x10, 0x00, 0x00, 0x00,
0x25, 0x40, 0x12, 0x00,
0xd4, 0x06, 0x3a, 0x6d,
0x24, 0x40, 0x2f, 0x00,
0x00, 0x00, 0x00, 0x78,
0x00, 0x40, 0x00, 0x00,
0x80, 0x00, 0x00, 0x00,
0x09, 0x01, 0xe6, 0xff,
0x05, 0x01, 0x41, 0x02,
0x1f, 0x01, 0x06, 0x00,
0x10, 0x40, 0x00, 0x00,
0x00, 0x00, 0x00, 0x00,
0x16, 0x40, 0x00, 0x00,
0x01, 0x00, 0x00, 0x00,
0x14, 0x40, 0x00, 0x00,
0x40, 0x00, 0x00, 0x00,
0x18, 0x01, 0x00, 0x00,
0x14, 0x01, 0x01, 0x01,
0x25, 0x01, 0x11, 0x00,
0x8f, 0x01, 0x03, 0x00,
0x86, 0x40, 0x00, 0x00,
0x01, 0x00, 0x00, 0x00,
0x84, 0x40, 0x00, 0x00,
0x40, 0x00, 0x00, 0x00,
0x89, 0x01, 0x05, 0xfb,
0x85, 0x01, 0x01, 0x00,
0x11, 0x00, 0x00, 0x00,
0x06, 0x00, 0x02, 0x00,
0x24, 0x40, 0x21, 0x00,
0x80, 0x45, 0x17, 0x5d,
0x0f, 0x01, 0x03, 0x00,
0x00, 0x40, 0x00, 0x00,
0x40, 0x00, 0x00, 0x00,
0x06, 0x40, 0x00, 0x00,
0x01, 0x00, 0x00, 0x00,
0x04, 0x40, 0x00, 0x00,
0x40, 0x00, 0x00, 0x00,
0x09, 0x01, 0x05, 0xfb,
0x05, 0x01, 0x01, 0x00,
0x1f, 0x01, 0x01, 0x00,
0x10, 0x40, 0x00, 0x00,
0x40, 0x00, 0x00, 0x00,
0x16, 0x40, 0x00, 0x00,
0x10, 0x00, 0x00, 0x00,
0x14, 0x40, 0x00, 0x00,
0x10, 0x00, 0x00, 0x00,
0x18, 0x01, 0x80, 0xff,
0x14, 0x01, 0x41, 0x01,
0x25, 0x01, 0x00, 0x00,
0x8f, 0x01, 0x06, 0x00,
0x80, 0x40, 0x00, 0x00,
0x00, 0x00, 0x00, 0x00,
0x89, 0x01, 0x00, 0x00,
0x06, 0x00, 0x00, 0x00,
0x25, 0x40, 0x0f, 0x00,
0xb1, 0xe4, 0x17, 0x4b,
0x24, 0x40, 0x31, 0x00,
0x00, 0x00, 0x00, 0x40,
0x0f, 0x01, 0x01, 0x00,
0x00, 0x40, 0x00, 0x00,
0x80, 0x00, 0x00, 0x00,
0x06, 0x40, 0x00, 0x00,
0x10, 0x00, 0x00, 0x00,
0x04, 0x40, 0x00, 0x00,
0x10, 0x00, 0x00, 0x00,
0x09, 0x01, 0xe6, 0xff,
0x05, 0x01, 0x41, 0x02,
0x10, 0x40, 0x00, 0x00,
0x80, 0x00, 0x00, 0x00,
0x16, 0x40, 0x00, 0x00,
0x01, 0x00, 0x00, 0x00,
0x14, 0x40, 0x00, 0x00,
0x40, 0x00, 0x00, 0x00,
0x18, 0x01, 0xe6, 0xff,
0x14, 0x01, 0x01, 0x01,
0x8f, 0x01, 0x01, 0x00,
0x80, 0x40, 0x00, 0x00,
0x40, 0x00, 0x00, 0x00,
0x86, 0x40, 0x00, 0x00,
0x10, 0x00, 0x00, 0x00,
0x84, 0x40, 0x00, 0x00,
0x10, 0x00, 0x00, 0x00,
0x89, 0x01, 0x80, 0xff,
0x85, 0x01, 0x41, 0x00,
0x06, 0x00, 0x02, 0x00,
0x0f, 0x01, 0x06, 0x00,
0x00, 0x40, 0x00, 0x00,
0x00, 0x00, 0x00, 0x00,
0x06, 0x40, 0x00, 0x00,
0x01, 0x00, 0x00, 0x00,
0x04, 0x40, 0x00, 0x00,
0x40, 0x00, 0x00, 0x00,
0x09, 0x01, 0x00, 0x00,
0x05, 0x01, 0x01, 0x00,
0x10, 0x40, 0x00, 0x00,
0xc1, 0x00, 0x00, 0x00,
0x13, 0x01, 0x00, 0x00,
0x15, 0x40, 0x00, 0x00,
0x01, 0x00, 0x00, 0x00,
0x14, 0x40, 0x00, 0x00,
0x01, 0x00, 0x00, 0x00,
0x18, 0x01, 0x80, 0xff,
0x17, 0x01, 0x07, 0x00,
0x0d, 0x01, 0x0a, 0x00,
0x2d, 0x01, 0x1e, 0x00,
0x24, 0x40, 0x16, 0x00,
0xff, 0x00, 0xc0, 0x3f,
0x2f, 0x01, 0x03, 0x00,
0x05, 0x00, 0x02, 0x00,
0x24, 0x40, 0x1e, 0x00,
0x00, 0x00, 0x00, 0x40,
0x0f, 0x01, 0x01, 0x00,
0x00, 0x40, 0x00, 0x00,
0xc0, 0x00, 0x00, 0x00,
0x04, 0x01, 0x00, 0x00,
0x05, 0x40, 0x00, 0x00,
0x01, 0x00, 0x00, 0x00,
0x04, 0x40, 0x00, 0x00,
0x01, 0x00, 0x00, 0x00,
0x09, 0x01, 0x80, 0xff,
0x10, 0x40, 0x00, 0x00,
0xc0, 0x00, 0x00, 0x00,
0x27, 0x01, 0x80, 0xff,
0x0d, 0x01, 0x2e, 0x00,
0x2d, 0x01, 0x2e, 0x00,
0x89, 0x01, 0x00, 0x00,
0x85, 0x01, 0x00, 0x00,
0x80, 0x01, 0x80, 0x00,
0x81, 0x01, 0x00, 0x00,
0x06, 0x00, 0x00, 0x00,
0x00, 0x00, 0xff, 0xff, 

};







static inline const uint8_t * Getfc_lif_layer_1CMSPointer()
{
	return cms_fc_lif_layer_1;
}

static inline size_t Getfc_lif_layer_1CMSLen()
{
	return sizeof(cms_fc_lif_layer_1);
}





static const int8_t weight_fc_lif_layer_1[] __attribute__((aligned(16))) = 
{

//biases
0xd2, 0xff, 0xff, 0xff,
0xff, 0x44, 0xbc, 0x96,
0x49, 0x22, 0xb3, 0xff,
0xff, 0xff, 0xff, 0x44,
0xbc, 0x96, 0x49, 0x22,
0xf8, 0xff, 0xff, 0xff,
0xff, 0x44, 0xbc, 0x96,
0x49, 0x22, 0xd3, 0xff,
0xff, 0xff, 0xff, 0x44,
0xbc, 0x96, 0x49, 0x22,
0xc7, 0xff, 0xff, 0xff,
0xff, 0x44, 0xbc, 0x96,
0x49, 0x22, 0xe1, 0xff,
0xff, 0xff, 0xff, 0x44,
0xbc, 0x96, 0x49, 0x22,
0x13, 0x00, 0x00, 0x00,
0x00, 0x44, 0xbc, 0x96,
0x49, 0x22, 0xeb, 0xff,
0xff, 0xff, 0xff, 0x44,
0xbc, 0x96, 0x49, 0x22,
0xcc, 0xff, 0xff, 0xff,
0xff, 0x44, 0xbc, 0x96,
0x49, 0x22, 0xfb, 0xff,
0xff, 0xff, 0xff, 0x44,
0xbc, 0x96, 0x49, 0x22,
0xc3, 0xff, 0xff, 0xff,
0xff, 0x44, 0xbc, 0x96,
0x49, 0x22, 0xd7, 0xff,
0xff, 0xff, 0xff, 0x44,
0xbc, 0x96, 0x49, 0x22,
0xe0, 0xff, 0xff, 0xff,
0xff, 0x44, 0xbc, 0x96,
0x49, 0x22, 0xc4, 0xff,
0xff, 0xff, 0xff, 0x44,
0xbc, 0x96, 0x49, 0x22,
0xf0, 0xff, 0xff, 0xff,
0xff, 0x44, 0xbc, 0x96,
0x49, 0x22, 0xd7, 0xff,
0xff, 0xff, 0xff, 0x44,
0xbc, 0x96, 0x49, 0x22,
0xd8, 0xff, 0xff, 0xff,
0xff, 0x44, 0xbc, 0x96,
0x49, 0x22, 0xfc, 0xff,
0xff, 0xff, 0xff, 0x44,
0xbc, 0x96, 0x49, 0x22,
0xdb, 0xff, 0xff, 0xff,
0xff, 0x44, 0xbc, 0x96,
0x49, 0x22, 0xee, 0xff,
0xff, 0xff, 0xff, 0x44,
0xbc, 0x96, 0x49, 0x22,
0xd4, 0xff, 0xff, 0xff,
0xff, 0x44, 0xbc, 0x96,
0x49, 0x22, 0xea, 0xff,
0xff, 0xff, 0xff, 0x44,
0xbc, 0x96, 0x49, 0x22,
0xdd, 0xff, 0xff, 0xff,
0xff, 0x44, 0xbc, 0x96,
0x49, 0x22, 0xf0, 0xff,
0xff, 0xff, 0xff, 0x44,
0xbc, 0x96, 0x49, 0x22,
0xc3, 0xff, 0xff, 0xff,
0xff, 0x44, 0xbc, 0x96,
0x49, 0x22, 0xd3, 0xff,
0xff, 0xff, 0xff, 0x44,
0xbc, 0x96, 0x49, 0x22,
0xb8, 0xff, 0xff, 0xff,
0xff, 0x44, 0xbc, 0x96,
0x49, 0x22, 0x04, 0x00,
0x00, 0x00, 0x00, 0x44,
0xbc, 0x96, 0x49, 0x22,
0xca, 0xff, 0xff, 0xff,
0xff, 0x44, 0xbc, 0x96,
0x49, 0x22, 0xc6, 0xff,
0xff, 0xff, 0xff, 0x44,
0xbc, 0x96, 0x49, 0x22,
0xce, 0xff, 0xff, 0xff,
0xff, 0x44, 0xbc, 0x96,
0x49, 0x22, 0xcd, 0xff,
0xff, 0xff, 0xff, 0x44,
0xbc, 0x96, 0x49, 0x22,
0xdd, 0xff, 0xff, 0xff,
0xff, 0x44, 0xbc, 0x96,
0x49, 0x22, 0xe2, 0xff,
0xff, 0xff, 0xff, 0x44,
0xbc, 0x96, 0x49, 0x22,
0xe4, 0xff, 0xff, 0xff,
0xff, 0x44, 0xbc, 0x96,
0x49, 0x22, 0x0d, 0x00,
0x00, 0x00, 0x00, 0x44,
0xbc, 0x96, 0x49, 0x22,
0xca, 0xff, 0xff, 0xff,
0xff, 0x44, 0xbc, 0x96,
0x49, 0x22, 0xeb, 0xff,
0xff, 0xff, 0xff, 0x44,
0xbc, 0x96, 0x49, 0x22,
0xb0, 0xff, 0xff, 0xff,
0xff, 0x44, 0xbc, 0x96,
0x49, 0x22, 0xa5, 0xff,
0xff, 0xff, 0xff, 0x44,
0xbc, 0x96, 0x49, 0x22,
0xdc, 0xff, 0xff, 0xff,
0xff, 0x44, 0xbc, 0x96,
0x49, 0x22, 0xa0, 0xff,
0xff, 0xff, 0xff, 0x44,
0xbc, 0x96, 0x49, 0x22,
0xe1, 0xff, 0xff, 0xff,
0xff, 0x44, 0xbc, 0x96,
0x49, 0x22, 0xd7, 0xff,
0xff, 0xff, 0xff, 0x44,
0xbc, 0x96, 0x49, 0x22,
0xcf, 0xff, 0xff, 0xff,
0xff, 0x44, 0xbc, 0x96,
0x49, 0x22, 0xdd, 0xff,
0xff, 0xff, 0xff, 0x44,
0xbc, 0x96, 0x49, 0x22,
0xee, 0xff, 0xff, 0xff,
0xff, 0x44, 0xbc, 0x96,
0x49, 0x22, 0x03, 0x00,
0x00, 0x00, 0x00, 0x44,
0xbc, 0x96, 0x49, 0x22,
0xe4, 0xff, 0xff, 0xff,
0xff, 0x44, 0xbc, 0x96,
0x49, 0x22, 0xec, 0xff,
0xff, 0xff, 0xff, 0x44,
0xbc, 0x96, 0x49, 0x22,
0xdc, 0xff, 0xff, 0xff,
0xff, 0x44, 0xbc, 0x96,
0x49, 0x22, 0xc2, 0xff,
0xff, 0xff, 0xff, 0x44,
0xbc, 0x96, 0x49, 0x22,
0xa7, 0xff, 0xff, 0xff,
0xff, 0x44, 0xbc, 0x96,
0x49, 0x22, 0xd5, 0xff,
0xff, 0xff, 0xff, 0x44,
0xbc, 0x96, 0x49, 0x22,
0xd3, 0xff, 0xff, 0xff,
0xff, 0x44, 0xbc, 0x96,
0x49, 0x22, 0xca, 0xff,
0xff, 0xff, 0xff, 0x44,
0xbc, 0x96, 0x49, 0x22,
0xab, 0xff, 0xff, 0xff,
0xff, 0x44, 0xbc, 0x96,
0x49, 0x22, 0xbe, 0xff,
0xff, 0xff, 0xff, 0x44,
0xbc, 0x96, 0x49, 0x22,
0xe7, 0xff, 0xff, 0xff,
0xff, 0x44, 0xbc, 0x96,
0x49, 0x22, 0xf3, 0xff,
0xff, 0xff, 0xff, 0x44,
0xbc, 0x96, 0x49, 0x22,
0x96, 0xff, 0xff, 0xff,
0xff, 0x44, 0xbc, 0x96,
0x49, 0x22, 0xb0, 0xff,
0xff, 0xff, 0xff, 0x44,
0xbc, 0x96, 0x49, 0x22,
0xcb, 0xff, 0xff, 0xff,
0xff, 0x44, 0xbc, 0x96,
0x49, 0x22, 0xd9, 0xff,
0xff, 0xff, 0xff, 0x44,
0xbc, 0x96, 0x49, 0x22, 
//weights
0xfe, 0x7f, 0x54, 0xf0,
0x69, 0x29, 0xa3, 0xe9,
0x5d, 0x8b, 0x40, 0x0d,
0xec, 0xeb, 0x9e, 0x5c,
0x23, 0x69, 0xd9, 0x63,
0x24, 0x65, 0xa5, 0x92,
0x61, 0xdb, 0x4d, 0xe2,
0xca, 0xc5, 0xc5, 0x00,
0x7f, 0x35, 0x0a, 0x38,
0xe2, 0x4a, 0x38, 0x0b,
0x9d, 0xa5, 0x03, 0xa0,
0xf1, 0x55, 0x05, 0xa6,
0x86, 0xcc, 0xc2, 0x0f,
0x06, 0x5d, 0x38, 0x90,
0x4b, 0xf2, 0x7a, 0x6a,
0x93, 0x48, 0x5a, 0xf0,
0x00, 0x10, 0x8e, 0xf3,
0xa3, 0x01, 0x8b, 0xce,
0x34, 0x2e, 0x14, 0x93,
0xee, 0xbc, 0x6e, 0x71,
0x3c, 0xbe, 0x7a, 0x14,
0x21, 0x9a, 0x33, 0x7f,
0xd8, 0xe5, 0x67, 0xbf,
0x58, 0x82, 0xbd, 0xb6,
0x16, 0x98, 0xb1, 0x38,
0xbf, 0xb0, 0xb3, 0xc8,
0xdf, 0x13, 0x31, 0x39,
0x7b, 0x9a, 0x9b, 0x45,
0xa4, 0x8b, 0x08, 0xc0,
0xe3, 0xbb, 0x6c, 0xb3,
0xc9, 0x03, 0x0e, 0x76,
0xe7, 0xbd, 0xb1, 0x6d,
0x5c, 0x08, 0x62, 0xf6,
0x76, 0x7a, 0x00, 0x20,
0x6f, 0x8b, 0xf7, 0x17,
0xfb, 0xd2, 0x91, 0x52,
0x3b, 0xbc, 0x90, 0xb6,
0x2e, 0xa0, 0xbb, 0xeb,
0xd6, 0x71, 0xf2, 0xb6,
0x82, 0x9f, 0x00, 0x6d,
0x2b, 0xde, 0x10, 0x85,
0x18, 0xde, 0x1d, 0x01,
0xde, 0x8a, 0xf5, 0x85,
0xc6, 0xe0, 0x47, 0xc9,
0xab, 0x9e, 0x9e, 0xe7,
0xe8, 0x51, 0x46, 0xbd,
0xda, 0x53, 0xf7, 0x08,
0xec, 0xed, 0xe9, 0x05,
0xfd, 0x87, 0xb8, 0xa1,
0xcf, 0x62, 0x0c, 0xab,
0x1c, 0x0d, 0xb0, 0xdc,
0xfd, 0x26, 0x0a, 0x14,
0x3a, 0xd7, 0x7e, 0xd8,
0x51, 0x42, 0x25, 0x3c,
0x64, 0x70, 0x01, 0x24,
0x98, 0xf4, 0xcc, 0xd3,
0x86, 0x8d, 0xc3, 0x1c,
0x05, 0x93, 0x5b, 0xdd,
0xf1, 0xf1, 0x98, 0x36,
0xc9, 0x25, 0x12, 0xef,
0x75, 0x0e, 0x44, 0x63,
0x48, 0xf3, 0x63, 0x03,
0x5c, 0x76, 0x7b, 0x62,
0xa8, 0x23, 0x26, 0x06,
0x08, 0xf8, 0x2c, 0x24,
0x0b, 0x0e, 0x9f, 0x50,
0xeb, 0xdc, 0xc2, 0x11,
0x13, 0xe8, 0x0c, 0x89,
0xcc, 0x6a, 0xc5, 0x8e,
0x44, 0x22, 0xb7, 0x13,
0xe0, 0x75, 0x9e, 0x91,
0x0e, 0xdc, 0xf1, 0x96,
0x31, 0x93, 0xb9, 0x9c,
0x93, 0x01, 0x46, 0x88,
0xed, 0xcc, 0x20, 0x2b,
0x26, 0xbc, 0x59, 0x98,
0x3a, 0x12, 0xeb, 0x58,
0x23, 0x9e, 0x18, 0x68,
0x60, 0x81, 0x25, 0x3b,
0x8f, 0xef, 0x12, 0xf3,
0xb7, 0x9b, 0xc4, 0x8e,
0x96, 0xa5, 0xab, 0xdc,
0x81, 0xa2, 0x1f, 0x75,
0x93, 0x21, 0x0f, 0x0f,
0xf9, 0xb4, 0xa9, 0x85,
0x8d, 0x1c, 0x9f, 0xbf,
0xe0, 0x5b, 0xde, 0xf2,
0x8d, 0x0f, 0x0a, 0x1d,
0xa2, 0x21, 0x0f, 0xda,
0xa7, 0x0b, 0xc7, 0x95,
0x76, 0xbe, 0x6d, 0xbe,
0xe4, 0x09, 0x82, 0x88,
0x2b, 0xbd, 0xe6, 0x06,
0x67, 0x8b, 0x49, 0xee,
0xba, 0x50, 0xa6, 0x86,
0x2f, 0x66, 0x24, 0xfb,
0x98, 0xcb, 0x42, 0x6a,
0xae, 0xaa, 0xfe, 0xcf,
0xb9, 0x52, 0xa3, 0x7c,
0x61, 0x55, 0x4f, 0x80,
0x22, 0xb9, 0x0f, 0xed,
0x63, 0xd5, 0x93, 0x08,
0x44, 0x7f, 0x4c, 0x13,
0x77, 0xc4, 0xf1, 0xba,
0xa1, 0x5d, 0x56, 0x02,
0x6b, 0xd4, 0x94, 0xa5,
0xd7, 0xad, 0x81, 0x33,
0x98, 0xf0, 0x1c, 0xe9,
0x1c, 0xff, 0x43, 0xfc,
0x5c, 0xb0, 0x4d, 0xee,
0xbf, 0xf3, 0x27, 0x1d,
0x41, 0xe7, 0xc9, 0xfd,
0x98, 0xfd, 0xf7, 0xbd,
0x2e, 0x6e, 0x7c, 0xe0,
0x47, 0x41, 0x5b, 0x0d,
0x84, 0xee, 0x7e, 0x32,
0x34, 0x1b, 0x2f, 0x22,
0xad, 0x57, 0x0a, 0xe1,
0xf6, 0x04, 0xc3, 0x67,
0x27, 0xe4, 0x44, 0x9c,
0x96, 0xc6, 0xd4, 0x43,
0x68, 0xe7, 0x6e, 0x83,
0xd2, 0x38, 0x46, 0xdf,
0x64, 0xcc, 0x03, 0x0a,
0x51, 0x47, 0x5c, 0x21,
0x1c, 0xe7, 0x87, 0x27,
0xf2, 0xad, 0xe8, 0x1d,
0x88, 0x7e, 0x7f, 0x3e,
0xf0, 0xc2, 0x6c, 0xf6,
0xa1, 0x40, 0xa8, 0x46,
0x0f, 0x62, 0x10, 0xf3,
0x22, 0x7b, 0xca, 0x1d,
0x5d, 0xd4, 0x44, 0x3c,
0xba, 0x48, 0x52, 0x66,
0x04, 0x88, 0x1c, 0x3e,
0xfd, 0x3f, 0x1b, 0x89,
0x16, 0x67, 0x76, 0x6e,
0xba, 0x7b, 0x57, 0x16,
0xbd, 0xcf, 0xfe, 0x0e,
0x06, 0x3f, 0x31, 0x9c,
0x10, 0x0c, 0xb6, 0xcd,
0x82, 0x0e, 0x9a, 0xc8,
0x3b, 0x3c, 0x02, 0x4c,
0xf3, 0x04, 0xd6, 0x92,
0x97, 0x97, 0x49, 0xb5,
0xec, 0x4a, 0xf3, 0x73,
0x66, 0x5a, 0xa4, 0xca,
0x95, 0x90, 0x9d, 0x57,
0x26, 0x9d, 0x3f, 0x70,
0xc2, 0x4b, 0xdf, 0x4b,
0x23, 0x20, 0x18, 0xb1,
0xa3, 0xa3, 0xff, 0x6f,
0x53, 0xa6, 0x07, 0xd5,
0x79, 0xee, 0xd2, 0x11,
0x5a, 0x3b, 0xc7, 0xea,
0xe5, 0x99, 0x18, 0x9e,
0x79, 0x0f, 0xf3, 0x00,
0xfa, 0xf0, 0x04, 0x4f,
0xd7, 0xfe, 0x0b, 0x13,
0xc6, 0x4f, 0x0b, 0xcc,
0xdf, 0xb8, 0xa2, 0x15,
0x92, 0xcb, 0xcf, 0xae,
0x37, 0x22, 0x9e, 0x79,
0xc7, 0x04, 0xef, 0x51,
0x9c, 0x80, 0x0b, 0x66,
0x4f, 0x82, 0x70, 0x60,
0x88, 0x2c, 0xd8, 0x05,
0xf5, 0x97, 0xdf, 0x8c,
0x69, 0x4d, 0xd4, 0xf8,
0x8d, 0xa3, 0x7d, 0x1a,
0xd1, 0x81, 0xfc, 0xf9,
0xb2, 0xab, 0x7d, 0x40,
0xbd, 0xc3, 0x73, 0x74,
0x49, 0xa4, 0x2a, 0xe1,
0x80, 0xdb, 0x87, 0x02,
0xfa, 0xc8, 0x8c, 0x2d,
0xfe, 0x56, 0xdf, 0xbb,
0x90, 0x37, 0x45, 0x40,
0x34, 0xbe, 0x23, 0x8f,
0x9c, 0x38, 0xf0, 0xe6,
0x27, 0x04, 0xf0, 0x1a,
0xf1, 0x08, 0x13, 0x0e,
0x7a, 0xb5, 0x60, 0x99,
0x88, 0x9b, 0xd0, 0x9b,
0xfa, 0xda, 0x45, 0x33,
0x5b, 0xe1, 0xa0, 0x65,
0x97, 0x53, 0xde, 0x6c,
0xf7, 0x81, 0x75, 0x45,
0x8c, 0xb6, 0x31, 0x94,
0x1b, 0x5c, 0x15, 0x8e,
0x49, 0x32, 0x23, 0xa3,
0x93, 0x0e, 0xa4, 0x4f,
0x5e, 0x32, 0x6e, 0x4d,
0xf7, 0xcd, 0xf4, 0x6f,
0x51, 0x1e, 0x21, 0x47,
0x33, 0x73, 0xdd, 0x61,
0xa1, 0xb4, 0x9b, 0x04,
0xdd, 0x79, 0x9f, 0x81,
0x7e, 0xfb, 0xbe, 0x5b,
0xa6, 0x73, 0x33, 0xce,
0xbf, 0x4d, 0x64, 0xb9,
0x9f, 0xb6, 0x88, 0xfd,
0x21, 0x9a, 0x79, 0x03,
0x89, 0xf9, 0x79, 0xff,
0x06, 0x5d, 0x97, 0xd7,
0xe2, 0x62, 0x07, 0x24,
0xa6, 0xb8, 0xa5, 0x07,
0x17, 0x9b, 0x54, 0xb6,
0x62, 0xbb, 0x15, 0x71,
0xc4, 0x2d, 0x5e, 0xf2,
0xe1, 0xed, 0x8b, 0x7d,
0xf6, 0xd1, 0xfa, 0xd2,
0x38, 0x87, 0x9e, 0x05,
0x3e, 0xf3, 0xf3, 0x92,
0x8e, 0x08, 0xa4, 0x4f,
0xfd, 0x3e, 0xb6, 0xf7,
0x48, 0x33, 0x6e, 0x8f,
0x7b, 0x5b, 0x92, 0x48,
0x2f, 0x4f, 0xdc, 0x67,
0x70, 0xb0, 0x30, 0x43,
0x4d, 0x23, 0x9b, 0x80,
0xb4, 0xef, 0xff, 0xbc,
0x93, 0x3f, 0x34, 0x44,
0xca, 0x62, 0x5e, 0xc4,
0x2e, 0xdf, 0x3b, 0x13,
0xbc, 0x12, 0x3f, 0x37,
0xc0, 0x5e, 0x81, 0x67,
0xad, 0xa9, 0x0e, 0xcc,
0xd3, 0xfb, 0x64, 0xe3,
0xe7, 0x16, 0x12, 0x6b,
0x26, 0xc5, 0x32, 0x3e,
0x6c, 0x06, 0xba, 0xfd,
0xd3, 0x06, 0xff, 0x2d,
0x94, 0xc4, 0xc5, 0xde,
0x54, 0x76, 0xf9, 0xf3,
0x87, 0x5e, 0xde, 0x3b,
0xa2, 0xd0, 0x18, 0x10,
0x3b, 0x96, 0x2e, 0xe1,
0xc6, 0x27, 0x17, 0xba,
0x5d, 0x6a, 0x24, 0x05,
0xaa, 0x65, 0xa0, 0x02,
0x16, 0x44, 0x68, 0x91,
0x62, 0x9c, 0x1d, 0xee,
0xe0, 0x02, 0x11, 0xd0,
0xe0, 0xc1, 0x88, 0x1b,
0x2f, 0xc4, 0x09, 0xa6,
0xd1, 0xe9, 0xeb, 0x4f,
0xc6, 0x90, 0xb9, 0x31,
0x23, 0x0d, 0x4e, 0x34,
0xf5, 0xdd, 0x43, 0xdc,
0x9c, 0x8e, 0xfb, 0x64,
0x58, 0x5e, 0x96, 0x2e,
0x2f, 0xb3, 0x2b, 0xf7,
0x21, 0x5c, 0x22, 0x36,
0xc1, 0x8d, 0x68, 0xdf,
0x0e, 0x58, 0x42, 0xd3,
0x15, 0x05, 0x54, 0x30,
0x0b, 0xd8, 0xfb, 0x62,
0xd5, 0x15, 0xf1, 0x77,
0x8d, 0xdd, 0xa3, 0xe1,
0xff, 0x24, 0x07, 0x12,
0x95, 0x83, 0x37, 0xd5,
0x2a, 0x78, 0x75, 0xb3,
0x9f, 0x9c, 0x3d, 0xe3,
0xbc, 0xa7, 0x1d, 0xa9,
0x6c, 0x55, 0xc0, 0x8b,
0x6c, 0x83, 0xc0, 0xf8,
0xf7, 0x81, 0x7b, 0x12,
0x57, 0x72, 0x3d, 0x63,
0x2f, 0xb4, 0xc9, 0xeb,
0xca, 0x94, 0x67, 0xae,
0x80, 0xf3, 0x77, 0x1f,
0x2d, 0xec, 0xec, 0x81,
0x52, 0x25, 0x31, 0x85,
0xc3, 0x5f, 0xda, 0xe3,
0xce, 0xf1, 0x5d, 0x5f,
0x98, 0xef, 0x20, 0xad,
0x85, 0xbb, 0x72, 0xc7,
0x9f, 0x33, 0x42, 0x58,
0xe2, 0x3c, 0x86, 0xfc,
0x1e, 0x06, 0x87, 0x84,
0xcf, 0x1d, 0xe2, 0x18,
0x61, 0xed, 0xcd, 0x44,
0xc7, 0x83, 0x43, 0xe5,
0xbb, 0x16, 0xdc, 0x3f,
0xc6, 0xd8, 0x02, 0x29,
0xad, 0xe1, 0xc1, 0x02,
0x60, 0xd4, 0xbb, 0x87,
0x1f, 0x16, 0x83, 0x77,
0xb5, 0x01, 0x0b, 0x20,
0xbc, 0xeb, 0x1f, 0xea,
0xc7, 0x05, 0xd7, 0x01,
0x20, 0xf7, 0xd3, 0x54,
0xd2, 0x38, 0x9a, 0x0a,
0x71, 0xbe, 0x66, 0x88,
0xe2, 0x50, 0x53, 0x1a,
0x8c, 0x47, 0x10, 0x41,
0x8d, 0x6e, 0x8d, 0x21,
0x9d, 0x1f, 0x9d, 0x93,
0x59, 0x20, 0x04, 0xa1,
0xb3, 0x55, 0x4a, 0x1a,
0x44, 0xd8, 0x69, 0x5c,
0x3f, 0xdb, 0xca, 0x26,
0x31, 0x34, 0x57, 0x08,
0xae, 0xc5, 0x44, 0x88,
0x69, 0x0e, 0x99, 0x5c,
0x7c, 0x39, 0x45, 0xe4,
0xc1, 0x24, 0x5e, 0xfd,
0x1a, 0xb5, 0x81, 0x8e,
0x65, 0xf8, 0x1a, 0x3c,
0xc6, 0xee, 0x4b, 0xf8,
0x9e, 0xf7, 0x86, 0x96,
0x35, 0x50, 0x2e, 0x31,
0xa1, 0x37, 0xde, 0x3d,
0x6d, 0x07, 0xd7, 0xf4,
0xda, 0x6b, 0xf6, 0x4f,
0x60, 0x98, 0x4f, 0x7c,
0x85, 0x17, 0xf6, 0x57,
0x47, 0x1e, 0x78, 0xc0,
0xae, 0xf5, 0x9f, 0x36,
0xbf, 0x65, 0xef, 0x80,
0x35, 0x33, 0x65, 0x15,
0xbf, 0xb4, 0xdd, 0x79,
0xa3, 0x4f, 0xbe, 0xf9,
0xbc, 0x41, 0x5c, 0xbd,
0x30, 0xe1, 0x31, 0x5c,
0xdd, 0x2b, 0x2d, 0xff,
0xbd, 0x6c, 0xf5, 0xbf,
0xf7, 0x3d, 0x37, 0x51,
0x3a, 0xfb, 0x50, 0xec,
0x06, 0x7d, 0x46, 0x7b,
0xb2, 0x8c, 0x6a, 0x71,
0x60, 0xea, 0x8e, 0xd5,
0x68, 0xd7, 0x2b, 0x46,
0xf7, 0xb0, 0x23, 0xf5,
0x0e, 0x38, 0xaa, 0x7e,
0x21, 0xee, 0x3c, 0xc7,
0x31, 0x7c, 0x57, 0x33,
0xe2, 0xd2, 0x1b, 0x5f,
0xc1, 0xcf, 0x7f, 0xec,
0x31, 0xe1, 0xdd, 0x9f,
0x10, 0xa2, 0x65, 0x2e,
0x5c, 0xfe, 0xcb, 0x9a,
0x84, 0x0e, 0x3e, 0x75,
0xe5, 0x3a, 0xa1, 0xd4,
0xfa, 0x9f, 0x47, 0x5e,
0x03, 0x3f, 0x6b, 0x78,
0x28, 0xd6, 0xe0, 0x4e,
0x88, 0x8a, 0x10, 0xfa,
0x15, 0x7a, 0x65, 0x96,
0x18, 0x47, 0x0f, 0x77,
0xf0, 0xef, 0x98, 0x80,
0xfb, 0x0e, 0x3e, 0xb0,
0x19, 0xe7, 0x4f, 0xd6,
0x15, 0x73, 0xe6, 0x04,
0x6b, 0x4d, 0xd5, 0x0a,
0x51, 0xce, 0xb7, 0x3f,
0xdb, 0x82, 0xc9, 0x0f,
0xc0, 0x89, 0x35, 0x20,
0xc0, 0x68, 0x4e, 0x19,
0x2f, 0xbd, 0xd5, 0x81,
0xb1, 0xc9, 0xa8, 0x5e,
0x10, 0x11, 0x49, 0x87,
0x77, 0x49, 0x78, 0x4f,
0x7c, 0x1d, 0x5f, 0x38,
0x3d, 0x12, 0x42, 0xc4,
0xcb, 0xf5, 0x9f, 0xb7,
0xb9, 0x38, 0xb6, 0xd3,
0x9e, 0x77, 0xbf, 0x1a,
0xf6, 0x83, 0x37, 0x9a,
0x9c, 0x7d, 0xb8, 0x51,
0xd7, 0xfd, 0x7c, 0x3f,
0x98, 0xe0, 0x90, 0xc1,
0x7c, 0xb1, 0x41, 0x98,
0x2b, 0x6f, 0xb8, 0x3f,
0x87, 0xb8, 0x13, 0xa9,
0xd3, 0x8d, 0xd5, 0x03,
0x2e, 0xb9, 0x9c, 0x73,
0xbb, 0x2c, 0xdc, 0xe5,
0xb9, 0x2a, 0x1f, 0xe4,
0xdf, 0xa1, 0xf4, 0x03,
0x4e, 0x98, 0x19, 0x38,
0xdd, 0xad, 0xea, 0x04,
0xa3, 0xcf, 0xd5, 0x5c,
0x11, 0x04, 0x35, 0x33,
0x4a, 0xfc, 0x4b, 0xd9,
0x90, 0x86, 0x8c, 0xee,
0xc3, 0xbe, 0xf6, 0x86,
0x6c, 0x25, 0xd2, 0x32,
0x22, 0xbf, 0xb1, 0x0a,
0x26, 0xdf, 0x18, 0x60,
0x64, 0x8a, 0xa5, 0xf1,
0x09, 0xda, 0xb9, 0x73,
0x73, 0x7e, 0x85, 0xa1,
0x5a, 0x10, 0x08, 0xd3,
0x6b, 0x64, 0x46, 0xeb,
0x3b, 0x3c, 0xb3, 0x31,
0xb6, 0x64, 0xeb, 0x06,
0x90, 0xa2, 0xe7, 0x84,
0x51, 0x83, 0xd9, 0x24,
0x1e, 0xb9, 0x29, 0xff,
0x91, 0xc9, 0xbf, 0xdc,
0xd1, 0xb7, 0x35, 0x58,
0xfe, 0xcc, 0x90, 0x4f,
0x96, 0xd4, 0x9c, 0x4b,
0xc9, 0x02, 0xce, 0xea,
0xdf, 0xb5, 0x86, 0x1a,
0x6e, 0xe0, 0xa3, 0x91,
0x95, 0xa2, 0xf2, 0xe5,
0x3f, 0xb4, 0x2d, 0xa9,
0x94, 0x04, 0xb3, 0x95,
0x8e, 0xae, 0x7d, 0x07,
0x45, 0xaa, 0x01, 0x88,
0x1b, 0xb6, 0xe0, 0x8f,
0x83, 0x61, 0xb2, 0x95,
0xe2, 0xea, 0x4e, 0xd4,
0x73, 0x9a, 0xa6, 0x13,
0x06, 0xb9, 0x9b, 0x2c,
0x42, 0x20, 0x1b, 0x73,
0x8c, 0xca, 0x19, 0x87,
0x14, 0x8c, 0x4b, 0x85,
0x70, 0x0f, 0x00, 0xa9,
0x42, 0xa8, 0x10, 0x6f,
0x7b, 0x22, 0x3f, 0x27,
0x78, 0xdb, 0x67, 0xbf,
0xce, 0xfc, 0x84, 0xae,
0x91, 0x30, 0x9d, 0xd1,
0x3d, 0xe4, 0x14, 0x8e,
0xf6, 0xd0, 0x79, 0x62,
0x33, 0x79, 0xd9, 0xf3,
0x73, 0xf9, 0xc3, 0x3d,
0x61, 0x06, 0x1d, 0x90,
0xf9, 0x6b, 0xdc, 0xe4,
0x8b, 0x0f, 0x69, 0x69,
0xbd, 0x7d, 0x3c, 0xfa,
0x71, 0x6e, 0xad, 0xbf,
0x78, 0x4e, 0x67, 0x82,
0x37, 0xed, 0x0d, 0x8c,
0x3f, 0x87, 0xc9, 0x62,
0x55, 0xf6, 0xf2, 0x5a,
0x24, 0xfb, 0xd0, 0x8e,
0xd2, 0xe7, 0x2d, 0xed,
0x2b, 0x76, 0x50, 0xbf,
0xe8, 0xd5, 0x6e, 0x3b,
0x4b, 0x2f, 0xdd, 0xc8,
0xfc, 0x8e, 0x46, 0x75,
0xbf, 0x5b, 0xbd, 0x98,
0x63, 0xc1, 0xe4, 0x6d,
0xfb, 0x1f, 0xf1, 0xfc,
0x8d, 0xf0, 0xad, 0x3e,
0xd0, 0x5f, 0x11, 0xd2,
0xee, 0x33, 0xb4, 0x18,
0x97, 0xed, 0x62, 0x7a,
0x46, 0xa2, 0xc3, 0x3d,
0xdc, 0xeb, 0x4e, 0x7f,
0x18, 0xec, 0xae, 0x47,
0x08, 0x7b, 0x3f, 0xe6,
0xf3, 0xf2, 0x8a, 0x31,
0xe4, 0x96, 0x42, 0xef,
0x40, 0xf5, 0x67, 0x18,
0x2c, 0xb4, 0x7e, 0x92,
0x04, 0xf6, 0xba, 0xd0,
0x4a, 0xef, 0xe3, 0x0c,
0x45, 0xc0, 0xc1, 0x0f,
0xda, 0xca, 0x41, 0xe4,
0xa4, 0xe8, 0x1e, 0x1f,
0x37, 0xef, 0x19, 0x30,
0x39, 0xee, 0xfa, 0xc5,
0x55, 0xd1, 0x22, 0xdc,
0x0a, 0x3b, 0x56, 0x39,
0xb3, 0xb3, 0x87, 0x4f,
0x82, 0x55, 0x04, 0x30,
0xad, 0x3a, 0xfd, 0xce,
0xf8, 0xc9, 0x78, 0x87,
0x3f, 0xda, 0x3d, 0x2f,
0xe0, 0x58, 0xae, 0xf7,
0x25, 0x5f, 0x5c, 0x83,
0x8b, 0x6c, 0x74, 0x6c,
0x3f, 0xc0, 0x1b, 0x72,
0x3f, 0x10, 0xf6, 0xef,
0x88, 0x55, 0x85, 0x9d,
0x36, 0x8b, 0x9a, 0xa9,
0x74, 0x98, 0x9d, 0xe5,
0x87, 0x30, 0xb6, 0x6f,
0xc0, 0x81, 0x2f, 0x4c,
0x26, 0xc4, 0x8d, 0x59,
0xef, 0xe7, 0x9b, 0xfe,
0x1a, 0xd0, 0xfa, 0x77,
0x7c, 0xb3, 0xdf, 0x31,
0xac, 0x75, 0xa4, 0xc9,
0x23, 0xa7, 0x97, 0xf1,
0xb8, 0xeb, 0x87, 0x45,
0x86, 0xf8, 0x05, 0x8a,
0xfc, 0xad, 0xea, 0xc0,
0xf5, 0xd3, 0xc1, 0xd7,
0xc2, 0x03, 0xe4, 0xf3,
0x7f, 0x73, 0x65, 0x9a,
0x3a, 0x2d, 0x49, 0xfd,
0x16, 0x35, 0x81, 0x27,
0x16, 0xcd, 0x68, 0xe8,
0x7b, 0xc2, 0x7f, 0x16,
0x0f, 0xb8, 0xe6, 0xf8,
0x08, 0xd4, 0xe3, 0x22,
0xc3, 0x6a, 0x1c, 0x95,
0xfb, 0x9c, 0x0b, 0x3f,
0x3e, 0x4a, 0xf8, 0xa8,
0x90, 0xb8, 0x50, 0xab,
0xa0, 0x5c, 0xc4, 0xee,
0x85, 0xf0, 0xdc, 0x00,
0xd6, 0xce, 0xf9, 0xed,
0x0c, 0xe3, 0x9e, 0x6b,
0xb3, 0x2b, 0x77, 0xb6,
0x02, 0x3d, 0xa7, 0xd7,
0x2e, 0xff, 0xe5, 0xac,
0x71, 0xc3, 0x2c, 0xeb,
0xd7, 0xdd, 0x69, 0x82,
0xca, 0x8a, 0xf5, 0xb9,
0xd3, 0x59, 0xae, 0xbf,
0xb2, 0x74, 0x40, 0x4e,
0xe7, 0xde, 0xdd, 0xff,
0xbc, 0x23, 0xc8, 0x21,
0x31, 0x7f, 0x3b, 0x7e,
0xcd, 0xc4, 0x7a, 0xb0,
0xf3, 0x88, 0x75, 0x23,
0x7f, 0xcb, 0x66, 0xde,
0x38, 0xfa, 0xbf, 0xb7,
0x7f, 0xe4, 0xac, 0x76,
0x29, 0x72, 0xee, 0xd4,
0x8e, 0x4f, 0x7a, 0x7b,
0x47, 0x05, 0x5e, 0xdb,
0x04, 0x8e, 0x91, 0xf1,
0xc9, 0x8c, 0x07, 0x70,
0xfb, 0x43, 0x86, 0x49,
0x85, 0x86, 0x6f, 0x76,
0x15, 0xd0, 0x00, 0x68,
0xd7, 0xa8, 0x94, 0x0d,
0x75, 0x53, 0xc4, 0xc8,
0x8a, 0x62, 0xf2, 0xda,
0x93, 0xc6, 0x9e, 0x41,
0x91, 0x59, 0x64, 0xe4,
0xcd, 0x47, 0x17, 0x52,
0x36, 0xf3, 0x75, 0xa7,
0x7e, 0x80, 0xc7, 0xf8,
0x5c, 0xe8, 0x7f, 0x6c,
0x3b, 0xa8, 0x84, 0x98,
0xfd, 0x05, 0xdb, 0x56,
0x21, 0xa8, 0xfd, 0x0e,
0xbd, 0xba, 0xba, 0x8b,
0x12, 0x22, 0x7b, 0x7a,
0xdf, 0x92, 0xca, 0xf2,
0x0f, 0x2f, 0xba, 0x58,
0x25, 0x17, 0x19, 0x77,
0x7e, 0x65, 0xf6, 0x3a,
0x49, 0x3f, 0xe6, 0xe4,
0x9c, 0xe2, 0x4c, 0xd6,
0xf8, 0xb3, 0xca, 0xff,
0x23, 0x0f, 0xd6, 0x42,
0xe8, 0x73, 0x33, 0x0e,
0xf0, 0x44, 0x8b, 0x80,
0x5c, 0xf8, 0x70, 0x61,
0x73, 0x34, 0x2f, 0xde,
0xad, 0x95, 0x52, 0x3e,
0x46, 0x52, 0x04, 0x6e,
0xec, 0x04, 0xde, 0x05,
0x74, 0x00, 0xd0, 0x12,
0xc8, 0x8e, 0x66, 0xb3,
0x7b, 0xb8, 0x3f, 0x90,
0x11, 0x11, 0xb7, 0xa7,
0x0b, 0x76, 0xc3, 0xdb,
0xc3, 0x84, 0x53, 0xc9,
0xec, 0x4f, 0xc0, 0x73,
0x3b, 0x65, 0xb1, 0x51,
0xbc, 0x66, 0x6d, 0xd2,
0x6e, 0x3f, 0x45, 0xbf,
0x82, 0x9e, 0xe3, 0x84,
0xc5, 0xee, 0x7f, 0x9c,
0x74, 0xf1, 0x87, 0xa7,
0xf7, 0x6d, 0x3b, 0xbf,
0x9f, 0x9d, 0xd9, 0xae,
0xb1, 0xb9, 0xee, 0x75,
0xce, 0x66, 0x22, 0x82,
0x79, 0xc2, 0xcb, 0xf6,
0x39, 0x05, 0x7a, 0x18,
0xfc, 0x27, 0xf5, 0x75,
0xd2, 0x04, 0xf8, 0xd9,
0xf9, 0x86, 0xba, 0x6f,
0x4a, 0x31, 0xff, 0x86,
0x0d, 0x1c, 0x58, 0xef,
0xd0, 0x8b, 0x91, 0x51,
0xec, 0xbd, 0x89, 0x7f,
0x20, 0x61, 0x32, 0x74,
0xfe, 0xa3, 0x72, 0x9e,
0x99, 0xa6, 0x60, 0x9f,
0xcb, 0x73, 0x3d, 0x9c,
0x9f, 0xfe, 0x33, 0xf3,
0x96, 0xbb, 0xce, 0x75,
0x34, 0x63, 0x67, 0xb7,
0xf1, 0x3a, 0xb9, 0x32,
0xdc, 0x7b, 0x01, 0xe1,
0x7f, 0x8b, 0x15, 0xaa,
0xac, 0xc5, 0xc2, 0x89,
0x37, 0x70, 0xfc, 0xab,
0xd5, 0xac, 0xa4, 0x7d,
0x50, 0x64, 0x72, 0xe3,
0xd1, 0x73, 0x57, 0x2a,
0xe9, 0x7f, 0x6c, 0x13,
0xc8, 0xb2, 0x39, 0x83,
0x8b, 0xfd, 0xf7, 0xd8,
0x7f, 0x1d, 0x8a, 0x1c,
0x48, 0x32, 0xa7, 0xab,
0xbe, 0xd9, 0x2f, 0x1e,
0xa4, 0x3a, 0x07, 0x3e,
0x5f, 0xc0, 0xfd, 0x4d,
0x11, 0x6d, 0x71, 0x07,
0xac, 0x25, 0xbb, 0x3c,
0xcf, 0xce, 0xba, 0xba,
0x7c, 0xb0, 0x0f, 0x31,
0xd6, 0x90, 0xb4, 0xbe,
0xa1, 0x67, 0xc6, 0x17,
0xfe, 0xe4, 0xce, 0xb1,
0x00, 0x60, 0x7a, 0x63,
0x78, 0x79, 0xe6, 0x9f,
0x14, 0xf4, 0x1d, 0x7c,
0x9b, 0x01, 0xf3, 0xa6,
0x51, 0x0b, 0x3d, 0x0d,
0x76, 0x4f, 0xf0, 0x90,
0x8b, 0xe0, 0x45, 0x98,
0x3b, 0xd1, 0x0a, 0xe9,
0xd7, 0x2d, 0x4b, 0x83,
0xdb, 0x3e, 0x93, 0xcf,
0x89, 0xa8, 0x19, 0x9c,
0x76, 0x63, 0x19, 0x2b,
0x62, 0x70, 0xe6, 0x37,
0x26, 0x26, 0x9d, 0x84,
0x06, 0x3a, 0x37, 0x6d,
0xbf, 0xe1, 0x17, 0xef,
0x9f, 0x57, 0xff, 0x0d,
0xaa, 0xb8, 0x62, 0xf5,
0x7f, 0x2f, 0x40, 0xd4,
0xee, 0x5c, 0xf7, 0x82,
0xba, 0xf3, 0xbb, 0xfd,
0xb9, 0x9e, 0xdd, 0xc0,
0xc6, 0xdb, 0xba, 0x9f,
0x62, 0xe0, 0xdf, 0x3b,
0xb1, 0xf7, 0xd0, 0xf0,
0xfe, 0x99, 0x27, 0x60,
0x58, 0xb3, 0xba, 0xdf,
0xb6, 0xf6, 0xca, 0xd6,
0xc4, 0xb9, 0xef, 0x65,
0xa4, 0x45, 0x01, 0xc4,
0x9f, 0xd5, 0x7f, 0xc3,
0x91, 0xc0, 0xd4, 0xa7,
0xa6, 0x3b, 0x4c, 0x5b,
0x19, 0xb3, 0x76, 0x7a,
0x08, 0x15, 0xfb, 0x23,
0x24, 0xec, 0x84, 0xec,
0x58, 0x38, 0x29, 0x48,
0x06, 0x1e, 0x27, 0xc2,
0x12, 0x43, 0x88, 0x4f,
0x18, 0xe8, 0x85, 0x3c,
0xa8, 0x47, 0xee, 0x07,
0x8c, 0x3a, 0x8a, 0x75,
0x31, 0x34, 0x19, 0xbe,
0x32, 0x40, 0xbd, 0x6d,
0x2d, 0x30, 0x38, 0x10,
0x7f, 0x6e, 0xe7, 0x80,
0x4a, 0x7e, 0x4d, 0x83,
0xe1, 0xd3, 0x17, 0x7a,
0x7d, 0xc2, 0x77, 0x89,
0x1b, 0xb7, 0x40, 0x86,
0xc6, 0xa6, 0xeb, 0xc1,
0x8b, 0x22, 0xf6, 0xcd,
0xc6, 0xe6, 0xfb, 0x3d,
0xf5, 0xb6, 0x06, 0x1e,
0xf8, 0xf8, 0x6f, 0xab,
0x83, 0x71, 0x07, 0x42,
0x7b, 0xaf, 0x23, 0x2e,
0xfe, 0xdd, 0x4a, 0x57,
0x9d, 0x44, 0xff, 0xe2,
0xb5, 0xc1, 0x6d, 0x7b,
0x41, 0xf6, 0xc7, 0x8e,
0x87, 0x67, 0x7e, 0xda,
0xba, 0xfc, 0x53, 0x18,
0x9a, 0x1e, 0x72, 0x25,
0xc1, 0x95, 0x06, 0x9e,
0xb6, 0x5a, 0xf8, 0x48,
0xac, 0x11, 0x85, 0x32,
0xff, 0xd7, 0x16, 0x46,
0x6c, 0x3f, 0x87, 0x07,
0xc6, 0x20, 0xcf, 0x94,
0x8c, 0xfd, 0x09, 0xaf,
0x21, 0x43, 0x05, 0x3f,
0xa4, 0xed, 0x78, 0xcf,
0x45, 0x10, 0x65, 0x27,
0xff, 0xc3, 0xad, 0x7e,
0xdb, 0xc3, 0xfd, 0x48,
0xf8, 0x39, 0xcc, 0x7f,
0x20, 0x09, 0x47, 0x68,
0x9f, 0xef, 0x35, 0xa8,
0x6c, 0x54, 0xfb, 0xbd,
0x55, 0xd8, 0x1b, 0x4a,
0xfc, 0xee, 0x0b, 0x2b,
0x04, 0xf7, 0x19, 0xed,
0xdb, 0xfe, 0xc9, 0x3f,
0xff, 0xce, 0xbe, 0xde,
0x15, 0xba, 0xaf, 0xdd,
0xef, 0xf6, 0xa7, 0x7c,
0xa3, 0xbe, 0xba, 0x69,
0xf4, 0xb1, 0xfc, 0x61,
0xeb, 0x4b, 0x92, 0x4c,
0x19, 0x1a, 0x73, 0x0c,
0xe3, 0xc9, 0x1a, 0xf6,
0x63, 0x2b, 0x46, 0x08,
0x44, 0x0c, 0xbf, 0xa8,
0x90, 0xb7, 0xff, 0x42,
0x25, 0x60, 0xa6, 0x1d,
0x98, 0xd9, 0xc9, 0xa9,
0xcc, 0xd9, 0x53, 0x8c,
0x58, 0xce, 0x9b, 0xb3,
0x98, 0xdf, 0x0f, 0x7c,
0xbf, 0xd7, 0xc1, 0x8b,
0xa2, 0x6c, 0x25, 0x55,
0xe1, 0xbb, 0x4b, 0xad,
0x64, 0x03, 0x6a, 0x63,
0x94, 0x60, 0x85, 0xc3,
0x8f, 0x9b, 0x2f, 0x75,
0x8a, 0xc4, 0x66, 0x7c,
0xfe, 0xcb, 0xf6, 0x94,
0x72, 0x6c, 0x43, 0x61,
0xba, 0xb1, 0xd1, 0x49,
0x61, 0xca, 0xac, 0x33,
0x0a, 0x69, 0x39, 0xf6,
0x81, 0x6d, 0x1f, 0x2c,
0x8a, 0x15, 0xf9, 0x06,
0x86, 0xfd, 0xaf, 0x25,
0x2b, 0xf4, 0x44, 0x1b,
0x37, 0x2f, 0x06, 0x53,
0x3c, 0x7c, 0x70, 0x17,
0x11, 0xbc, 0x8e, 0x3d,
0xbb, 0xf3, 0x9f, 0x0f,
0x10, 0x48, 0x47, 0xb8,
0xd9, 0xe7, 0xad, 0x48,
0x3f, 0xa6, 0x76, 0xd0,
0xec, 0xb8, 0x58, 0x5c,
0x2b, 0x6a, 0xc7, 0xe8,
0xb9, 0xb5, 0x74, 0x27,
0x73, 0x2e, 0x26, 0x38,
0x6d, 0xe0, 0x18, 0x3d,
0xe4, 0xe5, 0xc4, 0xad,
0x74, 0x6a, 0xb8, 0x88,
0x5c, 0x7f, 0x70, 0x51,
0x14, 0x1b, 0x41, 0x6e,
0x3f, 0x79, 0xe6, 0x4b,
0x98, 0xe3, 0x27, 0x73,
0xb7, 0xb8, 0xac, 0x02,
0x58, 0xf4, 0x7d, 0x53,
0x5f, 0x1e, 0xd8, 0x8a,
0x39, 0xb3, 0x5d, 0x14,
0xdb, 0x91, 0xb5, 0xef,
0xdd, 0x93, 0x85, 0x6b,
0xd8, 0xb9, 0x7e, 0x67,
0xdf, 0x95, 0xcf, 0x23,
0x90, 0xb4, 0x9f, 0xb7,
0xfb, 0x2a, 0x3b, 0x9c,
0xbf, 0xe5, 0x29, 0x5c,
0x57, 0xdc, 0x79, 0x5d,
0xc0, 0xa7, 0xf6, 0xef,
0xec, 0xee, 0x7f, 0x35,
0xd1, 0x93, 0xce, 0xeb,
0xec, 0xd3, 0x39, 0x77,
0xfe, 0x0d, 0xb1, 0x0b,
0xe3, 0xf1, 0x86, 0xfe,
0x65, 0xe6, 0x96, 0x91,
0x28, 0x5e, 0x7b, 0x69,
0x9a, 0xf7, 0xa1, 0x98,
0xe1, 0xfc, 0x6d, 0x03,
0x13, 0xd5, 0x97, 0x37,
0x1a, 0xa5, 0x3a, 0x98,
0xe0, 0x94, 0x0d, 0xf9,
0xf5, 0x19, 0xfb, 0xbf,
0x1f, 0x32, 0xf2, 0xe6,
0x7e, 0x9a, 0x02, 0xaa,
0x53, 0xfc, 0x6b, 0x9f,
0xad, 0x28, 0x22, 0x17,
0x29, 0x07, 0x1d, 0x91,
0xe0, 0x1f, 0xef, 0x3d,
0xde, 0xf3, 0x5e, 0x9c,
0x20, 0x74, 0x17, 0xfc,
0xd7, 0xcb, 0x97, 0x12,
0x7d, 0x78, 0x19, 0x41,
0x86, 0xf1, 0x3c, 0x6a,
0x67, 0xb6, 0xf9, 0xb5,
0x21, 0x64, 0x15, 0xde,
0xe8, 0x98, 0x26, 0x68,
0xc8, 0xa7, 0x6e, 0xbd,
0xce, 0xc3, 0x30, 0x26,
0x74, 0xfb, 0xbf, 0xbe,
0xff, 0x01, 0x20, 0x8e,
0x3b, 0x5e, 0x6a, 0x73,
0x65, 0x7f, 0xda, 0x43,
0x9e, 0xc1, 0xce, 0x8c,
0x24, 0xe5, 0x88, 0xb8,
0x93, 0xc4, 0xa0, 0x77,
0x2e, 0x88, 0x79, 0x41,
0xdf, 0xb3, 0x29, 0x6a,
0x6b, 0xe2, 0x9f, 0xff,
0xc4, 0x73, 0x1b, 0x81,
0x31, 0x85, 0x0b, 0x9d,
0x45, 0xd5, 0x5a, 0x5f,
0x98, 0x61, 0xc8, 0x46,
0x20, 0x88, 0x3e, 0xae,
0x39, 0x63, 0x9c, 0x55,
0x00, 0xc7, 0x99, 0xef,
0x29, 0x0b, 0x8b, 0x0f,
0xa2, 0xba, 0x7f, 0x67,
0xf5, 0x91, 0x2c, 0xae,
0x77, 0x78, 0x12, 0x4c,
0x8d, 0xfd, 0x1d, 0xfd,
0xc1, 0xc0, 0x73, 0xbe,
0x69, 0xba, 0xfc, 0x87,
0x91, 0xd7, 0xf9, 0x0e,
0xfe, 0x32, 0x4b, 0x7a,
0xba, 0xf1, 0xef, 0xb6,
0x66, 0x7e, 0xfb, 0xcd,
0x7e, 0xc5, 0xaf, 0xe4,
0xe1, 0x9e, 0xe7, 0x9b,
0xb8, 0x56, 0xba, 0xfb,
0x3f, 0x2b, 0xe7, 0x84,
0x58, 0xd2, 0x7f, 0x7c,
0xed, 0xaf, 0x5d, 0x4c,
0xd5, 0x75, 0x38, 0xff,
0xbd, 0x93, 0xf3, 0x3d,
0xca, 0x6e, 0xd8, 0x9f,
0xb6, 0x87, 0xc5, 0x0a,
0x77, 0x3d, 0xd0, 0x6d,
0xc5, 0x6f, 0xab, 0xa0,
0x28, 0x7c, 0x97, 0xf6,
0xa2, 0xaf, 0x72, 0xe0,
0xb3, 0xa8, 0x37, 0x07,
0x0b, 0x84, 0x63, 0x0f,
0xb5, 0xcb, 0xbc, 0xe1,
0xa2, 0x90, 0xfb, 0x83,
0xda, 0x9d, 0x9f, 0x05,
0x08, 0xc9, 0x4a, 0xcc,
0xde, 0x1e, 0xf2, 0xf0,
0x18, 0x4b, 0x9b, 0x77,
0x94, 0xdb, 0xd2, 0x89,
0x7a, 0x3a, 0x57, 0x72,
0x74, 0x01, 0xc5, 0x30,
0x96, 0x45, 0xef, 0x9b,
0xc4, 0x35, 0xd3, 0x39,
0xf5, 0xd3, 0x0c, 0x01,
0x6b, 0xa4, 0xca, 0x88,
0xdf, 0xf6, 0x92, 0xcc,
0x01, 0x37, 0x2c, 0x5f,
0xec, 0x13, 0xe8, 0xae,
0x29, 0xd4, 0xff, 0x07,
0xff, 0xe1, 0xf8, 0x4d,
0x37, 0xf8, 0xcb, 0xfb,
0x91, 0xa6, 0x7b, 0x7d,
0xa5, 0x58, 0xeb, 0xb2,
0x14, 0x77, 0xff, 0x31,
0x94, 0xf4, 0x73, 0xe0,
0xde, 0x74, 0x41, 0x1a,
0xa5, 0xfa, 0xef, 0x99,
0x5d, 0x2f, 0x04, 0x7c,
0x60, 0x6e, 0xd3, 0x00,
0x15, 0xcd, 0xf8, 0x33,
0x1d, 0x0e, 0xfe, 0xa2,
0xca, 0x59, 0xfe, 0x71,
0xf2, 0xf9, 0xe5, 0xd8,
0x86, 0x35, 0x97, 0x7f,
0xa0, 0xeb, 0xc7, 0xf4,
0x97, 0xf4, 0xd5, 0x5b,
0x55, 0x73, 0xc3, 0x7d,
0x60, 0x93, 0x38, 0xdb,
0xe7, 0xc8, 0x1f, 0xf7,
0x60, 0x97, 0x0a, 0x33,
0xdc, 0xf7, 0x00, 0x52,
0xed, 0x35, 0xf8, 0x6e,
0x9f, 0x2f, 0x9b, 0x3e,
0x73, 0xd6, 0x6f, 0x31,
0x1e, 0xe5, 0x7c, 0xb2,
0xf7, 0x86, 0xe5, 0xe8,
0xac, 0xe3, 0x7f, 0x5a,
0x2a, 0x72, 0xe6, 0x9b,
0xfd, 0x7c, 0x3b, 0xbd,
0xb7, 0xfe, 0xef, 0x3f,
0xd5, 0x56, 0xef, 0x76,
0x3b, 0xf7, 0xde, 0x8e,
0x2f, 0x86, 0x39, 0xc6,
0xec, 0x7f, 0x0f, 0xcb,
0x12, 0x76, 0xeb, 0x2f,
0x85, 0xd1, 0xfd, 0xdc,
0xb7, 0xfa, 0x3b, 0xcd,
0x2d, 0xc5, 0xcc, 0x15,
0xda, 0x53, 0xaf, 0x33,
0x3e, 0x61, 0x15, 0xd2,
0x7c, 0x3f, 0x49, 0x3f,
0x2a, 0x14, 0xff, 0x3e,
0x62, 0xc2, 0xe5, 0x62,
0xa4, 0x7c, 0xd1, 0xca,
0x7c, 0xc8, 0xf4, 0xd2,
0xde, 0xd7, 0x7c, 0x4f,
0x28, 0x1b, 0x34, 0x5f,
0xf3, 0x97, 0x15, 0x50,
0xbd, 0xeb, 0x60, 0xe5,
0xa7, 0xf3, 0xbe, 0x30,
0x1a, 0xcf, 0x2d, 0xec,
0xa2, 0x8c, 0x10, 0x7a,
0xc2, 0xde, 0x97, 0x4b,
0xa4, 0xc7, 0xfb, 0x2d,
0x7b, 0x7f, 0x1f, 0x40,
0xd9, 0xe7, 0xdf, 0xb6,
0xa6, 0x74, 0x1c, 0xc0,
0xc0, 0x35, 0xe8, 0xd4,
0x94, 0x10, 0xf7, 0xbc,
0x91, 0xe6, 0x4f, 0x35,
0x41, 0xcf, 0x1a, 0x2f,
0xf7, 0x60, 0x65, 0x27,
0x0c, 0x6c, 0x57, 0x24,
0x31, 0xed, 0xd6, 0x76,
0xe3, 0x87, 0x44, 0x58,
0x49, 0xd7, 0x1e, 0x87,
0x9b, 0xc5, 0x37, 0x80,
0x32, 0x47, 0xcd, 0x6b,
0xff, 0xf6, 0xa3, 0x92,
0x1a, 0xdc, 0x76, 0x45,
0x07, 0x2a, 0x1a, 0x2f,
0xf0, 0xd8, 0x44, 0x57,
0x68, 0x5f, 0x72, 0x5c,
0xf9, 0xd5, 0x78, 0xf7,
0x12, 0xf9, 0xd3, 0x8a,
0x73, 0x5f, 0xe2, 0x92,
0x67, 0x26, 0xa8, 0x63,
0x2f, 0x35, 0x77, 0xfa,
0x91, 0x1b, 0xeb, 0xc2,
0x1f, 0x8b, 0x26, 0xe5,
0x84, 0x9f, 0xdd, 0xca,
0x62, 0xac, 0x77, 0x6f,
0xd2, 0xfe, 0xce, 0xfe,
0xff, 0x81, 0x5c, 0x3f,
0xff, 0x4f, 0xbb, 0xff,
0x9c, 0x8d, 0xfd, 0x02,
0xbc, 0x61, 0xcf, 0xfd,
0x77, 0x5b, 0x6b, 0x51,
0x55, 0xf4, 0xd7, 0xe6,
0x9f, 0x3d, 0xe5, 0x6e,
0xdc, 0x2f, 0x5e, 0x6e,
0xda, 0xdb, 0xf4, 0x2b,
0x4d, 0xf0, 0x76, 0xef,
0x37, 0xfb, 0xd2, 0x62,
0x8e, 0x3b, 0xcb, 0xfd,
0x8f, 0x99, 0xb7, 0xdc,
0xf9, 0x7b, 0x1a, 0x93,
0x00, 0xe5, 0x87, 0x7d,
0xe5, 0x62, 0x6f, 0x1c,
0xa1, 0xfe, 0xff, 0xff,
0xff, 0xff, 0xff, 0xff,
0xff, 0xff, 0xff, 0xff, 

};






static inline const int8_t * Getfc_lif_layer_1WeightsPointer()
{
	return weight_fc_lif_layer_1;
}

static inline size_t Getfc_lif_layer_1WeightsLen()
{
	return sizeof(weight_fc_lif_layer_1);
}





static const int8_t lif_param_fc_lif_layer_1[]  __attribute__((aligned(16))) = 
{


// ln(beta)_quant
0, 0, 0, 0, 0, 0, 0, 0, 0, 
0, 0, 0, 0, 0, 0, 0, 0, 
0, 0, 0, 0, 0, 0, 0, 0, 
0, 0, 0, 0, 0, 0, 0, 0, 
0, 0, 0, 0, 0, 0, 0, 0, 
0, 0, 0, 0, 0, 0, 0, 0, 
0, 0, 0, 0, 0, 0, 0, 0, 
0, 0, 0, 0, 0, 0, 0, 
// vth_quant
0, 0, 0, 0, 0, 0, 0, 0, 0, 
0, 0, 0, 0, 0, 0, 0, 0, 
0, 0, 0, 0, 0, 0, 0, 0, 
0, 0, 0, 0, 0, 0, 0, 0, 
0, 0, 0, 0, 0, 0, 0, 0, 
0, 0, 0, 0, 0, 0, 0, 0, 
0, 0, 0, 0, 0, 0, 0, 0, 
0, 0, 0, 0, 0, 0, 0, 

};







static inline const int8_t* Getfc_lif_layer_1LIFParamPointer()
{
	return lif_param_fc_lif_layer_1;
}
static inline size_t Getfc_lif_layer_1LIFParamLen()
{
	return sizeof(lif_param_fc_lif_layer_1);
}





static const int8_t lut_fc_lif_layer_1[] __attribute__((aligned(16))) = 
{


//lut index 0
-29, 
-29, -28, -28, -28, -27, -27, -27, -26, 
-26, -25, -25, -24, -24, -24, -23, -23, 
-22, -22, -22, -21, -21, -20, -20, -20, 
-19, -19, -18, -18, -17, -17, -16, -16, 
-16, -15, -15, -14, -14, -13, -13, -12, 
-12, -12, -11, -11, -10, -10, -9, -9, 
-8, -8, -7, -7, -6, -6, -5, -5, 
-5, -4, -4, -3, -3, -2, -2, -1, 
-1, 0, 0, 1, 1, 2, 2, 3, 
3, 4, 5, 5, 6, 6, 7, 7, 
8, 8, 9, 9, 10, 10, 11, 11, 
12, 13, 13, 14, 14, 15, 15, 16, 
16, 17, 18, 18, 19, 19, 20, 20, 
21, 22, 22, 23, 23, 24, 25, 25, 
26, 26, 27, 28, 28, 29, 29, 30, 
31, 31, 32, 33, 33, 34, 34, 35, 
36, 36, 37, 38, 38, 39, 40, 40, 
41, 42, 42, 43, 44, 44, 45, 46, 
46, 47, 48, 48, 49, 50, 51, 51, 
52, 53, 53, 54, 55, 55, 56, 57, 
58, 58, 59, 60, 61, 61, 62, 63, 
64, 64, 65, 66, 67, 67, 68, 69, 
70, 70, 71, 72, 73, 74, 74, 75, 
76, 77, 78, 78, 79, 80, 81, 82, 
82, 83, 84, 85, 86, 87, 87, 88, 
89, 90, 91, 92, 93, 93, 94, 95, 
96, 97, 98, 99, 100, 101, 101, 102, 
103, 104, 105, 106, 107, 108, 109, 110, 
111, 112, 113, 113, 114, 115, 116, 117, 
118, 119, 120, 121, 122, 123, 124, 125, 
126, 127, 127, 127, 127, 127, 127, 127, 
127, 127, 127, 127, 127, 127, 127, 
//lut index 1
0, 
0, 0, 0, 0, 0, 0, 0, 0, 
0, 0, 0, 0, 0, 0, 0, 0, 
0, 0, 0, 0, 0, 0, 0, 0, 
0, 0, 0, 0, 0, 0, 0, 0, 
0, 0, 0, 0, 0, 0, 0, 0, 
0, 0, 0, 0, 0, 0, 0, 0, 
0, 0, 0, 0, 0, 0, 0, 0, 
0, 0, 0, 0, 0, 0, 0, 0, 
0, 0, 0, 0, 0, 0, 0, 0, 
0, 0, 0, 0, 0, 0, 0, 0, 
0, 0, 0, 0, 0, 0, 0, 0, 
0, 0, 0, 0, 0, 0, 0, 0, 
0, 0, 0, 0, 0, 0, 0, 0, 
0, 0, 0, 0, 0, 0, 0, 0, 
0, 0, 0, 0, 0, 0, 0, 0, 
0, 0, 0, 0, 0, 0, 0, 0, 
1, 1, 1, 1, 1, 1, 1, 1, 
1, 1, 1, 1, 1, 1, 1, 1, 
1, 1, 1, 1, 1, 1, 1, 1, 
1, 1, 1, 1, 1, 1, 1, 1, 
1, 1, 1, 1, 1, 1, 1, 1, 
1, 1, 1, 1, 1, 1, 1, 1, 
1, 1, 1, 1, 1, 1, 1, 1, 
1, 1, 1, 1, 1, 1, 1, 1, 
1, 1, 1, 1, 1, 1, 1, 1, 
1, 1, 1, 1, 1, 1, 1, 1, 
1, 1, 1, 1, 1, 1, 1, 1, 
1, 1, 1, 1, 1, 1, 1, 1, 
1, 1, 1, 1, 1, 1, 1, 1, 
1, 1, 1, 1, 1, 1, 1, 1, 
1, 1, 1, 1, 1, 1, 1, 1, 
1, 1, 1, 1, 1, 1, 1, 


};







static inline const int8_t* Getfc_lif_layer_1LUTPointer()
{
	return lut_fc_lif_layer_1;
}
static inline size_t Getfc_lif_layer_1LUTLen()
{
	return sizeof(lut_fc_lif_layer_1);
}

/*
Register Command Stream:
+---------------------------+-----------+-------------------------+
| Command Name              | Parameter | Payload Data            |
+---------------------------+-----------+-------------------------+
| NPU_SET_DMA0_SRC_REGION   | 4         | -                       |
| NPU_SET_DMA0_SRC          | 0         | 0x00000000 (0)          |
| NPU_SET_DMA0_DST_REGION   | 259       | -                       |
| NPU_SET_DMA0_DST          | 0         | 0x0000b800 (47104)      |
| NPU_SET_DMA0_LEN          | 0         | 0x00000100 (256)        |
| NPU_OP_DMA_START          | 0         | -                       |
| NPU_SET_OFM_SCALE         | 37        | 0x66cd3380 (1724724096) |
| NPU_SET_IFM_REGION        | 3         | -                       |
| NPU_SET_IFM_BASE0         | 0         | 0x00000000 (0)          |
| NPU_SET_IFM_BASE1         | 0         | 0x00000000 (0)          |
| NPU_SET_IFM_BASE2         | 0         | 0x00000000 (0)          |
| NPU_SET_IFM_BASE3         | 0         | 0x00000000 (0)          |
| NPU_SET_IFM_HEIGHT0_M1    | 0         | -                       |
| NPU_SET_IFM_HEIGHT1_M1    | 65535     | -                       |
| NPU_SET_IFM_WIDTH0_M1     | 0         | -                       |
| NPU_SET_IFM_DEPTH_M1      | 63        | -                       |
| NPU_SET_IFM_STRIDE_C      | 0         | 0x00000001 (1)          |
| NPU_SET_IFM_STRIDE_Y      | 0         | 0x00000040 (64)         |
| NPU_SET_IFM_STRIDE_X      | 0         | 0x00000040 (64)         |
| NPU_SET_IFM_ZERO_POINT    | 65        | -                       |
| NPU_SET_IFM_PRECISION     | 1         | -                       |
| NPU_SET_IFM_UPSCALE       | 0         | -                       |
| NPU_SET_OFM_REGION        | 1         | -                       |
| NPU_SET_OFM_BASE0         | 0         | 0x00000000 (0)          |
| NPU_SET_OFM_BASE1         | 0         | 0x00000000 (0)          |
| NPU_SET_OFM_BASE2         | 0         | 0x00000000 (0)          |
| NPU_SET_OFM_BASE3         | 0         | 0x00000000 (0)          |
| NPU_SET_OFM_HEIGHT0_M1    | 0         | -                       |
| NPU_SET_OFM_HEIGHT1_M1    | 65535     | -                       |
| NPU_SET_OFM_WIDTH0_M1     | 0         | -                       |
| NPU_SET_OFM_HEIGHT_M1     | 0         | -                       |
| NPU_SET_OFM_WIDTH_M1      | 0         | -                       |
| NPU_SET_OFM_DEPTH_M1      | 63        | -                       |
| NPU_SET_OFM_STRIDE_C      | 0         | 0x00000010 (16)         |
| NPU_SET_OFM_STRIDE_Y      | 0         | 0x00000040 (64)         |
| NPU_SET_OFM_STRIDE_X      | 0         | 0x00000010 (16)         |
| NPU_SET_OFM_ZERO_POINT    | 127       | -                       |
| NPU_SET_OFM_PRECISION     | 321       | -                       |
| NPU_SET_ACTIVATION        | 16        | -                       |
| NPU_SET_ACTIVATION_MIN    | 65408     | -                       |
| NPU_SET_ACTIVATION_MAX    | 127       | -                       |
| NPU_SET_OFM_BLK_HEIGHT_M1 | 1         | -                       |
| NPU_SET_OFM_BLK_WIDTH_M1  | 1         | -                       |
| NPU_SET_OFM_BLK_DEPTH_M1  | 63        | -                       |
| NPU_SET_IFM_IB_END        | 46        | -                       |
| NPU_SET_AB_START          | 46        | -                       |
| NPU_SET_IFM2_IB_START     | 10        | -                       |
| NPU_SET_ACC_FORMAT        | 0         | -                       |
| NPU_SET_IFM2_REGION       | 1         | -                       |
| NPU_SET_IFM2_BASE0        | 0         | 0x000000c0 (192)        |
| NPU_SET_IFM2_BASE1        | 0         | 0x00000000 (0)          |
| NPU_SET_IFM2_BASE2        | 0         | 0x00000000 (0)          |
| NPU_SET_IFM2_BASE3        | 0         | 0x00000000 (0)          |
| NPU_SET_IFM2_HEIGHT0_M1   | 0         | -                       |
| NPU_SET_IFM2_HEIGHT1_M1   | 65535     | -                       |
| NPU_SET_IFM2_WIDTH0_M1    | 0         | -                       |
| NPU_SET_IFM2_STRIDE_C     | 0         | 0x00000001 (1)          |
| NPU_SET_IFM2_STRIDE_Y     | 0         | 0x00000001 (1)          |
| NPU_SET_IFM2_STRIDE_X     | 0         | 0x00000001 (1)          |
| NPU_SET_IFM2_ZERO_POINT   | 65408     | -                       |
| NPU_SET_IFM_PRECISION     | 1         | -                       |
| NPU_SET_IFM2_BROADCAST    | 4         | -                       |
| NPU_SET_BLOCKDEP          | 0         | -                       |
| NPU_OP_DMA_WAIT           | 0         | -                       |
| NPU_OP_ELEMENTWISE        | 0         | -                       |
| NPU_SET_IFM_REGION        | 5         | -                       |
| NPU_SET_IFM_ZERO_POINT    | 0         | -                       |
| NPU_SET_IFM_PAD_TOP       | 0         | -                       |
| NPU_SET_IFM_PAD_LEFT      | 0         | -                       |
| NPU_SET_IFM_PAD_BOTTOM    | 0         | -                       |
| NPU_SET_IFM_PAD_RIGHT     | 0         | -                       |
| NPU_SET_OFM_BASE0         | 0         | 0x00000040 (64)         |
| NPU_SET_OFM_ZERO_POINT    | 0         | -                       |
| NPU_SET_OFM_PRECISION     | 65        | -                       |
| NPU_SET_KERNEL_HEIGHT_M1  | 0         | -                       |
| NPU_SET_KERNEL_WIDTH_M1   | 0         | -                       |
| NPU_SET_KERNEL_STRIDE     | 0         | -                       |
| NPU_SET_WEIGHT_REGION     | 0         | -                       |
| NPU_SET_WEIGHT_BASE       | 0         | 0x00000280 (640)        |
| NPU_SET_WEIGHT_LENGTH     | 0         | 0x00000f00 (3840)       |
| NPU_SET_SCALE_REGION      | 0         | -                       |
| NPU_SET_SCALE_BASE        | 0         | 0x00000000 (0)          |
| NPU_SET_SCALE_LENGTH      | 0         | 0x00000280 (640)        |
| NPU_SET_ACTIVATION        | 0         | -                       |
| NPU_SET_IFM_IB_END        | 10        | -                       |
| NPU_SET_AB_START          | 30        | -                       |
| NPU_SET_BLOCKDEP          | 3         | -                       |
| NPU_OP_CONV               | 0         | -                       |
| NPU_SET_OFM_SCALE         | 38        | 0x533bf600 (1396438528) |
| NPU_SET_IFM_REGION        | 1         | -                       |
| NPU_SET_IFM_BASE0         | 0         | 0x00000080 (128)        |
| NPU_SET_IFM_ZERO_POINT    | 65510     | -                       |
| NPU_SET_OFM_BASE0         | 0         | 0x00000000 (0)          |
| NPU_SET_OFM_ZERO_POINT    | 65501     | -                       |
| NPU_SET_OFM_PRECISION     | 321       | -                       |
| NPU_SET_IFM_IB_END        | 46        | -                       |
| NPU_SET_AB_START          | 46        | -                       |
| NPU_SET_IFM2_BASE0        | 0         | 0x00000000 (0)          |
| NPU_SET_IFM2_STRIDE_C     | 0         | 0x00000010 (16)         |
| NPU_SET_IFM2_STRIDE_Y     | 0         | 0x00000040 (64)         |
| NPU_SET_IFM2_STRIDE_X     | 0         | 0x00000010 (16)         |
| NPU_SET_IFM_PRECISION     | 65        | -                       |
| NPU_SET_IFM2_BROADCAST    | 0         | -                       |
| NPU_OP_ELEMENTWISE        | 0         | -                       |
| NPU_SET_OPA_SCALE         | 12        | 0x4e38e38e (1312351118) |
| NPU_SET_OPB_SCALE         | 0         | 0x00000000 (0)          |
| NPU_SET_OFM_SCALE         | 49        | 0x4ccccccd (1288490189) |
| NPU_SET_IFM_BASE0         | 0         | 0x00000000 (0)          |
| NPU_SET_IFM_STRIDE_C      | 0         | 0x00000010 (16)         |
| NPU_SET_IFM_STRIDE_X      | 0         | 0x00000010 (16)         |
| NPU_SET_IFM_ZERO_POINT    | 65501     | -                       |
| NPU_SET_IFM_PRECISION     | 321       | -                       |
| NPU_SET_OFM_BASE0         | 0         | 0x00000080 (128)        |
| NPU_SET_OFM_ZERO_POINT    | 65510     | -                       |
| NPU_SET_IFM2_BASE0        | 0         | 0x00000040 (64)         |
| NPU_SET_IFM2_ZERO_POINT   | 0         | -                       |
| NPU_SET_BLOCKDEP          | 0         | -                       |
| NPU_OP_ELEMENTWISE        | 1         | -                       |
| NPU_SET_DMA0_SRC          | 0         | 0x00000100 (256)        |
| NPU_SET_DMA0_DST          | 0         | 0x0000b900 (47360)      |
| NPU_OP_DMA_START          | 0         | -                       |
| NPU_SET_OPA_SCALE         | 18        | 0x6d3a06d4 (1832519380) |
| NPU_SET_OFM_SCALE         | 47        | 0x78000000 (2013265920) |
| NPU_SET_IFM_BASE0         | 0         | 0x00000080 (128)        |
| NPU_SET_IFM_ZERO_POINT    | 65510     | -                       |
| NPU_SET_IFM_PRECISION     | 577       | -                       |
| NPU_SET_OFM_REGION        | 6         | -                       |
| NPU_SET_OFM_BASE0         | 0         | 0x00000000 (0)          |
| NPU_SET_OFM_STRIDE_C      | 0         | 0x00000001 (1)          |
| NPU_SET_OFM_STRIDE_X      | 0         | 0x00000040 (64)         |
| NPU_SET_OFM_ZERO_POINT    | 0         | -                       |
| NPU_SET_OFM_PRECISION     | 257       | -                       |
| NPU_SET_ACTIVATION        | 17        | -                       |
| NPU_SET_IFM2_REGION       | 3         | -                       |
| NPU_SET_IFM2_STRIDE_C     | 0         | 0x00000001 (1)          |
| NPU_SET_IFM2_STRIDE_X     | 0         | 0x00000040 (64)         |
| NPU_SET_IFM2_ZERO_POINT   | 64261     | -                       |
| NPU_SET_IFM_PRECISION     | 1         | -                       |
| NPU_OP_DMA_WAIT           | 0         | -                       |
| NPU_OP_ELEMENTWISE        | 2         | -                       |
| NPU_SET_OFM_SCALE         | 33        | 0x5d174580 (1561806208) |
| NPU_SET_IFM_REGION        | 3         | -                       |
| NPU_SET_IFM_BASE0         | 0         | 0x00000040 (64)         |
| NPU_SET_IFM_STRIDE_C      | 0         | 0x00000001 (1)          |
| NPU_SET_IFM_STRIDE_X      | 0         | 0x00000040 (64)         |
| NPU_SET_IFM_ZERO_POINT    | 64261     | -                       |
| NPU_SET_IFM_PRECISION     | 1         | -                       |
| NPU_SET_OFM_REGION        | 1         | -                       |
| NPU_SET_OFM_BASE0         | 0         | 0x00000040 (64)         |
| NPU_SET_OFM_STRIDE_C      | 0         | 0x00000010 (16)         |
| NPU_SET_OFM_STRIDE_X      | 0         | 0x00000010 (16)         |
| NPU_SET_OFM_ZERO_POINT    | 65408     | -                       |
| NPU_SET_OFM_PRECISION     | 321       | -                       |
| NPU_SET_ACTIVATION        | 0         | -                       |
| NPU_SET_IFM2_REGION       | 6         | -                       |
| NPU_SET_IFM2_BASE0        | 0         | 0x00000000 (0)          |
| NPU_SET_IFM2_ZERO_POINT   | 0         | -                       |
| NPU_OP_ELEMENTWISE        | 0         | -                       |
| NPU_SET_OPA_SCALE         | 15        | 0x4b17e4b1 (1259857073) |
| NPU_SET_OFM_SCALE         | 49        | 0x40000000 (1073741824) |
| NPU_SET_IFM_REGION        | 1         | -                       |
| NPU_SET_IFM_BASE0         | 0         | 0x00000080 (128)        |
| NPU_SET_IFM_STRIDE_C      | 0         | 0x00000010 (16)         |
| NPU_SET_IFM_STRIDE_X      | 0         | 0x00000010 (16)         |
| NPU_SET_IFM_ZERO_POINT    | 65510     | -                       |
| NPU_SET_IFM_PRECISION     | 577       | -                       |
| NPU_SET_OFM_BASE0         | 0         | 0x00000080 (128)        |
| NPU_SET_OFM_STRIDE_C      | 0         | 0x00000001 (1)          |
| NPU_SET_OFM_STRIDE_X      | 0         | 0x00000040 (64)         |
| NPU_SET_OFM_ZERO_POINT    | 65510     | -                       |
| NPU_SET_OFM_PRECISION     | 257       | -                       |
| NPU_SET_IFM2_REGION       | 1         | -                       |
| NPU_SET_IFM2_BASE0        | 0         | 0x00000040 (64)         |
| NPU_SET_IFM2_STRIDE_C     | 0         | 0x00000010 (16)         |
| NPU_SET_IFM2_STRIDE_X     | 0         | 0x00000010 (16)         |
| NPU_SET_IFM2_ZERO_POINT   | 65408     | -                       |
| NPU_SET_IFM_PRECISION     | 65        | -                       |
| NPU_OP_ELEMENTWISE        | 2         | -                       |
| NPU_SET_IFM_REGION        | 6         | -                       |
| NPU_SET_IFM_BASE0         | 0         | 0x00000000 (0)          |
| NPU_SET_IFM_STRIDE_C      | 0         | 0x00000001 (1)          |
| NPU_SET_IFM_STRIDE_X      | 0         | 0x00000040 (64)         |
| NPU_SET_IFM_ZERO_POINT    | 0         | -                       |
| NPU_SET_IFM_PRECISION     | 1         | -                       |
| NPU_SET_OFM_BASE0         | 0         | 0x000000c1 (193)        |
| NPU_SET_OFM_DEPTH_M1      | 0         | -                       |
| NPU_SET_OFM_STRIDE_Y      | 0         | 0x00000001 (1)          |
| NPU_SET_OFM_STRIDE_X      | 0         | 0x00000001 (1)          |
| NPU_SET_OFM_ZERO_POINT    | 65408     | -                       |
| NPU_SET_OFM_BLK_DEPTH_M1  | 7         | -                       |
| NPU_SET_IFM_IB_END        | 10        | -                       |
| NPU_SET_AB_START          | 30        | -                       |
| NPU_SET_OFM_SCALE         | 22        | 0x3fc000ff (1069547775) |
| NPU_SET_BLOCKDEP          | 3         | -                       |
| NPU_OP_POOL               | 2         | -                       |
| NPU_SET_OFM_SCALE         | 30        | 0x40000000 (1073741824) |
| NPU_SET_IFM_REGION        | 1         | -                       |
| NPU_SET_IFM_BASE0         | 0         | 0x000000c0 (192)        |
| NPU_SET_IFM_DEPTH_M1      | 0         | -                       |
| NPU_SET_IFM_STRIDE_Y      | 0         | 0x00000001 (1)          |
| NPU_SET_IFM_STRIDE_X      | 0         | 0x00000001 (1)          |
| NPU_SET_IFM_ZERO_POINT    | 65408     | -                       |
| NPU_SET_OFM_BASE0         | 0         | 0x000000c0 (192)        |
| NPU_SET_ACTIVATION_MAX    | 65408     | -                       |
| NPU_SET_IFM_IB_END        | 46        | -                       |
| NPU_SET_AB_START          | 46        | -                       |
| NPU_SET_IFM2_ZERO_POINT   | 0         | -                       |
| NPU_SET_IFM_PRECISION     | 0         | -                       |
| NPU_SET_IFM2_BROADCAST    | 128       | -                       |
| NPU_SET_IFM2_SCALAR       | 0         | -                       |
| NPU_OP_ELEMENTWISE        | 0         | -                       |
| NPU_OP_STOP               | 65535     | -                       |
+---------------------------+-----------+-------------------------+
*/
