#pragma once
#include <stddef.h>
#include <stdint.h>




// Tensor sizes

#define FC_LIF_LAYER_2_IS_LAST_LAYER 1
#define FC_LIF_LAYER_2_MAX_NUM_TENSORS_TO_TRACK 8
#define FC_LIF_LAYER_2_TENSOR_ARENA_SIZE  80
#define FC_LIF_LAYER_2_INPUT_LAYER_SIZE  64
#define FC_LIF_LAYER_2_OUTPUT_LAYER_SIZE  16
#define FC_LIF_LAYER_2_WEIGHT_LEN 720
#define FC_LIF_LAYER_2_BIAS_LEN 160

// Input/output addresses (Relative Addressing)

#define FC_LIF_LAYER_2_IN_SPK_ADDR 0
#define FC_LIF_LAYER_2_BIAS_ADDR 0
#define FC_LIF_LAYER_2_WEIGHT_ADDR 160
#define FC_LIF_LAYER_2_LN_BETA_ADDR 0
#define FC_LIF_LAYER_2_VTH_ADDR 16
#define FC_LIF_LAYER_2_V_MEM_ADDR 32
#define FC_LIF_LAYER_2_TIME_NOT_UPDATED_ADDR 64
#define FC_LIF_LAYER_2_IN_CURR_ADDR 16
#define FC_LIF_LAYER_2_DECAY_ADDR 0
#define FC_LIF_LAYER_2_DECAYED_MEM_ADDR 0
#define FC_LIF_LAYER_2_UPDATE_NXT_LAYER_ADDR 65
#define FC_LIF_LAYER_2_OUT_SPK_ADDR 0
#define FC_LIF_LAYER_2_OUT_SPK_SUM_ADDR 48

//Quantization Params

#define FC_LIF_LAYER_2_IN_SPK_SCALE 1.0
#define FC_LIF_LAYER_2_IN_SPK_ZERO_POINT 0
#define FC_LIF_LAYER_2_BIAS_SCALE 0.01195105178683412
#define FC_LIF_LAYER_2_BIAS_ZERO_POINT 0
#define FC_LIF_LAYER_2_WEIGHT_SCALE 0.01195105178683412
#define FC_LIF_LAYER_2_WEIGHT_ZERO_POINT 0
#define FC_LIF_LAYER_2_LN_BETA_SCALE 0.0007843137254901962
#define FC_LIF_LAYER_2_LN_BETA_ZERO_POINT 65
#define FC_LIF_LAYER_2_VTH_SCALE 0.0007843137254901964
#define FC_LIF_LAYER_2_VTH_ZERO_POINT -1275
#define FC_LIF_LAYER_2_V_MEM_SCALE 0.058823529411764705
#define FC_LIF_LAYER_2_V_MEM_ZERO_POINT -26
#define FC_LIF_LAYER_2_TIME_NOT_UPDATED_SCALE 0.06274509803921569
#define FC_LIF_LAYER_2_TIME_NOT_UPDATED_ZERO_POINT -128
#define FC_LIF_LAYER_2_DECAY_SCALE 0.0037254901960784314
#define FC_LIF_LAYER_2_DECAY_ZERO_POINT -128
#define FC_LIF_LAYER_2_IN_CURR_SCALE 0.07058823529411765
#define FC_LIF_LAYER_2_IN_CURR_ZERO_POINT 0
#define FC_LIF_LAYER_2_DECAYED_MEM_SCALE 0.043137254901960784
#define FC_LIF_LAYER_2_DECAYED_MEM_ZERO_POINT -35
#define FC_LIF_LAYER_2_UPDATE_NXT_LAYER_SCALE 0.00392156862745098
#define FC_LIF_LAYER_2_UPDATE_NXT_LAYER_ZERO_POINT -128
#define FC_LIF_LAYER_2_OUT_SPK_SCALE 1.0
#define FC_LIF_LAYER_2_OUT_SPK_ZERO_POINT 0
#define FC_LIF_LAYER_2_OUT_SPK_SUM_SCALE 0.09803921568627451
#define FC_LIF_LAYER_2_OUT_SPK_SUM_ZERO_POINT -128











static const uint8_t cms_fc_lif_layer_2[] __attribute__((aligned(16))) = 
{

0x43, 0x4f, 0x50, 0x31,
0x01, 0x00, 0x10, 0x00,
0x08, 0x30, 0x00, 0x00,
0x00, 0x00, 0x06, 0x10,
0x05, 0x00, 0x00, 0x00,
0x05, 0x00, 0x00, 0x00,
0x05, 0x00, 0x00, 0x00,
0x02, 0x00, 0x3f, 0x01,
0x30, 0x01, 0x04, 0x00,
0x30, 0x40, 0x00, 0x00,
0x00, 0x00, 0x00, 0x00,
0x31, 0x01, 0x03, 0x01,
0x31, 0x40, 0x00, 0x00,
0x00, 0xb8, 0x00, 0x00,
0x32, 0x40, 0x00, 0x00,
0x00, 0x01, 0x00, 0x00,
0x10, 0x00, 0x00, 0x00,
0x24, 0x40, 0x25, 0x00,
0x80, 0x33, 0xcd, 0x66,
0x0f, 0x01, 0x03, 0x00,
0x00, 0x40, 0x00, 0x00,
0x00, 0x00, 0x00, 0x00,
0x01, 0x40, 0x00, 0x00,
0x00, 0x00, 0x00, 0x00,
0x02, 0x40, 0x00, 0x00,
0x00, 0x00, 0x00, 0x00,
0x03, 0x40, 0x00, 0x00,
0x00, 0x00, 0x00, 0x00,
0x0b, 0x01, 0x00, 0x00,
0x0c, 0x01, 0xff, 0xff,
0x0a, 0x01, 0x00, 0x00,
0x04, 0x01, 0x0f, 0x00,
0x06, 0x40, 0x00, 0x00,
0x01, 0x00, 0x00, 0x00,
0x05, 0x40, 0x00, 0x00,
0x10, 0x00, 0x00, 0x00,
0x04, 0x40, 0x00, 0x00,
0x10, 0x00, 0x00, 0x00,
0x09, 0x01, 0x41, 0x00,
0x05, 0x01, 0x01, 0x00,
0x07, 0x01, 0x00, 0x00,
0x1f, 0x01, 0x01, 0x00,
0x10, 0x40, 0x00, 0x00,
0x00, 0x00, 0x00, 0x00,
0x11, 0x40, 0x00, 0x00,
0x00, 0x00, 0x00, 0x00,
0x12, 0x40, 0x00, 0x00,
0x00, 0x00, 0x00, 0x00,
0x13, 0x40, 0x00, 0x00,
0x00, 0x00, 0x00, 0x00,
0x1b, 0x01, 0x00, 0x00,
0x1c, 0x01, 0xff, 0xff,
0x1a, 0x01, 0x00, 0x00,
0x12, 0x01, 0x00, 0x00,
0x11, 0x01, 0x00, 0x00,
0x13, 0x01, 0x0f, 0x00,
0x16, 0x40, 0x00, 0x00,
0x10, 0x00, 0x00, 0x00,
0x15, 0x40, 0x00, 0x00,
0x10, 0x00, 0x00, 0x00,
0x14, 0x40, 0x00, 0x00,
0x10, 0x00, 0x00, 0x00,
0x18, 0x01, 0x7f, 0x00,
0x14, 0x01, 0x41, 0x01,
0x25, 0x01, 0x10, 0x00,
0x26, 0x01, 0x80, 0xff,
0x27, 0x01, 0x7f, 0x00,
0x16, 0x01, 0x01, 0x00,
0x15, 0x01, 0x01, 0x00,
0x17, 0x01, 0x0f, 0x00,
0x0d, 0x01, 0x2e, 0x00,
0x2d, 0x01, 0x2e, 0x00,
0x8d, 0x01, 0x0a, 0x00,
0x24, 0x01, 0x00, 0x00,
0x8f, 0x01, 0x01, 0x00,
0x80, 0x40, 0x00, 0x00,
0x40, 0x00, 0x00, 0x00,
0x81, 0x40, 0x00, 0x00,
0x00, 0x00, 0x00, 0x00,
0x82, 0x40, 0x00, 0x00,
0x00, 0x00, 0x00, 0x00,
0x83, 0x40, 0x00, 0x00,
0x00, 0x00, 0x00, 0x00,
0x8b, 0x01, 0x00, 0x00,
0x8c, 0x01, 0xff, 0xff,
0x8a, 0x01, 0x00, 0x00,
0x86, 0x40, 0x00, 0x00,
0x01, 0x00, 0x00, 0x00,
0x85, 0x40, 0x00, 0x00,
0x01, 0x00, 0x00, 0x00,
0x84, 0x40, 0x00, 0x00,
0x01, 0x00, 0x00, 0x00,
0x89, 0x01, 0x80, 0xff,
0x85, 0x01, 0x01, 0x00,
0x80, 0x01, 0x04, 0x00,
0x2f, 0x01, 0x00, 0x00,
0x11, 0x00, 0x00, 0x00,
0x06, 0x00, 0x00, 0x00,
0x0f, 0x01, 0x05, 0x00,
0x04, 0x01, 0x3f, 0x00,
0x05, 0x40, 0x00, 0x00,
0x40, 0x00, 0x00, 0x00,
0x04, 0x40, 0x00, 0x00,
0x40, 0x00, 0x00, 0x00,
0x09, 0x01, 0x00, 0x00,
0x00, 0x01, 0x00, 0x00,
0x01, 0x01, 0x00, 0x00,
0x03, 0x01, 0x00, 0x00,
0x02, 0x01, 0x00, 0x00,
0x10, 0x40, 0x00, 0x00,
0x10, 0x00, 0x00, 0x00,
0x18, 0x01, 0x00, 0x00,
0x14, 0x01, 0x41, 0x00,
0x21, 0x01, 0x00, 0x00,
0x20, 0x01, 0x00, 0x00,
0x22, 0x01, 0x00, 0x00,
0x28, 0x01, 0x00, 0x00,
0x20, 0x40, 0x00, 0x00,
0xa0, 0x00, 0x00, 0x00,
0x21, 0x40, 0x00, 0x00,
0xd0, 0x02, 0x00, 0x00,
0x29, 0x01, 0x00, 0x00,
0x22, 0x40, 0x00, 0x00,
0x00, 0x00, 0x00, 0x00,
0x23, 0x40, 0x00, 0x00,
0xa0, 0x00, 0x00, 0x00,
0x25, 0x01, 0x00, 0x00,
0x0d, 0x01, 0x0a, 0x00,
0x2d, 0x01, 0x1e, 0x00,
0x2f, 0x01, 0x03, 0x00,
0x02, 0x00, 0x00, 0x00,
0x24, 0x40, 0x26, 0x00,
0x00, 0xf6, 0x3b, 0x53,
0x0f, 0x01, 0x01, 0x00,
0x00, 0x40, 0x00, 0x00,
0x20, 0x00, 0x00, 0x00,
0x04, 0x01, 0x0f, 0x00,
0x05, 0x40, 0x00, 0x00,
0x10, 0x00, 0x00, 0x00,
0x04, 0x40, 0x00, 0x00,
0x10, 0x00, 0x00, 0x00,
0x09, 0x01, 0xe6, 0xff,
0x10, 0x40, 0x00, 0x00,
0x00, 0x00, 0x00, 0x00,
0x18, 0x01, 0xdd, 0xff,
0x14, 0x01, 0x41, 0x01,
0x0d, 0x01, 0x2e, 0x00,
0x2d, 0x01, 0x2e, 0x00,
0x80, 0x40, 0x00, 0x00,
0x00, 0x00, 0x00, 0x00,
0x86, 0x40, 0x00, 0x00,
0x10, 0x00, 0x00, 0x00,
0x85, 0x40, 0x00, 0x00,
0x10, 0x00, 0x00, 0x00,
0x84, 0x40, 0x00, 0x00,
0x10, 0x00, 0x00, 0x00,
0x85, 0x01, 0x41, 0x00,
0x80, 0x01, 0x00, 0x00,
0x06, 0x00, 0x00, 0x00,
0x25, 0x40, 0x0c, 0x00,
0x8e, 0xe3, 0x38, 0x4e,
0x26, 0x40, 0x00, 0x00,
0x00, 0x00, 0x00, 0x00,
0x24, 0x40, 0x31, 0x00,
0xcd, 0xcc, 0xcc, 0x4c,
0x00, 0x40, 0x00, 0x00,
0x00, 0x00, 0x00, 0x00,
0x06, 0x40, 0x00, 0x00,
0x10, 0x00, 0x00, 0x00,
0x09, 0x01, 0xdd, 0xff,
0x05, 0x01, 0x41, 0x01,
0x10, 0x40, 0x00, 0x00,
0x20, 0x00, 0x00, 0x00,
0x18, 0x01, 0xe6, 0xff,
0x80, 0x40, 0x00, 0x00,
0x10, 0x00, 0x00, 0x00,
0x89, 0x01, 0x00, 0x00,
0x2f, 0x01, 0x00, 0x00,
0x06, 0x00, 0x01, 0x00,
0x30, 0x40, 0x00, 0x00,
0x00, 0x01, 0x00, 0x00,
0x31, 0x40, 0x00, 0x00,
0x00, 0xb9, 0x00, 0x00,
0x10, 0x00, 0x00, 0x00,
0x25, 0x40, 0x12, 0x00,
0xd4, 0x06, 0x3a, 0x6d,
0x24, 0x40, 0x2f, 0x00,
0x00, 0x00, 0x00, 0x78,
0x00, 0x40, 0x00, 0x00,
0x20, 0x00, 0x00, 0x00,
0x09, 0x01, 0xe6, 0xff,
0x05, 0x01, 0x41, 0x02,
0x1f, 0x01, 0x06, 0x00,
0x10, 0x40, 0x00, 0x00,
0x00, 0x00, 0x00, 0x00,
0x16, 0x40, 0x00, 0x00,
0x01, 0x00, 0x00, 0x00,
0x18, 0x01, 0x00, 0x00,
0x14, 0x01, 0x01, 0x01,
0x25, 0x01, 0x11, 0x00,
0x8f, 0x01, 0x03, 0x00,
0x86, 0x40, 0x00, 0x00,
0x01, 0x00, 0x00, 0x00,
0x89, 0x01, 0x05, 0xfb,
0x85, 0x01, 0x01, 0x00,
0x11, 0x00, 0x00, 0x00,
0x06, 0x00, 0x02, 0x00,
0x24, 0x40, 0x21, 0x00,
0x80, 0x45, 0x17, 0x5d,
0x0f, 0x01, 0x03, 0x00,
0x00, 0x40, 0x00, 0x00,
0x10, 0x00, 0x00, 0x00,
0x06, 0x40, 0x00, 0x00,
0x01, 0x00, 0x00, 0x00,
0x09, 0x01, 0x05, 0xfb,
0x05, 0x01, 0x01, 0x00,
0x1f, 0x01, 0x01, 0x00,
0x10, 0x40, 0x00, 0x00,
0x10, 0x00, 0x00, 0x00,
0x16, 0x40, 0x00, 0x00,
0x10, 0x00, 0x00, 0x00,
0x18, 0x01, 0x80, 0xff,
0x14, 0x01, 0x41, 0x01,
0x25, 0x01, 0x00, 0x00,
0x8f, 0x01, 0x06, 0x00,
0x80, 0x40, 0x00, 0x00,
0x00, 0x00, 0x00, 0x00,
0x89, 0x01, 0x00, 0x00,
0x06, 0x00, 0x00, 0x00,
0x25, 0x40, 0x0f, 0x00,
0xb1, 0xe4, 0x17, 0x4b,
0x24, 0x40, 0x31, 0x00,
0x00, 0x00, 0x00, 0x40,
0x0f, 0x01, 0x01, 0x00,
0x00, 0x40, 0x00, 0x00,
0x20, 0x00, 0x00, 0x00,
0x06, 0x40, 0x00, 0x00,
0x10, 0x00, 0x00, 0x00,
0x09, 0x01, 0xe6, 0xff,
0x05, 0x01, 0x41, 0x02,
0x10, 0x40, 0x00, 0x00,
0x20, 0x00, 0x00, 0x00,
0x16, 0x40, 0x00, 0x00,
0x01, 0x00, 0x00, 0x00,
0x18, 0x01, 0xe6, 0xff,
0x14, 0x01, 0x01, 0x01,
0x8f, 0x01, 0x01, 0x00,
0x80, 0x40, 0x00, 0x00,
0x10, 0x00, 0x00, 0x00,
0x86, 0x40, 0x00, 0x00,
0x10, 0x00, 0x00, 0x00,
0x89, 0x01, 0x80, 0xff,
0x85, 0x01, 0x41, 0x00,
0x06, 0x00, 0x02, 0x00,
0x0f, 0x01, 0x06, 0x00,
0x00, 0x40, 0x00, 0x00,
0x00, 0x00, 0x00, 0x00,
0x06, 0x40, 0x00, 0x00,
0x01, 0x00, 0x00, 0x00,
0x09, 0x01, 0x00, 0x00,
0x05, 0x01, 0x01, 0x00,
0x10, 0x40, 0x00, 0x00,
0x41, 0x00, 0x00, 0x00,
0x13, 0x01, 0x00, 0x00,
0x15, 0x40, 0x00, 0x00,
0x01, 0x00, 0x00, 0x00,
0x14, 0x40, 0x00, 0x00,
0x01, 0x00, 0x00, 0x00,
0x18, 0x01, 0x80, 0xff,
0x17, 0x01, 0x07, 0x00,
0x0d, 0x01, 0x0a, 0x00,
0x2d, 0x01, 0x1e, 0x00,
0x24, 0x40, 0x16, 0x00,
0xff, 0x00, 0xc0, 0x3f,
0x2f, 0x01, 0x03, 0x00,
0x05, 0x00, 0x02, 0x00,
0x24, 0x40, 0x1e, 0x00,
0x00, 0x00, 0x00, 0x40,
0x0f, 0x01, 0x01, 0x00,
0x00, 0x40, 0x00, 0x00,
0x40, 0x00, 0x00, 0x00,
0x04, 0x01, 0x00, 0x00,
0x05, 0x40, 0x00, 0x00,
0x01, 0x00, 0x00, 0x00,
0x04, 0x40, 0x00, 0x00,
0x01, 0x00, 0x00, 0x00,
0x09, 0x01, 0x80, 0xff,
0x10, 0x40, 0x00, 0x00,
0x40, 0x00, 0x00, 0x00,
0x27, 0x01, 0x80, 0xff,
0x0d, 0x01, 0x2e, 0x00,
0x2d, 0x01, 0x2e, 0x00,
0x89, 0x01, 0x00, 0x00,
0x85, 0x01, 0x00, 0x00,
0x80, 0x01, 0x80, 0x00,
0x81, 0x01, 0x00, 0x00,
0x06, 0x00, 0x00, 0x00,
0x25, 0x40, 0x0f, 0x00,
0x64, 0x64, 0x64, 0x64,
0x24, 0x40, 0x2e, 0x00,
0x9a, 0x99, 0x99, 0x51,
0x00, 0x40, 0x00, 0x00,
0x30, 0x00, 0x00, 0x00,
0x04, 0x01, 0x0f, 0x00,
0x05, 0x40, 0x00, 0x00,
0x10, 0x00, 0x00, 0x00,
0x04, 0x40, 0x00, 0x00,
0x10, 0x00, 0x00, 0x00,
0x05, 0x01, 0x01, 0x01,
0x10, 0x40, 0x00, 0x00,
0x30, 0x00, 0x00, 0x00,
0x13, 0x01, 0x0f, 0x00,
0x15, 0x40, 0x00, 0x00,
0x10, 0x00, 0x00, 0x00,
0x14, 0x40, 0x00, 0x00,
0x10, 0x00, 0x00, 0x00,
0x27, 0x01, 0x7f, 0x00,
0x17, 0x01, 0x0f, 0x00,
0x8f, 0x01, 0x06, 0x00,
0x80, 0x40, 0x00, 0x00,
0x00, 0x00, 0x00, 0x00,
0x86, 0x40, 0x00, 0x00,
0x01, 0x00, 0x00, 0x00,
0x85, 0x01, 0x01, 0x00,
0x80, 0x01, 0x00, 0x00,
0x06, 0x00, 0x01, 0x00,
0x00, 0x00, 0xff, 0xff, 

};







static inline const uint8_t * Getfc_lif_layer_2CMSPointer()
{
	return cms_fc_lif_layer_2;
}

static inline size_t Getfc_lif_layer_2CMSLen()
{
	return sizeof(cms_fc_lif_layer_2);
}





static const int8_t weight_fc_lif_layer_2[] __attribute__((aligned(16))) = 
{

//biases
0x02, 0x00, 0x00, 0x00,
0x00, 0xb0, 0x59, 0xaf,
0x56, 0x21, 0xfe, 0xff,
0xff, 0xff, 0xff, 0xb0,
0x59, 0xaf, 0x56, 0x21,
0x00, 0x00, 0x00, 0x00,
0x00, 0xb0, 0x59, 0xaf,
0x56, 0x21, 0x03, 0x00,
0x00, 0x00, 0x00, 0xb0,
0x59, 0xaf, 0x56, 0x21,
0x00, 0x00, 0x00, 0x00,
0x00, 0xb0, 0x59, 0xaf,
0x56, 0x21, 0x0b, 0x00,
0x00, 0x00, 0x00, 0xb0,
0x59, 0xaf, 0x56, 0x21,
0x01, 0x00, 0x00, 0x00,
0x00, 0xb0, 0x59, 0xaf,
0x56, 0x21, 0xfd, 0xff,
0xff, 0xff, 0xff, 0xb0,
0x59, 0xaf, 0x56, 0x21,
0x08, 0x00, 0x00, 0x00,
0x00, 0xb0, 0x59, 0xaf,
0x56, 0x21, 0x06, 0x00,
0x00, 0x00, 0x00, 0xb0,
0x59, 0xaf, 0x56, 0x21,
0x00, 0x00, 0x00, 0x00,
0x00, 0xb0, 0x59, 0xaf,
0x56, 0x21, 0x00, 0x00,
0x00, 0x00, 0x00, 0xb0,
0x59, 0xaf, 0x56, 0x21,
0x00, 0x00, 0x00, 0x00,
0x00, 0xb0, 0x59, 0xaf,
0x56, 0x21, 0x00, 0x00,
0x00, 0x00, 0x00, 0xb0,
0x59, 0xaf, 0x56, 0x21,
0x00, 0x00, 0x00, 0x00,
0x00, 0xb0, 0x59, 0xaf,
0x56, 0x21, 0x00, 0x00,
0x00, 0x00, 0x00, 0xb0,
0x59, 0xaf, 0x56, 0x21, 
//weights
0xa8, 0x13, 0x54, 0xf1,
0xbb, 0x50, 0x18, 0x06,
0x93, 0xc3, 0xc3, 0x21,
0xd8, 0x14, 0x46, 0x12,
0x4f, 0x85, 0xc0, 0x48,
0x7c, 0x22, 0x88, 0x58,
0x28, 0x73, 0xb1, 0xe4,
0x5a, 0x1d, 0x48, 0xb2,
0xe4, 0x28, 0x00, 0xf0,
0xf5, 0xe8, 0xc5, 0x89,
0x44, 0x92, 0x0c, 0x86,
0x00, 0xc0, 0x2d, 0x69,
0x44, 0xa7, 0x9f, 0x01,
0x4b, 0x29, 0x36, 0xf8,
0xdf, 0xa4, 0x00, 0xc0,
0x80, 0x1b, 0x1b, 0xde,
0x17, 0xd0, 0x03, 0x5e,
0x48, 0x03, 0x88, 0xbf,
0xe3, 0xbb, 0xbb, 0x09,
0x97, 0x70, 0x00, 0xfa,
0x52, 0xe9, 0xc4, 0x7f,
0xe9, 0x8d, 0xcd, 0x66,
0x45, 0x9e, 0x4f, 0xd0,
0x9b, 0x03, 0x40, 0xfd,
0xd1, 0xad, 0xb2, 0xf6,
0xce, 0x73, 0x76, 0x9b,
0xb9, 0x6c, 0xe6, 0xf2,
0x00, 0xf0, 0xf7, 0xbe,
0xd0, 0x9c, 0xd2, 0xe3,
0xce, 0xee, 0x89, 0x9d,
0x3b, 0x3c, 0x00, 0xd0,
0x77, 0xdd, 0x06, 0xf8,
0xc4, 0x3c, 0x01, 0xa0,
0x7f, 0x45, 0xb1, 0xa4,
0xc5, 0xe6, 0xff, 0x5d,
0xda, 0xac, 0x8b, 0x70,
0xcf, 0xd6, 0xb4, 0x52,
0xbf, 0x1f, 0x00, 0xb6,
0x14, 0x53, 0x47, 0x9d,
0xbe, 0x73, 0x06, 0x80,
0xef, 0x3c, 0xe4, 0x92,
0xb7, 0x93, 0x75, 0x0d,
0x8d, 0xb3, 0x01, 0x09,
0x00, 0x0e, 0xa3, 0x1a,
0x81, 0xc9, 0x03, 0xa7,
0x39, 0x67, 0x15, 0xb0,
0xc5, 0x2c, 0x00, 0x00,
0xa2, 0x39, 0x99, 0x04,
0xf5, 0x34, 0xe3, 0x00,
0xab, 0x00, 0x00, 0x34,
0x00, 0xbc, 0x40, 0x22,
0x25, 0x56, 0x82, 0x01,
0x80, 0x01, 0xe2, 0xcf,
0x4e, 0x73, 0x39, 0x85,
0x84, 0x00, 0x70, 0x33,
0x13, 0x46, 0xb5, 0x7f,
0x41, 0x40, 0x16, 0x00,
0x56, 0xfe, 0xb3, 0x95,
0x2a, 0x03, 0x50, 0xfb,
0xad, 0xae, 0xb1, 0x22,
0x3a, 0xa2, 0x6d, 0x18,
0x00, 0xe4, 0xa2, 0xb5,
0xb4, 0x44, 0x18, 0x78,
0x00, 0x70, 0x51, 0x91,
0x60, 0x6d, 0x7c, 0xc1,
0xae, 0xe9, 0xd3, 0x6e,
0x35, 0x22, 0x00, 0x16,
0x00, 0x6c, 0x67, 0x22,
0xd8, 0x04, 0x51, 0xb3,
0x01, 0x00, 0xf4, 0x18,
0x55, 0x9e, 0x83, 0x0e,
0xbe, 0x17, 0x10, 0x40,
0x4b, 0x96, 0xca, 0xd7,
0x19, 0x07, 0x01, 0xfc,
0x1d, 0xca, 0x88, 0xc2,
0x4d, 0x1b, 0xe0, 0xd5,
0x50, 0xd3, 0x12, 0x63,
0x0e, 0xdc, 0xff, 0x7f,
0xed, 0xff, 0xa7, 0xd3,
0x62, 0x18, 0xb9, 0xfe,
0xff, 0x1f, 0x4e, 0x1d,
0x00, 0x7e, 0x2f, 0x72,
0x4f, 0xe1, 0xe3, 0x12,
0x60, 0xff, 0xbf, 0x2b,
0x66, 0x20, 0x67, 0xfc,
0x7f, 0x79, 0x64, 0xe3,
0x52, 0x85, 0x41, 0xff,
0xff, 0xff, 0x00, 0x10,
0x64, 0xf0, 0xff, 0x9c,
0xfe, 0xff, 0x6d, 0xb1,
0x2a, 0x47, 0x45, 0xf7,
0xff, 0x0f, 0xad, 0x1e,
0x09, 0xf4, 0xff, 0x3f,
0x40, 0x28, 0x00, 0xfc,
0x39, 0xf2, 0xff, 0x75,
0x45, 0xde, 0x94, 0xc4,
0x26, 0xfb, 0x7f, 0xe2,
0xec, 0x92, 0xc1, 0xc4,
0xf5, 0xff, 0xff, 0x00,
0x11, 0x01, 0x06, 0x00,
0x0f, 0xf8, 0x45, 0x1a,
0x25, 0x03, 0xbd, 0x91,
0x40, 0x00, 0x80, 0x6a,
0x85, 0xca, 0x68, 0x67,
0x14, 0x2a, 0x00, 0x80,
0x99, 0xd5, 0x13, 0xce,
0x79, 0x0d, 0x76, 0x07,
0x00, 0x00, 0x06, 0x53,
0xe4, 0x25, 0x54, 0x4e,
0x10, 0x03, 0x00, 0xa0,
0xe1, 0x5b, 0x62, 0xa5,
0xc7, 0xca, 0x50, 0x00,
0x00, 0x0a, 0x83, 0x46,
0x21, 0x0a, 0xe4, 0x6a,
0x61, 0x23, 0x00, 0x38,
0x6f, 0xcc, 0x5c, 0x8a,
0x19, 0x0a, 0x02, 0x04,
0xb4, 0x43, 0x6a, 0x91,
0x43, 0xb3, 0x40, 0x00,
0xe4, 0xc5, 0x26, 0x0c,
0x2d, 0x67, 0x0e, 0xc8,
0x01, 0x80, 0x4f, 0xfc,
0x89, 0x79, 0x22, 0x93,
0x82, 0xbd, 0xe0, 0x0c,
0x00, 0x76, 0xa8, 0x88,
0x86, 0xfd, 0x0a, 0x81,
0x13, 0x00, 0x58, 0x27,
0x91, 0xa9, 0xe4, 0x4d,
0xe0, 0x88, 0x03, 0xa6,
0x04, 0xcd, 0x15, 0x07,
0x80, 0x04, 0x40, 0x3f,
0x79, 0x2e, 0xa1, 0xa0,
0x80, 0x2f, 0x83, 0x03,
0xc0, 0x3f, 0x6e, 0x84,
0x17, 0x06, 0xd9, 0x38,
0x0c, 0x00, 0xfd, 0xbb,
0x2f, 0x0e, 0x73, 0x6f,
0x5a, 0x79, 0x29, 0x2e,
0x40, 0xd0, 0xd6, 0xc7,
0x00, 0xc0, 0xbe, 0x06,
0x1e, 0xc9, 0x49, 0x00,
0x8b, 0x00, 0xf0, 0xba,
0xe0, 0x63, 0x4a, 0x88,
0xb1, 0xde, 0x80, 0x79,
0xb5, 0xb5, 0x82, 0x11,
0x02, 0x90, 0x3b, 0xd6,
0xda, 0x20, 0xe4, 0x82,
0x00, 0x80, 0x8b, 0x06,
0x84, 0x06, 0xca, 0x32,
0x5e, 0x02, 0x0e, 0x00,
0x5e, 0xd5, 0x80, 0xbc,
0x33, 0xc7, 0x63, 0xc0,
0x22, 0xd0, 0x11, 0xac,
0x8a, 0x86, 0x00, 0x00,
0x25, 0xdd, 0x34, 0x94,
0x60, 0xfe, 0x01, 0x9d,
0x00, 0x60, 0xc3, 0x29,
0x40, 0x58, 0x56, 0x18,
0x0c, 0x20, 0xf0, 0xff,
0x0d, 0x40, 0x5a, 0x1b,
0xe2, 0xff, 0x45, 0x51,
0xb0, 0xd2, 0x58, 0x52,
0x8b, 0xff, 0xff, 0xff,
0x0f, 0x20, 0x08, 0x00,
0x3f, 0x6a, 0xfe, 0xff,
0x56, 0x10, 0xca, 0x47,
0x9a, 0xe0, 0xe5, 0xff,
0x01, 0xb8, 0xa9, 0xae,
0x72, 0xff, 0xff, 0x1f,
0x00, 0x18, 0x00, 0x02,
0x8c, 0xff, 0x4f, 0x21,
0x20, 0x54, 0xb0, 0x36,
0x02, 0xf7, 0xff, 0x67,
0x06, 0x6f, 0x4a, 0x30,
0x24, 0xff, 0xff, 0xff,
0x03, 0x00, 0x00, 0x0c,
0x00, 0x50, 0x00, 0xe0,
0x67, 0xe0, 0xff, 0xff,
0xff, 0xff, 0xff, 0xff,
0xff, 0xff, 0xff, 0xff, 

};






static inline const int8_t * Getfc_lif_layer_2WeightsPointer()
{
	return weight_fc_lif_layer_2;
}

static inline size_t Getfc_lif_layer_2WeightsLen()
{
	return sizeof(weight_fc_lif_layer_2);
}





static const int8_t lif_param_fc_lif_layer_2[]  __attribute__((aligned(16))) = 
{


// ln(beta)_quant
0, 0, 0, 0, 0, 0, 0, 0, 0, 
0, 0, 0, 0, 0, 0, 0, 
// vth_quant
0, 0, 0, 0, 0, 0, 0, 0, 0, 
0, 0, 0, 0, 0, 0, 0, 

};







static inline const int8_t* Getfc_lif_layer_2LIFParamPointer()
{
	return lif_param_fc_lif_layer_2;
}
static inline size_t Getfc_lif_layer_2LIFParamLen()
{
	return sizeof(lif_param_fc_lif_layer_2);
}





static const int8_t lut_fc_lif_layer_2[] __attribute__((aligned(16))) = 
{


//lut index 0
-29, 
-29, -28, -28, -28, -27, -27, -27, -26, 
-26, -25, -25, -24, -24, -24, -23, -23, 
-22, -22, -22, -21, -21, -20, -20, -20, 
-19, -19, -18, -18, -17, -17, -16, -16, 
-16, -15, -15, -14, -14, -13, -13, -12, 
-12, -12, -11, -11, -10, -10, -9, -9, 
-8, -8, -7, -7, -6, -6, -5, -5, 
-5, -4, -4, -3, -3, -2, -2, -1, 
-1, 0, 0, 1, 1, 2, 2, 3, 
3, 4, 5, 5, 6, 6, 7, 7, 
8, 8, 9, 9, 10, 10, 11, 11, 
12, 13, 13, 14, 14, 15, 15, 16, 
16, 17, 18, 18, 19, 19, 20, 20, 
21, 22, 22, 23, 23, 24, 25, 25, 
26, 26, 27, 28, 28, 29, 29, 30, 
31, 31, 32, 33, 33, 34, 34, 35, 
36, 36, 37, 38, 38, 39, 40, 40, 
41, 42, 42, 43, 44, 44, 45, 46, 
46, 47, 48, 48, 49, 50, 51, 51, 
52, 53, 53, 54, 55, 55, 56, 57, 
58, 58, 59, 60, 61, 61, 62, 63, 
64, 64, 65, 66, 67, 67, 68, 69, 
70, 70, 71, 72, 73, 74, 74, 75, 
76, 77, 78, 78, 79, 80, 81, 82, 
82, 83, 84, 85, 86, 87, 87, 88, 
89, 90, 91, 92, 93, 93, 94, 95, 
96, 97, 98, 99, 100, 101, 101, 102, 
103, 104, 105, 106, 107, 108, 109, 110, 
111, 112, 113, 113, 114, 115, 116, 117, 
118, 119, 120, 121, 122, 123, 124, 125, 
126, 127, 127, 127, 127, 127, 127, 127, 
127, 127, 127, 127, 127, 127, 127, 
//lut index 1
0, 
0, 0, 0, 0, 0, 0, 0, 0, 
0, 0, 0, 0, 0, 0, 0, 0, 
0, 0, 0, 0, 0, 0, 0, 0, 
0, 0, 0, 0, 0, 0, 0, 0, 
0, 0, 0, 0, 0, 0, 0, 0, 
0, 0, 0, 0, 0, 0, 0, 0, 
0, 0, 0, 0, 0, 0, 0, 0, 
0, 0, 0, 0, 0, 0, 0, 0, 
0, 0, 0, 0, 0, 0, 0, 0, 
0, 0, 0, 0, 0, 0, 0, 0, 
0, 0, 0, 0, 0, 0, 0, 0, 
0, 0, 0, 0, 0, 0, 0, 0, 
0, 0, 0, 0, 0, 0, 0, 0, 
0, 0, 0, 0, 0, 0, 0, 0, 
0, 0, 0, 0, 0, 0, 0, 0, 
0, 0, 0, 0, 0, 0, 0, 0, 
1, 1, 1, 1, 1, 1, 1, 1, 
1, 1, 1, 1, 1, 1, 1, 1, 
1, 1, 1, 1, 1, 1, 1, 1, 
1, 1, 1, 1, 1, 1, 1, 1, 
1, 1, 1, 1, 1, 1, 1, 1, 
1, 1, 1, 1, 1, 1, 1, 1, 
1, 1, 1, 1, 1, 1, 1, 1, 
1, 1, 1, 1, 1, 1, 1, 1, 
1, 1, 1, 1, 1, 1, 1, 1, 
1, 1, 1, 1, 1, 1, 1, 1, 
1, 1, 1, 1, 1, 1, 1, 1, 
1, 1, 1, 1, 1, 1, 1, 1, 
1, 1, 1, 1, 1, 1, 1, 1, 
1, 1, 1, 1, 1, 1, 1, 1, 
1, 1, 1, 1, 1, 1, 1, 1, 
1, 1, 1, 1, 1, 1, 1, 


};







static inline const int8_t* Getfc_lif_layer_2LUTPointer()
{
	return lut_fc_lif_layer_2;
}
static inline size_t Getfc_lif_layer_2LUTLen()
{
	return sizeof(lut_fc_lif_layer_2);
}

/*
Register Command Stream:
+---------------------------+-----------+-------------------------+
| Command Name              | Parameter | Payload Data            |
+---------------------------+-----------+-------------------------+
| NPU_SET_DMA0_SRC_REGION   | 4         | -                       |
| NPU_SET_DMA0_SRC          | 0         | 0x00000000 (0)          |
| NPU_SET_DMA0_DST_REGION   | 259       | -                       |
| NPU_SET_DMA0_DST          | 0         | 0x0000b800 (47104)      |
| NPU_SET_DMA0_LEN          | 0         | 0x00000100 (256)        |
| NPU_OP_DMA_START          | 0         | -                       |
| NPU_SET_OFM_SCALE         | 37        | 0x66cd3380 (1724724096) |
| NPU_SET_IFM_REGION        | 3         | -                       |
| NPU_SET_IFM_BASE0         | 0         | 0x00000000 (0)          |
| NPU_SET_IFM_BASE1         | 0         | 0x00000000 (0)          |
| NPU_SET_IFM_BASE2         | 0         | 0x00000000 (0)          |
| NPU_SET_IFM_BASE3         | 0         | 0x00000000 (0)          |
| NPU_SET_IFM_HEIGHT0_M1    | 0         | -                       |
| NPU_SET_IFM_HEIGHT1_M1    | 65535     | -                       |
| NPU_SET_IFM_WIDTH0_M1     | 0         | -                       |
| NPU_SET_IFM_DEPTH_M1      | 15        | -                       |
| NPU_SET_IFM_STRIDE_C      | 0         | 0x00000001 (1)          |
| NPU_SET_IFM_STRIDE_Y      | 0         | 0x00000010 (16)         |
| NPU_SET_IFM_STRIDE_X      | 0         | 0x00000010 (16)         |
| NPU_SET_IFM_ZERO_POINT    | 65        | -                       |
| NPU_SET_IFM_PRECISION     | 1         | -                       |
| NPU_SET_IFM_UPSCALE       | 0         | -                       |
| NPU_SET_OFM_REGION        | 1         | -                       |
| NPU_SET_OFM_BASE0         | 0         | 0x00000000 (0)          |
| NPU_SET_OFM_BASE1         | 0         | 0x00000000 (0)          |
| NPU_SET_OFM_BASE2         | 0         | 0x00000000 (0)          |
| NPU_SET_OFM_BASE3         | 0         | 0x00000000 (0)          |
| NPU_SET_OFM_HEIGHT0_M1    | 0         | -                       |
| NPU_SET_OFM_HEIGHT1_M1    | 65535     | -                       |
| NPU_SET_OFM_WIDTH0_M1     | 0         | -                       |
| NPU_SET_OFM_HEIGHT_M1     | 0         | -                       |
| NPU_SET_OFM_WIDTH_M1      | 0         | -                       |
| NPU_SET_OFM_DEPTH_M1      | 15        | -                       |
| NPU_SET_OFM_STRIDE_C      | 0         | 0x00000010 (16)         |
| NPU_SET_OFM_STRIDE_Y      | 0         | 0x00000010 (16)         |
| NPU_SET_OFM_STRIDE_X      | 0         | 0x00000010 (16)         |
| NPU_SET_OFM_ZERO_POINT    | 127       | -                       |
| NPU_SET_OFM_PRECISION     | 321       | -                       |
| NPU_SET_ACTIVATION        | 16        | -                       |
| NPU_SET_ACTIVATION_MIN    | 65408     | -                       |
| NPU_SET_ACTIVATION_MAX    | 127       | -                       |
| NPU_SET_OFM_BLK_HEIGHT_M1 | 1         | -                       |
| NPU_SET_OFM_BLK_WIDTH_M1  | 1         | -                       |
| NPU_SET_OFM_BLK_DEPTH_M1  | 15        | -                       |
| NPU_SET_IFM_IB_END        | 46        | -                       |
| NPU_SET_AB_START          | 46        | -                       |
| NPU_SET_IFM2_IB_START     | 10        | -                       |
| NPU_SET_ACC_FORMAT        | 0         | -                       |
| NPU_SET_IFM2_REGION       | 1         | -                       |
| NPU_SET_IFM2_BASE0        | 0         | 0x00000040 (64)         |
| NPU_SET_IFM2_BASE1        | 0         | 0x00000000 (0)          |
| NPU_SET_IFM2_BASE2        | 0         | 0x00000000 (0)          |
| NPU_SET_IFM2_BASE3        | 0         | 0x00000000 (0)          |
| NPU_SET_IFM2_HEIGHT0_M1   | 0         | -                       |
| NPU_SET_IFM2_HEIGHT1_M1   | 65535     | -                       |
| NPU_SET_IFM2_WIDTH0_M1    | 0         | -                       |
| NPU_SET_IFM2_STRIDE_C     | 0         | 0x00000001 (1)          |
| NPU_SET_IFM2_STRIDE_Y     | 0         | 0x00000001 (1)          |
| NPU_SET_IFM2_STRIDE_X     | 0         | 0x00000001 (1)          |
| NPU_SET_IFM2_ZERO_POINT   | 65408     | -                       |
| NPU_SET_IFM_PRECISION     | 1         | -                       |
| NPU_SET_IFM2_BROADCAST    | 4         | -                       |
| NPU_SET_BLOCKDEP          | 0         | -                       |
| NPU_OP_DMA_WAIT           | 0         | -                       |
| NPU_OP_ELEMENTWISE        | 0         | -                       |
| NPU_SET_IFM_REGION        | 5         | -                       |
| NPU_SET_IFM_DEPTH_M1      | 63        | -                       |
| NPU_SET_IFM_STRIDE_Y      | 0         | 0x00000040 (64)         |
| NPU_SET_IFM_STRIDE_X      | 0         | 0x00000040 (64)         |
| NPU_SET_IFM_ZERO_POINT    | 0         | -                       |
| NPU_SET_IFM_PAD_TOP       | 0         | -                       |
| NPU_SET_IFM_PAD_LEFT      | 0         | -                       |
| NPU_SET_IFM_PAD_BOTTOM    | 0         | -                       |
| NPU_SET_IFM_PAD_RIGHT     | 0         | -                       |
| NPU_SET_OFM_BASE0         | 0         | 0x00000010 (16)         |
| NPU_SET_OFM_ZERO_POINT    | 0         | -                       |
| NPU_SET_OFM_PRECISION     | 65        | -                       |
| NPU_SET_KERNEL_HEIGHT_M1  | 0         | -                       |
| NPU_SET_KERNEL_WIDTH_M1   | 0         | -                       |
| NPU_SET_KERNEL_STRIDE     | 0         | -                       |
| NPU_SET_WEIGHT_REGION     | 0         | -                       |
| NPU_SET_WEIGHT_BASE       | 0         | 0x000000a0 (160)        |
| NPU_SET_WEIGHT_LENGTH     | 0         | 0x000002d0 (720)        |
| NPU_SET_SCALE_REGION      | 0         | -                       |
| NPU_SET_SCALE_BASE        | 0         | 0x00000000 (0)          |
| NPU_SET_SCALE_LENGTH      | 0         | 0x000000a0 (160)        |
| NPU_SET_ACTIVATION        | 0         | -                       |
| NPU_SET_IFM_IB_END        | 10        | -                       |
| NPU_SET_AB_START          | 30        | -                       |
| NPU_SET_BLOCKDEP          | 3         | -                       |
| NPU_OP_CONV               | 0         | -                       |
| NPU_SET_OFM_SCALE         | 38        | 0x533bf600 (1396438528) |
| NPU_SET_IFM_REGION        | 1         | -                       |
| NPU_SET_IFM_BASE0         | 0         | 0x00000020 (32)         |
| NPU_SET_IFM_DEPTH_M1      | 15        | -                       |
| NPU_SET_IFM_STRIDE_Y      | 0         | 0x00000010 (16)         |
| NPU_SET_IFM_STRIDE_X      | 0         | 0x00000010 (16)         |
| NPU_SET_IFM_ZERO_POINT    | 65510     | -                       |
| NPU_SET_OFM_BASE0         | 0         | 0x00000000 (0)          |
| NPU_SET_OFM_ZERO_POINT    | 65501     | -                       |
| NPU_SET_OFM_PRECISION     | 321       | -                       |
| NPU_SET_IFM_IB_END        | 46        | -                       |
| NPU_SET_AB_START          | 46        | -                       |
| NPU_SET_IFM2_BASE0        | 0         | 0x00000000 (0)          |
| NPU_SET_IFM2_STRIDE_C     | 0         | 0x00000010 (16)         |
| NPU_SET_IFM2_STRIDE_Y     | 0         | 0x00000010 (16)         |
| NPU_SET_IFM2_STRIDE_X     | 0         | 0x00000010 (16)         |
| NPU_SET_IFM_PRECISION     | 65        | -                       |
| NPU_SET_IFM2_BROADCAST    | 0         | -                       |
| NPU_OP_ELEMENTWISE        | 0         | -                       |
| NPU_SET_OPA_SCALE         | 12        | 0x4e38e38e (1312351118) |
| NPU_SET_OPB_SCALE         | 0         | 0x00000000 (0)          |
| NPU_SET_OFM_SCALE         | 49        | 0x4ccccccd (1288490189) |
| NPU_SET_IFM_BASE0         | 0         | 0x00000000 (0)          |
| NPU_SET_IFM_STRIDE_C      | 0         | 0x00000010 (16)         |
| NPU_SET_IFM_ZERO_POINT    | 65501     | -                       |
| NPU_SET_IFM_PRECISION     | 321       | -                       |
| NPU_SET_OFM_BASE0         | 0         | 0x00000020 (32)         |
| NPU_SET_OFM_ZERO_POINT    | 65510     | -                       |
| NPU_SET_IFM2_BASE0        | 0         | 0x00000010 (16)         |
| NPU_SET_IFM2_ZERO_POINT   | 0         | -                       |
| NPU_SET_BLOCKDEP          | 0         | -                       |
| NPU_OP_ELEMENTWISE        | 1         | -                       |
| NPU_SET_DMA0_SRC          | 0         | 0x00000100 (256)        |
| NPU_SET_DMA0_DST          | 0         | 0x0000b900 (47360)      |
| NPU_OP_DMA_START          | 0         | -                       |
| NPU_SET_OPA_SCALE         | 18        | 0x6d3a06d4 (1832519380) |
| NPU_SET_OFM_SCALE         | 47        | 0x78000000 (2013265920) |
| NPU_SET_IFM_BASE0         | 0         | 0x00000020 (32)         |
| NPU_SET_IFM_ZERO_POINT    | 65510     | -                       |
| NPU_SET_IFM_PRECISION     | 577       | -                       |
| NPU_SET_OFM_REGION        | 6         | -                       |
| NPU_SET_OFM_BASE0         | 0         | 0x00000000 (0)          |
| NPU_SET_OFM_STRIDE_C      | 0         | 0x00000001 (1)          |
| NPU_SET_OFM_ZERO_POINT    | 0         | -                       |
| NPU_SET_OFM_PRECISION     | 257       | -                       |
| NPU_SET_ACTIVATION        | 17        | -                       |
| NPU_SET_IFM2_REGION       | 3         | -                       |
| NPU_SET_IFM2_STRIDE_C     | 0         | 0x00000001 (1)          |
| NPU_SET_IFM2_ZERO_POINT   | 64261     | -                       |
| NPU_SET_IFM_PRECISION     | 1         | -                       |
| NPU_OP_DMA_WAIT           | 0         | -                       |
| NPU_OP_ELEMENTWISE        | 2         | -                       |
| NPU_SET_OFM_SCALE         | 33        | 0x5d174580 (1561806208) |
| NPU_SET_IFM_REGION        | 3         | -                       |
| NPU_SET_IFM_BASE0         | 0         | 0x00000010 (16)         |
| NPU_SET_IFM_STRIDE_C      | 0         | 0x00000001 (1)          |
| NPU_SET_IFM_ZERO_POINT    | 64261     | -                       |
| NPU_SET_IFM_PRECISION     | 1         | -                       |
| NPU_SET_OFM_REGION        | 1         | -                       |
| NPU_SET_OFM_BASE0         | 0         | 0x00000010 (16)         |
| NPU_SET_OFM_STRIDE_C      | 0         | 0x00000010 (16)         |
| NPU_SET_OFM_ZERO_POINT    | 65408     | -                       |
| NPU_SET_OFM_PRECISION     | 321       | -                       |
| NPU_SET_ACTIVATION        | 0         | -                       |
| NPU_SET_IFM2_REGION       | 6         | -                       |
| NPU_SET_IFM2_BASE0        | 0         | 0x00000000 (0)          |
| NPU_SET_IFM2_ZERO_POINT   | 0         | -                       |
| NPU_OP_ELEMENTWISE        | 0         | -                       |
| NPU_SET_OPA_SCALE         | 15        | 0x4b17e4b1 (1259857073) |
| NPU_SET_OFM_SCALE         | 49        | 0x40000000 (1073741824) |
| NPU_SET_IFM_REGION        | 1         | -                       |
| NPU_SET_IFM_BASE0         | 0         | 0x00000020 (32)         |
| NPU_SET_IFM_STRIDE_C      | 0         | 0x00000010 (16)         |
| NPU_SET_IFM_ZERO_POINT    | 65510     | -                       |
| NPU_SET_IFM_PRECISION     | 577       | -                       |
| NPU_SET_OFM_BASE0         | 0         | 0x00000020 (32)         |
| NPU_SET_OFM_STRIDE_C      | 0         | 0x00000001 (1)          |
| NPU_SET_OFM_ZERO_POINT    | 65510     | -                       |
| NPU_SET_OFM_PRECISION     | 257       | -                       |
| NPU_SET_IFM2_REGION       | 1         | -                       |
| NPU_SET_IFM2_BASE0        | 0         | 0x00000010 (16)         |
| NPU_SET_IFM2_STRIDE_C     | 0         | 0x00000010 (16)         |
| NPU_SET_IFM2_ZERO_POINT   | 65408     | -                       |
| NPU_SET_IFM_PRECISION     | 65        | -                       |
| NPU_OP_ELEMENTWISE        | 2         | -                       |
| NPU_SET_IFM_REGION        | 6         | -                       |
| NPU_SET_IFM_BASE0         | 0         | 0x00000000 (0)          |
| NPU_SET_IFM_STRIDE_C      | 0         | 0x00000001 (1)          |
| NPU_SET_IFM_ZERO_POINT    | 0         | -                       |
| NPU_SET_IFM_PRECISION     | 1         | -                       |
| NPU_SET_OFM_BASE0         | 0         | 0x00000041 (65)         |
| NPU_SET_OFM_DEPTH_M1      | 0         | -                       |
| NPU_SET_OFM_STRIDE_Y      | 0         | 0x00000001 (1)          |
| NPU_SET_OFM_STRIDE_X      | 0         | 0x00000001 (1)          |
| NPU_SET_OFM_ZERO_POINT    | 65408     | -                       |
| NPU_SET_OFM_BLK_DEPTH_M1  | 7         | -                       |
| NPU_SET_IFM_IB_END        | 10        | -                       |
| NPU_SET_AB_START          | 30        | -                       |
| NPU_SET_OFM_SCALE         | 22        | 0x3fc000ff (1069547775) |
| NPU_SET_BLOCKDEP          | 3         | -                       |
| NPU_OP_POOL               | 2         | -                       |
| NPU_SET_OFM_SCALE         | 30        | 0x40000000 (1073741824) |
| NPU_SET_IFM_REGION        | 1         | -                       |
| NPU_SET_IFM_BASE0         | 0         | 0x00000040 (64)         |
| NPU_SET_IFM_DEPTH_M1      | 0         | -                       |
| NPU_SET_IFM_STRIDE_Y      | 0         | 0x00000001 (1)          |
| NPU_SET_IFM_STRIDE_X      | 0         | 0x00000001 (1)          |
| NPU_SET_IFM_ZERO_POINT    | 65408     | -                       |
| NPU_SET_OFM_BASE0         | 0         | 0x00000040 (64)         |
| NPU_SET_ACTIVATION_MAX    | 65408     | -                       |
| NPU_SET_IFM_IB_END        | 46        | -                       |
| NPU_SET_AB_START          | 46        | -                       |
| NPU_SET_IFM2_ZERO_POINT   | 0         | -                       |
| NPU_SET_IFM_PRECISION     | 0         | -                       |
| NPU_SET_IFM2_BROADCAST    | 128       | -                       |
| NPU_SET_IFM2_SCALAR       | 0         | -                       |
| NPU_OP_ELEMENTWISE        | 0         | -                       |
| NPU_SET_OPA_SCALE         | 15        | 0x64646464 (1684300900) |
| NPU_SET_OFM_SCALE         | 46        | 0x5199999a (1369020826) |
| NPU_SET_IFM_BASE0         | 0         | 0x00000030 (48)         |
| NPU_SET_IFM_DEPTH_M1      | 15        | -                       |
| NPU_SET_IFM_STRIDE_Y      | 0         | 0x00000010 (16)         |
| NPU_SET_IFM_STRIDE_X      | 0         | 0x00000010 (16)         |
| NPU_SET_IFM_PRECISION     | 257       | -                       |
| NPU_SET_OFM_BASE0         | 0         | 0x00000030 (48)         |
| NPU_SET_OFM_DEPTH_M1      | 15        | -                       |
| NPU_SET_OFM_STRIDE_Y      | 0         | 0x00000010 (16)         |
| NPU_SET_OFM_STRIDE_X      | 0         | 0x00000010 (16)         |
| NPU_SET_ACTIVATION_MAX    | 127       | -                       |
| NPU_SET_OFM_BLK_DEPTH_M1  | 15        | -                       |
| NPU_SET_IFM2_REGION       | 6         | -                       |
| NPU_SET_IFM2_BASE0        | 0         | 0x00000000 (0)          |
| NPU_SET_IFM2_STRIDE_C     | 0         | 0x00000001 (1)          |
| NPU_SET_IFM_PRECISION     | 1         | -                       |
| NPU_SET_IFM2_BROADCAST    | 0         | -                       |
| NPU_OP_ELEMENTWISE        | 1         | -                       |
| NPU_OP_STOP               | 65535     | -                       |
+---------------------------+-----------+-------------------------+
*/
