#pragma once
#include <stddef.h>
#include <stdint.h>




// Tensor sizes

#define FC_LIF_LAYER_1_IS_LAST_LAYER 0
#define FC_LIF_LAYER_1_MAX_NUM_TENSORS_TO_TRACK 8
#define FC_LIF_LAYER_1_TENSOR_ARENA_SIZE  186
#define FC_LIF_LAYER_1_INPUT_LAYER_SIZE  56
#define FC_LIF_LAYER_1_OUTPUT_LAYER_SIZE  56
#define FC_LIF_LAYER_1_WEIGHT_LEN 2736
#define FC_LIF_LAYER_1_BIAS_LEN 560

// Input/output addresses (Relative Addressing)

#define FC_LIF_LAYER_1_IN_SPK_ADDR 0
#define FC_LIF_LAYER_1_BIAS_ADDR 0
#define FC_LIF_LAYER_1_WEIGHT_ADDR 560
#define FC_LIF_LAYER_1_LN_BETA_ADDR 0
#define FC_LIF_LAYER_1_VTH_ADDR 56
#define FC_LIF_LAYER_1_V_MEM_ADDR 128
#define FC_LIF_LAYER_1_TIME_NOT_UPDATED_ADDR 184
#define FC_LIF_LAYER_1_IN_CURR_ADDR 64
#define FC_LIF_LAYER_1_DECAY_ADDR 0
#define FC_LIF_LAYER_1_DECAYED_MEM_ADDR 0
#define FC_LIF_LAYER_1_UPDATE_NXT_LAYER_ADDR 185
#define FC_LIF_LAYER_1_OUT_SPK_ADDR 0
#define FC_LIF_LAYER_1_OUT_SPK_SUM_ADDR -1

//Quantization Params

#define FC_LIF_LAYER_1_IN_SPK_SCALE 1.0
#define FC_LIF_LAYER_1_IN_SPK_ZERO_POINT 0
#define FC_LIF_LAYER_1_BIAS_SCALE 0.009861007204242782
#define FC_LIF_LAYER_1_BIAS_ZERO_POINT 0
#define FC_LIF_LAYER_1_WEIGHT_SCALE 0.009861007204242782
#define FC_LIF_LAYER_1_WEIGHT_ZERO_POINT 0
#define FC_LIF_LAYER_1_LN_BETA_SCALE 0.0007843137254901962
#define FC_LIF_LAYER_1_LN_BETA_ZERO_POINT 65
#define FC_LIF_LAYER_1_VTH_SCALE 0.0007843137254901964
#define FC_LIF_LAYER_1_VTH_ZERO_POINT -1275
#define FC_LIF_LAYER_1_V_MEM_SCALE 0.058823529411764705
#define FC_LIF_LAYER_1_V_MEM_ZERO_POINT -26
#define FC_LIF_LAYER_1_TIME_NOT_UPDATED_SCALE 0.06274509803921569
#define FC_LIF_LAYER_1_TIME_NOT_UPDATED_ZERO_POINT -128
#define FC_LIF_LAYER_1_DECAY_SCALE 0.0037254901960784314
#define FC_LIF_LAYER_1_DECAY_ZERO_POINT -128
#define FC_LIF_LAYER_1_IN_CURR_SCALE 0.07058823529411765
#define FC_LIF_LAYER_1_IN_CURR_ZERO_POINT 0
#define FC_LIF_LAYER_1_DECAYED_MEM_SCALE 0.043137254901960784
#define FC_LIF_LAYER_1_DECAYED_MEM_ZERO_POINT -35
#define FC_LIF_LAYER_1_UPDATE_NXT_LAYER_SCALE 0.00392156862745098
#define FC_LIF_LAYER_1_UPDATE_NXT_LAYER_ZERO_POINT -128
#define FC_LIF_LAYER_1_OUT_SPK_SCALE 1.0
#define FC_LIF_LAYER_1_OUT_SPK_ZERO_POINT 0
#define FC_LIF_LAYER_1_OUT_SPK_SUM_SCALE 0
#define FC_LIF_LAYER_1_OUT_SPK_SUM_ZERO_POINT 0











static const uint8_t cms_fc_lif_layer_1[] __attribute__((aligned(16))) = 
{

0x43, 0x4f, 0x50, 0x31,
0x01, 0x00, 0x10, 0x00,
0x08, 0x30, 0x00, 0x00,
0x00, 0x00, 0x06, 0x10,
0x05, 0x00, 0x00, 0x00,
0x05, 0x00, 0x00, 0x00,
0x05, 0x00, 0x00, 0x00,
0x02, 0x00, 0x3e, 0x01,
0x30, 0x01, 0x04, 0x00,
0x30, 0x40, 0x00, 0x00,
0x00, 0x00, 0x00, 0x00,
0x31, 0x01, 0x03, 0x01,
0x31, 0x40, 0x00, 0x00,
0x00, 0xb8, 0x00, 0x00,
0x32, 0x40, 0x00, 0x00,
0x00, 0x01, 0x00, 0x00,
0x10, 0x00, 0x00, 0x00,
0x24, 0x40, 0x25, 0x00,
0x9a, 0x33, 0xcd, 0x66,
0x0f, 0x01, 0x03, 0x00,
0x00, 0x40, 0x00, 0x00,
0x00, 0x00, 0x00, 0x00,
0x01, 0x40, 0x00, 0x00,
0x00, 0x00, 0x00, 0x00,
0x02, 0x40, 0x00, 0x00,
0x00, 0x00, 0x00, 0x00,
0x03, 0x40, 0x00, 0x00,
0x00, 0x00, 0x00, 0x00,
0x0b, 0x01, 0x00, 0x00,
0x0c, 0x01, 0xff, 0xff,
0x0a, 0x01, 0x00, 0x00,
0x04, 0x01, 0x37, 0x00,
0x06, 0x40, 0x00, 0x00,
0x01, 0x00, 0x00, 0x00,
0x05, 0x40, 0x00, 0x00,
0x38, 0x00, 0x00, 0x00,
0x04, 0x40, 0x00, 0x00,
0x38, 0x00, 0x00, 0x00,
0x09, 0x01, 0x41, 0x00,
0x05, 0x01, 0x01, 0x00,
0x07, 0x01, 0x00, 0x00,
0x1f, 0x01, 0x01, 0x00,
0x10, 0x40, 0x00, 0x00,
0x00, 0x00, 0x00, 0x00,
0x11, 0x40, 0x00, 0x00,
0x00, 0x00, 0x00, 0x00,
0x12, 0x40, 0x00, 0x00,
0x00, 0x00, 0x00, 0x00,
0x13, 0x40, 0x00, 0x00,
0x00, 0x00, 0x00, 0x00,
0x1b, 0x01, 0x00, 0x00,
0x1c, 0x01, 0xff, 0xff,
0x1a, 0x01, 0x00, 0x00,
0x12, 0x01, 0x00, 0x00,
0x11, 0x01, 0x00, 0x00,
0x13, 0x01, 0x37, 0x00,
0x16, 0x40, 0x00, 0x00,
0x10, 0x00, 0x00, 0x00,
0x15, 0x40, 0x00, 0x00,
0x40, 0x00, 0x00, 0x00,
0x14, 0x40, 0x00, 0x00,
0x10, 0x00, 0x00, 0x00,
0x18, 0x01, 0x7f, 0x00,
0x14, 0x01, 0x41, 0x01,
0x25, 0x01, 0x10, 0x00,
0x26, 0x01, 0x80, 0xff,
0x27, 0x01, 0x7f, 0x00,
0x16, 0x01, 0x01, 0x00,
0x15, 0x01, 0x01, 0x00,
0x17, 0x01, 0x37, 0x00,
0x0d, 0x01, 0x2e, 0x00,
0x2d, 0x01, 0x2e, 0x00,
0x8d, 0x01, 0x0a, 0x00,
0x24, 0x01, 0x00, 0x00,
0x8f, 0x01, 0x01, 0x00,
0x80, 0x40, 0x00, 0x00,
0xb8, 0x00, 0x00, 0x00,
0x81, 0x40, 0x00, 0x00,
0x00, 0x00, 0x00, 0x00,
0x82, 0x40, 0x00, 0x00,
0x00, 0x00, 0x00, 0x00,
0x83, 0x40, 0x00, 0x00,
0x00, 0x00, 0x00, 0x00,
0x8b, 0x01, 0x00, 0x00,
0x8c, 0x01, 0xff, 0xff,
0x8a, 0x01, 0x00, 0x00,
0x86, 0x40, 0x00, 0x00,
0x01, 0x00, 0x00, 0x00,
0x85, 0x40, 0x00, 0x00,
0x01, 0x00, 0x00, 0x00,
0x84, 0x40, 0x00, 0x00,
0x01, 0x00, 0x00, 0x00,
0x89, 0x01, 0x80, 0xff,
0x85, 0x01, 0x01, 0x00,
0x80, 0x01, 0x04, 0x00,
0x2f, 0x01, 0x00, 0x00,
0x11, 0x00, 0x00, 0x00,
0x06, 0x00, 0x00, 0x00,
0x0f, 0x01, 0x05, 0x00,
0x09, 0x01, 0x00, 0x00,
0x00, 0x01, 0x00, 0x00,
0x01, 0x01, 0x00, 0x00,
0x03, 0x01, 0x00, 0x00,
0x02, 0x01, 0x00, 0x00,
0x10, 0x40, 0x00, 0x00,
0x40, 0x00, 0x00, 0x00,
0x18, 0x01, 0x00, 0x00,
0x14, 0x01, 0x41, 0x00,
0x21, 0x01, 0x00, 0x00,
0x20, 0x01, 0x00, 0x00,
0x22, 0x01, 0x00, 0x00,
0x28, 0x01, 0x00, 0x00,
0x20, 0x40, 0x00, 0x00,
0x30, 0x02, 0x00, 0x00,
0x21, 0x40, 0x00, 0x00,
0xb0, 0x0a, 0x00, 0x00,
0x29, 0x01, 0x00, 0x00,
0x22, 0x40, 0x00, 0x00,
0x00, 0x00, 0x00, 0x00,
0x23, 0x40, 0x00, 0x00,
0x30, 0x02, 0x00, 0x00,
0x25, 0x01, 0x00, 0x00,
0x0d, 0x01, 0x0a, 0x00,
0x2d, 0x01, 0x1e, 0x00,
0x2f, 0x01, 0x03, 0x00,
0x02, 0x00, 0x00, 0x00,
0x24, 0x40, 0x26, 0x00,
0x25, 0xf6, 0x3b, 0x53,
0x0f, 0x01, 0x01, 0x00,
0x00, 0x40, 0x00, 0x00,
0x80, 0x00, 0x00, 0x00,
0x09, 0x01, 0xe6, 0xff,
0x10, 0x40, 0x00, 0x00,
0x00, 0x00, 0x00, 0x00,
0x18, 0x01, 0xdd, 0xff,
0x14, 0x01, 0x41, 0x01,
0x0d, 0x01, 0x2e, 0x00,
0x2d, 0x01, 0x2e, 0x00,
0x80, 0x40, 0x00, 0x00,
0x00, 0x00, 0x00, 0x00,
0x86, 0x40, 0x00, 0x00,
0x10, 0x00, 0x00, 0x00,
0x85, 0x40, 0x00, 0x00,
0x40, 0x00, 0x00, 0x00,
0x84, 0x40, 0x00, 0x00,
0x10, 0x00, 0x00, 0x00,
0x85, 0x01, 0x41, 0x00,
0x80, 0x01, 0x00, 0x00,
0x06, 0x00, 0x00, 0x00,
0x25, 0x40, 0x0c, 0x00,
0x8e, 0xe3, 0x38, 0x4e,
0x26, 0x40, 0x00, 0x00,
0x00, 0x00, 0x00, 0x00,
0x24, 0x40, 0x31, 0x00,
0xcd, 0xcc, 0xcc, 0x4c,
0x00, 0x40, 0x00, 0x00,
0x00, 0x00, 0x00, 0x00,
0x06, 0x40, 0x00, 0x00,
0x10, 0x00, 0x00, 0x00,
0x05, 0x40, 0x00, 0x00,
0x40, 0x00, 0x00, 0x00,
0x04, 0x40, 0x00, 0x00,
0x10, 0x00, 0x00, 0x00,
0x09, 0x01, 0xdd, 0xff,
0x05, 0x01, 0x41, 0x01,
0x10, 0x40, 0x00, 0x00,
0x80, 0x00, 0x00, 0x00,
0x18, 0x01, 0xe6, 0xff,
0x80, 0x40, 0x00, 0x00,
0x40, 0x00, 0x00, 0x00,
0x89, 0x01, 0x00, 0x00,
0x2f, 0x01, 0x00, 0x00,
0x06, 0x00, 0x01, 0x00,
0x30, 0x40, 0x00, 0x00,
0x00, 0x01, 0x00, 0x00,
0x31, 0x40, 0x00, 0x00,
0x00, 0xb9, 0x00, 0x00,
0x10, 0x00, 0x00, 0x00,
0x25, 0x40, 0x12, 0x00,
0xd4, 0x06, 0x3a, 0x6d,
0x24, 0x40, 0x2f, 0x00,
0x00, 0x00, 0x00, 0x78,
0x00, 0x40, 0x00, 0x00,
0x80, 0x00, 0x00, 0x00,
0x09, 0x01, 0xe6, 0xff,
0x05, 0x01, 0x41, 0x02,
0x1f, 0x01, 0x06, 0x00,
0x10, 0x40, 0x00, 0x00,
0x00, 0x00, 0x00, 0x00,
0x16, 0x40, 0x00, 0x00,
0x01, 0x00, 0x00, 0x00,
0x15, 0x40, 0x00, 0x00,
0x38, 0x00, 0x00, 0x00,
0x14, 0x40, 0x00, 0x00,
0x38, 0x00, 0x00, 0x00,
0x18, 0x01, 0x00, 0x00,
0x14, 0x01, 0x01, 0x01,
0x25, 0x01, 0x11, 0x00,
0x8f, 0x01, 0x03, 0x00,
0x80, 0x40, 0x00, 0x00,
0x38, 0x00, 0x00, 0x00,
0x86, 0x40, 0x00, 0x00,
0x01, 0x00, 0x00, 0x00,
0x85, 0x40, 0x00, 0x00,
0x38, 0x00, 0x00, 0x00,
0x84, 0x40, 0x00, 0x00,
0x38, 0x00, 0x00, 0x00,
0x89, 0x01, 0x05, 0xfb,
0x85, 0x01, 0x01, 0x00,
0x11, 0x00, 0x00, 0x00,
0x06, 0x00, 0x02, 0x00,
0x24, 0x40, 0x21, 0x00,
0xd1, 0x45, 0x17, 0x5d,
0x0f, 0x01, 0x03, 0x00,
0x00, 0x40, 0x00, 0x00,
0x38, 0x00, 0x00, 0x00,
0x06, 0x40, 0x00, 0x00,
0x01, 0x00, 0x00, 0x00,
0x05, 0x40, 0x00, 0x00,
0x38, 0x00, 0x00, 0x00,
0x04, 0x40, 0x00, 0x00,
0x38, 0x00, 0x00, 0x00,
0x09, 0x01, 0x05, 0xfb,
0x05, 0x01, 0x01, 0x00,
0x1f, 0x01, 0x01, 0x00,
0x10, 0x40, 0x00, 0x00,
0x40, 0x00, 0x00, 0x00,
0x16, 0x40, 0x00, 0x00,
0x10, 0x00, 0x00, 0x00,
0x15, 0x40, 0x00, 0x00,
0x40, 0x00, 0x00, 0x00,
0x14, 0x40, 0x00, 0x00,
0x10, 0x00, 0x00, 0x00,
0x18, 0x01, 0x80, 0xff,
0x14, 0x01, 0x41, 0x01,
0x25, 0x01, 0x00, 0x00,
0x8f, 0x01, 0x06, 0x00,
0x80, 0x40, 0x00, 0x00,
0x00, 0x00, 0x00, 0x00,
0x89, 0x01, 0x00, 0x00,
0x06, 0x00, 0x00, 0x00,
0x25, 0x40, 0x0f, 0x00,
0xb1, 0xe4, 0x17, 0x4b,
0x24, 0x40, 0x31, 0x00,
0x00, 0x00, 0x00, 0x40,
0x0f, 0x01, 0x01, 0x00,
0x00, 0x40, 0x00, 0x00,
0x80, 0x00, 0x00, 0x00,
0x06, 0x40, 0x00, 0x00,
0x10, 0x00, 0x00, 0x00,
0x05, 0x40, 0x00, 0x00,
0x40, 0x00, 0x00, 0x00,
0x04, 0x40, 0x00, 0x00,
0x10, 0x00, 0x00, 0x00,
0x09, 0x01, 0xe6, 0xff,
0x05, 0x01, 0x41, 0x02,
0x10, 0x40, 0x00, 0x00,
0x80, 0x00, 0x00, 0x00,
0x16, 0x40, 0x00, 0x00,
0x01, 0x00, 0x00, 0x00,
0x15, 0x40, 0x00, 0x00,
0x38, 0x00, 0x00, 0x00,
0x14, 0x40, 0x00, 0x00,
0x38, 0x00, 0x00, 0x00,
0x18, 0x01, 0xe6, 0xff,
0x14, 0x01, 0x01, 0x01,
0x8f, 0x01, 0x01, 0x00,
0x80, 0x40, 0x00, 0x00,
0x40, 0x00, 0x00, 0x00,
0x86, 0x40, 0x00, 0x00,
0x10, 0x00, 0x00, 0x00,
0x85, 0x40, 0x00, 0x00,
0x40, 0x00, 0x00, 0x00,
0x84, 0x40, 0x00, 0x00,
0x10, 0x00, 0x00, 0x00,
0x89, 0x01, 0x80, 0xff,
0x85, 0x01, 0x41, 0x00,
0x06, 0x00, 0x02, 0x00,
0x0f, 0x01, 0x06, 0x00,
0x00, 0x40, 0x00, 0x00,
0x00, 0x00, 0x00, 0x00,
0x06, 0x40, 0x00, 0x00,
0x01, 0x00, 0x00, 0x00,
0x05, 0x40, 0x00, 0x00,
0x38, 0x00, 0x00, 0x00,
0x04, 0x40, 0x00, 0x00,
0x38, 0x00, 0x00, 0x00,
0x09, 0x01, 0x00, 0x00,
0x05, 0x01, 0x01, 0x00,
0x10, 0x40, 0x00, 0x00,
0xb9, 0x00, 0x00, 0x00,
0x13, 0x01, 0x00, 0x00,
0x15, 0x40, 0x00, 0x00,
0x01, 0x00, 0x00, 0x00,
0x14, 0x40, 0x00, 0x00,
0x01, 0x00, 0x00, 0x00,
0x18, 0x01, 0x80, 0xff,
0x17, 0x01, 0x07, 0x00,
0x0d, 0x01, 0x0a, 0x00,
0x2d, 0x01, 0x1e, 0x00,
0x24, 0x40, 0x16, 0x00,
0xff, 0x00, 0xc0, 0x3f,
0x2f, 0x01, 0x03, 0x00,
0x05, 0x00, 0x02, 0x00,
0x24, 0x40, 0x1e, 0x00,
0x00, 0x00, 0x00, 0x40,
0x0f, 0x01, 0x01, 0x00,
0x00, 0x40, 0x00, 0x00,
0xb8, 0x00, 0x00, 0x00,
0x04, 0x01, 0x00, 0x00,
0x05, 0x40, 0x00, 0x00,
0x01, 0x00, 0x00, 0x00,
0x04, 0x40, 0x00, 0x00,
0x01, 0x00, 0x00, 0x00,
0x09, 0x01, 0x80, 0xff,
0x10, 0x40, 0x00, 0x00,
0xb8, 0x00, 0x00, 0x00,
0x27, 0x01, 0x80, 0xff,
0x0d, 0x01, 0x2e, 0x00,
0x2d, 0x01, 0x2e, 0x00,
0x89, 0x01, 0x00, 0x00,
0x85, 0x01, 0x00, 0x00,
0x80, 0x01, 0x80, 0x00,
0x81, 0x01, 0x00, 0x00,
0x06, 0x00, 0x00, 0x00,
0x00, 0x00, 0xff, 0xff, 

};







static inline const uint8_t * Getfc_lif_layer_1CMSPointer()
{
	return cms_fc_lif_layer_1;
}

static inline size_t Getfc_lif_layer_1CMSLen()
{
	return sizeof(cms_fc_lif_layer_1);
}





static const int8_t weight_fc_lif_layer_1[] __attribute__((aligned(16))) = 
{

//biases
0xeb, 0xff, 0xff, 0xff,
0xff, 0xb0, 0x71, 0x86,
0x47, 0x21, 0xee, 0xff,
0xff, 0xff, 0xff, 0xb0,
0x71, 0x86, 0x47, 0x21,
0xd3, 0xff, 0xff, 0xff,
0xff, 0xb0, 0x71, 0x86,
0x47, 0x21, 0xff, 0xff,
0xff, 0xff, 0xff, 0xb0,
0x71, 0x86, 0x47, 0x21,
0xd1, 0xff, 0xff, 0xff,
0xff, 0xb0, 0x71, 0x86,
0x47, 0x21, 0xed, 0xff,
0xff, 0xff, 0xff, 0xb0,
0x71, 0x86, 0x47, 0x21,
0xc8, 0xff, 0xff, 0xff,
0xff, 0xb0, 0x71, 0x86,
0x47, 0x21, 0xe6, 0xff,
0xff, 0xff, 0xff, 0xb0,
0x71, 0x86, 0x47, 0x21,
0x0d, 0x00, 0x00, 0x00,
0x00, 0xb0, 0x71, 0x86,
0x47, 0x21, 0x11, 0x00,
0x00, 0x00, 0x00, 0xb0,
0x71, 0x86, 0x47, 0x21,
0x11, 0x00, 0x00, 0x00,
0x00, 0xb0, 0x71, 0x86,
0x47, 0x21, 0xd4, 0xff,
0xff, 0xff, 0xff, 0xb0,
0x71, 0x86, 0x47, 0x21,
0x07, 0x00, 0x00, 0x00,
0x00, 0xb0, 0x71, 0x86,
0x47, 0x21, 0xfb, 0xff,
0xff, 0xff, 0xff, 0xb0,
0x71, 0x86, 0x47, 0x21,
0xed, 0xff, 0xff, 0xff,
0xff, 0xb0, 0x71, 0x86,
0x47, 0x21, 0xd9, 0xff,
0xff, 0xff, 0xff, 0xb0,
0x71, 0x86, 0x47, 0x21,
0xfe, 0xff, 0xff, 0xff,
0xff, 0xb0, 0x71, 0x86,
0x47, 0x21, 0xd1, 0xff,
0xff, 0xff, 0xff, 0xb0,
0x71, 0x86, 0x47, 0x21,
0xd8, 0xff, 0xff, 0xff,
0xff, 0xb0, 0x71, 0x86,
0x47, 0x21, 0xd4, 0xff,
0xff, 0xff, 0xff, 0xb0,
0x71, 0x86, 0x47, 0x21,
0xcf, 0xff, 0xff, 0xff,
0xff, 0xb0, 0x71, 0x86,
0x47, 0x21, 0xe8, 0xff,
0xff, 0xff, 0xff, 0xb0,
0x71, 0x86, 0x47, 0x21,
0xe5, 0xff, 0xff, 0xff,
0xff, 0xb0, 0x71, 0x86,
0x47, 0x21, 0x01, 0x00,
0x00, 0x00, 0x00, 0xb0,
0x71, 0x86, 0x47, 0x21,
0xec, 0xff, 0xff, 0xff,
0xff, 0xb0, 0x71, 0x86,
0x47, 0x21, 0xd2, 0xff,
0xff, 0xff, 0xff, 0xb0,
0x71, 0x86, 0x47, 0x21,
0xf0, 0xff, 0xff, 0xff,
0xff, 0xb0, 0x71, 0x86,
0x47, 0x21, 0xe0, 0xff,
0xff, 0xff, 0xff, 0xb0,
0x71, 0x86, 0x47, 0x21,
0xf6, 0xff, 0xff, 0xff,
0xff, 0xb0, 0x71, 0x86,
0x47, 0x21, 0xef, 0xff,
0xff, 0xff, 0xff, 0xb0,
0x71, 0x86, 0x47, 0x21,
0xd5, 0xff, 0xff, 0xff,
0xff, 0xb0, 0x71, 0x86,
0x47, 0x21, 0xc2, 0xff,
0xff, 0xff, 0xff, 0xb0,
0x71, 0x86, 0x47, 0x21,
0xf1, 0xff, 0xff, 0xff,
0xff, 0xb0, 0x71, 0x86,
0x47, 0x21, 0xfe, 0xff,
0xff, 0xff, 0xff, 0xb0,
0x71, 0x86, 0x47, 0x21,
0xcc, 0xff, 0xff, 0xff,
0xff, 0xb0, 0x71, 0x86,
0x47, 0x21, 0x02, 0x00,
0x00, 0x00, 0x00, 0xb0,
0x71, 0x86, 0x47, 0x21,
0xe4, 0xff, 0xff, 0xff,
0xff, 0xb0, 0x71, 0x86,
0x47, 0x21, 0xd9, 0xff,
0xff, 0xff, 0xff, 0xb0,
0x71, 0x86, 0x47, 0x21,
0xe5, 0xff, 0xff, 0xff,
0xff, 0xb0, 0x71, 0x86,
0x47, 0x21, 0x00, 0x00,
0x00, 0x00, 0x00, 0xb0,
0x71, 0x86, 0x47, 0x21,
0x03, 0x00, 0x00, 0x00,
0x00, 0xb0, 0x71, 0x86,
0x47, 0x21, 0xeb, 0xff,
0xff, 0xff, 0xff, 0xb0,
0x71, 0x86, 0x47, 0x21,
0xf4, 0xff, 0xff, 0xff,
0xff, 0xb0, 0x71, 0x86,
0x47, 0x21, 0xf9, 0xff,
0xff, 0xff, 0xff, 0xb0,
0x71, 0x86, 0x47, 0x21,
0x01, 0x00, 0x00, 0x00,
0x00, 0xb0, 0x71, 0x86,
0x47, 0x21, 0x02, 0x00,
0x00, 0x00, 0x00, 0xb0,
0x71, 0x86, 0x47, 0x21,
0xda, 0xff, 0xff, 0xff,
0xff, 0xb0, 0x71, 0x86,
0x47, 0x21, 0xea, 0xff,
0xff, 0xff, 0xff, 0xb0,
0x71, 0x86, 0x47, 0x21,
0x03, 0x00, 0x00, 0x00,
0x00, 0xb0, 0x71, 0x86,
0x47, 0x21, 0x04, 0x00,
0x00, 0x00, 0x00, 0xb0,
0x71, 0x86, 0x47, 0x21,
0xea, 0xff, 0xff, 0xff,
0xff, 0xb0, 0x71, 0x86,
0x47, 0x21, 0xf0, 0xff,
0xff, 0xff, 0xff, 0xb0,
0x71, 0x86, 0x47, 0x21,
0xe7, 0xff, 0xff, 0xff,
0xff, 0xb0, 0x71, 0x86,
0x47, 0x21, 0xf2, 0xff,
0xff, 0xff, 0xff, 0xb0,
0x71, 0x86, 0x47, 0x21,
0xe0, 0xff, 0xff, 0xff,
0xff, 0xb0, 0x71, 0x86,
0x47, 0x21, 0xd6, 0xff,
0xff, 0xff, 0xff, 0xb0,
0x71, 0x86, 0x47, 0x21, 
//weights
0xee, 0x1b, 0x54, 0xf0,
0x0b, 0x58, 0x14, 0x14,
0x13, 0x82, 0x64, 0xa3,
0xb1, 0x20, 0x20, 0x95,
0x03, 0xe5, 0xc2, 0x30,
0x64, 0x1c, 0x89, 0xc6,
0x23, 0x32, 0xc0, 0x08,
0x3a, 0xaf, 0x66, 0xf1,
0x37, 0xf0, 0x6d, 0xc3,
0xe9, 0x3b, 0xb0, 0xb2,
0x82, 0x08, 0x33, 0xf8,
0x6f, 0xc8, 0x06, 0x9f,
0x51, 0x97, 0xe0, 0x87,
0xb8, 0x19, 0x28, 0xf1,
0x0e, 0xb5, 0xec, 0x6a,
0x24, 0x42, 0xc8, 0xe3,
0x78, 0xf0, 0x2d, 0x8d,
0xa0, 0x11, 0xde, 0xa1,
0x96, 0xc2, 0x89, 0xdc,
0x90, 0xf0, 0x1b, 0xd7,
0x35, 0xaa, 0x5d, 0x52,
0x35, 0x3c, 0x78, 0x5b,
0x7e, 0xf9, 0xd4, 0x60,
0xf6, 0x83, 0xb4, 0x77,
0xec, 0x3d, 0x8c, 0xdc,
0xb3, 0xf0, 0xad, 0x80,
0x33, 0x02, 0xd2, 0x4b,
0x2f, 0x15, 0xc8, 0x05,
0xc0, 0x7c, 0x37, 0xf4,
0x86, 0x1c, 0x37, 0xa6,
0x22, 0xd9, 0x49, 0x20,
0x04, 0x17, 0x8b, 0x3e,
0x76, 0xee, 0x1f, 0x42,
0xd1, 0xbc, 0x66, 0x15,
0xb8, 0xdb, 0xb4, 0xe8,
0x64, 0x94, 0x01, 0xec,
0x24, 0xce, 0x8e, 0x75,
0x4b, 0x01, 0x7f, 0x7a,
0x9d, 0x01, 0xf5, 0xda,
0x13, 0x06, 0x5c, 0x6d,
0x23, 0x85, 0xd1, 0x63,
0xc0, 0xd0, 0x49, 0x71,
0x11, 0xa4, 0x6c, 0x3a,
0x00, 0xb8, 0x61, 0xa1,
0x02, 0x49, 0xff, 0x88,
0xd8, 0x80, 0x8f, 0x68,
0x32, 0xe0, 0x1d, 0x11,
0x45, 0x38, 0x00, 0x8f,
0x78, 0x11, 0x7c, 0xa9,
0x06, 0xd8, 0x6b, 0x30,
0x55, 0x9c, 0x17, 0xc2,
0x00, 0x8c, 0x26, 0x61,
0x89, 0x05, 0x25, 0x12,
0x00, 0xe0, 0x6b, 0x9a,
0xb9, 0xe5, 0x0a, 0x10,
0x06, 0xe0, 0x17, 0x08,
0x14, 0xe1, 0x44, 0x58,
0xd0, 0x01, 0xc6, 0xb5,
0x93, 0x65, 0x76, 0x4d,
0x9d, 0x00, 0x83, 0x0f,
0x2e, 0x8d, 0xa2, 0x23,
0x91, 0x1c, 0x80, 0x46,
0x24, 0x4a, 0x1f, 0x07,
0x50, 0x98, 0x6b, 0x06,
0xec, 0x0a, 0x2b, 0x1a,
0x6f, 0x20, 0x98, 0xf9,
0x4a, 0x5e, 0x91, 0xd1,
0x85, 0x81, 0x0b, 0x5f,
0x02, 0xab, 0xe7, 0xbd,
0x81, 0x08, 0xb7, 0xda,
0x22, 0xa4, 0x44, 0xdb,
0xce, 0x8d, 0x88, 0x55,
0x02, 0x41, 0xa4, 0x3c,
0x6e, 0xf8, 0xaf, 0xbf,
0x7b, 0xd2, 0xc1, 0x98,
0xae, 0xf6, 0x9d, 0xe0,
0xdf, 0xc6, 0x54, 0x62,
0xa2, 0x2f, 0xc6, 0xfc,
0x47, 0xc8, 0xfe, 0x11,
0x3f, 0xe1, 0x24, 0xc1,
0x80, 0xdc, 0x17, 0x17,
0x82, 0x4a, 0xe4, 0x82,
0xe4, 0xd3, 0xca, 0x16,
0x76, 0x73, 0x42, 0xe0,
0xd3, 0xe5, 0x29, 0x7e,
0xa0, 0x02, 0x0b, 0xed,
0xb2, 0x19, 0xdb, 0x86,
0xfc, 0x64, 0xc4, 0xda,
0x68, 0x7f, 0xfc, 0x55,
0xf2, 0x2b, 0x60, 0x73,
0x2b, 0xf7, 0x34, 0xeb,
0x11, 0x02, 0x36, 0x2e,
0x54, 0x76, 0xeb, 0xfc,
0x33, 0x20, 0x40, 0x23,
0x70, 0x40, 0x68, 0x33,
0xd5, 0x00, 0x8b, 0xb0,
0x84, 0xfe, 0x0c, 0xbd,
0x69, 0x00, 0x4f, 0x49,
0x56, 0x98, 0x95, 0xee,
0x21, 0x0f, 0x00, 0x8e,
0x22, 0x43, 0xcd, 0xde,
0x77, 0x02, 0xf0, 0x63,
0xde, 0xc4, 0x13, 0x31,
0x11, 0xe2, 0x0d, 0x30,
0x07, 0x22, 0x58, 0x89,
0xb8, 0xaa, 0x01, 0x0c,
0x49, 0x13, 0xc4, 0x7b,
0x53, 0xbc, 0x82, 0x01,
0xad, 0x80, 0xe0, 0x22,
0x93, 0x30, 0x11, 0x06,
0x60, 0xa6, 0xe4, 0x32,
0x15, 0x5e, 0x01, 0x0e,
0x30, 0xbc, 0x1a, 0xc9,
0x06, 0x0d, 0xf9, 0xa5,
0x01, 0xb5, 0x48, 0x5a,
0xcc, 0x8a, 0xc2, 0x19,
0x83, 0xfb, 0xe6, 0x8d,
0x8a, 0x43, 0xdd, 0x6b,
0x66, 0xf0, 0x77, 0x03,
0x1a, 0x55, 0xbe, 0x01,
0x7f, 0x0b, 0x51, 0x14,
0x15, 0x0e, 0xd8, 0xc7,
0x91, 0x49, 0x5a, 0x07,
0xdf, 0xa0, 0x5e, 0x07,
0xec, 0x4f, 0x20, 0x13,
0x41, 0x6f, 0x3b, 0x57,
0x47, 0x4a, 0x00, 0x8c,
0x32, 0x97, 0x31, 0xa6,
0x82, 0x5a, 0x12, 0xad,
0x2c, 0x9e, 0xdc, 0x68,
0x2a, 0x75, 0xc9, 0x0d,
0x16, 0x82, 0x97, 0xfd,
0x90, 0x47, 0x9e, 0x91,
0x1b, 0xa6, 0x7d, 0x87,
0xda, 0xee, 0x80, 0xad,
0x9f, 0x4d, 0xc5, 0x91,
0xd9, 0x8c, 0xac, 0x5d,
0xe7, 0x85, 0x13, 0x9d,
0x96, 0xc0, 0xd8, 0x9a,
0x73, 0x89, 0x21, 0x26,
0x60, 0xe0, 0xbf, 0x92,
0x19, 0x3c, 0xd6, 0x3d,
0xd8, 0xc0, 0x5b, 0x30,
0x4c, 0x77, 0x29, 0xf1,
0x00, 0x5c, 0x0f, 0x2d,
0x86, 0xb8, 0x34, 0xc0,
0xa0, 0x3e, 0x88, 0x1a,
0xe9, 0x98, 0xdd, 0x30,
0x20, 0xd2, 0xca, 0x48,
0x6f, 0x30, 0xd7, 0x2a,
0xa0, 0xec, 0x10, 0x1f,
0x77, 0x24, 0x9d, 0x52,
0x05, 0x82, 0xde, 0xac,
0x2a, 0x9a, 0x0a, 0xb9,
0x00, 0x80, 0x16, 0x73,
0x64, 0x7a, 0xa3, 0x19,
0x6f, 0x00, 0x1e, 0xc0,
0x0c, 0x77, 0xb2, 0xb8,
0x25, 0x04, 0x60, 0xe8,
0xbb, 0x88, 0x1f, 0x90,
0xa0, 0x13, 0x0c, 0xd8,
0x09, 0x6a, 0x06, 0x9b,
0x22, 0xe9, 0x60, 0x00,
0x25, 0x21, 0x47, 0xcd,
0xb3, 0x0c, 0x02, 0x04,
0xdd, 0x28, 0xd4, 0x4a,
0xe2, 0x6e, 0x50, 0x01,
0xfd, 0x8e, 0xb4, 0x30,
0x01, 0xc2, 0x04, 0x29,
0x06, 0xff, 0x80, 0x09,
0x1a, 0x1d, 0x01, 0x07,
0xa6, 0xaf, 0xda, 0x97,
0x98, 0xb6, 0xc1, 0x7d,
0xff, 0x81, 0x2b, 0xfc,
0xcc, 0x28, 0x81, 0x87,
0x71, 0xd1, 0x60, 0x91,
0xc1, 0x6f, 0x9b, 0xf6,
0x18, 0x4a, 0x00, 0x67,
0xb0, 0xff, 0x49, 0x2c,
0xba, 0x5a, 0xdc, 0xe1,
0xf6, 0x26, 0x11, 0xc5,
0xa1, 0xcb, 0xd0, 0xac,
0xcd, 0xee, 0xb8, 0xe9,
0x62, 0xee, 0xbb, 0x88,
0x49, 0x9f, 0xd1, 0x34,
0x22, 0xc3, 0x0a, 0xb4,
0xf1, 0xb6, 0xc9, 0xcc,
0x5f, 0x37, 0x02, 0x2c,
0x39, 0xd9, 0x97, 0xd8,
0x52, 0x4b, 0x1c, 0xae,
0x96, 0x44, 0x32, 0x0f,
0x59, 0x9b, 0xb7, 0x3e,
0x54, 0x61, 0xe2, 0x44,
0x11, 0x22, 0xd0, 0xa0,
0x76, 0xd0, 0x2c, 0x8a,
0xea, 0xaa, 0x72, 0xe0,
0x18, 0xe4, 0x1a, 0x71,
0x40, 0x36, 0x88, 0x79,
0xd7, 0x4f, 0x78, 0x12,
0x22, 0x66, 0x05, 0xde,
0x1c, 0xb1, 0x73, 0x57,
0xfe, 0xe7, 0x5e, 0x5d,
0x9d, 0x61, 0xd1, 0x8d,
0x1f, 0x9b, 0xd2, 0x86,
0x38, 0x4b, 0x16, 0x43,
0x49, 0xa5, 0x13, 0x83,
0x56, 0x1c, 0x13, 0xcb,
0x6d, 0x3e, 0xe0, 0x49,
0x9a, 0x26, 0x66, 0x62,
0x09, 0x0a, 0x81, 0x29,
0xc6, 0x22, 0x5f, 0xf2,
0xe9, 0x2b, 0x5e, 0xa7,
0x0c, 0xb1, 0x12, 0x70,
0x8f, 0xbc, 0x83, 0x98,
0xd0, 0x8f, 0xc7, 0xcd,
0x57, 0xc4, 0x5b, 0xc8,
0x70, 0x46, 0xa7, 0x9c,
0x40, 0x30, 0x38, 0xf0,
0x2d, 0x06, 0x37, 0x6f,
0x0e, 0x38, 0xd0, 0x45,
0x56, 0x94, 0xee, 0x81,
0xef, 0x33, 0xb1, 0x99,
0x8e, 0x3e, 0x83, 0x3d,
0xc1, 0xf2, 0x6a, 0xee,
0xfd, 0xf7, 0x47, 0x0f,
0x0e, 0xc4, 0xc1, 0xff,
0xf3, 0xcd, 0x7c, 0x6c,
0xf6, 0x24, 0xe3, 0xfd,
0x9f, 0x97, 0x24, 0x25,
0x66, 0x06, 0xff, 0xef,
0xf6, 0x71, 0xad, 0x0f,
0x7f, 0x70, 0xbf, 0x7b,
0xff, 0xbd, 0x39, 0xb1,
0x8b, 0xc3, 0x3f, 0xbf,
0x9d, 0x7b, 0x87, 0xd9,
0x69, 0x16, 0x1b, 0x75,
0xc9, 0xd0, 0x3b, 0x17,
0xd1, 0x9a, 0x9f, 0x8f,
0x24, 0xe4, 0xae, 0x07,
0x19, 0xdf, 0x7f, 0x3f,
0x1f, 0x44, 0xc3, 0xbc,
0xdf, 0xf1, 0x4c, 0x29,
0x7c, 0x7c, 0xc0, 0xc9,
0x08, 0xff, 0x9c, 0x7d,
0xcd, 0x50, 0xf8, 0x99,
0xf9, 0x3f, 0x3c, 0x62,
0xa6, 0xe5, 0xdb, 0x57,
0x72, 0xda, 0x9e, 0xe3,
0x17, 0x28, 0xd5, 0xf1,
0x0f, 0xcf, 0x69, 0x1d,
0x21, 0x7f, 0x7a, 0xc3,
0x22, 0x8d, 0xf8, 0x9e,
0x3d, 0xf4, 0x5d, 0x8d,
0x96, 0x9f, 0xee, 0x00,
0x4b, 0xd4, 0x97, 0xe2,
0xe7, 0x23, 0x7a, 0xcb,
0x2a, 0x3f, 0x84, 0x2b,
0x43, 0x1b, 0x3f, 0xf2,
0x8f, 0x3b, 0x99, 0x9c,
0xc1, 0x99, 0xf1, 0x7f,
0x6e, 0xfc, 0x16, 0xd2,
0xd0, 0x99, 0x43, 0x24,
0x13, 0x7a, 0x61, 0x63,
0x22, 0xe1, 0x34, 0x22,
0x9a, 0x90, 0x11, 0x42,
0xa8, 0xd0, 0x50, 0xf2,
0x31, 0x8f, 0xb4, 0x94,
0x71, 0x63, 0xc6, 0x7a,
0xa0, 0xf7, 0xa5, 0x46,
0xc4, 0x76, 0xac, 0xc7,
0x09, 0x31, 0xcc, 0x18,
0x15, 0x8f, 0xff, 0x31,
0x89, 0x33, 0x06, 0x39,
0xef, 0x82, 0x14, 0x83,
0xc3, 0x1d, 0x2d, 0x95,
0xab, 0x12, 0xc8, 0xf8,
0xf9, 0xfe, 0x69, 0x86,
0x61, 0x1f, 0x80, 0xf7,
0x6e, 0x82, 0xca, 0xe8,
0xce, 0xd3, 0xf8, 0xd4,
0xd7, 0x92, 0x9f, 0x9f,
0xa8, 0xae, 0x19, 0xbd,
0xf8, 0xc8, 0x77, 0x2a,
0xf9, 0xdf, 0xef, 0xa5,
0x59, 0x15, 0x02, 0x3a,
0xfc, 0xfd, 0xef, 0xf8,
0x6d, 0x8c, 0x51, 0x0a,
0x66, 0x1f, 0xe6, 0xe5,
0xb8, 0xb3, 0x13, 0x5f,
0xed, 0x38, 0x33, 0x67,
0xe8, 0xe6, 0xf7, 0x03,
0x5a, 0x6a, 0x38, 0x31,
0x21, 0x1c, 0x18, 0xcd,
0x94, 0xce, 0xf8, 0x67,
0x50, 0x76, 0xd3, 0xcb,
0x63, 0xc7, 0x73, 0x47,
0xa2, 0x2d, 0xf5, 0x7b,
0xb8, 0x59, 0x2d, 0xe9,
0x98, 0xc7, 0xbf, 0xd8,
0xeb, 0x30, 0x38, 0x71,
0x68, 0x91, 0xa1, 0xe4,
0x00, 0x5f, 0x96, 0xfa,
0x76, 0x84, 0xc0, 0x2e,
0x35, 0x1a, 0xa2, 0x22,
0xa1, 0x38, 0xff, 0x80,
0x21, 0xb6, 0xa5, 0x3d,
0x7a, 0x41, 0xcf, 0x9f,
0xab, 0xa6, 0xe0, 0xa1,
0xe0, 0xfb, 0xe9, 0x08,
0x61, 0x9b, 0x3e, 0x0e,
0x26, 0x61, 0x84, 0xf2,
0xd0, 0x69, 0xe6, 0x13,
0x64, 0x98, 0x64, 0xe1,
0x9b, 0x29, 0xe7, 0x95,
0xe5, 0x7d, 0x94, 0x2b,
0xc0, 0xa2, 0xf8, 0x89,
0x21, 0xb2, 0x14, 0x60,
0x81, 0x58, 0x27, 0x15,
0x12, 0x11, 0x1f, 0x03,
0x11, 0xcf, 0xe2, 0x50,
0x10, 0x27, 0x40, 0x18,
0x55, 0x26, 0x2c, 0x81,
0x20, 0x4c, 0xbf, 0x06,
0xdc, 0x5c, 0x46, 0xa2,
0x48, 0x27, 0x2e, 0x4a,
0x4b, 0x0d, 0x82, 0x6c,
0x80, 0x99, 0x50, 0x84,
0xf7, 0xea, 0x9d, 0xee,
0x70, 0xbd, 0x30, 0x1a,
0xf1, 0xde, 0xdf, 0xcf,
0x23, 0xd1, 0xf4, 0xaf,
0x5d, 0x1e, 0xf3, 0xcc,
0xc7, 0x5d, 0x8b, 0x49,
0x33, 0x9e, 0xe7, 0xbe,
0xe1, 0x66, 0x91, 0xf1,
0xff, 0x71, 0x57, 0xdc,
0xaf, 0x5f, 0x78, 0x9e,
0x09, 0x40, 0x3f, 0xf8,
0x93, 0x88, 0x76, 0xf6,
0x1f, 0xff, 0xe6, 0x44,
0xe1, 0xef, 0x7b, 0xef,
0x35, 0x98, 0x04, 0x23,
0x53, 0x80, 0x3d, 0xe7,
0x33, 0x15, 0x43, 0xf3,
0xe9, 0x2d, 0xbc, 0x77,
0x13, 0x26, 0x2d, 0x7f,
0xf8, 0xc9, 0x0f, 0x18,
0x6e, 0x90, 0x40, 0x6f,
0x78, 0x36, 0xd3, 0x85,
0x23, 0xd3, 0x30, 0x77,
0xd5, 0x95, 0xef, 0x6f,
0x9f, 0x0a, 0x1b, 0x23,
0xb3, 0xe1, 0xff, 0x79,
0x3a, 0xfb, 0xda, 0xd0,
0xcb, 0x8b, 0x78, 0x08,
0x71, 0xf7, 0x63, 0xd2,
0xdd, 0x76, 0x14, 0x1e,
0x77, 0x76, 0x26, 0x9f,
0x98, 0x2c, 0x2c, 0x96,
0x49, 0x4e, 0x60, 0xa0,
0x14, 0x0d, 0x0a, 0x01,
0x08, 0x0b, 0x5c, 0xa2,
0x18, 0xf6, 0x2c, 0x94,
0xfc, 0xa3, 0xbb, 0x97,
0x59, 0x13, 0x33, 0xcf,
0x4b, 0xc6, 0x05, 0xa5,
0x14, 0x55, 0x00, 0x84,
0x43, 0x89, 0x8a, 0x80,
0xfa, 0xe3, 0x11, 0xc9,
0x81, 0xaa, 0x1b, 0x70,
0x86, 0x0a, 0x60, 0x79,
0x6a, 0x46, 0xf1, 0xc0,
0x91, 0x06, 0x6a, 0x7e,
0x68, 0x44, 0x38, 0xb5,
0x18, 0xe7, 0x85, 0x1d,
0xb8, 0x6e, 0x7a, 0x00,
0x98, 0x9d, 0x22, 0x8a,
0x03, 0xc0, 0x37, 0x08,
0x75, 0xa4, 0x87, 0x84,
0x71, 0x01, 0xc5, 0x1c,
0xfa, 0xe2, 0x7c, 0x7e,
0xb4, 0x58, 0xc7, 0x2c,
0x9a, 0xb1, 0xc6, 0x25,
0x6b, 0xcc, 0x15, 0x0e,
0x0f, 0x16, 0x6b, 0x64,
0x1b, 0xf2, 0x9a, 0x61,
0xc3, 0x1e, 0x53, 0x5c,
0x39, 0x36, 0xc7, 0x96,
0x57, 0x7d, 0x13, 0x84,
0xb7, 0x38, 0x1f, 0x18,
0x34, 0xc4, 0x57, 0xb6,
0x05, 0xbc, 0x6c, 0x36,
0xe6, 0xc9, 0x3f, 0x64,
0x9f, 0x37, 0x9f, 0x35,
0xd2, 0x7a, 0x34, 0xf4,
0x3c, 0x2c, 0x37, 0xd4,
0x22, 0xc0, 0x0f, 0x9c,
0x7d, 0xc8, 0x92, 0x8f,
0x48, 0x5f, 0xd1, 0x1e,
0x0d, 0x97, 0x9f, 0x16,
0xe6, 0xeb, 0x9c, 0x41,
0x8c, 0x48, 0x55, 0x08,
0xf0, 0x9b, 0x47, 0xb3,
0x35, 0xe1, 0x42, 0x84,
0x4f, 0x18, 0x8f, 0x43,
0xf3, 0x0f, 0x04, 0x5c,
0x33, 0x1c, 0x98, 0x8e,
0xdd, 0xe5, 0x81, 0xeb,
0x66, 0x9a, 0xba, 0xc7,
0x0d, 0x92, 0x93, 0x01,
0xff, 0x5b, 0x05, 0x36,
0x69, 0xc8, 0x80, 0xbb,
0x8f, 0x5c, 0x3b, 0x05,
0xe6, 0x81, 0xea, 0xde,
0x45, 0x40, 0x28, 0xd4,
0x0a, 0x1c, 0x3b, 0x4d,
0xc2, 0x3d, 0xda, 0xad,
0x70, 0xb0, 0x03, 0xcd,
0x33, 0x64, 0x73, 0x35,
0x99, 0x79, 0x78, 0xfa,
0x07, 0x00, 0x00, 0x00,
0x00, 0x00, 0x00, 0x00,
0x00, 0x00, 0x00, 0xfc,
0x0b, 0x28, 0x83, 0xba,
0x63, 0x74, 0x47, 0x10,
0xcb, 0xe3, 0x7b, 0xcd,
0x68, 0x8d, 0xa2, 0x32,
0x44, 0xae, 0x14, 0x87,
0x1f, 0xb8, 0x3c, 0x97,
0x29, 0xe9, 0x19, 0xad,
0x47, 0x91, 0x3b, 0x74,
0x3c, 0x43, 0x7d, 0x1c,
0x9b, 0xc2, 0xc8, 0x14,
0x0e, 0x8e, 0x8f, 0x1d,
0xb9, 0x94, 0x32, 0x90,
0x2d, 0x39, 0x19, 0x55,
0xd0, 0xdb, 0x47, 0xb4,
0x0f, 0x3a, 0x3b, 0x18,
0xa9, 0x71, 0x88, 0x5b,
0x73, 0xb3, 0x71, 0x3a,
0x07, 0xc0, 0xa8, 0x89,
0x2a, 0x84, 0x3c, 0x7c,
0x44, 0xe3, 0xdd, 0x27,
0x59, 0x2a, 0xf8, 0x08,
0x81, 0x44, 0xc1, 0xef,
0x75, 0x89, 0x95, 0x50,
0x31, 0xec, 0x06, 0x65,
0x1e, 0x89, 0xa5, 0x38,
0x03, 0x35, 0x83, 0x1f,
0x80, 0x48, 0x01, 0x02,
0xc5, 0x1a, 0x24, 0x6b,
0x62, 0x18, 0xe1, 0x42,
0x40, 0xa5, 0xd9, 0x30,
0x8b, 0x84, 0x91, 0x05,
0x78, 0xb3, 0xb4, 0x96,
0x42, 0xd6, 0xea, 0xde,
0x01, 0xbf, 0xcc, 0xf4,
0x64, 0xda, 0x71, 0x72,
0x06, 0x84, 0x2b, 0x09,
0xa8, 0x67, 0x78, 0x30,
0x30, 0x03, 0x6f, 0x96,
0x22, 0xed, 0xd8, 0x83,
0x00, 0x3c, 0xfc, 0xd8,
0xfd, 0xc8, 0xc2, 0x8c,
0x20, 0xf7, 0x0f, 0x00,
0x00, 0x00, 0x00, 0x00,
0x00, 0x00, 0x00, 0x00,
0x00, 0xf8, 0x17, 0x40,
0xce, 0x71, 0x93, 0x0f,
0xbe, 0x11, 0x91, 0x61,
0xf8, 0xf3, 0xcd, 0x6f,
0xa1, 0x6d, 0xf9, 0x7c,
0xb6, 0x5e, 0xb2, 0xcb,
0x7e, 0x8b, 0x0f, 0x63,
0xf7, 0x20, 0x7c, 0xf9,
0x3d, 0x39, 0x8b, 0x7b,
0xfe, 0xf9, 0xad, 0x9a,
0xaa, 0xe1, 0x63, 0x97,
0x8d, 0xfc, 0xfc, 0xb3,
0xf1, 0x25, 0x0d, 0x11,
0x93, 0x38, 0xa7, 0x3a,
0xfb, 0x88, 0xcf, 0xb4,
0x8a, 0xd2, 0x10, 0x3f,
0xb6, 0xcd, 0x24, 0x03,
0x8a, 0xf0, 0x53, 0x1f,
0x2f, 0xe6, 0x74, 0xcd,
0x12, 0xbc, 0xcb, 0x10,
0xbc, 0xe0, 0x07, 0xbc,
0xc9, 0xd8, 0xb0, 0x6a,
0x75, 0xc4, 0x73, 0x7b,
0x40, 0x61, 0xe8, 0x90,
0xed, 0xf5, 0xc0, 0xb5,
0xce, 0x3a, 0xe7, 0x18,
0x98, 0x60, 0x08, 0x53,
0x4f, 0xc6, 0xa2, 0x5a,
0xb8, 0x3d, 0xea, 0xab,
0x4f, 0x4b, 0x29, 0xe1,
0x5f, 0x21, 0x7c, 0x1e,
0x66, 0x94, 0x3b, 0x53,
0xa2, 0xf0, 0x77, 0xa3,
0x4e, 0x25, 0x7e, 0xe9,
0x86, 0x06, 0x9f, 0x49,
0xb5, 0x6a, 0xbc, 0xeb,
0x6f, 0x27, 0xaf, 0x8c,
0x9f, 0x3b, 0xc6, 0x4c,
0x54, 0x01, 0x00, 0xab,
0x01, 0xe5, 0x81, 0xb8,
0x59, 0xf9, 0x07, 0x00,
0x00, 0x00, 0x00, 0x00,
0x00, 0x00, 0x00, 0x00,
0x00, 0xdc, 0x0b, 0x20,
0x79, 0xe8, 0x97, 0x7f,
0x3f, 0x53, 0x46, 0x18,
0xd6, 0x07, 0x9f, 0x79,
0x25, 0x77, 0x1f, 0xf8,
0xaf, 0x1c, 0x2a, 0x6b,
0xfb, 0x7c, 0x1f, 0x20,
0xcd, 0x3c, 0xc7, 0x81,
0x9d, 0x52, 0x6e, 0x3c,
0xfe, 0x5d, 0xd0, 0x00,
0xb0, 0x8d, 0xe0, 0x7d,
0xca, 0xbb, 0x12, 0xf0,
0xef, 0x6f, 0xfe, 0xb2,
0x05, 0x9f, 0x84, 0xdf,
0xfb, 0x13, 0x08, 0xde,
0xcf, 0x23, 0x73, 0x7b,
0xfd, 0xf0, 0x89, 0x15,
0x9f, 0x3a, 0x6f, 0x70,
0x6e, 0xeb, 0x32, 0xf8,
0xe1, 0x1d, 0xe5, 0x33,
0x73, 0xb7, 0xe6, 0x01,
0x1b, 0xe7, 0x71, 0xbb,
0xc0, 0xc9, 0x0f, 0xb7,
0x5f, 0x1c, 0x52, 0x56,
0xc5, 0xe7, 0x4c, 0x3d,
0xa6, 0x21, 0x1f, 0xee,
0xb7, 0xb1, 0x40, 0xaf,
0xf1, 0x81, 0x6e, 0xd2,
0xdf, 0xf5, 0x2f, 0xdc,
0x6c, 0x06, 0xf1, 0x76,
0xbd, 0xe1, 0xf9, 0x9d,
0xf5, 0x65, 0x8f, 0x1c,
0x65, 0x78, 0x63, 0x57,
0xfe, 0xe3, 0x1b, 0x4a,
0xcb, 0x91, 0x41, 0x62,
0xcf, 0x1f, 0x99, 0x60,
0x02, 0x86, 0xaa, 0x70,
0x51, 0x97, 0x30, 0x0f,
0x11, 0x11, 0x57, 0x01,
0x68, 0xa0, 0xa3, 0xb2,
0xa7, 0x0e, 0x02, 0x80,
0x0f, 0x70, 0x00, 0x00,
0x00, 0x00, 0x00, 0x00,
0x00, 0xe0, 0x5f, 0x40,
0x89, 0xd0, 0xc7, 0xa0,
0xb3, 0xa5, 0x53, 0x1b,
0x67, 0x73, 0xf8, 0x77,
0x06, 0x40, 0x09, 0xb8,
0x75, 0x10, 0xe4, 0xd1,
0x72, 0x3a, 0x63, 0x19,
0xc6, 0x8d, 0xb7, 0x20,
0x2a, 0x81, 0x4e, 0x36,
0x88, 0x1f, 0x87, 0x43,
0x24, 0x89, 0xa3, 0xc7,
0xa0, 0x12, 0x22, 0x82,
0xf7, 0x41, 0xe9, 0x61,
0x65, 0x24, 0xcb, 0x92,
0xba, 0x8c, 0x00, 0x18,
0xd9, 0xe9, 0xc3, 0x13,
0x23, 0x9b, 0x01, 0x79,
0x1e, 0x5d, 0x8a, 0x12,
0xf7, 0xda, 0x1e, 0x78,
0x3a, 0x25, 0x91, 0x9f,
0x4b, 0x93, 0x80, 0x61,
0x2f, 0x99, 0x68, 0x92,
0x34, 0x1e, 0x36, 0xfc,
0x5c, 0x27, 0xe8, 0xb3,
0x42, 0x3c, 0x71, 0xb8,
0xc5, 0x1e, 0x35, 0x21,
0x34, 0x30, 0xa0, 0xeb,
0x0e, 0x1b, 0x70, 0x90,
0x01, 0x7f, 0x17, 0xd0,
0x05, 0x0f, 0x3e, 0xc1,
0x32, 0xc0, 0xfa, 0x24,
0x36, 0x18, 0x2a, 0x27,
0x70, 0xbd, 0x4f, 0x06,
0x92, 0x23, 0xff, 0x02,
0x80, 0x2a, 0x0d, 0x80,
0x14, 0x34, 0x0a, 0x98,
0x99, 0x72, 0x85, 0x55,
0x60, 0x1a, 0x5b, 0x0f,
0xa0, 0xd9, 0xe4, 0x8e,
0xf5, 0xc0, 0x78, 0xcd,
0x9b, 0x30, 0x10, 0x11,
0x68, 0x03, 0x01, 0x00,
0x00, 0x00, 0x00, 0x00,
0x00, 0x00, 0x00, 0xc0,
0x40, 0xf6, 0x05, 0x10,
0xe0, 0x79, 0x3e, 0xfe,
0xda, 0x83, 0x1a, 0x5d,
0xc7, 0x73, 0xf3, 0x28,
0x75, 0xa5, 0x75, 0xef,
0x28, 0x83, 0xb8, 0xc7,
0x82, 0x19, 0x47, 0xa0,
0x29, 0x20, 0x3d, 0x60,
0xb7, 0x9f, 0x0a, 0xda,
0xff, 0xd3, 0x0f, 0xaa,
0x02, 0x23, 0x48, 0xca,
0x61, 0xed, 0x0e, 0x2f,
0xa7, 0xd4, 0x72, 0x80,
0x77, 0xe7, 0x10, 0x01,
0x27, 0xb8, 0x9f, 0x07,
0x6e, 0x10, 0x50, 0xc7,
0xd1, 0xdd, 0x37, 0x35,
0x4c, 0x7b, 0x23, 0x98,
0xdb, 0x99, 0x25, 0xd0,
0x78, 0xb0, 0x79, 0xe1,
0x7a, 0x5a, 0xd0, 0x1c,
0xb7, 0x6b, 0x6a, 0x8e,
0x96, 0x53, 0x0f, 0x34,
0x45, 0xd2, 0x95, 0x7e,
0x86, 0x31, 0x85, 0x50,
0x08, 0xfa, 0x7e, 0xfe,
0xf3, 0x9e, 0x7e, 0xaa,
0xc9, 0x03, 0x14, 0xfd,
0xdd, 0xe2, 0xe4, 0x4c,
0x10, 0x2e, 0x62, 0xaa,
0x93, 0xdf, 0xfe, 0x6f,
0x20, 0xf0, 0x14, 0x81,
0xa4, 0x84, 0xdf, 0x27,
0x18, 0xf3, 0xcb, 0x93,
0x59, 0x05, 0x42, 0xc9,
0x9b, 0x87, 0x15, 0x99,
0x52, 0xcc, 0xa0, 0x37,
0x6e, 0x75, 0x51, 0xc5,
0x00, 0xdc, 0x61, 0x43,
0x80, 0xf6, 0xfe, 0x01,
0x00, 0x00, 0x00, 0x00,
0x00, 0x00, 0x00, 0x00,
0x00, 0x00, 0xff, 0x02,
0xc8, 0x7b, 0xcc, 0xbb,
0xce, 0x7c, 0xce, 0x1c,
0x8f, 0xdb, 0x3f, 0xdb,
0x99, 0x98, 0xe7, 0xb9,
0xe7, 0xc7, 0x24, 0x4b,
0xe2, 0x3e, 0x4e, 0x8d,
0xd5, 0xf8, 0xba, 0xe3,
0x79, 0x74, 0x32, 0xb9,
0xce, 0x45, 0x97, 0x6c,
0x55, 0x61, 0xeb, 0xb3,
0xe7, 0x98, 0x36, 0xc5,
0x4c, 0x7f, 0xf8, 0xed,
0xac, 0x69, 0xc9, 0xf7,
0xbd, 0xcb, 0x16, 0xcc,
0x84, 0x3f, 0x0e, 0x5a,
0x97, 0x7a, 0x9c, 0x7d,
0xba, 0x71, 0x23, 0xb3,
0x81, 0xfb, 0x7f, 0x78,
0x1d, 0x1d, 0x01, 0x10,
0xac, 0x88, 0x5b, 0x38,
0xcf, 0xc6, 0x21, 0x41,
0xcb, 0x4b, 0xc8, 0x71,
0xfe, 0x5c, 0x39, 0xf1,
0x15, 0x77, 0xb8, 0xf7,
0x07, 0x80, 0x07, 0x04,
0xcc, 0xd9, 0x95, 0x9a,
0xc9, 0xac, 0x40, 0x8e,
0xc5, 0x9e, 0x1b, 0x91,
0xe3, 0x69, 0xbc, 0xa9,
0x17, 0xab, 0xa0, 0xc4,
0xcf, 0x1a, 0xfd, 0x78,
0x1a, 0xea, 0x05, 0xd8,
0x0f, 0x82, 0x82, 0xce,
0xcb, 0x07, 0x5f, 0x5a,
0xa0, 0x1d, 0x98, 0xd2,
0x8f, 0x93, 0xa7, 0x2a,
0x35, 0xaa, 0x3f, 0xf8,
0x9d, 0xb1, 0x24, 0x3e,
0x42, 0x3b, 0x01, 0xe3,
0x1f, 0x00, 0x00, 0x00,
0x00, 0x00, 0x00, 0x00,
0x00, 0x00, 0x00, 0xf8,
0xff, 0xff, 0xff, 0xff,
0xff, 0xff, 0xff, 0xff, 

};






static inline const int8_t * Getfc_lif_layer_1WeightsPointer()
{
	return weight_fc_lif_layer_1;
}

static inline size_t Getfc_lif_layer_1WeightsLen()
{
	return sizeof(weight_fc_lif_layer_1);
}





static const int8_t lif_param_fc_lif_layer_1[]  __attribute__((aligned(16))) = 
{


// ln(beta)_quant
0, 0, 0, 0, 0, 0, 0, 0, 0, 
0, 0, 0, 0, 0, 0, 0, 0, 
0, 0, 0, 0, 0, 0, 0, 0, 
0, 0, 0, 0, 0, 0, 0, 0, 
0, 0, 0, 0, 0, 0, 0, 0, 
0, 0, 0, 0, 0, 0, 0, 0, 
0, 0, 0, 0, 0, 0, 0, 
// vth_quant
0, 0, 0, 0, 0, 0, 0, 0, 0, 
0, 0, 0, 0, 0, 0, 0, 0, 
0, 0, 0, 0, 0, 0, 0, 0, 
0, 0, 0, 0, 0, 0, 0, 0, 
0, 0, 0, 0, 0, 0, 0, 0, 
0, 0, 0, 0, 0, 0, 0, 0, 
0, 0, 0, 0, 0, 0, 0, 

};







static inline const int8_t* Getfc_lif_layer_1LIFParamPointer()
{
	return lif_param_fc_lif_layer_1;
}
static inline size_t Getfc_lif_layer_1LIFParamLen()
{
	return sizeof(lif_param_fc_lif_layer_1);
}





static const int8_t lut_fc_lif_layer_1[] __attribute__((aligned(16))) = 
{


//lut index 0
-29, 
-29, -28, -28, -28, -27, -27, -27, -26, 
-26, -25, -25, -24, -24, -24, -23, -23, 
-22, -22, -22, -21, -21, -20, -20, -20, 
-19, -19, -18, -18, -17, -17, -16, -16, 
-16, -15, -15, -14, -14, -13, -13, -12, 
-12, -12, -11, -11, -10, -10, -9, -9, 
-8, -8, -7, -7, -6, -6, -5, -5, 
-5, -4, -4, -3, -3, -2, -2, -1, 
-1, 0, 0, 1, 1, 2, 2, 3, 
3, 4, 5, 5, 6, 6, 7, 7, 
8, 8, 9, 9, 10, 10, 11, 11, 
12, 13, 13, 14, 14, 15, 15, 16, 
16, 17, 18, 18, 19, 19, 20, 20, 
21, 22, 22, 23, 23, 24, 25, 25, 
26, 26, 27, 28, 28, 29, 29, 30, 
31, 31, 32, 33, 33, 34, 34, 35, 
36, 36, 37, 38, 38, 39, 40, 40, 
41, 42, 42, 43, 44, 44, 45, 46, 
46, 47, 48, 48, 49, 50, 51, 51, 
52, 53, 53, 54, 55, 55, 56, 57, 
58, 58, 59, 60, 61, 61, 62, 63, 
64, 64, 65, 66, 67, 67, 68, 69, 
70, 70, 71, 72, 73, 74, 74, 75, 
76, 77, 78, 78, 79, 80, 81, 82, 
82, 83, 84, 85, 86, 87, 87, 88, 
89, 90, 91, 92, 93, 93, 94, 95, 
96, 97, 98, 99, 100, 101, 101, 102, 
103, 104, 105, 106, 107, 108, 109, 110, 
111, 112, 113, 113, 114, 115, 116, 117, 
118, 119, 120, 121, 122, 123, 124, 125, 
126, 127, 127, 127, 127, 127, 127, 127, 
127, 127, 127, 127, 127, 127, 127, 
//lut index 1
0, 
0, 0, 0, 0, 0, 0, 0, 0, 
0, 0, 0, 0, 0, 0, 0, 0, 
0, 0, 0, 0, 0, 0, 0, 0, 
0, 0, 0, 0, 0, 0, 0, 0, 
0, 0, 0, 0, 0, 0, 0, 0, 
0, 0, 0, 0, 0, 0, 0, 0, 
0, 0, 0, 0, 0, 0, 0, 0, 
0, 0, 0, 0, 0, 0, 0, 0, 
0, 0, 0, 0, 0, 0, 0, 0, 
0, 0, 0, 0, 0, 0, 0, 0, 
0, 0, 0, 0, 0, 0, 0, 0, 
0, 0, 0, 0, 0, 0, 0, 0, 
0, 0, 0, 0, 0, 0, 0, 0, 
0, 0, 0, 0, 0, 0, 0, 0, 
0, 0, 0, 0, 0, 0, 0, 0, 
0, 0, 0, 0, 0, 0, 0, 0, 
1, 1, 1, 1, 1, 1, 1, 1, 
1, 1, 1, 1, 1, 1, 1, 1, 
1, 1, 1, 1, 1, 1, 1, 1, 
1, 1, 1, 1, 1, 1, 1, 1, 
1, 1, 1, 1, 1, 1, 1, 1, 
1, 1, 1, 1, 1, 1, 1, 1, 
1, 1, 1, 1, 1, 1, 1, 1, 
1, 1, 1, 1, 1, 1, 1, 1, 
1, 1, 1, 1, 1, 1, 1, 1, 
1, 1, 1, 1, 1, 1, 1, 1, 
1, 1, 1, 1, 1, 1, 1, 1, 
1, 1, 1, 1, 1, 1, 1, 1, 
1, 1, 1, 1, 1, 1, 1, 1, 
1, 1, 1, 1, 1, 1, 1, 1, 
1, 1, 1, 1, 1, 1, 1, 1, 
1, 1, 1, 1, 1, 1, 1, 


};







static inline const int8_t* Getfc_lif_layer_1LUTPointer()
{
	return lut_fc_lif_layer_1;
}
static inline size_t Getfc_lif_layer_1LUTLen()
{
	return sizeof(lut_fc_lif_layer_1);
}

/*
Register Command Stream:
+---------------------------+-----------+-------------------------+
| Command Name              | Parameter | Payload Data            |
+---------------------------+-----------+-------------------------+
| NPU_SET_DMA0_SRC_REGION   | 4         | -                       |
| NPU_SET_DMA0_SRC          | 0         | 0x00000000 (0)          |
| NPU_SET_DMA0_DST_REGION   | 259       | -                       |
| NPU_SET_DMA0_DST          | 0         | 0x0000b800 (47104)      |
| NPU_SET_DMA0_LEN          | 0         | 0x00000100 (256)        |
| NPU_OP_DMA_START          | 0         | -                       |
| NPU_SET_OFM_SCALE         | 37        | 0x66cd339a (1724724122) |
| NPU_SET_IFM_REGION        | 3         | -                       |
| NPU_SET_IFM_BASE0         | 0         | 0x00000000 (0)          |
| NPU_SET_IFM_BASE1         | 0         | 0x00000000 (0)          |
| NPU_SET_IFM_BASE2         | 0         | 0x00000000 (0)          |
| NPU_SET_IFM_BASE3         | 0         | 0x00000000 (0)          |
| NPU_SET_IFM_HEIGHT0_M1    | 0         | -                       |
| NPU_SET_IFM_HEIGHT1_M1    | 65535     | -                       |
| NPU_SET_IFM_WIDTH0_M1     | 0         | -                       |
| NPU_SET_IFM_DEPTH_M1      | 55        | -                       |
| NPU_SET_IFM_STRIDE_C      | 0         | 0x00000001 (1)          |
| NPU_SET_IFM_STRIDE_Y      | 0         | 0x00000038 (56)         |
| NPU_SET_IFM_STRIDE_X      | 0         | 0x00000038 (56)         |
| NPU_SET_IFM_ZERO_POINT    | 65        | -                       |
| NPU_SET_IFM_PRECISION     | 1         | -                       |
| NPU_SET_IFM_UPSCALE       | 0         | -                       |
| NPU_SET_OFM_REGION        | 1         | -                       |
| NPU_SET_OFM_BASE0         | 0         | 0x00000000 (0)          |
| NPU_SET_OFM_BASE1         | 0         | 0x00000000 (0)          |
| NPU_SET_OFM_BASE2         | 0         | 0x00000000 (0)          |
| NPU_SET_OFM_BASE3         | 0         | 0x00000000 (0)          |
| NPU_SET_OFM_HEIGHT0_M1    | 0         | -                       |
| NPU_SET_OFM_HEIGHT1_M1    | 65535     | -                       |
| NPU_SET_OFM_WIDTH0_M1     | 0         | -                       |
| NPU_SET_OFM_HEIGHT_M1     | 0         | -                       |
| NPU_SET_OFM_WIDTH_M1      | 0         | -                       |
| NPU_SET_OFM_DEPTH_M1      | 55        | -                       |
| NPU_SET_OFM_STRIDE_C      | 0         | 0x00000010 (16)         |
| NPU_SET_OFM_STRIDE_Y      | 0         | 0x00000040 (64)         |
| NPU_SET_OFM_STRIDE_X      | 0         | 0x00000010 (16)         |
| NPU_SET_OFM_ZERO_POINT    | 127       | -                       |
| NPU_SET_OFM_PRECISION     | 321       | -                       |
| NPU_SET_ACTIVATION        | 16        | -                       |
| NPU_SET_ACTIVATION_MIN    | 65408     | -                       |
| NPU_SET_ACTIVATION_MAX    | 127       | -                       |
| NPU_SET_OFM_BLK_HEIGHT_M1 | 1         | -                       |
| NPU_SET_OFM_BLK_WIDTH_M1  | 1         | -                       |
| NPU_SET_OFM_BLK_DEPTH_M1  | 55        | -                       |
| NPU_SET_IFM_IB_END        | 46        | -                       |
| NPU_SET_AB_START          | 46        | -                       |
| NPU_SET_IFM2_IB_START     | 10        | -                       |
| NPU_SET_ACC_FORMAT        | 0         | -                       |
| NPU_SET_IFM2_REGION       | 1         | -                       |
| NPU_SET_IFM2_BASE0        | 0         | 0x000000b8 (184)        |
| NPU_SET_IFM2_BASE1        | 0         | 0x00000000 (0)          |
| NPU_SET_IFM2_BASE2        | 0         | 0x00000000 (0)          |
| NPU_SET_IFM2_BASE3        | 0         | 0x00000000 (0)          |
| NPU_SET_IFM2_HEIGHT0_M1   | 0         | -                       |
| NPU_SET_IFM2_HEIGHT1_M1   | 65535     | -                       |
| NPU_SET_IFM2_WIDTH0_M1    | 0         | -                       |
| NPU_SET_IFM2_STRIDE_C     | 0         | 0x00000001 (1)          |
| NPU_SET_IFM2_STRIDE_Y     | 0         | 0x00000001 (1)          |
| NPU_SET_IFM2_STRIDE_X     | 0         | 0x00000001 (1)          |
| NPU_SET_IFM2_ZERO_POINT   | 65408     | -                       |
| NPU_SET_IFM_PRECISION     | 1         | -                       |
| NPU_SET_IFM2_BROADCAST    | 4         | -                       |
| NPU_SET_BLOCKDEP          | 0         | -                       |
| NPU_OP_DMA_WAIT           | 0         | -                       |
| NPU_OP_ELEMENTWISE        | 0         | -                       |
| NPU_SET_IFM_REGION        | 5         | -                       |
| NPU_SET_IFM_ZERO_POINT    | 0         | -                       |
| NPU_SET_IFM_PAD_TOP       | 0         | -                       |
| NPU_SET_IFM_PAD_LEFT      | 0         | -                       |
| NPU_SET_IFM_PAD_BOTTOM    | 0         | -                       |
| NPU_SET_IFM_PAD_RIGHT     | 0         | -                       |
| NPU_SET_OFM_BASE0         | 0         | 0x00000040 (64)         |
| NPU_SET_OFM_ZERO_POINT    | 0         | -                       |
| NPU_SET_OFM_PRECISION     | 65        | -                       |
| NPU_SET_KERNEL_HEIGHT_M1  | 0         | -                       |
| NPU_SET_KERNEL_WIDTH_M1   | 0         | -                       |
| NPU_SET_KERNEL_STRIDE     | 0         | -                       |
| NPU_SET_WEIGHT_REGION     | 0         | -                       |
| NPU_SET_WEIGHT_BASE       | 0         | 0x00000230 (560)        |
| NPU_SET_WEIGHT_LENGTH     | 0         | 0x00000ab0 (2736)       |
| NPU_SET_SCALE_REGION      | 0         | -                       |
| NPU_SET_SCALE_BASE        | 0         | 0x00000000 (0)          |
| NPU_SET_SCALE_LENGTH      | 0         | 0x00000230 (560)        |
| NPU_SET_ACTIVATION        | 0         | -                       |
| NPU_SET_IFM_IB_END        | 10        | -                       |
| NPU_SET_AB_START          | 30        | -                       |
| NPU_SET_BLOCKDEP          | 3         | -                       |
| NPU_OP_CONV               | 0         | -                       |
| NPU_SET_OFM_SCALE         | 38        | 0x533bf625 (1396438565) |
| NPU_SET_IFM_REGION        | 1         | -                       |
| NPU_SET_IFM_BASE0         | 0         | 0x00000080 (128)        |
| NPU_SET_IFM_ZERO_POINT    | 65510     | -                       |
| NPU_SET_OFM_BASE0         | 0         | 0x00000000 (0)          |
| NPU_SET_OFM_ZERO_POINT    | 65501     | -                       |
| NPU_SET_OFM_PRECISION     | 321       | -                       |
| NPU_SET_IFM_IB_END        | 46        | -                       |
| NPU_SET_AB_START          | 46        | -                       |
| NPU_SET_IFM2_BASE0        | 0         | 0x00000000 (0)          |
| NPU_SET_IFM2_STRIDE_C     | 0         | 0x00000010 (16)         |
| NPU_SET_IFM2_STRIDE_Y     | 0         | 0x00000040 (64)         |
| NPU_SET_IFM2_STRIDE_X     | 0         | 0x00000010 (16)         |
| NPU_SET_IFM_PRECISION     | 65        | -                       |
| NPU_SET_IFM2_BROADCAST    | 0         | -                       |
| NPU_OP_ELEMENTWISE        | 0         | -                       |
| NPU_SET_OPA_SCALE         | 12        | 0x4e38e38e (1312351118) |
| NPU_SET_OPB_SCALE         | 0         | 0x00000000 (0)          |
| NPU_SET_OFM_SCALE         | 49        | 0x4ccccccd (1288490189) |
| NPU_SET_IFM_BASE0         | 0         | 0x00000000 (0)          |
| NPU_SET_IFM_STRIDE_C      | 0         | 0x00000010 (16)         |
| NPU_SET_IFM_STRIDE_Y      | 0         | 0x00000040 (64)         |
| NPU_SET_IFM_STRIDE_X      | 0         | 0x00000010 (16)         |
| NPU_SET_IFM_ZERO_POINT    | 65501     | -                       |
| NPU_SET_IFM_PRECISION     | 321       | -                       |
| NPU_SET_OFM_BASE0         | 0         | 0x00000080 (128)        |
| NPU_SET_OFM_ZERO_POINT    | 65510     | -                       |
| NPU_SET_IFM2_BASE0        | 0         | 0x00000040 (64)         |
| NPU_SET_IFM2_ZERO_POINT   | 0         | -                       |
| NPU_SET_BLOCKDEP          | 0         | -                       |
| NPU_OP_ELEMENTWISE        | 1         | -                       |
| NPU_SET_DMA0_SRC          | 0         | 0x00000100 (256)        |
| NPU_SET_DMA0_DST          | 0         | 0x0000b900 (47360)      |
| NPU_OP_DMA_START          | 0         | -                       |
| NPU_SET_OPA_SCALE         | 18        | 0x6d3a06d4 (1832519380) |
| NPU_SET_OFM_SCALE         | 47        | 0x78000000 (2013265920) |
| NPU_SET_IFM_BASE0         | 0         | 0x00000080 (128)        |
| NPU_SET_IFM_ZERO_POINT    | 65510     | -                       |
| NPU_SET_IFM_PRECISION     | 577       | -                       |
| NPU_SET_OFM_REGION        | 6         | -                       |
| NPU_SET_OFM_BASE0         | 0         | 0x00000000 (0)          |
| NPU_SET_OFM_STRIDE_C      | 0         | 0x00000001 (1)          |
| NPU_SET_OFM_STRIDE_Y      | 0         | 0x00000038 (56)         |
| NPU_SET_OFM_STRIDE_X      | 0         | 0x00000038 (56)         |
| NPU_SET_OFM_ZERO_POINT    | 0         | -                       |
| NPU_SET_OFM_PRECISION     | 257       | -                       |
| NPU_SET_ACTIVATION        | 17        | -                       |
| NPU_SET_IFM2_REGION       | 3         | -                       |
| NPU_SET_IFM2_BASE0        | 0         | 0x00000038 (56)         |
| NPU_SET_IFM2_STRIDE_C     | 0         | 0x00000001 (1)          |
| NPU_SET_IFM2_STRIDE_Y     | 0         | 0x00000038 (56)         |
| NPU_SET_IFM2_STRIDE_X     | 0         | 0x00000038 (56)         |
| NPU_SET_IFM2_ZERO_POINT   | 64261     | -                       |
| NPU_SET_IFM_PRECISION     | 1         | -                       |
| NPU_OP_DMA_WAIT           | 0         | -                       |
| NPU_OP_ELEMENTWISE        | 2         | -                       |
| NPU_SET_OFM_SCALE         | 33        | 0x5d1745d1 (1561806289) |
| NPU_SET_IFM_REGION        | 3         | -                       |
| NPU_SET_IFM_BASE0         | 0         | 0x00000038 (56)         |
| NPU_SET_IFM_STRIDE_C      | 0         | 0x00000001 (1)          |
| NPU_SET_IFM_STRIDE_Y      | 0         | 0x00000038 (56)         |
| NPU_SET_IFM_STRIDE_X      | 0         | 0x00000038 (56)         |
| NPU_SET_IFM_ZERO_POINT    | 64261     | -                       |
| NPU_SET_IFM_PRECISION     | 1         | -                       |
| NPU_SET_OFM_REGION        | 1         | -                       |
| NPU_SET_OFM_BASE0         | 0         | 0x00000040 (64)         |
| NPU_SET_OFM_STRIDE_C      | 0         | 0x00000010 (16)         |
| NPU_SET_OFM_STRIDE_Y      | 0         | 0x00000040 (64)         |
| NPU_SET_OFM_STRIDE_X      | 0         | 0x00000010 (16)         |
| NPU_SET_OFM_ZERO_POINT    | 65408     | -                       |
| NPU_SET_OFM_PRECISION     | 321       | -                       |
| NPU_SET_ACTIVATION        | 0         | -                       |
| NPU_SET_IFM2_REGION       | 6         | -                       |
| NPU_SET_IFM2_BASE0        | 0         | 0x00000000 (0)          |
| NPU_SET_IFM2_ZERO_POINT   | 0         | -                       |
| NPU_OP_ELEMENTWISE        | 0         | -                       |
| NPU_SET_OPA_SCALE         | 15        | 0x4b17e4b1 (1259857073) |
| NPU_SET_OFM_SCALE         | 49        | 0x40000000 (1073741824) |
| NPU_SET_IFM_REGION        | 1         | -                       |
| NPU_SET_IFM_BASE0         | 0         | 0x00000080 (128)        |
| NPU_SET_IFM_STRIDE_C      | 0         | 0x00000010 (16)         |
| NPU_SET_IFM_STRIDE_Y      | 0         | 0x00000040 (64)         |
| NPU_SET_IFM_STRIDE_X      | 0         | 0x00000010 (16)         |
| NPU_SET_IFM_ZERO_POINT    | 65510     | -                       |
| NPU_SET_IFM_PRECISION     | 577       | -                       |
| NPU_SET_OFM_BASE0         | 0         | 0x00000080 (128)        |
| NPU_SET_OFM_STRIDE_C      | 0         | 0x00000001 (1)          |
| NPU_SET_OFM_STRIDE_Y      | 0         | 0x00000038 (56)         |
| NPU_SET_OFM_STRIDE_X      | 0         | 0x00000038 (56)         |
| NPU_SET_OFM_ZERO_POINT    | 65510     | -                       |
| NPU_SET_OFM_PRECISION     | 257       | -                       |
| NPU_SET_IFM2_REGION       | 1         | -                       |
| NPU_SET_IFM2_BASE0        | 0         | 0x00000040 (64)         |
| NPU_SET_IFM2_STRIDE_C     | 0         | 0x00000010 (16)         |
| NPU_SET_IFM2_STRIDE_Y     | 0         | 0x00000040 (64)         |
| NPU_SET_IFM2_STRIDE_X     | 0         | 0x00000010 (16)         |
| NPU_SET_IFM2_ZERO_POINT   | 65408     | -                       |
| NPU_SET_IFM_PRECISION     | 65        | -                       |
| NPU_OP_ELEMENTWISE        | 2         | -                       |
| NPU_SET_IFM_REGION        | 6         | -                       |
| NPU_SET_IFM_BASE0         | 0         | 0x00000000 (0)          |
| NPU_SET_IFM_STRIDE_C      | 0         | 0x00000001 (1)          |
| NPU_SET_IFM_STRIDE_Y      | 0         | 0x00000038 (56)         |
| NPU_SET_IFM_STRIDE_X      | 0         | 0x00000038 (56)         |
| NPU_SET_IFM_ZERO_POINT    | 0         | -                       |
| NPU_SET_IFM_PRECISION     | 1         | -                       |
| NPU_SET_OFM_BASE0         | 0         | 0x000000b9 (185)        |
| NPU_SET_OFM_DEPTH_M1      | 0         | -                       |
| NPU_SET_OFM_STRIDE_Y      | 0         | 0x00000001 (1)          |
| NPU_SET_OFM_STRIDE_X      | 0         | 0x00000001 (1)          |
| NPU_SET_OFM_ZERO_POINT    | 65408     | -                       |
| NPU_SET_OFM_BLK_DEPTH_M1  | 7         | -                       |
| NPU_SET_IFM_IB_END        | 10        | -                       |
| NPU_SET_AB_START          | 30        | -                       |
| NPU_SET_OFM_SCALE         | 22        | 0x3fc000ff (1069547775) |
| NPU_SET_BLOCKDEP          | 3         | -                       |
| NPU_OP_POOL               | 2         | -                       |
| NPU_SET_OFM_SCALE         | 30        | 0x40000000 (1073741824) |
| NPU_SET_IFM_REGION        | 1         | -                       |
| NPU_SET_IFM_BASE0         | 0         | 0x000000b8 (184)        |
| NPU_SET_IFM_DEPTH_M1      | 0         | -                       |
| NPU_SET_IFM_STRIDE_Y      | 0         | 0x00000001 (1)          |
| NPU_SET_IFM_STRIDE_X      | 0         | 0x00000001 (1)          |
| NPU_SET_IFM_ZERO_POINT    | 65408     | -                       |
| NPU_SET_OFM_BASE0         | 0         | 0x000000b8 (184)        |
| NPU_SET_ACTIVATION_MAX    | 65408     | -                       |
| NPU_SET_IFM_IB_END        | 46        | -                       |
| NPU_SET_AB_START          | 46        | -                       |
| NPU_SET_IFM2_ZERO_POINT   | 0         | -                       |
| NPU_SET_IFM_PRECISION     | 0         | -                       |
| NPU_SET_IFM2_BROADCAST    | 128       | -                       |
| NPU_SET_IFM2_SCALAR       | 0         | -                       |
| NPU_OP_ELEMENTWISE        | 0         | -                       |
| NPU_OP_STOP               | 65535     | -                       |
+---------------------------+-----------+-------------------------+
*/
