#pragma once
#include <stddef.h>
#include <stdint.h>




// Tensor sizes

#define FC_LIF_LAYER_2_IS_LAST_LAYER 0
#define FC_LIF_LAYER_2_MAX_NUM_TENSORS_TO_TRACK 8
#define FC_LIF_LAYER_2_TENSOR_ARENA_SIZE  186
#define FC_LIF_LAYER_2_INPUT_LAYER_SIZE  56
#define FC_LIF_LAYER_2_OUTPUT_LAYER_SIZE  56
#define FC_LIF_LAYER_2_WEIGHT_LEN 3248
#define FC_LIF_LAYER_2_BIAS_LEN 560








static const uint8_t cms_fc_lif_layer_2[] __attribute__((aligned(16))) =
{
0x43, 0x4f, 0x50, 0x31,
0x01, 0x00, 0x10, 0x00,
0x08, 0x30, 0x00, 0x00,
0x00, 0x00, 0x06, 0x10,
0x05, 0x00, 0x00, 0x00,
0x05, 0x00, 0x00, 0x00,
0x05, 0x00, 0x00, 0x00,
0x02, 0x00, 0x31, 0x01,
0x30, 0x01, 0x04, 0x00,
0x30, 0x40, 0x00, 0x00,
0x00, 0x00, 0x00, 0x00,
0x31, 0x01, 0x03, 0x01,
0x31, 0x40, 0x00, 0x00,
0x00, 0xb8, 0x00, 0x00,
0x32, 0x40, 0x00, 0x00,
0x00, 0x01, 0x00, 0x00,
0x10, 0x00, 0x00, 0x00,
0x24, 0x40, 0x25, 0x00,
0x9a, 0x33, 0xcd, 0x66,
0x0f, 0x01, 0x03, 0x00,
0x00, 0x40, 0x00, 0x00,
0x00, 0x00, 0x00, 0x00,
0x01, 0x40, 0x00, 0x00,
0x00, 0x00, 0x00, 0x00,
0x02, 0x40, 0x00, 0x00,
0x00, 0x00, 0x00, 0x00,
0x03, 0x40, 0x00, 0x00,
0x00, 0x00, 0x00, 0x00,
0x0b, 0x01, 0x00, 0x00,
0x0c, 0x01, 0xff, 0xff,
0x0a, 0x01, 0x00, 0x00,
0x04, 0x01, 0x37, 0x00,
0x06, 0x40, 0x00, 0x00,
0x01, 0x00, 0x00, 0x00,
0x05, 0x40, 0x00, 0x00,
0x38, 0x00, 0x00, 0x00,
0x04, 0x40, 0x00, 0x00,
0x38, 0x00, 0x00, 0x00,
0x09, 0x01, 0x41, 0x00,
0x05, 0x01, 0x01, 0x00,
0x07, 0x01, 0x00, 0x00,
0x1f, 0x01, 0x01, 0x00,
0x10, 0x40, 0x00, 0x00,
0x00, 0x00, 0x00, 0x00,
0x11, 0x40, 0x00, 0x00,
0x00, 0x00, 0x00, 0x00,
0x12, 0x40, 0x00, 0x00,
0x00, 0x00, 0x00, 0x00,
0x13, 0x40, 0x00, 0x00,
0x00, 0x00, 0x00, 0x00,
0x1b, 0x01, 0x00, 0x00,
0x1c, 0x01, 0xff, 0xff,
0x1a, 0x01, 0x00, 0x00,
0x12, 0x01, 0x00, 0x00,
0x11, 0x01, 0x00, 0x00,
0x13, 0x01, 0x37, 0x00,
0x16, 0x40, 0x00, 0x00,
0x10, 0x00, 0x00, 0x00,
0x15, 0x40, 0x00, 0x00,
0x40, 0x00, 0x00, 0x00,
0x14, 0x40, 0x00, 0x00,
0x10, 0x00, 0x00, 0x00,
0x18, 0x01, 0x7f, 0x00,
0x14, 0x01, 0x41, 0x01,
0x25, 0x01, 0x10, 0x00,
0x26, 0x01, 0x80, 0xff,
0x27, 0x01, 0x7f, 0x00,
0x16, 0x01, 0x01, 0x00,
0x15, 0x01, 0x01, 0x00,
0x17, 0x01, 0x37, 0x00,
0x0d, 0x01, 0x2e, 0x00,
0x2d, 0x01, 0x2e, 0x00,
0x8d, 0x01, 0x0a, 0x00,
0x24, 0x01, 0x00, 0x00,
0x8f, 0x01, 0x01, 0x00,
0x80, 0x40, 0x00, 0x00,
0xb8, 0x00, 0x00, 0x00,
0x81, 0x40, 0x00, 0x00,
0x00, 0x00, 0x00, 0x00,
0x82, 0x40, 0x00, 0x00,
0x00, 0x00, 0x00, 0x00,
0x83, 0x40, 0x00, 0x00,
0x00, 0x00, 0x00, 0x00,
0x8b, 0x01, 0x00, 0x00,
0x8c, 0x01, 0xff, 0xff,
0x8a, 0x01, 0x00, 0x00,
0x86, 0x40, 0x00, 0x00,
0x01, 0x00, 0x00, 0x00,
0x85, 0x40, 0x00, 0x00,
0x01, 0x00, 0x00, 0x00,
0x84, 0x40, 0x00, 0x00,
0x01, 0x00, 0x00, 0x00,
0x89, 0x01, 0x80, 0xff,
0x85, 0x01, 0x01, 0x00,
0x80, 0x01, 0x04, 0x00,
0x2f, 0x01, 0x00, 0x00,
0x11, 0x00, 0x00, 0x00,
0x06, 0x00, 0x00, 0x00,
0x0f, 0x01, 0x05, 0x00,
0x09, 0x01, 0x00, 0x00,
0x00, 0x01, 0x00, 0x00,
0x01, 0x01, 0x00, 0x00,
0x03, 0x01, 0x00, 0x00,
0x02, 0x01, 0x00, 0x00,
0x10, 0x40, 0x00, 0x00,
0x40, 0x00, 0x00, 0x00,
0x18, 0x01, 0x00, 0x00,
0x14, 0x01, 0x41, 0x00,
0x21, 0x01, 0x00, 0x00,
0x20, 0x01, 0x00, 0x00,
0x22, 0x01, 0x00, 0x00,
0x28, 0x01, 0x00, 0x00,
0x20, 0x40, 0x00, 0x00,
0x30, 0x02, 0x00, 0x00,
0x21, 0x40, 0x00, 0x00,
0xb0, 0x0c, 0x00, 0x00,
0x29, 0x01, 0x00, 0x00,
0x22, 0x40, 0x00, 0x00,
0x00, 0x00, 0x00, 0x00,
0x23, 0x40, 0x00, 0x00,
0x30, 0x02, 0x00, 0x00,
0x25, 0x01, 0x00, 0x00,
0x0d, 0x01, 0x0a, 0x00,
0x2d, 0x01, 0x1e, 0x00,
0x2f, 0x01, 0x03, 0x00,
0x02, 0x00, 0x00, 0x00,
0x24, 0x40, 0x26, 0x00,
0x25, 0xf6, 0x3b, 0x53,
0x0f, 0x01, 0x01, 0x00,
0x00, 0x40, 0x00, 0x00,
0x80, 0x00, 0x00, 0x00,
0x09, 0x01, 0xe6, 0xff,
0x10, 0x40, 0x00, 0x00,
0x00, 0x00, 0x00, 0x00,
0x18, 0x01, 0xdd, 0xff,
0x14, 0x01, 0x41, 0x01,
0x0d, 0x01, 0x2e, 0x00,
0x2d, 0x01, 0x2e, 0x00,
0x80, 0x40, 0x00, 0x00,
0x00, 0x00, 0x00, 0x00,
0x86, 0x40, 0x00, 0x00,
0x10, 0x00, 0x00, 0x00,
0x85, 0x40, 0x00, 0x00,
0x40, 0x00, 0x00, 0x00,
0x84, 0x40, 0x00, 0x00,
0x10, 0x00, 0x00, 0x00,
0x85, 0x01, 0x41, 0x00,
0x80, 0x01, 0x00, 0x00,
0x06, 0x00, 0x00, 0x00,
0x25, 0x40, 0x0c, 0x00,
0x8e, 0xe3, 0x38, 0x4e,
0x26, 0x40, 0x00, 0x00,
0x00, 0x00, 0x00, 0x00,
0x24, 0x40, 0x31, 0x00,
0xcd, 0xcc, 0xcc, 0x4c,
0x00, 0x40, 0x00, 0x00,
0x00, 0x00, 0x00, 0x00,
0x06, 0x40, 0x00, 0x00,
0x10, 0x00, 0x00, 0x00,
0x05, 0x40, 0x00, 0x00,
0x40, 0x00, 0x00, 0x00,
0x04, 0x40, 0x00, 0x00,
0x10, 0x00, 0x00, 0x00,
0x09, 0x01, 0xdd, 0xff,
0x05, 0x01, 0x41, 0x01,
0x10, 0x40, 0x00, 0x00,
0x80, 0x00, 0x00, 0x00,
0x16, 0x40, 0x00, 0x00,
0x01, 0x00, 0x00, 0x00,
0x15, 0x40, 0x00, 0x00,
0x38, 0x00, 0x00, 0x00,
0x14, 0x40, 0x00, 0x00,
0x38, 0x00, 0x00, 0x00,
0x18, 0x01, 0xe6, 0xff,
0x14, 0x01, 0x01, 0x01,
0x80, 0x40, 0x00, 0x00,
0x40, 0x00, 0x00, 0x00,
0x89, 0x01, 0x00, 0x00,
0x2f, 0x01, 0x00, 0x00,
0x06, 0x00, 0x01, 0x00,
0x30, 0x40, 0x00, 0x00,
0x00, 0x01, 0x00, 0x00,
0x31, 0x40, 0x00, 0x00,
0x00, 0xb9, 0x00, 0x00,
0x10, 0x00, 0x00, 0x00,
0x25, 0x40, 0x12, 0x00,
0xd4, 0x06, 0x3a, 0x6d,
0x24, 0x40, 0x2f, 0x00,
0x00, 0x00, 0x00, 0x78,
0x00, 0x40, 0x00, 0x00,
0x80, 0x00, 0x00, 0x00,
0x06, 0x40, 0x00, 0x00,
0x01, 0x00, 0x00, 0x00,
0x05, 0x40, 0x00, 0x00,
0x38, 0x00, 0x00, 0x00,
0x04, 0x40, 0x00, 0x00,
0x38, 0x00, 0x00, 0x00,
0x09, 0x01, 0xe6, 0xff,
0x05, 0x01, 0x01, 0x02,
0x1f, 0x01, 0x06, 0x00,
0x10, 0x40, 0x00, 0x00,
0x00, 0x00, 0x00, 0x00,
0x18, 0x01, 0x00, 0x00,
0x25, 0x01, 0x11, 0x00,
0x8f, 0x01, 0x03, 0x00,
0x80, 0x40, 0x00, 0x00,
0x38, 0x00, 0x00, 0x00,
0x86, 0x40, 0x00, 0x00,
0x01, 0x00, 0x00, 0x00,
0x85, 0x40, 0x00, 0x00,
0x38, 0x00, 0x00, 0x00,
0x84, 0x40, 0x00, 0x00,
0x38, 0x00, 0x00, 0x00,
0x89, 0x01, 0x05, 0xfb,
0x85, 0x01, 0x01, 0x00,
0x11, 0x00, 0x00, 0x00,
0x06, 0x00, 0x02, 0x00,
0x24, 0x40, 0x21, 0x00,
0xd1, 0x45, 0x17, 0x5d,
0x0f, 0x01, 0x03, 0x00,
0x00, 0x40, 0x00, 0x00,
0x38, 0x00, 0x00, 0x00,
0x09, 0x01, 0x05, 0xfb,
0x05, 0x01, 0x01, 0x00,
0x1f, 0x01, 0x01, 0x00,
0x10, 0x40, 0x00, 0x00,
0x40, 0x00, 0x00, 0x00,
0x16, 0x40, 0x00, 0x00,
0x10, 0x00, 0x00, 0x00,
0x15, 0x40, 0x00, 0x00,
0x40, 0x00, 0x00, 0x00,
0x14, 0x40, 0x00, 0x00,
0x10, 0x00, 0x00, 0x00,
0x18, 0x01, 0x80, 0xff,
0x14, 0x01, 0x41, 0x01,
0x25, 0x01, 0x00, 0x00,
0x8f, 0x01, 0x06, 0x00,
0x80, 0x40, 0x00, 0x00,
0x00, 0x00, 0x00, 0x00,
0x89, 0x01, 0x00, 0x00,
0x06, 0x00, 0x00, 0x00,
0x25, 0x40, 0x0f, 0x00,
0xb1, 0xe4, 0x17, 0x4b,
0x24, 0x40, 0x31, 0x00,
0x00, 0x00, 0x00, 0x40,
0x0f, 0x01, 0x01, 0x00,
0x00, 0x40, 0x00, 0x00,
0x80, 0x00, 0x00, 0x00,
0x09, 0x01, 0xe6, 0xff,
0x05, 0x01, 0x01, 0x02,
0x10, 0x40, 0x00, 0x00,
0x80, 0x00, 0x00, 0x00,
0x16, 0x40, 0x00, 0x00,
0x01, 0x00, 0x00, 0x00,
0x15, 0x40, 0x00, 0x00,
0x38, 0x00, 0x00, 0x00,
0x14, 0x40, 0x00, 0x00,
0x38, 0x00, 0x00, 0x00,
0x18, 0x01, 0xe6, 0xff,
0x14, 0x01, 0x01, 0x01,
0x8f, 0x01, 0x01, 0x00,
0x80, 0x40, 0x00, 0x00,
0x40, 0x00, 0x00, 0x00,
0x86, 0x40, 0x00, 0x00,
0x10, 0x00, 0x00, 0x00,
0x85, 0x40, 0x00, 0x00,
0x40, 0x00, 0x00, 0x00,
0x84, 0x40, 0x00, 0x00,
0x10, 0x00, 0x00, 0x00,
0x89, 0x01, 0x80, 0xff,
0x85, 0x01, 0x41, 0x00,
0x06, 0x00, 0x02, 0x00,
0x0f, 0x01, 0x06, 0x00,
0x00, 0x40, 0x00, 0x00,
0x00, 0x00, 0x00, 0x00,
0x09, 0x01, 0x00, 0x00,
0x05, 0x01, 0x01, 0x00,
0x10, 0x40, 0x00, 0x00,
0xb9, 0x00, 0x00, 0x00,
0x13, 0x01, 0x00, 0x00,
0x15, 0x40, 0x00, 0x00,
0x01, 0x00, 0x00, 0x00,
0x14, 0x40, 0x00, 0x00,
0x01, 0x00, 0x00, 0x00,
0x18, 0x01, 0x80, 0xff,
0x17, 0x01, 0x07, 0x00,
0x0d, 0x01, 0x0a, 0x00,
0x2d, 0x01, 0x1e, 0x00,
0x24, 0x40, 0x16, 0x00,
0xff, 0x00, 0xc0, 0x3f,
0x2f, 0x01, 0x03, 0x00,
0x05, 0x00, 0x02, 0x00,
0x24, 0x40, 0x1e, 0x00,
0x00, 0x00, 0x00, 0x40,
0x0f, 0x01, 0x01, 0x00,
0x00, 0x40, 0x00, 0x00,
0xb8, 0x00, 0x00, 0x00,
0x04, 0x01, 0x00, 0x00,
0x05, 0x40, 0x00, 0x00,
0x01, 0x00, 0x00, 0x00,
0x04, 0x40, 0x00, 0x00,
0x01, 0x00, 0x00, 0x00,
0x09, 0x01, 0x80, 0xff,
0x10, 0x40, 0x00, 0x00,
0xb8, 0x00, 0x00, 0x00,
0x0d, 0x01, 0x2e, 0x00,
0x2d, 0x01, 0x2e, 0x00,
0x89, 0x01, 0x00, 0x00,
0x85, 0x01, 0x00, 0x00,
0x80, 0x01, 0x80, 0x00,
0x81, 0x01, 0x00, 0x00,
0x06, 0x00, 0x00, 0x00,
0x00, 0x00, 0xff, 0xff, };

static inline const uint8_t* Getcmsfc_lif_layer_2Pointer()
{
	return cms_fc_lif_layer_2;
}


static inline const size_t Getcmsfc_lif_layer_2Len()
{
	return sizeof(cms_fc_lif_layer_2);
}


static const int8_t WEIGHTS_AND_BIASES_REGION_fc_lif_layer_2[] __attribute__((aligned(16))) =
{
//biases
0xe2, 0xff, 0xff, 0xff,
0xff, 0x1c, 0xd7, 0x33,
0x4d, 0x21, 0xff, 0xff,
0xff, 0xff, 0xff, 0x1c,
0xd7, 0x33, 0x4d, 0x21,
0xec, 0xff, 0xff, 0xff,
0xff, 0x1c, 0xd7, 0x33,
0x4d, 0x21, 0x01, 0x00,
0x00, 0x00, 0x00, 0x1c,
0xd7, 0x33, 0x4d, 0x21,
0xed, 0xff, 0xff, 0xff,
0xff, 0x1c, 0xd7, 0x33,
0x4d, 0x21, 0x01, 0x00,
0x00, 0x00, 0x00, 0x1c,
0xd7, 0x33, 0x4d, 0x21,
0xdb, 0xff, 0xff, 0xff,
0xff, 0x1c, 0xd7, 0x33,
0x4d, 0x21, 0xe8, 0xff,
0xff, 0xff, 0xff, 0x1c,
0xd7, 0x33, 0x4d, 0x21,
0xe3, 0xff, 0xff, 0xff,
0xff, 0x1c, 0xd7, 0x33,
0x4d, 0x21, 0xfd, 0xff,
0xff, 0xff, 0xff, 0x1c,
0xd7, 0x33, 0x4d, 0x21,
0xf0, 0xff, 0xff, 0xff,
0xff, 0x1c, 0xd7, 0x33,
0x4d, 0x21, 0xf5, 0xff,
0xff, 0xff, 0xff, 0x1c,
0xd7, 0x33, 0x4d, 0x21,
0xf6, 0xff, 0xff, 0xff,
0xff, 0x1c, 0xd7, 0x33,
0x4d, 0x21, 0xfe, 0xff,
0xff, 0xff, 0xff, 0x1c,
0xd7, 0x33, 0x4d, 0x21,
0xfd, 0xff, 0xff, 0xff,
0xff, 0x1c, 0xd7, 0x33,
0x4d, 0x21, 0xee, 0xff,
0xff, 0xff, 0xff, 0x1c,
0xd7, 0x33, 0x4d, 0x21,
0xf2, 0xff, 0xff, 0xff,
0xff, 0x1c, 0xd7, 0x33,
0x4d, 0x21, 0xf9, 0xff,
0xff, 0xff, 0xff, 0x1c,
0xd7, 0x33, 0x4d, 0x21,
0xd0, 0xff, 0xff, 0xff,
0xff, 0x1c, 0xd7, 0x33,
0x4d, 0x21, 0xee, 0xff,
0xff, 0xff, 0xff, 0x1c,
0xd7, 0x33, 0x4d, 0x21,
0xdc, 0xff, 0xff, 0xff,
0xff, 0x1c, 0xd7, 0x33,
0x4d, 0x21, 0xeb, 0xff,
0xff, 0xff, 0xff, 0x1c,
0xd7, 0x33, 0x4d, 0x21,
0xf3, 0xff, 0xff, 0xff,
0xff, 0x1c, 0xd7, 0x33,
0x4d, 0x21, 0xf1, 0xff,
0xff, 0xff, 0xff, 0x1c,
0xd7, 0x33, 0x4d, 0x21,
0xed, 0xff, 0xff, 0xff,
0xff, 0x1c, 0xd7, 0x33,
0x4d, 0x21, 0xe2, 0xff,
0xff, 0xff, 0xff, 0x1c,
0xd7, 0x33, 0x4d, 0x21,
0x03, 0x00, 0x00, 0x00,
0x00, 0x1c, 0xd7, 0x33,
0x4d, 0x21, 0xe4, 0xff,
0xff, 0xff, 0xff, 0x1c,
0xd7, 0x33, 0x4d, 0x21,
0x03, 0x00, 0x00, 0x00,
0x00, 0x1c, 0xd7, 0x33,
0x4d, 0x21, 0xf6, 0xff,
0xff, 0xff, 0xff, 0x1c,
0xd7, 0x33, 0x4d, 0x21,
0xda, 0xff, 0xff, 0xff,
0xff, 0x1c, 0xd7, 0x33,
0x4d, 0x21, 0xe7, 0xff,
0xff, 0xff, 0xff, 0x1c,
0xd7, 0x33, 0x4d, 0x21,
0x04, 0x00, 0x00, 0x00,
0x00, 0x1c, 0xd7, 0x33,
0x4d, 0x21, 0xf7, 0xff,
0xff, 0xff, 0xff, 0x1c,
0xd7, 0x33, 0x4d, 0x21,
0xea, 0xff, 0xff, 0xff,
0xff, 0x1c, 0xd7, 0x33,
0x4d, 0x21, 0xe0, 0xff,
0xff, 0xff, 0xff, 0x1c,
0xd7, 0x33, 0x4d, 0x21,
0xe0, 0xff, 0xff, 0xff,
0xff, 0x1c, 0xd7, 0x33,
0x4d, 0x21, 0xfd, 0xff,
0xff, 0xff, 0xff, 0x1c,
0xd7, 0x33, 0x4d, 0x21,
0xfd, 0xff, 0xff, 0xff,
0xff, 0x1c, 0xd7, 0x33,
0x4d, 0x21, 0xf3, 0xff,
0xff, 0xff, 0xff, 0x1c,
0xd7, 0x33, 0x4d, 0x21,
0xf2, 0xff, 0xff, 0xff,
0xff, 0x1c, 0xd7, 0x33,
0x4d, 0x21, 0xdb, 0xff,
0xff, 0xff, 0xff, 0x1c,
0xd7, 0x33, 0x4d, 0x21,
0xda, 0xff, 0xff, 0xff,
0xff, 0x1c, 0xd7, 0x33,
0x4d, 0x21, 0xe0, 0xff,
0xff, 0xff, 0xff, 0x1c,
0xd7, 0x33, 0x4d, 0x21,
0xf1, 0xff, 0xff, 0xff,
0xff, 0x1c, 0xd7, 0x33,
0x4d, 0x21, 0xf0, 0xff,
0xff, 0xff, 0xff, 0x1c,
0xd7, 0x33, 0x4d, 0x21,
0xd7, 0xff, 0xff, 0xff,
0xff, 0x1c, 0xd7, 0x33,
0x4d, 0x21, 0xef, 0xff,
0xff, 0xff, 0xff, 0x1c,
0xd7, 0x33, 0x4d, 0x21,
0xf2, 0xff, 0xff, 0xff,
0xff, 0x1c, 0xd7, 0x33,
0x4d, 0x21, 0x04, 0x00,
0x00, 0x00, 0x00, 0x1c,
0xd7, 0x33, 0x4d, 0x21,
0xee, 0xff, 0xff, 0xff,
0xff, 0x1c, 0xd7, 0x33,
0x4d, 0x21, 0xf2, 0xff,
0xff, 0xff, 0xff, 0x1c,
0xd7, 0x33, 0x4d, 0x21,
0xf4, 0xff, 0xff, 0xff,
0xff, 0x1c, 0xd7, 0x33,
0x4d, 0x21, 0xf1, 0xff,
0xff, 0xff, 0xff, 0x1c,
0xd7, 0x33, 0x4d, 0x21,
0xec, 0xff, 0xff, 0xff,
0xff, 0x1c, 0xd7, 0x33,
0x4d, 0x21, 0xed, 0xff,
0xff, 0xff, 0xff, 0x1c,
0xd7, 0x33, 0x4d, 0x21, 
//weights
0x08, 0x60, 0x54, 0xf1,
0xf9, 0x64, 0x05, 0xe1,
0x5c, 0xd8, 0xd2, 0x42,
0x53, 0xa3, 0x1c, 0x09,
0x32, 0x56, 0xc6, 0x20,
0xd4, 0x11, 0x25, 0x31,
0x9b, 0x55, 0xfe, 0x67,
0x87, 0x0b, 0x00, 0xb0,
0x0c, 0xf0, 0x90, 0xb9,
0x86, 0xfa, 0xdc, 0x19,
0x70, 0x00, 0x68, 0xab,
0xec, 0xc0, 0xdb, 0x2c,
0x2c, 0x9a, 0x1c, 0x00,
0x75, 0xc5, 0x50, 0x07,
0xf2, 0x78, 0x1d, 0x48,
0x00, 0x20, 0x92, 0xf6,
0x10, 0x2b, 0x58, 0x5c,
0x00, 0x80, 0x45, 0x43,
0x8d, 0xb7, 0xf8, 0xd0,
0x0d, 0x30, 0xf8, 0x0b,
0x32, 0x74, 0x73, 0xcf,
0xf8, 0x77, 0x03, 0x02,
0x7b, 0x64, 0x14, 0x43,
0x02, 0xcd, 0x3c, 0x03,
0x00, 0x7f, 0x06, 0x79,
0xdf, 0xc7, 0xb6, 0xdf,
0xbe, 0x12, 0x98, 0x16,
0xda, 0x00, 0x40, 0x47,
0xff, 0xef, 0x16, 0x2b,
0xdf, 0x0f, 0x53, 0xfc,
0xf8, 0x6c, 0x70, 0x39,
0x1c, 0x00, 0xfa, 0xde,
0xda, 0xf3, 0xf2, 0xbc,
0x0e, 0xb1, 0xdf, 0x31,
0x42, 0x3f, 0x03, 0xc0,
0xfd, 0x08, 0x85, 0x86,
0xd9, 0x8d, 0xbb, 0x7f,
0x6c, 0x4d, 0xc8, 0x04,
0x00, 0x6c, 0xcb, 0xd4,
0x5f, 0xf0, 0xa8, 0x2a,
0x5b, 0x45, 0x1b, 0x98,
0x07, 0x00, 0x51, 0x60,
0x36, 0x77, 0x55, 0x0e,
0xe3, 0xc1, 0xd1, 0x04,
0x00, 0x0c, 0x58, 0xa0,
0x2d, 0x51, 0x40, 0xbe,
0x00, 0x00, 0xf8, 0x9b,
0x6f, 0x32, 0x4e, 0x8f,
0x0c, 0x3f, 0x70, 0x09,
0xc7, 0x86, 0x94, 0xac,
0x05, 0x80, 0xb4, 0x06,
0x09, 0xe4, 0x3a, 0x3e,
0xe8, 0x1d, 0x72, 0x00,
0x50, 0x2f, 0x6c, 0x25,
0x0b, 0x2f, 0x24, 0x00,
0x00, 0x3c, 0x01, 0x3e,
0x0a, 0x97, 0x0e, 0x0a,
0x08, 0x00, 0xce, 0xe8,
0x9f, 0x61, 0xe0, 0x02,
0x47, 0x44, 0x75, 0xe6,
0xc8, 0x14, 0x2b, 0x66,
0x82, 0x40, 0x00, 0xf8,
0x19, 0xc0, 0x5f, 0x10,
0x87, 0xc0, 0x31, 0x00,
0xb4, 0xe2, 0x20, 0x50,
0xe3, 0xac, 0x9f, 0x20,
0x09, 0x00, 0xfc, 0x4d,
0xc0, 0x45, 0xe6, 0x91,
0x3c, 0xb0, 0xc7, 0x10,
0x7c, 0xff, 0xe0, 0xa8,
0x14, 0xb0, 0x00, 0xa0,
0xa4, 0xb5, 0x71, 0x5e,
0x9a, 0x60, 0x02, 0x10,
0x1f, 0xc2, 0xd9, 0x17,
0x40, 0xd8, 0x11, 0x17,
0x40, 0x60, 0xcd, 0xd9,
0x47, 0x8c, 0xa8, 0x9c,
0x05, 0x0a, 0x40, 0x0f,
0x46, 0x7f, 0x7b, 0x21,
0x43, 0x02, 0x3f, 0x15,
0x8d, 0xc0, 0xc3, 0xb0,
0x07, 0x40, 0x77, 0xa8,
0x05, 0x4c, 0x4b, 0x11,
0x58, 0xea, 0x77, 0x00,
0xb0, 0xff, 0xd0, 0x0c,
0xce, 0x3d, 0x4f, 0x24,
0xc3, 0xfc, 0xfa, 0xf4,
0xdf, 0xd0, 0x00, 0xe0,
0xaf, 0x16, 0xd9, 0x6a,
0xe0, 0xc6, 0x00, 0x42,
0xed, 0x18, 0x63, 0x78,
0x47, 0x7e, 0xb9, 0x56,
0x79, 0xe8, 0x0c, 0x66,
0x7d, 0x0f, 0x00, 0x6c,
0xeb, 0xa1, 0xd4, 0x09,
0x42, 0xef, 0xde, 0x5d,
0x41, 0x9b, 0xc5, 0xce,
0x1b, 0x00, 0x6a, 0x9f,
0x62, 0xbe, 0x08, 0x6f,
0x1d, 0xc5, 0xe6, 0x1f,
0xe2, 0x12, 0x01, 0x20,
0x2b, 0x7e, 0xaa, 0xac,
0x78, 0xf8, 0x00, 0x00,
0xee, 0xd5, 0xeb, 0xe9,
0xa0, 0xce, 0xd0, 0x0a,
0x02, 0x00, 0xfa, 0x3f,
0xb0, 0x1d, 0x79, 0x2a,
0x34, 0x00, 0x60, 0xc3,
0xdf, 0x9b, 0xb7, 0x58,
0x1c, 0x2b, 0x48, 0x3a,
0x66, 0x5f, 0x4c, 0x19,
0xef, 0xb4, 0x20, 0x00,
0x00, 0xe1, 0x07, 0xa2,
0x22, 0x75, 0x1f, 0xc0,
0x00, 0x40, 0x4c, 0xac,
0x8c, 0x40, 0xe0, 0x20,
0x1b, 0x0c, 0x0c, 0x80,
0x10, 0x75, 0x4a, 0x8b,
0xc9, 0x1d, 0x7f, 0x07,
0x00, 0x00, 0x5e, 0xa3,
0x75, 0x21, 0x13, 0x8b,
0xfb, 0x1b, 0x04, 0x00,
0x7c, 0x1a, 0x12, 0x02,
0x18, 0xae, 0xde, 0x01,
0x04, 0x80, 0x98, 0x60,
0x8d, 0xcb, 0x91, 0x18,
0x6f, 0xa8, 0x29, 0xad,
0xd6, 0x7a, 0xfd, 0xd6,
0xec, 0x01, 0x8e, 0x00,
0x55, 0x0e, 0x3d, 0x6d,
0x1f, 0x1c, 0x0c, 0x00,
0xf0, 0x3d, 0x01, 0x8b,
0x40, 0x89, 0xde, 0x62,
0x00, 0x00, 0x4c, 0x16,
0x6e, 0x23, 0xb4, 0xbe,
0x99, 0x00, 0x00, 0x8e,
0x3d, 0x59, 0x67, 0xa8,
0x2c, 0x94, 0x81, 0x2e,
0xa6, 0x75, 0x44, 0x9b,
0x48, 0x1c, 0x30, 0x00,
0x68, 0x17, 0x98, 0x2f,
0x20, 0x69, 0x0a, 0x08,
0x00, 0x60, 0x8a, 0x76,
0xc6, 0x22, 0xe0, 0x66,
0x38, 0x00, 0x39, 0xa4,
0x00, 0xd2, 0x66, 0xc6,
0x04, 0x59, 0x73, 0xb7,
0x00, 0xb0, 0x47, 0xdb,
0x13, 0x40, 0x78, 0xbf,
0x3f, 0x5a, 0x2f, 0xcc,
0x5c, 0x00, 0xf6, 0x7b,
0x00, 0xb8, 0x4f, 0xaf,
0x80, 0xf3, 0x14, 0x86,
0xf3, 0xdd, 0x6c, 0xf7,
0x4e, 0x01, 0x60, 0x97,
0xdc, 0x3e, 0x63, 0x01,
0xb3, 0x73, 0xef, 0xf3,
0x6a, 0xce, 0xb8, 0x13,
0x00, 0xbe, 0x8d, 0x9e,
0xbb, 0xeb, 0xd8, 0x77,
0x2f, 0x71, 0x8b, 0x16,
0x3d, 0x0d, 0x00, 0x6a,
0xfb, 0x13, 0xd9, 0xe2,
0xb9, 0xfc, 0xd3, 0xda,
0x8b, 0x96, 0xdd, 0x01,
0x0f, 0x10, 0x2a, 0xc6,
0xfc, 0x26, 0xea, 0x00,
0xc0, 0x27, 0xa6, 0xb1,
0x90, 0xde, 0x89, 0x0c,
0xbc, 0x3c, 0x80, 0xef,
0xdc, 0x85, 0x84, 0x08,
0x00, 0x34, 0x0a, 0x4c,
0xe5, 0x17, 0xa0, 0x01,
0x00, 0xd0, 0xfb, 0x07,
0x39, 0xab, 0x25, 0xe9,
0x87, 0x20, 0x03, 0x40,
0x3f, 0x80, 0xa3, 0x76,
0x06, 0x30, 0x12, 0x30,
0xa3, 0xaf, 0x9a, 0xaa,
0x7a, 0x0c, 0x02, 0x30,
0x93, 0x37, 0x70, 0x84,
0xe1, 0x07, 0x07, 0x08,
0x00, 0x36, 0xe9, 0x2f,
0x3f, 0x6a, 0x24, 0x1b,
0x6f, 0x34, 0x9d, 0x65,
0x00, 0xa8, 0xbd, 0x0f,
0xaa, 0x74, 0xe0, 0x1d,
0x28, 0x00, 0xa4, 0xf6,
0x73, 0x39, 0x40, 0x6c,
0xd0, 0xd8, 0xd4, 0x81,
0x1b, 0x8a, 0x43, 0xf4,
0x00, 0x02, 0xa0, 0xd3,
0x6f, 0xef, 0xe9, 0x2a,
0x8f, 0xf4, 0x26, 0x06,
0x04, 0x2d, 0xd0, 0x39,
0x56, 0x7a, 0x18, 0x30,
0x00, 0x60, 0x4f, 0x0a,
0x49, 0xc6, 0xa4, 0x4b,
0x0c, 0x00, 0xb0, 0xdb,
0x0a, 0xd3, 0x01, 0x04,
0x12, 0x30, 0x00, 0x00,
0x16, 0xd6, 0xec, 0xb2,
0x64, 0x19, 0x85, 0x40,
0x24, 0x21, 0x84, 0xd9,
0x83, 0x43, 0x00, 0x00,
0xec, 0xc7, 0x85, 0xbc,
0xbf, 0xa4, 0x22, 0xc8,
0x70, 0x1c, 0x96, 0x80,
0xc5, 0xa2, 0x78, 0x67,
0xb6, 0x41, 0x7f, 0x01,
0x00, 0xb6, 0x41, 0x8e,
0x20, 0x60, 0xc4, 0xe7,
0xf7, 0x00, 0x60, 0xbf,
0xde, 0x97, 0x27, 0x65,
0x6f, 0xfe, 0xad, 0xfe,
0x4b, 0xe3, 0xcd, 0xef,
0x3b, 0xd2, 0x5d, 0x7f,
0xe7, 0x00, 0xe0, 0xef,
0xb3, 0x10, 0x93, 0x40,
0xcd, 0xdf, 0x6b, 0xc2,
0xf5, 0xb8, 0x01, 0xc0,
0xbd, 0x4b, 0x62, 0xeb,
0x05, 0x3d, 0xaf, 0x4d,
0x15, 0x01, 0xba, 0xbc,
0x67, 0x00, 0xf8, 0x1f,
0xe6, 0xaa, 0xba, 0x37,
0xb3, 0xef, 0x7d, 0x27,
0x9d, 0x03, 0x00, 0xfc,
0xf3, 0x94, 0x73, 0x4b,
0xa4, 0x6f, 0x61, 0x14,
0xff, 0x56, 0xd0, 0x01,
0x40, 0xbf, 0x0b, 0x09,
0xf6, 0xdb, 0x0a, 0x02,
0x00, 0xf8, 0x5c, 0x74,
0xc0, 0xf7, 0x83, 0x6e,
0x38, 0xfa, 0xc4, 0xc9,
0xc0, 0x80, 0x92, 0xd0,
0x00, 0x00, 0x0e, 0x12,
0x1e, 0x3d, 0x14, 0x06,
0xf9, 0x46, 0x00, 0x56,
0x51, 0xfd, 0x38, 0x66,
0xd4, 0x90, 0x03, 0x00,
0xe0, 0xfa, 0x9f, 0xd8,
0x92, 0x53, 0x0e, 0xb4,
0xbf, 0x0c, 0xd4, 0xca,
0x6b, 0x00, 0x1c, 0x00,
0xa4, 0xa8, 0xf7, 0x26,
0xc2, 0x12, 0x29, 0xc7,
0x00, 0x60, 0xbb, 0x7c,
0x95, 0x7a, 0x23, 0x3e,
0x92, 0x10, 0x00, 0x20,
0x14, 0xea, 0x37, 0xf7,
0x8a, 0x65, 0x00, 0x80,
0x77, 0x46, 0xea, 0x41,
0x70, 0xe3, 0x87, 0x1e,
0xe0, 0x6f, 0x69, 0x73,
0xe3, 0x4b, 0xc4, 0x30,
0x00, 0xa8, 0xa9, 0x44,
0x1f, 0xc8, 0x79, 0x18,
0x00, 0x80, 0xd3, 0xa7,
0x33, 0x10, 0x56, 0x36,
0xe0, 0x00, 0x00, 0x98,
0xd5, 0x1a, 0xb3, 0xd1,
0x4f, 0x23, 0x03, 0xb0,
0x31, 0xf7, 0x54, 0x71,
0x31, 0x8e, 0x00, 0x10,
0x97, 0x4a, 0x84, 0xdf,
0xc0, 0x43, 0x00, 0x04,
0x84, 0x67, 0x05, 0x94,
0x09, 0xd1, 0xba, 0x04,
0x03, 0x3c, 0x60, 0x00,
0x50, 0x2f, 0x14, 0x10,
0x9a, 0x3c, 0x65, 0xc4,
0x1e, 0x00, 0xde, 0x23,
0xd1, 0x52, 0xb8, 0x21,
0x76, 0x3a, 0x0d, 0x02,
0xd8, 0x60, 0x94, 0xdb,
0x1b, 0x5e, 0xf7, 0xab,
0x01, 0xb8, 0xad, 0x2c,
0xb7, 0x7e, 0x00, 0x38,
0x2b, 0x9e, 0x1e, 0x3b,
0x6d, 0xc7, 0x4d, 0xec,
0xa4, 0x7f, 0xdf, 0x6f,
0x00, 0x78, 0xeb, 0xff,
0xb0, 0x3a, 0x15, 0x33,
0x5e, 0x8d, 0xab, 0x92,
0x58, 0x3f, 0x00, 0xe0,
0xbe, 0x52, 0x60, 0xbc,
0xbb, 0xe2, 0xeb, 0xeb,
0x1f, 0x03, 0xa2, 0x6a,
0x76, 0x00, 0x80, 0x16,
0x50, 0xb8, 0x80, 0xb0,
0x00, 0xe0, 0x2f, 0x89,
0x06, 0xdc, 0xbb, 0xaa,
0xc2, 0xfd, 0xb0, 0x9b,
0xca, 0x62, 0x3f, 0x60,
0x00, 0x81, 0x40, 0x05,
0x09, 0xc2, 0x8e, 0x23,
0x00, 0x30, 0x11, 0x3d,
0x21, 0xc0, 0xf6, 0x98,
0x1c, 0x83, 0x02, 0x80,
0x15, 0x24, 0xf4, 0xca,
0xca, 0xff, 0x03, 0xd0,
0x1f, 0xfd, 0x70, 0xa1,
0xf8, 0x2f, 0x06, 0x06,
0x00, 0x10, 0xd5, 0xb8,
0x6e, 0x81, 0x95, 0x2f,
0x01, 0x60, 0x1f, 0x93,
0x0a, 0x8d, 0x1a, 0xcc,
0x82, 0x98, 0x14, 0x00,
0x78, 0x65, 0x84, 0xd7,
0xc0, 0x18, 0x57, 0x81,
0xaa, 0xc2, 0x7c, 0x10,
0xf8, 0x00, 0x00, 0x2d,
0x9f, 0x04, 0x86, 0x85,
0xe5, 0xf0, 0x0c, 0x00,
0xd4, 0x7b, 0xbe, 0x12,
0x62, 0x0b, 0x20, 0x06,
0x26, 0x6c, 0xe8, 0x6a,
0x9c, 0x03, 0x00, 0xe6,
0xec, 0x75, 0x09, 0x1a,
0x24, 0x75, 0xc6, 0xf6,
0x70, 0x40, 0x50, 0xf3,
0xf3, 0xa4, 0xf3, 0xf8,
0x00, 0x07, 0x08, 0xfa,
0xec, 0x80, 0x18, 0x10,
0x0e, 0x0e, 0x00, 0xc0,
0xdc, 0x60, 0x66, 0x96,
0xd2, 0xa4, 0x03, 0xee,
0x54, 0x65, 0x08, 0x0f,
0x84, 0xa2, 0x01, 0x06,
0x00, 0x17, 0xab, 0xe9,
0x49, 0xa0, 0x18, 0x80,
0x01, 0x00, 0x17, 0x70,
0x44, 0x20, 0xd4, 0x34,
0x58, 0x26, 0xa0, 0x3d,
0xb8, 0x11, 0x03, 0xdb,
0x4e, 0x62, 0xce, 0x01,
0xe0, 0x0f, 0x98, 0x4b,
0x0b, 0x06, 0x8d, 0xdf,
0xf7, 0x4f, 0x53, 0xd8,
0xee, 0x3e, 0x7f, 0x5a,
0xc2, 0x3a, 0x7b, 0x0f,
0x00, 0xde, 0xc5, 0xfd,
0xb1, 0xdc, 0xdc, 0xfd,
0xff, 0x7b, 0x29, 0xb0,
0xe1, 0x01, 0xc0, 0x37,
0x77, 0x3a, 0x9f, 0xbd,
0x6f, 0xc5, 0xa6, 0x69,
0x2b, 0xec, 0x0b, 0x00,
0xaf, 0xfb, 0xa7, 0x97,
0xce, 0xbf, 0xee, 0xf1,
0x4a, 0xcb, 0xe0, 0x59,
0x00, 0xc0, 0x1f, 0x62,
0xf2, 0xc3, 0xbb, 0x7b,
0xff, 0x11, 0xdb, 0x26,
0x01, 0x08, 0x01, 0xeb,
0x14, 0xae, 0x29, 0xe0,
0x0f, 0xea, 0x31, 0x12,
0x00, 0x70, 0xa8, 0xc0,
0x01, 0xe0, 0x87, 0x3c,
0xea, 0xce, 0x02, 0x01,
0x6e, 0x00, 0xf8, 0xb8,
0x82, 0x83, 0x81, 0x02,
0x07, 0x00, 0x2c, 0xa8,
0xbd, 0x82, 0xc8, 0xbd,
0x80, 0x47, 0x4d, 0x4a,
0x42, 0x18, 0x28, 0x56,
0x02, 0x20, 0xe4, 0x11,
0x02, 0x6a, 0x6a, 0x00,
0x72, 0xc0, 0x08, 0x06,
0x01, 0x7c, 0xc2, 0xd2,
0xe4, 0xbc, 0x3d, 0x14,
0x02, 0x00, 0x40, 0x0f,
0xb8, 0x85, 0x48, 0x9c,
0x42, 0x86, 0x1e, 0x00,
0x5b, 0x4d, 0x84, 0x2d,
0x5f, 0x17, 0x02, 0x0c,
0xc6, 0x03, 0x80, 0x3a,
0x03, 0xdc, 0xcd, 0x09,
0x87, 0x61, 0xea, 0x8a,
0x4e, 0xc4, 0x0d, 0x05,
0x00, 0x96, 0x5c, 0x60,
0xef, 0x3f, 0x68, 0x83,
0xc7, 0x1e, 0x0f, 0x00,
0x40, 0xaa, 0xe4, 0x6f,
0xb7, 0x63, 0x00, 0x0a,
0x00, 0x6c, 0x18, 0xe4,
0x1e, 0x71, 0x02, 0x63,
0x82, 0x01, 0x00, 0x24,
0xce, 0x9c, 0x83, 0xd9,
0x83, 0x5d, 0x25, 0x40,
0x00, 0xb8, 0x88, 0xbf,
0x69, 0xbd, 0x9e, 0x11,
0x1e, 0x60, 0x27, 0x84,
0x37, 0x63, 0x4e, 0x1b,
0x0c, 0x40, 0x14, 0x86,
0xe3, 0x64, 0x9a, 0x06,
0x30, 0x04, 0x00, 0x72,
0x92, 0x43, 0x44, 0xb6,
0x68, 0x10, 0x04, 0xbf,
0x5d, 0x00, 0x80, 0x77,
0x2c, 0x92, 0x69, 0x11,
0x24, 0xed, 0x5e, 0x00,
0xbc, 0xbf, 0x75, 0x61,
0x10, 0xc0, 0xb8, 0xff,
0xe3, 0x1e, 0x96, 0x5b,
0xec, 0x87, 0xcc, 0xb6,
0x5f, 0x00, 0xf0, 0xf6,
0x47, 0xdc, 0xf6, 0xd6,
0xd8, 0xff, 0xd6, 0xc6,
0x7f, 0xc0, 0xf1, 0x01,
0xa0, 0x8b, 0xab, 0xff,
0xd2, 0x39, 0xd1, 0x1f,
0x7c, 0x00, 0xee, 0xdb,
0x9f, 0x0f, 0x80, 0x6d,
0x9d, 0xeb, 0xf3, 0x4b,
0xb6, 0xf7, 0x5f, 0x3f,
0xb5, 0x75, 0x38, 0x06,
0x00, 0x2c, 0xda, 0xcf,
0xc0, 0x10, 0x00, 0xc8,
0xc8, 0x68, 0x94, 0x20,
0xab, 0x8e, 0xe0, 0x67,
0xe1, 0x84, 0x2d, 0x02,
0xe0, 0x42, 0x8c, 0x10,
0x00, 0x68, 0x06, 0xa3,
0x1a, 0x22, 0x21, 0xe5,
0x00, 0x40, 0xef, 0xcd,
0xfa, 0x5f, 0x56, 0xed,
0x51, 0x9a, 0x00, 0x88,
0x08, 0x85, 0x74, 0x40,
0x5d, 0xb3, 0x09, 0x00,
0x5c, 0xd9, 0x65, 0xeb,
0xad, 0xf9, 0xd7, 0x25,
0x47, 0x5f, 0xc5, 0xb5,
0x80, 0x6b, 0x1d, 0x18,
0x00, 0x00, 0x1d, 0x74,
0x18, 0xeb, 0xf2, 0x04,
0x00, 0x00, 0x64, 0x7e,
0x14, 0x26, 0x8c, 0x62,
0x00, 0x7b, 0x00, 0x00,
0xd4, 0xd9, 0xc0, 0x75,
0x18, 0x2e, 0x02, 0x3c,
0x20, 0x00, 0xb0, 0x35,
0x8b, 0x5e, 0x2a, 0x12,
0x03, 0xb1, 0x08, 0x00,
0xde, 0x2e, 0x16, 0xf2,
0x20, 0xbd, 0xe9, 0x8a,
0xc3, 0x6d, 0x04, 0x12,
0x23, 0xd8, 0xcd, 0x71,
0x00, 0x60, 0x2b, 0xf3,
0xa6, 0x5c, 0xcf, 0xbd,
0x4e, 0x0f, 0x10, 0x77,
0xf3, 0x0d, 0x0b, 0x56,
0x90, 0x1c, 0xf6, 0xe5,
0x80, 0xfe, 0x5d, 0x9b,
0x04, 0x80, 0x1e, 0x91,
0x28, 0x36, 0x1d, 0x63,
0x7c, 0x17, 0xc0, 0xba,
0x10, 0xba, 0x7c, 0x02,
0xc0, 0x71, 0x10, 0x66,
0xc4, 0x28, 0x7b, 0x02,
0x80, 0xde, 0xe7, 0x6f,
0x97, 0xae, 0x13, 0x7b,
0x9c, 0x9b, 0x0c, 0xf4,
0x10, 0x5e, 0x5c, 0x19,
0x00, 0x7e, 0x3b, 0x54,
0x10, 0x64, 0x40, 0x6e,
0x00, 0x98, 0xca, 0xfb,
0xd5, 0xc4, 0x35, 0x6c,
0x53, 0x11, 0x1b, 0x1e,
0x2c, 0x23, 0x5a, 0x01,
0xc0, 0x47, 0x60, 0xc7,
0xfc, 0xfb, 0x58, 0x7c,
0x00, 0x78, 0xcd, 0xc9,
0xba, 0x86, 0xb0, 0x95,
0xee, 0x55, 0x59, 0x3d,
0xc7, 0xb5, 0x00, 0x80,
0x5e, 0xbd, 0xcf, 0x1e,
0x3a, 0xdf, 0x5e, 0x2f,
0x7c, 0xe2, 0x25, 0x21,
0xb8, 0x0d, 0x00, 0xda,
0xa5, 0xe5, 0x93, 0x1e,
0xb3, 0x17, 0x79, 0xcf,
0x01, 0x2d, 0x24, 0x04,
0x80, 0x8f, 0x92, 0xd5,
0x33, 0xde, 0xb3, 0x01,
0xa0, 0x0f, 0x34, 0xf5,
0x08, 0x36, 0xd5, 0x03,
0x4f, 0xd5, 0x53, 0x64,
0x7c, 0xbd, 0x0a, 0x00,
0x6b, 0x10, 0x4d, 0x10,
0x04, 0x10, 0xb1, 0x13,
0xd0, 0xed, 0xc4, 0x00,
0xd0, 0x07, 0x80, 0xb4,
0x2a, 0x0a, 0xbe, 0xc3,
0x4a, 0xe2, 0xe8, 0x2b,
0x07, 0x00, 0x7c, 0x84,
0x4f, 0xe8, 0x21, 0x82,
0x4d, 0xc3, 0xbb, 0xe5,
0x2f, 0x8d, 0xfe, 0x43,
0x21, 0xb3, 0x44, 0x55,
0x32, 0x97, 0xfe, 0xff,
0xf5, 0xff, 0x9a, 0xec,
0x9e, 0x5f, 0xeb, 0xff,
0xff, 0xff, 0xff, 0x00,
0x00, 0x59, 0x35, 0x61,
0x26, 0x00, 0xdc, 0x64,
0x0c, 0xe4, 0x5b, 0x79,
0x9d, 0x01, 0x02, 0x70,
0xc0, 0x57, 0xbb, 0xe4,
0x01, 0xb9, 0x04, 0x80,
0x37, 0x2e, 0xa0, 0x4e,
0x04, 0x82, 0x32, 0xc7,
0x1b, 0xd9, 0xdd, 0x4e,
0x2f, 0xa0, 0x23, 0xc0,
0x00, 0x90, 0x66, 0x87,
0x94, 0xe5, 0x31, 0x00,
0x6c, 0x79, 0x99, 0x0e,
0xc7, 0x9b, 0x67, 0x77,
0xae, 0xee, 0x41, 0xa5,
0x82, 0xfe, 0xf1, 0x03,
0x00, 0xaa, 0x97, 0x3e,
0x59, 0x18, 0x64, 0x38,
0x00, 0xbc, 0x2a, 0xd4,
0x3b, 0x5e, 0x16, 0x88,
0x5c, 0x6e, 0xce, 0x8b,
0x7c, 0x10, 0xc6, 0x1d,
0x00, 0x6e, 0x36, 0x7a,
0x77, 0xa0, 0x97, 0xf4,
0x67, 0xf6, 0x82, 0xd1,
0xb8, 0xd1, 0xae, 0x0e,
0x00, 0xbd, 0xff, 0x2f,
0x1f, 0x88, 0x31, 0x77,
0x00, 0xe8, 0x25, 0x31,
0xed, 0xb7, 0x20, 0xff,
0x8a, 0x21, 0xeb, 0xf6,
0x2a, 0x19, 0x00, 0xff,
0x44, 0x44, 0xc8, 0x2d,
0xbc, 0x13, 0xd3, 0x45,
0xa6, 0x84, 0x90, 0xc4,
0x03, 0x83, 0x2b, 0xc5,
0x42, 0x90, 0x99, 0xa1,
0x30, 0x00, 0xe0, 0x80,
0x88, 0xf5, 0xa2, 0x83,
0x02, 0x51, 0x00, 0xfe,
0x1f, 0x59, 0xc4, 0x10,
0x11, 0x39, 0x60, 0xef,
0x2c, 0x90, 0x5a, 0xb3,
0x08, 0xe0, 0x7f, 0x69,
0x88, 0x26, 0xbc, 0x8f,
0x95, 0xcc, 0xff, 0xef,
0xff, 0x7f, 0xb3, 0xf2,
0x20, 0x3c, 0xf0, 0xff,
0xff, 0xff, 0xff, 0x04,
0x40, 0x98, 0x9f, 0x87,
0x00, 0xf0, 0xab, 0x85,
0x49, 0x70, 0xb1, 0x4d,
0xce, 0x9f, 0xc0, 0xd7,
0x3f, 0x61, 0x07, 0x10,
0xf4, 0x8d, 0x9b, 0x8b,
0x0e, 0x39, 0x00, 0xe0,
0x0c, 0x3a, 0x75, 0xef,
0x71, 0x8f, 0x73, 0x9f,
0xb8, 0x48, 0xf6, 0xa5,
0x70, 0xb9, 0x08, 0x00,
0x76, 0x70, 0x41, 0x14,
0xc2, 0x62, 0x00, 0xf0,
0x9a, 0xab, 0x22, 0x6d,
0x09, 0xe6, 0xe6, 0x2e,
0x68, 0x7a, 0xeb, 0x6d,
0xdf, 0x96, 0x00, 0xf0,
0x2f, 0x60, 0xe8, 0x42,
0x67, 0xd2, 0xa7, 0xed,
0xd5, 0x31, 0xa1, 0x00,
0xc0, 0x67, 0xe4, 0x07,
0x56, 0x9f, 0x09, 0x00,
0xe0, 0xa5, 0x87, 0xf6,
0x1a, 0x4f, 0xb7, 0x56,
0xfe, 0x51, 0xef, 0x00,
0x8d, 0xa0, 0x1e, 0x7b,
0x00, 0xb0, 0x3e, 0x79,
0xfc, 0x9d, 0x33, 0x6f,
0x95, 0xd0, 0x08, 0xe2,
0x2e, 0x07, 0x80, 0x80,
0xe7, 0xd2, 0xf8, 0xdf,
0xe1, 0x1c, 0x0e, 0x00,
0xb4, 0x3f, 0xd1, 0x15,
0x46, 0x05, 0xe9, 0xc0,
0x00, 0xe0, 0x35, 0xe5,
0x8c, 0x5d, 0x6f, 0x5c,
0xe4, 0xfc, 0x3a, 0x28,
0xd5, 0x26, 0x10, 0x70,
0x00, 0xe0, 0x4b, 0x71,
0x2b, 0x7b, 0x3a, 0x01,
0x07, 0x00, 0x1f, 0x9d,
0x99, 0xc5, 0x55, 0x11,
0x27, 0xbc, 0xcb, 0xc3,
0xe2, 0x61, 0xdf, 0x26,
0x65, 0x00, 0xb8, 0x4b,
0xc3, 0x0d, 0x5b, 0x58,
0xdd, 0xff, 0xff, 0x6a,
0x9e, 0xa3, 0x4a, 0x7e,
0xae, 0xff, 0xff, 0x03,
0x1b, 0xf0, 0xdb, 0xff,
0xff, 0xff, 0xff, 0xff,
0x81, 0x3a, 0x1c, 0x00,
0xfc, 0xcb, 0xe1, 0x8c,
0xd4, 0xd8, 0xdc, 0x66,
0x0c, 0x00, 0x77, 0x84,
0x31, 0x01, 0x0f, 0x23,
0x58, 0x8e, 0x2e, 0x0c,
0x70, 0xe6, 0x38, 0x19,
0x02, 0x00, 0x1b, 0x90,
0x7c, 0xd3, 0x01, 0xb1,
0xc3, 0x04, 0xd0, 0x3f,
0xc0, 0x9a, 0x79, 0xb8,
0x42, 0x9b, 0xb3, 0x8f,
0xed, 0x3d, 0x40, 0xb8,
0x09, 0x00, 0xde, 0xf3,
0xef, 0xae, 0x2f, 0x4f,
0x01, 0x40, 0x0d, 0x77,
0x8e, 0xe5, 0x67, 0x4b,
0xed, 0xbb, 0x14, 0x27,
0xa0, 0x9a, 0xac, 0x11,
0x00, 0xda, 0xfc, 0x7a,
0xea, 0x19, 0xc0, 0x65,
0xcf, 0x40, 0xa6, 0x18,
0x51, 0xb5, 0x11, 0x00,
0xf8, 0x19, 0x7d, 0xb4,
0x68, 0x2a, 0xbe, 0x09,
0x00, 0xfd, 0xee, 0xa7,
0xce, 0xae, 0x7c, 0x7f,
0xad, 0x2a, 0xf1, 0x9e,
0xcc, 0x67, 0x00, 0x58,
0x17, 0xeb, 0x9c, 0x9f,
0x3d, 0xa1, 0xbf, 0xd9,
0xc2, 0x83, 0xc4, 0x05,
0x00, 0x7f, 0xc6, 0xa5,
0x7f, 0x8b, 0x1f, 0xf2,
0xe6, 0xc5, 0x2f, 0x8c,
0x14, 0xd5, 0x02, 0x00,
0x28, 0x0f, 0x88, 0xa7,
0x30, 0xb8, 0x8a, 0x13,
0x00, 0xb8, 0xe5, 0xfb,
0xaf, 0x36, 0x78, 0xec,
0x01, 0x1a, 0x00, 0xec,
0xfc, 0xb6, 0x26, 0x4f,
0xd5, 0x0d, 0xdf, 0xa2,
0x70, 0x98, 0x11, 0xee,
0xa3, 0x7a, 0x10, 0x00,
0x5c, 0xb3, 0x53, 0x50,
0xd5, 0x03, 0x32, 0xfc,
0xaf, 0xb9, 0x12, 0x61,
0x2c, 0xe1, 0xff, 0x23,
0xd3, 0x21, 0x41, 0xd9,
0x44, 0xfc, 0xff, 0xff,
0xff, 0xff, 0x7f, 0x30,
0x0f, 0x00, 0x78, 0xdf,
0xfc, 0x7e, 0x49, 0x99,
0x9a, 0x74, 0xc9, 0x0b,
0x00, 0xee, 0x37, 0x06,
0x71, 0xfc, 0xdd, 0xd4,
0x40, 0xd9, 0x67, 0xe3,
0x32, 0x00, 0xec, 0x62,
0x06, 0x34, 0xf2, 0x5b,
0xd0, 0x5f, 0xbb, 0xe3,
0x34, 0x99, 0x0c, 0x00,
0xf0, 0x17, 0xf7, 0x53,
0x80, 0x1e, 0x93, 0x03,
0x00, 0x5f, 0xac, 0x37,
0x1b, 0x93, 0xb3, 0xbd,
0xa7, 0x1b, 0x21, 0xa9,
0x78, 0xca, 0x62, 0x03,
0xc0, 0xbb, 0x69, 0x82,
0x8f, 0xcc, 0xd4, 0x7f,
0x55, 0xb7, 0x41, 0x77,
0x19, 0x05, 0x00, 0xf4,
0x95, 0xa6, 0xed, 0x13,
0xba, 0x02, 0x00, 0xf7,
0x9c, 0xe6, 0x04, 0xff,
0x8a, 0xfa, 0x53, 0xf5,
0x29, 0xed, 0xdb, 0xd0,
0x40, 0x18, 0x04, 0xd8,
0xa9, 0x19, 0xca, 0xdc,
0xbc, 0x00, 0xf0, 0x3a,
0x20, 0xbe, 0xb9, 0x92,
0x58, 0xe6, 0x35, 0xfa,
0x6f, 0x73, 0xe7, 0xc0,
0x27, 0x04, 0x80, 0x7a,
0x0d, 0xff, 0x46, 0x4c,
0x1e, 0x00, 0xb0, 0xea,
0xa2, 0x27, 0xa9, 0x94,
0x10, 0xd7, 0xc3, 0xc4,
0x55, 0x1b, 0xd5, 0xa2,
0xc0, 0x01, 0x00, 0x33,
0xc2, 0x75, 0x04, 0xef,
0xa8, 0x59, 0x00, 0xb8,
0x8f, 0xe1, 0x56, 0xfd,
0xa4, 0xf2, 0x83, 0x0c,
0x6b, 0xe9, 0xc8, 0xb8,
0x87, 0x10, 0x00, 0xdc,
0xdd, 0x0d, 0xfc, 0x50,
0x45, 0x70, 0x28, 0x07,
0xf8, 0xe7, 0x09, 0x0d,
0xe9, 0xa3, 0xb1, 0x70,
0xf3, 0xff, 0x77, 0x76,
0xa2, 0x11, 0x37, 0x94,
0xff, 0x2f, 0x66, 0x57,
0x54, 0xcf, 0xff, 0xff,
0xff, 0xff, 0x03, 0xc0,
0xf0, 0x7c, 0x2e, 0x0f,
0x00, 0xfb, 0x9b, 0x58,
0xb0, 0x7c, 0x65, 0x9e,
0xcf, 0x0e, 0x7a, 0x9b,
0xe3, 0x01, 0xc4, 0x6f,
0x8e, 0x12, 0x32, 0x88,
0x5c, 0x06, 0x00, 0xdb,
0x8b, 0x9d, 0xdc, 0x96,
0xb3, 0x5f, 0x15, 0xba,
0x89, 0x29, 0xe7, 0xe3,
0x05, 0x80, 0xdd, 0x07,
0xb2, 0x8f, 0xa3, 0xfb,
0x4d, 0x6d, 0x11, 0xe0,
0x51, 0x34, 0x9c, 0x00,
0xde, 0x7b, 0x93, 0xc3,
0xa1, 0xe4, 0x3c, 0x00,
0x98, 0x26, 0x93, 0xe8,
0x41, 0x23, 0x6b, 0xbc,
0x50, 0x43, 0xfa, 0xee,
0x1f, 0xba, 0x05, 0x80,
0xed, 0xfc, 0x28, 0xe6,
0x8b, 0xaa, 0xd9, 0x57,
0xfa, 0xdf, 0x56, 0x4a,
0x5a, 0x2c, 0x01, 0x60,
0xd7, 0xc7, 0x75, 0xad,
0xf1, 0x9b, 0x3d, 0x00,
0x74, 0x9d, 0x06, 0xc1,
0xe1, 0x37, 0x96, 0xcc,
0x8b, 0xa1, 0xf6, 0x91,
0xa3, 0x85, 0x02, 0x40,
0xcf, 0x6d, 0x1e, 0xb5,
0x9f, 0xe7, 0x28, 0x00,
0xec, 0xea, 0x55, 0xb6,
0x9c, 0xc8, 0x7f, 0xd1,
0x9d, 0x65, 0x6c, 0xca,
0x9c, 0x2c, 0x0f, 0x00,
0xf0, 0x42, 0x6a, 0x69,
0x2c, 0xfc, 0x04, 0x80,
0xab, 0xda, 0xa0, 0x41,
0xe6, 0x0a, 0x5c, 0xbc,
0xed, 0xf4, 0x84, 0xc1,
0xe5, 0x08, 0x00, 0xec,
0x61, 0xe8, 0x85, 0x1f,
0x87, 0x8c, 0x02, 0xc2,
0xb5, 0x5d, 0xe5, 0xc8,
0x97, 0x3a, 0x60, 0x78,
0xb6, 0x69, 0xd1, 0x4d,
0x3b, 0xd9, 0xfa, 0xff,
0xb3, 0x06, 0x9d, 0x68,
0x71, 0x27, 0xfc, 0xbf,
0xbf, 0x65, 0x73, 0x3d,
0xeb, 0xff, 0xff, 0xff,
0xff, 0x3f, 0x08, 0x00,
0xc8, 0xe3, 0xbb, 0x3a,
0x00, 0x70, 0x07, 0xed,
0x14, 0x69, 0x01, 0xda,
0xec, 0x99, 0x7e, 0x6c,
0x9a, 0xdb, 0x01, 0x60,
0x3d, 0x9a, 0xf8, 0xae,
0x6d, 0x23, 0xd6, 0x65,
0xf9, 0x6d, 0xbc, 0x16,
0x00, 0x34, 0xf6, 0x4c,
0x0c, 0xdd, 0x55, 0x9c,
0x7d, 0x8f, 0x1f, 0x00,
0x76, 0xb1, 0x61, 0x8e,
0xd8, 0x20, 0xbe, 0x6e,
0x5b, 0x39, 0x3c, 0xef,
0x47, 0x01, 0x40, 0x5d,
0x55, 0x36, 0x6a, 0x37,
0xc5, 0x77, 0x35, 0x15,
0x3d, 0x09, 0x52, 0x8e,
0x03, 0xc0, 0x36, 0x7e,
0xa1, 0x4f, 0xa8, 0x69,
0x06, 0x00, 0x56, 0xac,
0x43, 0x21, 0x72, 0x59,
0x2a, 0x4e, 0x17, 0xa2,
0xee, 0xfb, 0x28, 0x00,
0x40, 0x70, 0x85, 0xdf,
0xd9, 0x77, 0x97, 0x3e,
0x56, 0xda, 0x05, 0x80,
0x35, 0xa8, 0xa9, 0xc6,
0x2a, 0xec, 0x07, 0xaa,
0x9d, 0xa6, 0x58, 0xf3,
0x05, 0x80, 0xf1, 0xda,
0x09, 0x3c, 0x0a, 0x2c,
0xcc, 0xdb, 0x85, 0x01,
0x20, 0xdf, 0x12, 0x27,
0x74, 0x20, 0x33, 0x60,
0x00, 0xa8, 0x74, 0x3e,
0x4c, 0xd1, 0x16, 0x0a,
0xd9, 0x1d, 0x03, 0xfa,
0xb3, 0xdf, 0x09, 0x00,
0x00, 0x5f, 0xab, 0x32,
0xaf, 0x1f, 0x02, 0xfb,
0xb4, 0xe0, 0x10, 0x00,
0x96, 0xa8, 0x01, 0xe2,
0x28, 0x61, 0x00, 0x00,
0x40, 0x15, 0xaa, 0x98,
0xe1, 0x1f, 0x3f, 0xf6,
0x00, 0x00, 0x05, 0x00,
0xfe, 0x01, 0x1a, 0xfe, };

static inline const int8_t* GetWEIGHTS_AND_BIASES_REGIONfc_lif_layer_2Pointer()
{
	return WEIGHTS_AND_BIASES_REGION_fc_lif_layer_2;
}


static inline const size_t GetWEIGHTS_AND_BIASES_REGIONfc_lif_layer_2Len()
{
	return sizeof(WEIGHTS_AND_BIASES_REGION_fc_lif_layer_2);
}


static int8_t SRAM_SCRATCH_REGION_fc_lif_layer_2 [186] __attribute__((section("model_params_sram1"))) __attribute__((aligned(16)));

static inline int8_t* GetSRAM_SCRATCH_REGIONfc_lif_layer_2Pointer()
{
	return SRAM_SCRATCH_REGION_fc_lif_layer_2;
}


static inline const size_t GetSRAM_SCRATCH_REGIONfc_lif_layer_2Len()
{
	return sizeof(SRAM_SCRATCH_REGION_fc_lif_layer_2);
}


static int8_t SRAM_FAST_SCRATCH_REGION_fc_lif_layer_2 [0] __attribute__((section("model_params_sram1"))) __attribute__((aligned(16)));

static inline int8_t* GetSRAM_FAST_SCRATCH_REGIONfc_lif_layer_2Pointer()
{
	return SRAM_FAST_SCRATCH_REGION_fc_lif_layer_2;
}


static inline const size_t GetSRAM_FAST_SCRATCH_REGIONfc_lif_layer_2Len()
{
	return sizeof(SRAM_FAST_SCRATCH_REGION_fc_lif_layer_2);
}


static const int8_t PARAMS_REGIONS_fc_lif_layer_2[] __attribute__((aligned(16))) =
{

// ln(beta)_quant
0, 0, 0, 0, 0, 0, 0, 0, 0, 
0, 0, 0, 0, 0, 0, 0, 0, 
0, 0, 0, 0, 0, 0, 0, 0, 
0, 0, 0, 0, 0, 0, 0, 0, 
0, 0, 0, 0, 0, 0, 0, 0, 
0, 0, 0, 0, 0, 0, 0, 0, 
0, 0, 0, 0, 0, 0, 0, 
// vth_quant
0, 0, 0, 0, 0, 0, 0, 0, 0, 
0, 0, 0, 0, 0, 0, 0, 0, 
0, 0, 0, 0, 0, 0, 0, 0, 
0, 0, 0, 0, 0, 0, 0, 0, 
0, 0, 0, 0, 0, 0, 0, 0, 
0, 0, 0, 0, 0, 0, 0, 0, 
0, 0, 0, 0, 0, 0, 0, };

static inline const int8_t* GetPARAMS_REGIONSfc_lif_layer_2Pointer()
{
	return PARAMS_REGIONS_fc_lif_layer_2;
}


static inline const size_t GetPARAMS_REGIONSfc_lif_layer_2Len()
{
	return sizeof(PARAMS_REGIONS_fc_lif_layer_2);
}


static const int8_t LUT_REGION_fc_lif_layer_2[] __attribute__((aligned(16))) =
{

//lut index 0
-29, 
-29, -28, -28, -28, -27, -27, -27, -26, 
-26, -25, -25, -24, -24, -24, -23, -23, 
-22, -22, -22, -21, -21, -20, -20, -20, 
-19, -19, -18, -18, -17, -17, -16, -16, 
-16, -15, -15, -14, -14, -13, -13, -12, 
-12, -12, -11, -11, -10, -10, -9, -9, 
-8, -8, -7, -7, -6, -6, -5, -5, 
-5, -4, -4, -3, -3, -2, -2, -1, 
-1, 0, 0, 1, 1, 2, 2, 3, 
3, 4, 5, 5, 6, 6, 7, 7, 
8, 8, 9, 9, 10, 10, 11, 11, 
12, 13, 13, 14, 14, 15, 15, 16, 
16, 17, 18, 18, 19, 19, 20, 20, 
21, 22, 22, 23, 23, 24, 25, 25, 
26, 26, 27, 28, 28, 29, 29, 30, 
31, 31, 32, 33, 33, 34, 34, 35, 
36, 36, 37, 38, 38, 39, 40, 40, 
41, 42, 42, 43, 44, 44, 45, 46, 
46, 47, 48, 48, 49, 50, 51, 51, 
52, 53, 53, 54, 55, 55, 56, 57, 
58, 58, 59, 60, 61, 61, 62, 63, 
64, 64, 65, 66, 67, 67, 68, 69, 
70, 70, 71, 72, 73, 74, 74, 75, 
76, 77, 78, 78, 79, 80, 81, 82, 
82, 83, 84, 85, 86, 87, 87, 88, 
89, 90, 91, 92, 93, 93, 94, 95, 
96, 97, 98, 99, 100, 101, 101, 102, 
103, 104, 105, 106, 107, 108, 109, 110, 
111, 112, 113, 113, 114, 115, 116, 117, 
118, 119, 120, 121, 122, 123, 124, 125, 
126, 127, 127, 127, 127, 127, 127, 127, 
127, 127, 127, 127, 127, 127, 127, 
//lut index 1
0, 
0, 0, 0, 0, 0, 0, 0, 0, 
0, 0, 0, 0, 0, 0, 0, 0, 
0, 0, 0, 0, 0, 0, 0, 0, 
0, 0, 0, 0, 0, 0, 0, 0, 
0, 0, 0, 0, 0, 0, 0, 0, 
0, 0, 0, 0, 0, 0, 0, 0, 
0, 0, 0, 0, 0, 0, 0, 0, 
0, 0, 0, 0, 0, 0, 0, 0, 
0, 0, 0, 0, 0, 0, 0, 0, 
0, 0, 0, 0, 0, 0, 0, 0, 
0, 0, 0, 0, 0, 0, 0, 0, 
0, 0, 0, 0, 0, 0, 0, 0, 
0, 0, 0, 0, 0, 0, 0, 0, 
0, 0, 0, 0, 0, 0, 0, 0, 
0, 0, 0, 0, 0, 0, 0, 0, 
0, 0, 0, 0, 0, 0, 0, 0, 
1, 1, 1, 1, 1, 1, 1, 1, 
1, 1, 1, 1, 1, 1, 1, 1, 
1, 1, 1, 1, 1, 1, 1, 1, 
1, 1, 1, 1, 1, 1, 1, 1, 
1, 1, 1, 1, 1, 1, 1, 1, 
1, 1, 1, 1, 1, 1, 1, 1, 
1, 1, 1, 1, 1, 1, 1, 1, 
1, 1, 1, 1, 1, 1, 1, 1, 
1, 1, 1, 1, 1, 1, 1, 1, 
1, 1, 1, 1, 1, 1, 1, 1, 
1, 1, 1, 1, 1, 1, 1, 1, 
1, 1, 1, 1, 1, 1, 1, 1, 
1, 1, 1, 1, 1, 1, 1, 1, 
1, 1, 1, 1, 1, 1, 1, 1, 
1, 1, 1, 1, 1, 1, 1, 1, 
1, 1, 1, 1, 1, 1, 1, 
};

static inline const int8_t* GetLUT_REGIONfc_lif_layer_2Pointer()
{
	return LUT_REGION_fc_lif_layer_2;
}


static inline const size_t GetLUT_REGIONfc_lif_layer_2Len()
{
	return sizeof(LUT_REGION_fc_lif_layer_2);
}


static int8_t OUTPUT_REGION_fc_lif_layer_2 [56] __attribute__((section("model_params_sram1"))) __attribute__((aligned(16)));

static inline int8_t* GetOUTPUT_REGIONfc_lif_layer_2Pointer()
{
	return OUTPUT_REGION_fc_lif_layer_2;
}


static inline const size_t GetOUTPUT_REGIONfc_lif_layer_2Len()
{
	return sizeof(OUTPUT_REGION_fc_lif_layer_2);
}


char* name_fc_lif_layer_2 [15] =
{
	"TIME_NOT_UPDATED",
	"IN_SPK",
	"LN_BETA",
	"BIAS",
	"OUT_SPK",
	"WEIGHT",
	"v_mem_sub_vth",
	"DECAY",
	"DECAY_ACC",
	"UPDATE_NXT_LAYER",
	"V_MEM",
	"VTH",
	"RESET",
	"IN_CURR",
	"DECAYED_MEM",
};

size_t relative_addr_fc_lif_layer_2 [15] =
{
	184,
	0,
	0,
	0,
	0,
	560,
	0,
	0,
	0,
	185,
	128,
	56,
	64,
	64,
	0,
};

size_t region_fc_lif_layer_2 [15] =
{
	1,
	5,
	3,
	0,
	6,
	0,
	6,
	1,
	1,
	1,
	1,
	3,
	1,
	1,
	1,
};

size_t size_fc_lif_layer_2 [15] =
{
	1,
	56,
	56,
	560,
	56,
	3248,
	56,
	56,
	56,
	1,
	56,
	56,
	56,
	56,
	56,
};

float scale_fc_lif_layer_2 [15] =
{
	0.06274509803921569,
	1.0,
	0.0007843137254901962,
	0.003991417323841768,
	1.0,
	0.010643727171654795,
	0.00784313725490196,
	0.0037254901960784314,
	0.00392156862745098,
	0.00392156862745098,
	0.058823529411764705,
	0.0007843137254901964,
	0.004313725490196079,
	0.07058823529411765,
	0.043137254901960784,
};

int zero_point_fc_lif_layer_2 [15] =
{
	-128,
	0,
	65,
	0,
	0,
	0,
	0,
	-128,
	127,
	-128,
	-26,
	-1275,
	-128,
	0,
	-35,
};

static inline char** Getnamefc_lif_layer_2Pointer()
{
	return name_fc_lif_layer_2;
}


static inline size_t* Getrelative_addrfc_lif_layer_2Pointer()
{
	return relative_addr_fc_lif_layer_2;
}


static inline size_t* Getregionfc_lif_layer_2Pointer()
{
	return region_fc_lif_layer_2;
}


static inline size_t* Getsizefc_lif_layer_2Pointer()
{
	return size_fc_lif_layer_2;
}


static inline float* Getscalefc_lif_layer_2Pointer()
{
	return scale_fc_lif_layer_2;
}


static inline int* Getzero_pointfc_lif_layer_2Pointer()
{
	return zero_point_fc_lif_layer_2;
}

/*
Register Command Stream:
+---------------------------+-----------+-------------------------+
| Command Name              | Parameter | Payload Data            |
+---------------------------+-----------+-------------------------+
| NPU_SET_DMA0_SRC_REGION   | 4         | -                       |
| NPU_SET_DMA0_SRC          | 0         | 0x00000000 (0)          |
| NPU_SET_DMA0_DST_REGION   | 259       | -                       |
| NPU_SET_DMA0_DST          | 0         | 0x0000b800 (47104)      |
| NPU_SET_DMA0_LEN          | 0         | 0x00000100 (256)        |
| NPU_OP_DMA_START          | 0         | -                       |
| NPU_SET_OFM_SCALE         | 37        | 0x66cd339a (1724724122) |
| NPU_SET_IFM_REGION        | 3         | -                       |
| NPU_SET_IFM_BASE0         | 0         | 0x00000000 (0)          |
| NPU_SET_IFM_BASE1         | 0         | 0x00000000 (0)          |
| NPU_SET_IFM_BASE2         | 0         | 0x00000000 (0)          |
| NPU_SET_IFM_BASE3         | 0         | 0x00000000 (0)          |
| NPU_SET_IFM_HEIGHT0_M1    | 0         | -                       |
| NPU_SET_IFM_HEIGHT1_M1    | 65535     | -                       |
| NPU_SET_IFM_WIDTH0_M1     | 0         | -                       |
| NPU_SET_IFM_DEPTH_M1      | 55        | -                       |
| NPU_SET_IFM_STRIDE_C      | 0         | 0x00000001 (1)          |
| NPU_SET_IFM_STRIDE_Y      | 0         | 0x00000038 (56)         |
| NPU_SET_IFM_STRIDE_X      | 0         | 0x00000038 (56)         |
| NPU_SET_IFM_ZERO_POINT    | 65        | -                       |
| NPU_SET_IFM_PRECISION     | 1         | -                       |
| NPU_SET_IFM_UPSCALE       | 0         | -                       |
| NPU_SET_OFM_REGION        | 1         | -                       |
| NPU_SET_OFM_BASE0         | 0         | 0x00000000 (0)          |
| NPU_SET_OFM_BASE1         | 0         | 0x00000000 (0)          |
| NPU_SET_OFM_BASE2         | 0         | 0x00000000 (0)          |
| NPU_SET_OFM_BASE3         | 0         | 0x00000000 (0)          |
| NPU_SET_OFM_HEIGHT0_M1    | 0         | -                       |
| NPU_SET_OFM_HEIGHT1_M1    | 65535     | -                       |
| NPU_SET_OFM_WIDTH0_M1     | 0         | -                       |
| NPU_SET_OFM_HEIGHT_M1     | 0         | -                       |
| NPU_SET_OFM_WIDTH_M1      | 0         | -                       |
| NPU_SET_OFM_DEPTH_M1      | 55        | -                       |
| NPU_SET_OFM_STRIDE_C      | 0         | 0x00000010 (16)         |
| NPU_SET_OFM_STRIDE_Y      | 0         | 0x00000040 (64)         |
| NPU_SET_OFM_STRIDE_X      | 0         | 0x00000010 (16)         |
| NPU_SET_OFM_ZERO_POINT    | 127       | -                       |
| NPU_SET_OFM_PRECISION     | 321       | -                       |
| NPU_SET_ACTIVATION        | 16        | -                       |
| NPU_SET_ACTIVATION_MIN    | 65408     | -                       |
| NPU_SET_ACTIVATION_MAX    | 127       | -                       |
| NPU_SET_OFM_BLK_HEIGHT_M1 | 1         | -                       |
| NPU_SET_OFM_BLK_WIDTH_M1  | 1         | -                       |
| NPU_SET_OFM_BLK_DEPTH_M1  | 55        | -                       |
| NPU_SET_IFM_IB_END        | 46        | -                       |
| NPU_SET_AB_START          | 46        | -                       |
| NPU_SET_IFM2_IB_START     | 10        | -                       |
| NPU_SET_ACC_FORMAT        | 0         | -                       |
| NPU_SET_IFM2_REGION       | 1         | -                       |
| NPU_SET_IFM2_BASE0        | 0         | 0x000000b8 (184)        |
| NPU_SET_IFM2_BASE1        | 0         | 0x00000000 (0)          |
| NPU_SET_IFM2_BASE2        | 0         | 0x00000000 (0)          |
| NPU_SET_IFM2_BASE3        | 0         | 0x00000000 (0)          |
| NPU_SET_IFM2_HEIGHT0_M1   | 0         | -                       |
| NPU_SET_IFM2_HEIGHT1_M1   | 65535     | -                       |
| NPU_SET_IFM2_WIDTH0_M1    | 0         | -                       |
| NPU_SET_IFM2_STRIDE_C     | 0         | 0x00000001 (1)          |
| NPU_SET_IFM2_STRIDE_Y     | 0         | 0x00000001 (1)          |
| NPU_SET_IFM2_STRIDE_X     | 0         | 0x00000001 (1)          |
| NPU_SET_IFM2_ZERO_POINT   | 65408     | -                       |
| NPU_SET_IFM_PRECISION     | 1         | -                       |
| NPU_SET_IFM2_BROADCAST    | 4         | -                       |
| NPU_SET_BLOCKDEP          | 0         | -                       |
| NPU_OP_DMA_WAIT           | 0         | -                       |
| NPU_OP_ELEMENTWISE        | 0         | -                       |
| NPU_SET_IFM_REGION        | 5         | -                       |
| NPU_SET_IFM_ZERO_POINT    | 0         | -                       |
| NPU_SET_IFM_PAD_TOP       | 0         | -                       |
| NPU_SET_IFM_PAD_LEFT      | 0         | -                       |
| NPU_SET_IFM_PAD_BOTTOM    | 0         | -                       |
| NPU_SET_IFM_PAD_RIGHT     | 0         | -                       |
| NPU_SET_OFM_BASE0         | 0         | 0x00000040 (64)         |
| NPU_SET_OFM_ZERO_POINT    | 0         | -                       |
| NPU_SET_OFM_PRECISION     | 65        | -                       |
| NPU_SET_KERNEL_HEIGHT_M1  | 0         | -                       |
| NPU_SET_KERNEL_WIDTH_M1   | 0         | -                       |
| NPU_SET_KERNEL_STRIDE     | 0         | -                       |
| NPU_SET_WEIGHT_REGION     | 0         | -                       |
| NPU_SET_WEIGHT_BASE       | 0         | 0x00000230 (560)        |
| NPU_SET_WEIGHT_LENGTH     | 0         | 0x00000cb0 (3248)       |
| NPU_SET_SCALE_REGION      | 0         | -                       |
| NPU_SET_SCALE_BASE        | 0         | 0x00000000 (0)          |
| NPU_SET_SCALE_LENGTH      | 0         | 0x00000230 (560)        |
| NPU_SET_ACTIVATION        | 0         | -                       |
| NPU_SET_IFM_IB_END        | 10        | -                       |
| NPU_SET_AB_START          | 30        | -                       |
| NPU_SET_BLOCKDEP          | 3         | -                       |
| NPU_OP_CONV               | 0         | -                       |
| NPU_SET_OFM_SCALE         | 38        | 0x533bf625 (1396438565) |
| NPU_SET_IFM_REGION        | 1         | -                       |
| NPU_SET_IFM_BASE0         | 0         | 0x00000080 (128)        |
| NPU_SET_IFM_ZERO_POINT    | 65510     | -                       |
| NPU_SET_OFM_BASE0         | 0         | 0x00000000 (0)          |
| NPU_SET_OFM_ZERO_POINT    | 65501     | -                       |
| NPU_SET_OFM_PRECISION     | 321       | -                       |
| NPU_SET_IFM_IB_END        | 46        | -                       |
| NPU_SET_AB_START          | 46        | -                       |
| NPU_SET_IFM2_BASE0        | 0         | 0x00000000 (0)          |
| NPU_SET_IFM2_STRIDE_C     | 0         | 0x00000010 (16)         |
| NPU_SET_IFM2_STRIDE_Y     | 0         | 0x00000040 (64)         |
| NPU_SET_IFM2_STRIDE_X     | 0         | 0x00000010 (16)         |
| NPU_SET_IFM_PRECISION     | 65        | -                       |
| NPU_SET_IFM2_BROADCAST    | 0         | -                       |
| NPU_OP_ELEMENTWISE        | 0         | -                       |
| NPU_SET_OPA_SCALE         | 12        | 0x4e38e38e (1312351118) |
| NPU_SET_OPB_SCALE         | 0         | 0x00000000 (0)          |
| NPU_SET_OFM_SCALE         | 49        | 0x4ccccccd (1288490189) |
| NPU_SET_IFM_BASE0         | 0         | 0x00000000 (0)          |
| NPU_SET_IFM_STRIDE_C      | 0         | 0x00000010 (16)         |
| NPU_SET_IFM_STRIDE_Y      | 0         | 0x00000040 (64)         |
| NPU_SET_IFM_STRIDE_X      | 0         | 0x00000010 (16)         |
| NPU_SET_IFM_ZERO_POINT    | 65501     | -                       |
| NPU_SET_IFM_PRECISION     | 321       | -                       |
| NPU_SET_OFM_BASE0         | 0         | 0x00000080 (128)        |
| NPU_SET_OFM_STRIDE_C      | 0         | 0x00000001 (1)          |
| NPU_SET_OFM_STRIDE_Y      | 0         | 0x00000038 (56)         |
| NPU_SET_OFM_STRIDE_X      | 0         | 0x00000038 (56)         |
| NPU_SET_OFM_ZERO_POINT    | 65510     | -                       |
| NPU_SET_OFM_PRECISION     | 257       | -                       |
| NPU_SET_IFM2_BASE0        | 0         | 0x00000040 (64)         |
| NPU_SET_IFM2_ZERO_POINT   | 0         | -                       |
| NPU_SET_BLOCKDEP          | 0         | -                       |
| NPU_OP_ELEMENTWISE        | 1         | -                       |
| NPU_SET_DMA0_SRC          | 0         | 0x00000100 (256)        |
| NPU_SET_DMA0_DST          | 0         | 0x0000b900 (47360)      |
| NPU_OP_DMA_START          | 0         | -                       |
| NPU_SET_OPA_SCALE         | 18        | 0x6d3a06d4 (1832519380) |
| NPU_SET_OFM_SCALE         | 47        | 0x78000000 (2013265920) |
| NPU_SET_IFM_BASE0         | 0         | 0x00000080 (128)        |
| NPU_SET_IFM_STRIDE_C      | 0         | 0x00000001 (1)          |
| NPU_SET_IFM_STRIDE_Y      | 0         | 0x00000038 (56)         |
| NPU_SET_IFM_STRIDE_X      | 0         | 0x00000038 (56)         |
| NPU_SET_IFM_ZERO_POINT    | 65510     | -                       |
| NPU_SET_IFM_PRECISION     | 513       | -                       |
| NPU_SET_OFM_REGION        | 6         | -                       |
| NPU_SET_OFM_BASE0         | 0         | 0x00000000 (0)          |
| NPU_SET_OFM_ZERO_POINT    | 0         | -                       |
| NPU_SET_ACTIVATION        | 17        | -                       |
| NPU_SET_IFM2_REGION       | 3         | -                       |
| NPU_SET_IFM2_BASE0        | 0         | 0x00000038 (56)         |
| NPU_SET_IFM2_STRIDE_C     | 0         | 0x00000001 (1)          |
| NPU_SET_IFM2_STRIDE_Y     | 0         | 0x00000038 (56)         |
| NPU_SET_IFM2_STRIDE_X     | 0         | 0x00000038 (56)         |
| NPU_SET_IFM2_ZERO_POINT   | 64261     | -                       |
| NPU_SET_IFM_PRECISION     | 1         | -                       |
| NPU_OP_DMA_WAIT           | 0         | -                       |
| NPU_OP_ELEMENTWISE        | 2         | -                       |
| NPU_SET_OFM_SCALE         | 33        | 0x5d1745d1 (1561806289) |
| NPU_SET_IFM_REGION        | 3         | -                       |
| NPU_SET_IFM_BASE0         | 0         | 0x00000038 (56)         |
| NPU_SET_IFM_ZERO_POINT    | 64261     | -                       |
| NPU_SET_IFM_PRECISION     | 1         | -                       |
| NPU_SET_OFM_REGION        | 1         | -                       |
| NPU_SET_OFM_BASE0         | 0         | 0x00000040 (64)         |
| NPU_SET_OFM_STRIDE_C      | 0         | 0x00000010 (16)         |
| NPU_SET_OFM_STRIDE_Y      | 0         | 0x00000040 (64)         |
| NPU_SET_OFM_STRIDE_X      | 0         | 0x00000010 (16)         |
| NPU_SET_OFM_ZERO_POINT    | 65408     | -                       |
| NPU_SET_OFM_PRECISION     | 321       | -                       |
| NPU_SET_ACTIVATION        | 0         | -                       |
| NPU_SET_IFM2_REGION       | 6         | -                       |
| NPU_SET_IFM2_BASE0        | 0         | 0x00000000 (0)          |
| NPU_SET_IFM2_ZERO_POINT   | 0         | -                       |
| NPU_OP_ELEMENTWISE        | 0         | -                       |
| NPU_SET_OPA_SCALE         | 15        | 0x4b17e4b1 (1259857073) |
| NPU_SET_OFM_SCALE         | 49        | 0x40000000 (1073741824) |
| NPU_SET_IFM_REGION        | 1         | -                       |
| NPU_SET_IFM_BASE0         | 0         | 0x00000080 (128)        |
| NPU_SET_IFM_ZERO_POINT    | 65510     | -                       |
| NPU_SET_IFM_PRECISION     | 513       | -                       |
| NPU_SET_OFM_BASE0         | 0         | 0x00000080 (128)        |
| NPU_SET_OFM_STRIDE_C      | 0         | 0x00000001 (1)          |
| NPU_SET_OFM_STRIDE_Y      | 0         | 0x00000038 (56)         |
| NPU_SET_OFM_STRIDE_X      | 0         | 0x00000038 (56)         |
| NPU_SET_OFM_ZERO_POINT    | 65510     | -                       |
| NPU_SET_OFM_PRECISION     | 257       | -                       |
| NPU_SET_IFM2_REGION       | 1         | -                       |
| NPU_SET_IFM2_BASE0        | 0         | 0x00000040 (64)         |
| NPU_SET_IFM2_STRIDE_C     | 0         | 0x00000010 (16)         |
| NPU_SET_IFM2_STRIDE_Y     | 0         | 0x00000040 (64)         |
| NPU_SET_IFM2_STRIDE_X     | 0         | 0x00000010 (16)         |
| NPU_SET_IFM2_ZERO_POINT   | 65408     | -                       |
| NPU_SET_IFM_PRECISION     | 65        | -                       |
| NPU_OP_ELEMENTWISE        | 2         | -                       |
| NPU_SET_IFM_REGION        | 6         | -                       |
| NPU_SET_IFM_BASE0         | 0         | 0x00000000 (0)          |
| NPU_SET_IFM_ZERO_POINT    | 0         | -                       |
| NPU_SET_IFM_PRECISION     | 1         | -                       |
| NPU_SET_OFM_BASE0         | 0         | 0x000000b9 (185)        |
| NPU_SET_OFM_DEPTH_M1      | 0         | -                       |
| NPU_SET_OFM_STRIDE_Y      | 0         | 0x00000001 (1)          |
| NPU_SET_OFM_STRIDE_X      | 0         | 0x00000001 (1)          |
| NPU_SET_OFM_ZERO_POINT    | 65408     | -                       |
| NPU_SET_OFM_BLK_DEPTH_M1  | 7         | -                       |
| NPU_SET_IFM_IB_END        | 10        | -                       |
| NPU_SET_AB_START          | 30        | -                       |
| NPU_SET_OFM_SCALE         | 22        | 0x3fc000ff (1069547775) |
| NPU_SET_BLOCKDEP          | 3         | -                       |
| NPU_OP_POOL               | 2         | -                       |
| NPU_SET_OFM_SCALE         | 30        | 0x40000000 (1073741824) |
| NPU_SET_IFM_REGION        | 1         | -                       |
| NPU_SET_IFM_BASE0         | 0         | 0x000000b8 (184)        |
| NPU_SET_IFM_DEPTH_M1      | 0         | -                       |
| NPU_SET_IFM_STRIDE_Y      | 0         | 0x00000001 (1)          |
| NPU_SET_IFM_STRIDE_X      | 0         | 0x00000001 (1)          |
| NPU_SET_IFM_ZERO_POINT    | 65408     | -                       |
| NPU_SET_OFM_BASE0         | 0         | 0x000000b8 (184)        |
| NPU_SET_IFM_IB_END        | 46        | -                       |
| NPU_SET_AB_START          | 46        | -                       |
| NPU_SET_IFM2_ZERO_POINT   | 0         | -                       |
| NPU_SET_IFM_PRECISION     | 0         | -                       |
| NPU_SET_IFM2_BROADCAST    | 128       | -                       |
| NPU_SET_IFM2_SCALAR       | 0         | -                       |
| NPU_OP_ELEMENTWISE        | 0         | -                       |
| NPU_OP_STOP               | 65535     | -                       |
+---------------------------+-----------+-------------------------+
*/
