#pragma once
#include <stddef.h>
#include <stdint.h>




// Tensor sizes

#define FC_LIF_LAYER_2_IS_LAST_LAYER 0
#define FC_LIF_LAYER_2_MAX_NUM_TENSORS_TO_TRACK 8
#define FC_LIF_LAYER_2_TENSOR_ARENA_SIZE  208
#define FC_LIF_LAYER_2_INPUT_LAYER_SIZE  64
#define FC_LIF_LAYER_2_OUTPUT_LAYER_SIZE  64
#define FC_LIF_LAYER_2_WEIGHT_LEN 3248
#define FC_LIF_LAYER_2_BIAS_LEN 640

// Input/output addresses (Relative Addressing)

#define FC_LIF_LAYER_2_IN_SPK_ADDR 0
#define FC_LIF_LAYER_2_BIAS_ADDR 0
#define FC_LIF_LAYER_2_WEIGHT_ADDR 640
#define FC_LIF_LAYER_2_LN_BETA_ADDR 0
#define FC_LIF_LAYER_2_VTH_ADDR 64
#define FC_LIF_LAYER_2_V_MEM_ADDR 128
#define FC_LIF_LAYER_2_TIME_NOT_UPDATED_ADDR 192
#define FC_LIF_LAYER_2_IN_CURR_ADDR 64
#define FC_LIF_LAYER_2_DECAY_ADDR 0
#define FC_LIF_LAYER_2_DECAYED_MEM_ADDR 0
#define FC_LIF_LAYER_2_UPDATE_NXT_LAYER_ADDR 193
#define FC_LIF_LAYER_2_OUT_SPK_ADDR 0
#define FC_LIF_LAYER_2_OUT_SPK_SUM_ADDR -1

//Quantization Params

#define FC_LIF_LAYER_2_IN_SPK_SCALE 1.0
#define FC_LIF_LAYER_2_IN_SPK_ZERO_POINT 0
#define FC_LIF_LAYER_2_BIAS_SCALE 0.01142804089714499
#define FC_LIF_LAYER_2_BIAS_ZERO_POINT 0
#define FC_LIF_LAYER_2_WEIGHT_SCALE 0.01142804089714499
#define FC_LIF_LAYER_2_WEIGHT_ZERO_POINT 0
#define FC_LIF_LAYER_2_LN_BETA_SCALE 0.0007843137254901962
#define FC_LIF_LAYER_2_LN_BETA_ZERO_POINT 65
#define FC_LIF_LAYER_2_VTH_SCALE 0.0007843137254901964
#define FC_LIF_LAYER_2_VTH_ZERO_POINT -1275
#define FC_LIF_LAYER_2_V_MEM_SCALE 0.058823529411764705
#define FC_LIF_LAYER_2_V_MEM_ZERO_POINT -26
#define FC_LIF_LAYER_2_TIME_NOT_UPDATED_SCALE 0.06274509803921569
#define FC_LIF_LAYER_2_TIME_NOT_UPDATED_ZERO_POINT -128
#define FC_LIF_LAYER_2_DECAY_SCALE 0.0037254901960784314
#define FC_LIF_LAYER_2_DECAY_ZERO_POINT -128
#define FC_LIF_LAYER_2_IN_CURR_SCALE 0.07058823529411765
#define FC_LIF_LAYER_2_IN_CURR_ZERO_POINT 0
#define FC_LIF_LAYER_2_DECAYED_MEM_SCALE 0.043137254901960784
#define FC_LIF_LAYER_2_DECAYED_MEM_ZERO_POINT -35
#define FC_LIF_LAYER_2_UPDATE_NXT_LAYER_SCALE 0.00392156862745098
#define FC_LIF_LAYER_2_UPDATE_NXT_LAYER_ZERO_POINT -128
#define FC_LIF_LAYER_2_OUT_SPK_SCALE 1.0
#define FC_LIF_LAYER_2_OUT_SPK_ZERO_POINT 0
#define FC_LIF_LAYER_2_OUT_SPK_SUM_SCALE 0
#define FC_LIF_LAYER_2_OUT_SPK_SUM_ZERO_POINT 0











static const uint8_t cms_fc_lif_layer_2[] __attribute__((aligned(16))) = 
{

0x43, 0x4f, 0x50, 0x31,
0x01, 0x00, 0x10, 0x00,
0x08, 0x30, 0x00, 0x00,
0x00, 0x00, 0x06, 0x10,
0x05, 0x00, 0x00, 0x00,
0x05, 0x00, 0x00, 0x00,
0x05, 0x00, 0x00, 0x00,
0x02, 0x00, 0x2a, 0x01,
0x30, 0x01, 0x04, 0x00,
0x30, 0x40, 0x00, 0x00,
0x00, 0x00, 0x00, 0x00,
0x31, 0x01, 0x03, 0x01,
0x31, 0x40, 0x00, 0x00,
0x00, 0xb8, 0x00, 0x00,
0x32, 0x40, 0x00, 0x00,
0x00, 0x01, 0x00, 0x00,
0x10, 0x00, 0x00, 0x00,
0x24, 0x40, 0x25, 0x00,
0x80, 0x33, 0xcd, 0x66,
0x0f, 0x01, 0x03, 0x00,
0x00, 0x40, 0x00, 0x00,
0x00, 0x00, 0x00, 0x00,
0x01, 0x40, 0x00, 0x00,
0x00, 0x00, 0x00, 0x00,
0x02, 0x40, 0x00, 0x00,
0x00, 0x00, 0x00, 0x00,
0x03, 0x40, 0x00, 0x00,
0x00, 0x00, 0x00, 0x00,
0x0b, 0x01, 0x00, 0x00,
0x0c, 0x01, 0xff, 0xff,
0x0a, 0x01, 0x00, 0x00,
0x04, 0x01, 0x3f, 0x00,
0x06, 0x40, 0x00, 0x00,
0x01, 0x00, 0x00, 0x00,
0x05, 0x40, 0x00, 0x00,
0x40, 0x00, 0x00, 0x00,
0x04, 0x40, 0x00, 0x00,
0x40, 0x00, 0x00, 0x00,
0x09, 0x01, 0x41, 0x00,
0x05, 0x01, 0x01, 0x00,
0x07, 0x01, 0x00, 0x00,
0x1f, 0x01, 0x01, 0x00,
0x10, 0x40, 0x00, 0x00,
0x00, 0x00, 0x00, 0x00,
0x11, 0x40, 0x00, 0x00,
0x00, 0x00, 0x00, 0x00,
0x12, 0x40, 0x00, 0x00,
0x00, 0x00, 0x00, 0x00,
0x13, 0x40, 0x00, 0x00,
0x00, 0x00, 0x00, 0x00,
0x1b, 0x01, 0x00, 0x00,
0x1c, 0x01, 0xff, 0xff,
0x1a, 0x01, 0x00, 0x00,
0x12, 0x01, 0x00, 0x00,
0x11, 0x01, 0x00, 0x00,
0x13, 0x01, 0x3f, 0x00,
0x16, 0x40, 0x00, 0x00,
0x10, 0x00, 0x00, 0x00,
0x15, 0x40, 0x00, 0x00,
0x40, 0x00, 0x00, 0x00,
0x14, 0x40, 0x00, 0x00,
0x10, 0x00, 0x00, 0x00,
0x18, 0x01, 0x7f, 0x00,
0x14, 0x01, 0x41, 0x01,
0x25, 0x01, 0x10, 0x00,
0x26, 0x01, 0x80, 0xff,
0x27, 0x01, 0x7f, 0x00,
0x16, 0x01, 0x01, 0x00,
0x15, 0x01, 0x01, 0x00,
0x17, 0x01, 0x3f, 0x00,
0x0d, 0x01, 0x2e, 0x00,
0x2d, 0x01, 0x2e, 0x00,
0x8d, 0x01, 0x0a, 0x00,
0x24, 0x01, 0x00, 0x00,
0x8f, 0x01, 0x01, 0x00,
0x80, 0x40, 0x00, 0x00,
0xc0, 0x00, 0x00, 0x00,
0x81, 0x40, 0x00, 0x00,
0x00, 0x00, 0x00, 0x00,
0x82, 0x40, 0x00, 0x00,
0x00, 0x00, 0x00, 0x00,
0x83, 0x40, 0x00, 0x00,
0x00, 0x00, 0x00, 0x00,
0x8b, 0x01, 0x00, 0x00,
0x8c, 0x01, 0xff, 0xff,
0x8a, 0x01, 0x00, 0x00,
0x86, 0x40, 0x00, 0x00,
0x01, 0x00, 0x00, 0x00,
0x85, 0x40, 0x00, 0x00,
0x01, 0x00, 0x00, 0x00,
0x84, 0x40, 0x00, 0x00,
0x01, 0x00, 0x00, 0x00,
0x89, 0x01, 0x80, 0xff,
0x85, 0x01, 0x01, 0x00,
0x80, 0x01, 0x04, 0x00,
0x2f, 0x01, 0x00, 0x00,
0x11, 0x00, 0x00, 0x00,
0x06, 0x00, 0x00, 0x00,
0x0f, 0x01, 0x05, 0x00,
0x09, 0x01, 0x00, 0x00,
0x00, 0x01, 0x00, 0x00,
0x01, 0x01, 0x00, 0x00,
0x03, 0x01, 0x00, 0x00,
0x02, 0x01, 0x00, 0x00,
0x10, 0x40, 0x00, 0x00,
0x40, 0x00, 0x00, 0x00,
0x18, 0x01, 0x00, 0x00,
0x14, 0x01, 0x41, 0x00,
0x21, 0x01, 0x00, 0x00,
0x20, 0x01, 0x00, 0x00,
0x22, 0x01, 0x00, 0x00,
0x28, 0x01, 0x00, 0x00,
0x20, 0x40, 0x00, 0x00,
0x80, 0x02, 0x00, 0x00,
0x21, 0x40, 0x00, 0x00,
0xb0, 0x0c, 0x00, 0x00,
0x29, 0x01, 0x00, 0x00,
0x22, 0x40, 0x00, 0x00,
0x00, 0x00, 0x00, 0x00,
0x23, 0x40, 0x00, 0x00,
0x80, 0x02, 0x00, 0x00,
0x25, 0x01, 0x00, 0x00,
0x0d, 0x01, 0x0a, 0x00,
0x2d, 0x01, 0x1e, 0x00,
0x2f, 0x01, 0x03, 0x00,
0x02, 0x00, 0x00, 0x00,
0x24, 0x40, 0x26, 0x00,
0x00, 0xf6, 0x3b, 0x53,
0x0f, 0x01, 0x01, 0x00,
0x00, 0x40, 0x00, 0x00,
0x80, 0x00, 0x00, 0x00,
0x09, 0x01, 0xe6, 0xff,
0x10, 0x40, 0x00, 0x00,
0x00, 0x00, 0x00, 0x00,
0x18, 0x01, 0xdd, 0xff,
0x14, 0x01, 0x41, 0x01,
0x0d, 0x01, 0x2e, 0x00,
0x2d, 0x01, 0x2e, 0x00,
0x80, 0x40, 0x00, 0x00,
0x00, 0x00, 0x00, 0x00,
0x86, 0x40, 0x00, 0x00,
0x10, 0x00, 0x00, 0x00,
0x85, 0x40, 0x00, 0x00,
0x40, 0x00, 0x00, 0x00,
0x84, 0x40, 0x00, 0x00,
0x10, 0x00, 0x00, 0x00,
0x85, 0x01, 0x41, 0x00,
0x80, 0x01, 0x00, 0x00,
0x06, 0x00, 0x00, 0x00,
0x25, 0x40, 0x0c, 0x00,
0x8e, 0xe3, 0x38, 0x4e,
0x26, 0x40, 0x00, 0x00,
0x00, 0x00, 0x00, 0x00,
0x24, 0x40, 0x31, 0x00,
0xcd, 0xcc, 0xcc, 0x4c,
0x00, 0x40, 0x00, 0x00,
0x00, 0x00, 0x00, 0x00,
0x06, 0x40, 0x00, 0x00,
0x10, 0x00, 0x00, 0x00,
0x04, 0x40, 0x00, 0x00,
0x10, 0x00, 0x00, 0x00,
0x09, 0x01, 0xdd, 0xff,
0x05, 0x01, 0x41, 0x01,
0x10, 0x40, 0x00, 0x00,
0x80, 0x00, 0x00, 0x00,
0x18, 0x01, 0xe6, 0xff,
0x80, 0x40, 0x00, 0x00,
0x40, 0x00, 0x00, 0x00,
0x89, 0x01, 0x00, 0x00,
0x2f, 0x01, 0x00, 0x00,
0x06, 0x00, 0x01, 0x00,
0x30, 0x40, 0x00, 0x00,
0x00, 0x01, 0x00, 0x00,
0x31, 0x40, 0x00, 0x00,
0x00, 0xb9, 0x00, 0x00,
0x10, 0x00, 0x00, 0x00,
0x25, 0x40, 0x12, 0x00,
0xd4, 0x06, 0x3a, 0x6d,
0x24, 0x40, 0x2f, 0x00,
0x00, 0x00, 0x00, 0x78,
0x00, 0x40, 0x00, 0x00,
0x80, 0x00, 0x00, 0x00,
0x09, 0x01, 0xe6, 0xff,
0x05, 0x01, 0x41, 0x02,
0x1f, 0x01, 0x06, 0x00,
0x10, 0x40, 0x00, 0x00,
0x00, 0x00, 0x00, 0x00,
0x16, 0x40, 0x00, 0x00,
0x01, 0x00, 0x00, 0x00,
0x14, 0x40, 0x00, 0x00,
0x40, 0x00, 0x00, 0x00,
0x18, 0x01, 0x00, 0x00,
0x14, 0x01, 0x01, 0x01,
0x25, 0x01, 0x11, 0x00,
0x8f, 0x01, 0x03, 0x00,
0x86, 0x40, 0x00, 0x00,
0x01, 0x00, 0x00, 0x00,
0x84, 0x40, 0x00, 0x00,
0x40, 0x00, 0x00, 0x00,
0x89, 0x01, 0x05, 0xfb,
0x85, 0x01, 0x01, 0x00,
0x11, 0x00, 0x00, 0x00,
0x06, 0x00, 0x02, 0x00,
0x24, 0x40, 0x21, 0x00,
0x80, 0x45, 0x17, 0x5d,
0x0f, 0x01, 0x03, 0x00,
0x00, 0x40, 0x00, 0x00,
0x40, 0x00, 0x00, 0x00,
0x06, 0x40, 0x00, 0x00,
0x01, 0x00, 0x00, 0x00,
0x04, 0x40, 0x00, 0x00,
0x40, 0x00, 0x00, 0x00,
0x09, 0x01, 0x05, 0xfb,
0x05, 0x01, 0x01, 0x00,
0x1f, 0x01, 0x01, 0x00,
0x10, 0x40, 0x00, 0x00,
0x40, 0x00, 0x00, 0x00,
0x16, 0x40, 0x00, 0x00,
0x10, 0x00, 0x00, 0x00,
0x14, 0x40, 0x00, 0x00,
0x10, 0x00, 0x00, 0x00,
0x18, 0x01, 0x80, 0xff,
0x14, 0x01, 0x41, 0x01,
0x25, 0x01, 0x00, 0x00,
0x8f, 0x01, 0x06, 0x00,
0x80, 0x40, 0x00, 0x00,
0x00, 0x00, 0x00, 0x00,
0x89, 0x01, 0x00, 0x00,
0x06, 0x00, 0x00, 0x00,
0x25, 0x40, 0x0f, 0x00,
0xb1, 0xe4, 0x17, 0x4b,
0x24, 0x40, 0x31, 0x00,
0x00, 0x00, 0x00, 0x40,
0x0f, 0x01, 0x01, 0x00,
0x00, 0x40, 0x00, 0x00,
0x80, 0x00, 0x00, 0x00,
0x06, 0x40, 0x00, 0x00,
0x10, 0x00, 0x00, 0x00,
0x04, 0x40, 0x00, 0x00,
0x10, 0x00, 0x00, 0x00,
0x09, 0x01, 0xe6, 0xff,
0x05, 0x01, 0x41, 0x02,
0x10, 0x40, 0x00, 0x00,
0x80, 0x00, 0x00, 0x00,
0x16, 0x40, 0x00, 0x00,
0x01, 0x00, 0x00, 0x00,
0x14, 0x40, 0x00, 0x00,
0x40, 0x00, 0x00, 0x00,
0x18, 0x01, 0xe6, 0xff,
0x14, 0x01, 0x01, 0x01,
0x8f, 0x01, 0x01, 0x00,
0x80, 0x40, 0x00, 0x00,
0x40, 0x00, 0x00, 0x00,
0x86, 0x40, 0x00, 0x00,
0x10, 0x00, 0x00, 0x00,
0x84, 0x40, 0x00, 0x00,
0x10, 0x00, 0x00, 0x00,
0x89, 0x01, 0x80, 0xff,
0x85, 0x01, 0x41, 0x00,
0x06, 0x00, 0x02, 0x00,
0x0f, 0x01, 0x06, 0x00,
0x00, 0x40, 0x00, 0x00,
0x00, 0x00, 0x00, 0x00,
0x06, 0x40, 0x00, 0x00,
0x01, 0x00, 0x00, 0x00,
0x04, 0x40, 0x00, 0x00,
0x40, 0x00, 0x00, 0x00,
0x09, 0x01, 0x00, 0x00,
0x05, 0x01, 0x01, 0x00,
0x10, 0x40, 0x00, 0x00,
0xc1, 0x00, 0x00, 0x00,
0x13, 0x01, 0x00, 0x00,
0x15, 0x40, 0x00, 0x00,
0x01, 0x00, 0x00, 0x00,
0x14, 0x40, 0x00, 0x00,
0x01, 0x00, 0x00, 0x00,
0x18, 0x01, 0x80, 0xff,
0x17, 0x01, 0x07, 0x00,
0x0d, 0x01, 0x0a, 0x00,
0x2d, 0x01, 0x1e, 0x00,
0x24, 0x40, 0x16, 0x00,
0xff, 0x00, 0xc0, 0x3f,
0x2f, 0x01, 0x03, 0x00,
0x05, 0x00, 0x02, 0x00,
0x24, 0x40, 0x1e, 0x00,
0x00, 0x00, 0x00, 0x40,
0x0f, 0x01, 0x01, 0x00,
0x00, 0x40, 0x00, 0x00,
0xc0, 0x00, 0x00, 0x00,
0x04, 0x01, 0x00, 0x00,
0x05, 0x40, 0x00, 0x00,
0x01, 0x00, 0x00, 0x00,
0x04, 0x40, 0x00, 0x00,
0x01, 0x00, 0x00, 0x00,
0x09, 0x01, 0x80, 0xff,
0x10, 0x40, 0x00, 0x00,
0xc0, 0x00, 0x00, 0x00,
0x27, 0x01, 0x80, 0xff,
0x0d, 0x01, 0x2e, 0x00,
0x2d, 0x01, 0x2e, 0x00,
0x89, 0x01, 0x00, 0x00,
0x85, 0x01, 0x00, 0x00,
0x80, 0x01, 0x80, 0x00,
0x81, 0x01, 0x00, 0x00,
0x06, 0x00, 0x00, 0x00,
0x00, 0x00, 0xff, 0xff, 

};







static inline const uint8_t * Getfc_lif_layer_2CMSPointer()
{
	return cms_fc_lif_layer_2;
}

static inline size_t Getfc_lif_layer_2CMSLen()
{
	return sizeof(cms_fc_lif_layer_2);
}





static const int8_t weight_fc_lif_layer_2[] __attribute__((aligned(16))) = 
{

//biases
0xe4, 0xff, 0xff, 0xff,
0xff, 0x22, 0x32, 0xe4,
0x52, 0x21, 0xff, 0xff,
0xff, 0xff, 0xff, 0x22,
0x32, 0xe4, 0x52, 0x21,
0xed, 0xff, 0xff, 0xff,
0xff, 0x22, 0x32, 0xe4,
0x52, 0x21, 0x01, 0x00,
0x00, 0x00, 0x00, 0x22,
0x32, 0xe4, 0x52, 0x21,
0xee, 0xff, 0xff, 0xff,
0xff, 0x22, 0x32, 0xe4,
0x52, 0x21, 0x01, 0x00,
0x00, 0x00, 0x00, 0x22,
0x32, 0xe4, 0x52, 0x21,
0xde, 0xff, 0xff, 0xff,
0xff, 0x22, 0x32, 0xe4,
0x52, 0x21, 0xea, 0xff,
0xff, 0xff, 0xff, 0x22,
0x32, 0xe4, 0x52, 0x21,
0xe5, 0xff, 0xff, 0xff,
0xff, 0x22, 0x32, 0xe4,
0x52, 0x21, 0xfe, 0xff,
0xff, 0xff, 0xff, 0x22,
0x32, 0xe4, 0x52, 0x21,
0xf1, 0xff, 0xff, 0xff,
0xff, 0x22, 0x32, 0xe4,
0x52, 0x21, 0xf6, 0xff,
0xff, 0xff, 0xff, 0x22,
0x32, 0xe4, 0x52, 0x21,
0xf7, 0xff, 0xff, 0xff,
0xff, 0x22, 0x32, 0xe4,
0x52, 0x21, 0xfe, 0xff,
0xff, 0xff, 0xff, 0x22,
0x32, 0xe4, 0x52, 0x21,
0xfd, 0xff, 0xff, 0xff,
0xff, 0x22, 0x32, 0xe4,
0x52, 0x21, 0xef, 0xff,
0xff, 0xff, 0xff, 0x22,
0x32, 0xe4, 0x52, 0x21,
0xf3, 0xff, 0xff, 0xff,
0xff, 0x22, 0x32, 0xe4,
0x52, 0x21, 0xfa, 0xff,
0xff, 0xff, 0xff, 0x22,
0x32, 0xe4, 0x52, 0x21,
0xd3, 0xff, 0xff, 0xff,
0xff, 0x22, 0x32, 0xe4,
0x52, 0x21, 0xef, 0xff,
0xff, 0xff, 0xff, 0x22,
0x32, 0xe4, 0x52, 0x21,
0xde, 0xff, 0xff, 0xff,
0xff, 0x22, 0x32, 0xe4,
0x52, 0x21, 0xed, 0xff,
0xff, 0xff, 0xff, 0x22,
0x32, 0xe4, 0x52, 0x21,
0xf4, 0xff, 0xff, 0xff,
0xff, 0x22, 0x32, 0xe4,
0x52, 0x21, 0xf2, 0xff,
0xff, 0xff, 0xff, 0x22,
0x32, 0xe4, 0x52, 0x21,
0xee, 0xff, 0xff, 0xff,
0xff, 0x22, 0x32, 0xe4,
0x52, 0x21, 0xe4, 0xff,
0xff, 0xff, 0xff, 0x22,
0x32, 0xe4, 0x52, 0x21,
0x03, 0x00, 0x00, 0x00,
0x00, 0x22, 0x32, 0xe4,
0x52, 0x21, 0xe6, 0xff,
0xff, 0xff, 0xff, 0x22,
0x32, 0xe4, 0x52, 0x21,
0x02, 0x00, 0x00, 0x00,
0x00, 0x22, 0x32, 0xe4,
0x52, 0x21, 0xf6, 0xff,
0xff, 0xff, 0xff, 0x22,
0x32, 0xe4, 0x52, 0x21,
0xdd, 0xff, 0xff, 0xff,
0xff, 0x22, 0x32, 0xe4,
0x52, 0x21, 0xe8, 0xff,
0xff, 0xff, 0xff, 0x22,
0x32, 0xe4, 0x52, 0x21,
0x04, 0x00, 0x00, 0x00,
0x00, 0x22, 0x32, 0xe4,
0x52, 0x21, 0xf8, 0xff,
0xff, 0xff, 0xff, 0x22,
0x32, 0xe4, 0x52, 0x21,
0xec, 0xff, 0xff, 0xff,
0xff, 0x22, 0x32, 0xe4,
0x52, 0x21, 0xe2, 0xff,
0xff, 0xff, 0xff, 0x22,
0x32, 0xe4, 0x52, 0x21,
0xe2, 0xff, 0xff, 0xff,
0xff, 0x22, 0x32, 0xe4,
0x52, 0x21, 0xfd, 0xff,
0xff, 0xff, 0xff, 0x22,
0x32, 0xe4, 0x52, 0x21,
0xfd, 0xff, 0xff, 0xff,
0xff, 0x22, 0x32, 0xe4,
0x52, 0x21, 0xf4, 0xff,
0xff, 0xff, 0xff, 0x22,
0x32, 0xe4, 0x52, 0x21,
0xf3, 0xff, 0xff, 0xff,
0xff, 0x22, 0x32, 0xe4,
0x52, 0x21, 0xde, 0xff,
0xff, 0xff, 0xff, 0x22,
0x32, 0xe4, 0x52, 0x21,
0xdc, 0xff, 0xff, 0xff,
0xff, 0x22, 0x32, 0xe4,
0x52, 0x21, 0xe2, 0xff,
0xff, 0xff, 0xff, 0x22,
0x32, 0xe4, 0x52, 0x21,
0xf2, 0xff, 0xff, 0xff,
0xff, 0x22, 0x32, 0xe4,
0x52, 0x21, 0xf1, 0xff,
0xff, 0xff, 0xff, 0x22,
0x32, 0xe4, 0x52, 0x21,
0xda, 0xff, 0xff, 0xff,
0xff, 0x22, 0x32, 0xe4,
0x52, 0x21, 0xf0, 0xff,
0xff, 0xff, 0xff, 0x22,
0x32, 0xe4, 0x52, 0x21,
0xf3, 0xff, 0xff, 0xff,
0xff, 0x22, 0x32, 0xe4,
0x52, 0x21, 0x04, 0x00,
0x00, 0x00, 0x00, 0x22,
0x32, 0xe4, 0x52, 0x21,
0xef, 0xff, 0xff, 0xff,
0xff, 0x22, 0x32, 0xe4,
0x52, 0x21, 0xf3, 0xff,
0xff, 0xff, 0xff, 0x22,
0x32, 0xe4, 0x52, 0x21,
0xf5, 0xff, 0xff, 0xff,
0xff, 0x22, 0x32, 0xe4,
0x52, 0x21, 0xf2, 0xff,
0xff, 0xff, 0xff, 0x22,
0x32, 0xe4, 0x52, 0x21,
0xee, 0xff, 0xff, 0xff,
0xff, 0x22, 0x32, 0xe4,
0x52, 0x21, 0xef, 0xff,
0xff, 0xff, 0xff, 0x22,
0x32, 0xe4, 0x52, 0x21,
0x00, 0x00, 0x00, 0x00,
0x00, 0x22, 0x32, 0xe4,
0x52, 0x21, 0x00, 0x00,
0x00, 0x00, 0x00, 0x22,
0x32, 0xe4, 0x52, 0x21,
0x00, 0x00, 0x00, 0x00,
0x00, 0x22, 0x32, 0xe4,
0x52, 0x21, 0x00, 0x00,
0x00, 0x00, 0x00, 0x22,
0x32, 0xe4, 0x52, 0x21,
0x00, 0x00, 0x00, 0x00,
0x00, 0x22, 0x32, 0xe4,
0x52, 0x21, 0x00, 0x00,
0x00, 0x00, 0x00, 0x22,
0x32, 0xe4, 0x52, 0x21,
0x00, 0x00, 0x00, 0x00,
0x00, 0x22, 0x32, 0xe4,
0x52, 0x21, 0x00, 0x00,
0x00, 0x00, 0x00, 0x22,
0x32, 0xe4, 0x52, 0x21, 
//weights
0xb8, 0x36, 0x54, 0xf1,
0xbb, 0x88, 0x40, 0x0a,
0x84, 0x8c, 0xa2, 0xd2,
0xf8, 0x3c, 0x5a, 0x97,
0xc3, 0x29, 0x81, 0x98,
0x18, 0x18, 0x03, 0x01,
0x46, 0xe2, 0x98, 0x59,
0x28, 0xc7, 0xe0, 0x68,
0x87, 0x03, 0x00, 0x30,
0x03, 0x98, 0x48, 0xb3,
0x58, 0x86, 0x0f, 0x00,
0x00, 0x38, 0xb3, 0xf8,
0x46, 0x8f, 0x89, 0x1d,
0x70, 0x46, 0x26, 0x00,
0xf4, 0xb6, 0x3e, 0x64,
0x08, 0x9c, 0x98, 0x43,
0x02, 0x00, 0xb4, 0x09,
0x00, 0x39, 0x1c, 0xe2,
0x22, 0x00, 0xb0, 0x02,
0x81, 0x00, 0x13, 0xdc,
0x14, 0x93, 0xc3, 0xdf,
0xc6, 0xa6, 0x9d, 0x80,
0xe4, 0x49, 0xdc, 0x10,
0x04, 0xde, 0x6e, 0x27,
0xab, 0xef, 0xdd, 0x28,
0x00, 0xec, 0xd5, 0x9a,
0x17, 0x7e, 0xd0, 0x16,
0x6f, 0x56, 0x2b, 0xc4,
0x91, 0x6d, 0x00, 0xa0,
0xab, 0xaf, 0x0e, 0x26,
0x22, 0xbd, 0xbf, 0x66,
0x0b, 0xaa, 0x7a, 0xb7,
0xc1, 0x25, 0x00, 0xfc,
0xb5, 0x46, 0x8c, 0xf7,
0xdc, 0x01, 0x40, 0xdf,
0x24, 0xa4, 0x14, 0x36,
0xce, 0xf3, 0x5b, 0x2a,
0xf3, 0xca, 0x70, 0x97,
0x7f, 0x18, 0xa3, 0xd6,
0x13, 0x00, 0x80, 0x1a,
0x2b, 0xb9, 0xe6, 0x81,
0x00, 0x50, 0x5f, 0xda,
0xdc, 0xc2, 0x38, 0x84,
0x19, 0xa0, 0xd3, 0xfa,
0xc2, 0x13, 0x08, 0x28,
0x00, 0xf8, 0x60, 0x1c,
0x64, 0xae, 0x99, 0x88,
0x63, 0x60, 0x00, 0x00,
0x73, 0xfb, 0x30, 0x31,
0xe9, 0xba, 0x80, 0x80,
0x00, 0x20, 0x13, 0x22,
0x84, 0xcf, 0xc9, 0x64,
0x01, 0x03, 0x40, 0x9b,
0xf7, 0x69, 0x2e, 0x82,
0x34, 0x65, 0x25, 0x10,
0x00, 0x2c, 0x53, 0x24,
0x5c, 0xb0, 0xff, 0xab,
0x0a, 0x00, 0x80, 0xab,
0xba, 0x69, 0x21, 0xe2,
0x7c, 0x82, 0x10, 0x56,
0x7c, 0xf4, 0x09, 0x83,
0x3a, 0x00, 0x58, 0x56,
0x69, 0x58, 0x86, 0x13,
0xe7, 0x15, 0x8a, 0x22,
0x20, 0x00, 0xfc, 0x95,
0x21, 0x00, 0x64, 0xb1,
0xad, 0xc1, 0x03, 0x00,
0xcd, 0x44, 0x77, 0x86,
0xf0, 0x58, 0x0a, 0x00,
0x00, 0xc0, 0xd8, 0x59,
0xb9, 0xe0, 0xf0, 0x61,
0x41, 0x80, 0xe8, 0x43,
0x00, 0x14, 0xb4, 0x8f,
0x17, 0x60, 0x29, 0x38,
0xa7, 0xca, 0x8c, 0x04,
0x6c, 0x30, 0x40, 0x60,
0x47, 0xf3, 0x88, 0xa9,
0xb5, 0x81, 0x45, 0x91,
0x40, 0x00, 0x5e, 0xcc,
0xa4, 0xb0, 0x34, 0x10,
0xc4, 0x81, 0x01, 0x68,
0x59, 0x03, 0x27, 0x31,
0x40, 0xe9, 0x26, 0x76,
0x00, 0xf0, 0x8b, 0x03,
0xaa, 0x51, 0xe0, 0x86,
0x33, 0xfc, 0x21, 0x10,
0xa5, 0xc7, 0x6c, 0x00,
0x80, 0x1d, 0xc1, 0x89,
0x06, 0xf4, 0x0d, 0x40,
0x5c, 0x1d, 0x84, 0x8c,
0x31, 0x62, 0x1b, 0xf7,
0xaf, 0x25, 0x06, 0x1c,
0x2d, 0xfa, 0x07, 0x00,
0x96, 0xf5, 0xf8, 0x2c,
0x3f, 0xac, 0xfb, 0x28,
0x2f, 0x21, 0x63, 0xfe,
0x98, 0x00, 0xb0, 0x07,
0xc6, 0x6d, 0x52, 0xc7,
0x60, 0x77, 0x8a, 0xea,
0xd4, 0xb1, 0x04, 0x07,
0x00, 0x2c, 0x01, 0xc3,
0xe1, 0x29, 0x5c, 0x20,
0x00, 0xbc, 0x8b, 0x39,
0xc4, 0x25, 0x38, 0x52,
0x72, 0x16, 0x04, 0x00,
0x68, 0xaa, 0x1d, 0xbd,
0x20, 0x1c, 0xb4, 0x01,
0x60, 0xdc, 0x69, 0xf6,
0x00, 0x5a, 0x04, 0x6b,
0x50, 0x00, 0x00, 0x4e,
0x83, 0xca, 0x38, 0x5b,
0xf8, 0x59, 0x01, 0x52,
0x23, 0x27, 0x73, 0x97,
0x19, 0x00, 0x00, 0xcc,
0xe1, 0xcc, 0x23, 0xa3,
0x67, 0x00, 0xe0, 0x50,
0x03, 0x0e, 0x80, 0x3e,
0x2d, 0x8a, 0x17, 0xc6,
0x05, 0x04, 0x00, 0x01,
0x60, 0xbb, 0x43, 0x0a,
0x13, 0x77, 0x0a, 0x31,
0x00, 0xb0, 0xa5, 0x31,
0x63, 0x8a, 0xbc, 0x7c,
0x2d, 0x82, 0x02, 0x40,
0x73, 0xb0, 0xcf, 0xb4,
0xa9, 0x5d, 0xbd, 0x21,
0x04, 0xd0, 0x73, 0x08,
0xa3, 0x40, 0x40, 0xf7,
0x01, 0x3c, 0x1d, 0x0e,
0x94, 0x0d, 0xc4, 0x85,
0x21, 0x00, 0x28, 0x45,
0x26, 0xaa, 0x30, 0xf6,
0x11, 0x0c, 0x00, 0x00,
0x03, 0xd1, 0x48, 0x6e,
0x7f, 0xdb, 0x31, 0x81,
0x00, 0xf0, 0x13, 0x04,
0x12, 0xcc, 0x08, 0xa2,
0x16, 0xba, 0xd6, 0x48,
0x0b, 0x02, 0xc7, 0x07,
0x00, 0xd9, 0x8c, 0xa3,
0x04, 0xae, 0x09, 0x30,
0x06, 0x44, 0x00, 0x68,
0x34, 0x40, 0x00, 0x46,
0x0f, 0x1f, 0xc6, 0x07,
0xa0, 0xb2, 0xc2, 0x8d,
0x1a, 0x8b, 0x4f, 0xd0,
0x98, 0xc3, 0x01, 0xe0,
0x0d, 0x20, 0xab, 0x02,
0xf3, 0x8e, 0xe6, 0x3b,
0xd3, 0xd5, 0x95, 0x95,
0xef, 0x0d, 0x00, 0x7d,
0x8f, 0x22, 0x6a, 0x1b,
0x0f, 0xee, 0xb6, 0x72,
0x12, 0x3e, 0x1d, 0x00,
0xb8, 0xbf, 0x4f, 0x63,
0x56, 0x93, 0xee, 0x62,
0x7f, 0x15, 0x6d, 0x42,
0xdd, 0x78, 0x00, 0xf8,
0x09, 0xb7, 0x3d, 0x30,
0xd8, 0xf3, 0xbe, 0x76,
0x19, 0x2f, 0x47, 0x1f,
0x00, 0xd8, 0xa7, 0x3c,
0xeb, 0x03, 0x07, 0x78,
0xe5, 0xf5, 0xdc, 0x5b,
0x00, 0x21, 0xae, 0x45,
0xb1, 0x6d, 0xa6, 0xf0,
0x60, 0xf5, 0x08, 0x00,
0x58, 0x02, 0x8e, 0x65,
0x54, 0x82, 0xee, 0x01,
0x00, 0x60, 0xe6, 0x3f,
0xe4, 0x7c, 0x71, 0x92,
0x14, 0x00, 0x00, 0x33,
0xbf, 0x89, 0x60, 0x00,
0x96, 0x00, 0x48, 0x00,
0x50, 0x72, 0x02, 0xb9,
0x6d, 0xe5, 0x69, 0x34,
0x81, 0x6f, 0x70, 0x5d,
0xd9, 0xe6, 0xb0, 0x63,
0x81, 0x03, 0x01, 0xd0,
0x11, 0xc3, 0x26, 0x52,
0x3a, 0x67, 0x00, 0xc0,
0x1a, 0x64, 0xe3, 0x9d,
0x0c, 0xac, 0x5a, 0x3a,
0x3a, 0x00, 0x44, 0x0d,
0x29, 0x49, 0x3d, 0xf9,
0xd4, 0x40, 0x01, 0x00,
0xad, 0x93, 0x4d, 0x07,
0x7e, 0xd4, 0x68, 0x00,
0x10, 0x6b, 0xb8, 0x78,
0x5b, 0x05, 0x6b, 0x1c,
0x79, 0x48, 0xf9, 0xaf,
0xc0, 0x3b, 0xe9, 0xcb,
0x0c, 0x10, 0x6a, 0xdb,
0x40, 0x2c, 0xc1, 0x67,
0x27, 0x86, 0x01, 0x00,
0x16, 0xc4, 0x8a, 0x78,
0xdb, 0x31, 0x18, 0x52,
0x00, 0x03, 0x80, 0x0a,
0x53, 0x79, 0xb2, 0x11,
0xc8, 0x46, 0x04, 0x00,
0xe8, 0x70, 0x79, 0xc8,
0x99, 0x85, 0x65, 0x9a,
0x80, 0x00, 0xe0, 0xcf,
0x5e, 0x42, 0x21, 0xdb,
0x83, 0x61, 0xc0, 0x48,
0xc0, 0x33, 0x90, 0x68,
0x9a, 0x38, 0x16, 0xc0,
0x3f, 0x00, 0x68, 0x5b,
0x8d, 0xd4, 0x22, 0xc9,
0x1d, 0xe1, 0x77, 0x4f,
0x51, 0x84, 0x18, 0xc1,
0xd9, 0x00, 0xc0, 0x4f,
0xcf, 0xb3, 0x67, 0xfc,
0xfd, 0xe5, 0xe6, 0x76,
0x86, 0x7c, 0x79, 0x07,
0x00, 0x7a, 0x0d, 0x67,
0x33, 0x8f, 0x6c, 0x5f,
0x62, 0xdc, 0xd6, 0x85,
0xe7, 0x02, 0x40, 0x75,
0xfa, 0x72, 0xca, 0xfc,
0x62, 0xfe, 0x86, 0xc8,
0x1f, 0xe8, 0xba, 0x7b,
0x03, 0x80, 0xdf, 0x99,
0xf2, 0x56, 0xf6, 0x98,
0xed, 0xfe, 0x71, 0xc5,
0xda, 0x23, 0x00, 0x68,
0x87, 0x03, 0xde, 0x56,
0xb8, 0x17, 0x49, 0x1e,
0x10, 0x4c, 0xa1, 0x07,
0x80, 0x17, 0x24, 0x60,
0x52, 0x0b, 0x0e, 0x04,
0x00, 0xc0, 0x4d, 0x40,
0xa5, 0x71, 0x39, 0x19,
0x00, 0x44, 0x08, 0x07,
0x30, 0x5c, 0xab, 0x23,
0x94, 0x30, 0xb8, 0x6c,
0xc9, 0xce, 0xdd, 0xfc,
0x18, 0xf2, 0xd0, 0x0b,
0x40, 0xb6, 0x6d, 0x1a,
0x4b, 0x2a, 0xb9, 0x03,
0x1d, 0x00, 0x5c, 0x6b,
0xfc, 0x85, 0x7c, 0x2e,
0x00, 0x02, 0xc8, 0xd3,
0x0e, 0x6c, 0xea, 0xc4,
0x3f, 0xe4, 0x00, 0xe0,
0xb6, 0xc1, 0xc0, 0x70,
0xd7, 0x83, 0x93, 0x31,
0xa0, 0xd8, 0x04, 0x90,
0xa4, 0x3c, 0x00, 0xd8,
0xf6, 0xc6, 0x01, 0x88,
0xfb, 0x6c, 0x14, 0xa3,
0x2f, 0x06, 0x00, 0x70,
0xad, 0x07, 0x29, 0xc7,
0x6d, 0x69, 0x05, 0x80,
0xd7, 0xea, 0x71, 0xe2,
0x0a, 0xe3, 0x87, 0x81,
0xc8, 0x79, 0x23, 0xe4,
0x3a, 0xc0, 0x00, 0xf0,
0x8d, 0x4d, 0x73, 0xa6,
0x0a, 0xa5, 0x88, 0x80,
0x01, 0x00, 0x13, 0xf2,
0x41, 0xc3, 0x56, 0x03,
0x00, 0x00, 0x34, 0x90,
0xc7, 0x15, 0x22, 0x26,
0x40, 0x82, 0x80, 0xf0,
0x20, 0xa6, 0xbf, 0xcc,
0x97, 0x15, 0x46, 0x0a,
0x18, 0x49, 0x71, 0xea,
0x03, 0x03, 0x32, 0x00,
0xf8, 0xa8, 0x34, 0x09,
0x0e, 0x59, 0xb3, 0x80,
0x45, 0x01, 0x50, 0x8e,
0x47, 0x46, 0x15, 0x2c,
0xca, 0xfd, 0xd9, 0xd6,
0xe0, 0x04, 0x30, 0x4f,
0xae, 0x53, 0x41, 0x9b,
0x09, 0x00, 0x3e, 0x55,
0x43, 0xf0, 0x03, 0x62,
0xbf, 0xdd, 0x7b, 0xef,
0x1f, 0xd3, 0xe1, 0xb1,
0x07, 0x80, 0xde, 0x34,
0x63, 0x66, 0x1b, 0x53,
0x8d, 0x5f, 0x47, 0x1a,
0xec, 0x0e, 0x00, 0xf9,
0x69, 0x2e, 0x2e, 0x8a,
0xf1, 0x1f, 0xcb, 0xef,
0xd7, 0x93, 0xe1, 0x3a,
0x1b, 0x00, 0x60, 0xa7,
0xc2, 0x7c, 0xbf, 0x1e,
0x30, 0x00, 0xe0, 0x35,
0x9b, 0xb6, 0xf7, 0x02,
0x7d, 0xc2, 0x67, 0xb6,
0x57, 0x30, 0x63, 0x2e,
0x04, 0x07, 0x20, 0xd0,
0xec, 0xc5, 0xff, 0x31,
0x1e, 0x0e, 0x05, 0x80,
0x09, 0xc7, 0x40, 0x75,
0x88, 0x09, 0x86, 0x11,
0x01, 0xc0, 0xce, 0x12,
0xb3, 0x39, 0x29, 0x93,
0x40, 0xef, 0xa9, 0xb2,
0xfb, 0x47, 0x82, 0x2d,
0x20, 0x00, 0xc0, 0x93,
0x23, 0xb8, 0xe7, 0x67,
0x36, 0x06, 0x80, 0x7f,
0x88, 0xc0, 0x5a, 0xb5,
0x56, 0x95, 0x51, 0xca,
0x00, 0x60, 0x1d, 0x92,
0xcf, 0x42, 0xa0, 0xa1,
0x5b, 0xcd, 0x51, 0x9c,
0x8d, 0x09, 0x00, 0x40,
0xa0, 0x1e, 0xfe, 0x19,
0x9b, 0x42, 0x03, 0xfa,
0x4c, 0x00, 0x40, 0xef,
0x39, 0x36, 0x86, 0x46,
0xe8, 0x08, 0x0d, 0x00,
0x77, 0x03, 0x09, 0x80,
0x80, 0xcd, 0x78, 0x15,
0xbf, 0x33, 0x11, 0x2c,
0x74, 0xc3, 0x00, 0x20,
0xd8, 0x89, 0x00, 0x3d,
0x69, 0x57, 0x1d, 0x18,
0x04, 0x6d, 0xac, 0x55,
0x06, 0x8f, 0x18, 0x4d,
0x05, 0x0e, 0x00, 0x2e,
0x9f, 0x26, 0x69, 0x38,
0x1b, 0x19, 0x00, 0x40,
0x63, 0xa0, 0x11, 0xea,
0x08, 0x0d, 0x03, 0x00,
0xe0, 0x42, 0xe7, 0x1f,
0xa4, 0x23, 0x30, 0x98,
0x01, 0xdf, 0xac, 0xb6,
0x10, 0xaf, 0x07, 0x11,
0x38, 0x47, 0x40, 0x5f,
0xa8, 0x33, 0x2a, 0x7d,
0xeb, 0x3f, 0x7f, 0x00,
0x9c, 0xdd, 0xa2, 0x76,
0x6c, 0x36, 0xee, 0xf1,
0x7b, 0x5f, 0xfe, 0xf4,
0xbd, 0x00, 0xd0, 0xef,
0x29, 0x2d, 0x09, 0x39,
0xfc, 0x6f, 0x35, 0xb6,
0x73, 0xc3, 0x00, 0xb0,
0xcf, 0x89, 0xee, 0xbe,
0xfb, 0xec, 0x3e, 0xc4,
0x53, 0x6a, 0xc3, 0x5f,
0x00, 0x68, 0xcd, 0xaf,
0x8a, 0x53, 0xde, 0xfb,
0x9c, 0xc0, 0x3e, 0x26,
0x7a, 0x0b, 0x00, 0xb0,
0xe7, 0x26, 0x78, 0xf5,
0x9d, 0xb6, 0x7a, 0xe3,
0xb9, 0xb3, 0x00, 0x1d,
0x04, 0x2c, 0xcf, 0x4d,
0xdf, 0x00, 0x85, 0x1e,
0x00, 0x5e, 0x33, 0x99,
0x52, 0x2f, 0xe5, 0x0a,
0x3a, 0x47, 0xde, 0x36,
0x23, 0x5d, 0xf8, 0x08,
0x00, 0x35, 0x87, 0x47,
0xe4, 0xdc, 0xb0, 0xe9,
0x00, 0x00, 0x0e, 0x94,
0x61, 0xf6, 0x6f, 0x75,
0x16, 0x06, 0x06, 0x90,
0x2e, 0x24, 0x9d, 0x3c,
0x31, 0xc4, 0x01, 0x29,
0xac, 0x1e, 0x6f, 0x2a,
0x81, 0x82, 0x00, 0xa1,
0x4c, 0x00, 0x37, 0x09,
0x43, 0x69, 0x63, 0x30,
0x00, 0x08, 0x3f, 0x0d,
0xf0, 0x71, 0x1b, 0x25,
0xc0, 0x06, 0xcd, 0x00,
0xb8, 0xae, 0x84, 0x7f,
0x0c, 0x44, 0xa6, 0x42,
0x03, 0x00, 0x98, 0xf8,
0xd6, 0xf5, 0x70, 0xc7,
0x15, 0x61, 0x00, 0x30,
0x3c, 0x6e, 0xef, 0x40,
0x72, 0xb5, 0xc7, 0x18,
0x00, 0xce, 0x9d, 0x7b,
0x6d, 0x4f, 0x7a, 0x38,
0x03, 0xc0, 0x01, 0xf6,
0x08, 0x64, 0x36, 0x00,
0x2c, 0x2b, 0x14, 0xa1,
0x03, 0x50, 0x4a, 0x0c,
0x20, 0x0b, 0x00, 0x02,
0xb0, 0x2f, 0x9f, 0x91,
0x77, 0x7d, 0x02, 0x31,
0x18, 0x00, 0xc0, 0x77,
0x98, 0xe9, 0x27, 0xc6,
0x4d, 0x63, 0x20, 0x80,
0xd4, 0x82, 0x46, 0x8c,
0x10, 0x89, 0x80, 0x02,
0x01, 0x00, 0x9b, 0x2a,
0xb6, 0xa4, 0x18, 0xe0,
0x81, 0xed, 0x00, 0xf0,
0x9b, 0xe1, 0x90, 0x49,
0x00, 0xae, 0x55, 0xd8,
0xbf, 0x33, 0xe6, 0x7f,
0xcb, 0x8f, 0x03, 0xe0,
0x1e, 0x50, 0x55, 0x10,
0x9c, 0xdd, 0xfd, 0xbb,
0xec, 0x80, 0xa9, 0xd8,
0x02, 0xc0, 0x1f, 0xe2,
0x11, 0xcb, 0x1d, 0x5f,
0xee, 0x2e, 0x67, 0x9b,
0x33, 0x00, 0x9c, 0x2b,
0xe4, 0x3e, 0xe4, 0xf3,
0x0b, 0xda, 0xdf, 0x55,
0xf6, 0xe8, 0xfe, 0x1c,
0x00, 0x6e, 0x2b, 0xb5,
0x5f, 0x6d, 0xa0, 0xb3,
0xbd, 0xbf, 0x55, 0x6b,
0x48, 0xfd, 0x91, 0x00,
0x60, 0xaf, 0x35, 0x4c,
0x02, 0x41, 0xbd, 0x43,
0x4e, 0x97, 0x0f, 0x00,
0x8a, 0x61, 0xa0, 0xef,
0xc1, 0x90, 0x1e, 0x02,
0xfc, 0x84, 0x04, 0x00,
0x1f, 0x55, 0x91, 0x6c,
0xa7, 0x4c, 0xa8, 0x0e,
0x00, 0x7d, 0x5c, 0x61,
0xa4, 0x03, 0xde, 0x47,
0x3a, 0xda, 0x46, 0x20,
0x98, 0x1d, 0x00, 0x8a,
0x45, 0x6e, 0xd9, 0x76,
0x3b, 0x43, 0x2c, 0x1c,
0x9d, 0x00, 0xe0, 0xc0,
0x2d, 0xcf, 0x2b, 0x5d,
0xe4, 0x05, 0x00, 0x80,
0x66, 0x02, 0xd2, 0x36,
0x66, 0x4b, 0x00, 0x02,
0x80, 0xc1, 0x0c, 0xd2,
0xcd, 0xd0, 0xc1, 0x60,
0x00, 0x00, 0xa4, 0x84,
0xdb, 0xea, 0xfd, 0x54,
0xee, 0x11, 0x10, 0x00,
0x4c, 0x79, 0xd0, 0x7a,
0x01, 0x21, 0x4e, 0x0b,
0x0b, 0x00, 0xf0, 0x24,
0x81, 0x29, 0x86, 0xe0,
0xdd, 0x0a, 0x14, 0x9c,
0x49, 0x99, 0xa9, 0xa9,
0xbd, 0xe0, 0xff, 0xd0,
0xcb, 0xeb, 0x03, 0xff,
0xff, 0xff, 0xff, 0xff,
0xff, 0xff, 0xff, 0xff,
0xff, 0xff, 0xff, 0xff,
0xff, 0xff, 0xff, 0xff,
0xff, 0xff, 0xff, 0xff,
0xff, 0xff, 0xff, 0xff,
0xff, 0xff, 0xff, 0xff,
0xff, 0xff, 0x30, 0x00,
0x40, 0x01, 0x00, 0x80,
0x0b, 0xa0, 0x14, 0xca,
0x8e, 0x03, 0x40, 0x1b,
0xae, 0xcf, 0x23, 0x2d,
0x24, 0xa0, 0x31, 0x87,
0x04, 0xe0, 0x17, 0x29,
0x6f, 0xe2, 0xb0, 0x4c,
0x7c, 0x4a, 0xb8, 0x8c,
0x5d, 0x9f, 0x11, 0x08,
0xb6, 0xfb, 0x70, 0x53,
0x07, 0x28, 0x63, 0x03,
0x00, 0x4d, 0x3f, 0xc2,
0x4c, 0x1b, 0xe4, 0xf5,
0x59, 0xfd, 0xda, 0x7b,
0x63, 0x61, 0x8e, 0x01,
0x00, 0xb6, 0xec, 0xf5,
0x62, 0x7d, 0x2e, 0x06,
0x00, 0xbe, 0xc6, 0x32,
0xba, 0x92, 0x1d, 0x99,
0x5f, 0x8d, 0x9d, 0x75,
0x13, 0x47, 0x4b, 0x00,
0x60, 0x8e, 0x9b, 0x82,
0x95, 0x8d, 0x68, 0x35,
0x00, 0xfc, 0xd5, 0x5d,
0x26, 0x7f, 0x52, 0x85,
0x58, 0xef, 0x41, 0x15,
0x42, 0x21, 0x0f, 0x00,
0x56, 0x33, 0xa1, 0xb4,
0x6e, 0x2c, 0xee, 0x3d,
0xc9, 0xac, 0xe3, 0x54,
0x1a, 0x93, 0x0b, 0x00,
0xef, 0x15, 0xc0, 0xe8,
0xa7, 0x6a, 0x26, 0x00,
0xbc, 0x81, 0x37, 0x7f,
0x6b, 0x82, 0xb4, 0x9f,
0xd1, 0xbb, 0x09, 0xe5,
0x0d, 0x00, 0xd7, 0xc7,
0x72, 0xd5, 0xc2, 0xc2,
0x54, 0x5b, 0x50, 0xbf,
0x91, 0x47, 0x97, 0x00,
0x90, 0x52, 0x4a, 0x14,
0x95, 0xc1, 0xc3, 0x7b,
0x09, 0x12, 0x00, 0xb0,
0x8f, 0x7f, 0x8d, 0x55,
0x7c, 0xc5, 0x01, 0xc0,
0x47, 0x92, 0x00, 0x39,
0xb1, 0xf1, 0x93, 0x96,
0xf7, 0x9f, 0x20, 0x02,
0xdc, 0x0f, 0xb0, 0x00,
0x5d, 0xd6, 0xfe, 0xbc,
0x32, 0x2e, 0xfe, 0xdf,
0xc5, 0xd3, 0xca, 0x99,
0xf4, 0xac, 0xf0, 0xff,
0xdd, 0x94, 0xf9, 0xb6,
0x81, 0xeb, 0xff, 0xff,
0xff, 0xff, 0x07, 0x20,
0xaf, 0x00, 0x40, 0x84,
0x89, 0x80, 0xf0, 0xdb,
0x69, 0xf0, 0xf5, 0x46,
0xbc, 0x64, 0xc0, 0x90,
0x07, 0xe5, 0x7a, 0xa8,
0x00, 0x20, 0x01, 0x1c,
0x40, 0x54, 0xa3, 0x92,
0x5c, 0x7a, 0xe6, 0x01,
0x40, 0x9e, 0xfa, 0xd6,
0xae, 0x97, 0x23, 0xd0,
0x05, 0x80, 0x19, 0x68,
0xfc, 0xd5, 0xf8, 0xc3,
0x40, 0xa7, 0x4f, 0xc4,
0x5b, 0xdb, 0x76, 0x2e,
0x0d, 0x00, 0xb3, 0xd3,
0x9b, 0xfa, 0x69, 0xf1,
0x6d, 0xca, 0x00, 0xd0,
0xcf, 0x21, 0x7c, 0x28,
0x2f, 0x52, 0x85, 0xf7,
0x64, 0x46, 0xaa, 0x66,
0x31, 0x00, 0xe0, 0x8f,
0x99, 0x51, 0xbf, 0x67,
0xdd, 0xfb, 0x04, 0x80,
0x46, 0x3b, 0x2d, 0xf1,
0x14, 0x59, 0xac, 0xf7,
0x60, 0x81, 0xf3, 0xe6,
0x9c, 0xe2, 0x00, 0xe0,
0x5f, 0xa1, 0x71, 0x73,
0x77, 0xc8, 0x00, 0xa0,
0x2f, 0xde, 0xba, 0x29,
0xe1, 0x4a, 0xfa, 0xe4,
0xe6, 0x28, 0xb5, 0xdd,
0x4d, 0x04, 0xc1, 0x3b,
0x81, 0x0a, 0xa7, 0xc0,
0x2b, 0x1f, 0x00, 0x5c,
0x7f, 0x9d, 0x49, 0x34,
0x2d, 0x98, 0xcb, 0x7c,
0xb4, 0x77, 0x49, 0x00,
0x50, 0x40, 0x38, 0xed,
0x35, 0x01, 0x16, 0x78,
0xf0, 0x00, 0x00, 0x6c,
0x5c, 0x00, 0x20, 0xd1,
0x56, 0x38, 0x24, 0xc3,
0xff, 0xbd, 0xcf, 0x38,
0x55, 0x88, 0x0d, 0xfe,
0x3f, 0xdc, 0x1a, 0x38,
0x2a, 0x07, 0xfd, 0xff,
0xff, 0xff, 0xff, 0x4f,
0x24, 0x0c, 0x00, 0xfc,
0x3c, 0x01, 0xc0, 0xcf,
0x00, 0x8a, 0xcb, 0x4b,
0xed, 0x70, 0xfe, 0x80,
0x5a, 0xc9, 0x42, 0x76,
0x02, 0x60, 0x6f, 0x62,
0xbd, 0xf2, 0x80, 0x63,
0x3a, 0x81, 0xb7, 0x1f,
0x19, 0x0e, 0x00, 0x78,
0x57, 0xf8, 0xe1, 0x42,
0x11, 0xec, 0x1e, 0x32,
0x00, 0xcc, 0xf7, 0x95,
0x91, 0xf1, 0x7a, 0x70,
0xd3, 0xd6, 0x70, 0x5b,
0xf2, 0x51, 0x5b, 0x1b,
0x00, 0xf6, 0xc3, 0x02,
0x70, 0x8e, 0xae, 0x3a,
0xce, 0x02, 0x40, 0x67,
0x7b, 0x85, 0x47, 0x02,
0x7b, 0x32, 0x69, 0xcd,
0x87, 0x4f, 0x46, 0x00,
0xb0, 0x79, 0xf4, 0xcd,
0xda, 0x6a, 0x5e, 0xd0,
0x05, 0x00, 0xec, 0xd9,
0xdf, 0xdd, 0x68, 0xcd,
0x94, 0xbc, 0xf7, 0xef,
0xea, 0xde, 0xd7, 0x38,
0xf6, 0x04, 0xa0, 0xd4,
0x21, 0x7d, 0xc4, 0x71,
0xc0, 0x00, 0xb0, 0xea,
0x39, 0x3e, 0xcf, 0x0e,
0x72, 0xc0, 0x01, 0xc0,
0xf7, 0x0a, 0x18, 0xc9,
0x48, 0x1c, 0x84, 0x3b,
0xf4, 0x6c, 0xe0, 0x8b,
0x8c, 0x60, 0x00, 0x00,
0x7d, 0x74, 0x5e, 0xe0,
0x28, 0x04, 0x5c, 0x00,
0x80, 0xd7, 0x41, 0x7e,
0x07, 0xd6, 0xd3, 0xf4,
0xe0, 0x10, 0x00, 0xfc,
0xcb, 0xa3, 0x54, 0x12,
0x04, 0x4e, 0x6e, 0x12,
0x60, 0xe3, 0x25, 0x5d,
0xdc, 0x07, 0x7e, 0xc5,
0xd4, 0x4a, 0x00, 0xc0,
0x9c, 0x73, 0xf8, 0xff,
0xbc, 0xae, 0xb7, 0x93,
0x9a, 0x5c, 0xff, 0x7f,
0xdb, 0x5d, 0x04, 0x43,
0xf7, 0xff, 0xff, 0xff,
0xff, 0x40, 0xc0, 0x97,
0x02, 0xc0, 0x1d, 0x6c,
0xd4, 0x60, 0x4d, 0x70,
0x7e, 0xe5, 0x00, 0xf0,
0x97, 0x22, 0x62, 0x1b,
0x0d, 0x4a, 0x00, 0x18,
0x76, 0x26, 0x07, 0x13,
0x40, 0x3c, 0x34, 0x1c,
0x82, 0x96, 0x02, 0xaf,
0x1d, 0xbb, 0x97, 0x03,
0xc0, 0x3d, 0x4a, 0xab,
0x0d, 0x88, 0xe0, 0xf6,
0xc1, 0x37, 0xcd, 0x5d,
0xae, 0x00, 0x50, 0x4f,
0x30, 0xed, 0xb5, 0x4e,
0xa6, 0x51, 0x00, 0x58,
0x75, 0xcb, 0x11, 0x7a,
0x2a, 0xd6, 0xfb, 0xb9,
0x9a, 0xbe, 0xfb, 0xd5,
0xab, 0x09, 0x00, 0xec,
0xca, 0xa5, 0x5b, 0xf1,
0x68, 0x23, 0x00, 0xfc,
0xaf, 0xa6, 0x7c, 0x38,
0x74, 0xe8, 0xf6, 0x1f,
0x55, 0xc3, 0x37, 0xe2,
0x0f, 0x00, 0xab, 0x53,
0x06, 0x3f, 0x4e, 0xce,
0xad, 0xa5, 0xe7, 0x2e,
0xe4, 0xf9, 0x44, 0x00,
0xd0, 0x1d, 0x7a, 0xfa,
0xfa, 0x0b, 0x1e, 0x77,
0x1b, 0x65, 0xb7, 0x98,
0x2f, 0x18, 0x01, 0x80,
0xc5, 0x2a, 0xa4, 0x37,
0x5f, 0x18, 0x14, 0x00,
0x32, 0x79, 0xc7, 0xba,
0x46, 0x27, 0x8d, 0x11,
0x00, 0x80, 0xa6, 0x30,
0xd5, 0x32, 0xd0, 0xe5,
0x46, 0x73, 0x00, 0xb0,
0x07, 0xea, 0xdd, 0x3b,
0x41, 0x14, 0x0a, 0xed,
0x7b, 0x4c, 0x77, 0x04,
0xfb, 0x80, 0x00, 0x80,
0x73, 0x16, 0xf2, 0x38,
0x2f, 0x36, 0xff, 0x5f,
0xbf, 0x31, 0xc5, 0x53,
0x9a, 0x29, 0x45, 0xfc,
0xff, 0x97, 0x6b, 0xac,
0x13, 0xcc, 0xff, 0xff,
0xff, 0xff, 0x0f, 0xc0,
0xf1, 0x02, 0x40, 0x6f,
0xd7, 0x99, 0x29, 0x22,
0x6e, 0x20, 0xb9, 0x0c,
0x00, 0xf7, 0x3d, 0x7b,
0xf3, 0xe7, 0xb9, 0x31,
0xec, 0x77, 0x24, 0x96,
0xc8, 0x76, 0x02, 0x40,
0xe5, 0x5a, 0xed, 0x6e,
0xb0, 0x24, 0x19, 0x02,
0xc0, 0x37, 0x7b, 0x41,
0xe7, 0x85, 0xc4, 0xb1,
0xd5, 0xf2, 0x34, 0x40,
0x1b, 0xc3, 0x7d, 0x00,
0xd0, 0xbd, 0x99, 0x0b,
0x07, 0x9c, 0x26, 0xd3,
0x06, 0x00, 0xee, 0x69,
0x83, 0x7b, 0x2d, 0x1f,
0xd6, 0xab, 0x4f, 0x04,
0x4f, 0x52, 0x10, 0x00,
0x9c, 0xac, 0x39, 0xba,
0xe1, 0x34, 0xf9, 0x41,
0xe4, 0x9a, 0xa2, 0x3d,
0x47, 0x76, 0xfc, 0x52,
0xc8, 0xe7, 0x4a, 0x24,
0xbc, 0x4c, 0x03, 0x80,
0x3d, 0x26, 0x58, 0x49,
0x12, 0xd3, 0x78, 0x2e,
0x00, 0x54, 0xbf, 0xb9,
0x0e, 0x9d, 0x25, 0x0e,
0xee, 0x8d, 0x91, 0xf8,
0xd6, 0x4c, 0x0c, 0x00,
0xed, 0x90, 0x98, 0x78,
0x05, 0x2e, 0x08, 0x2b,
0x00, 0x54, 0x21, 0x98,
0xf0, 0xa8, 0xf5, 0x37,
0xe8, 0x59, 0x48, 0x7a,
0xbc, 0x7d, 0xfe, 0x05,
0x80, 0xdb, 0xc9, 0x03,
0x39, 0xe3, 0x05, 0xb3,
0x1d, 0x03, 0x01, 0x40,
0x1e, 0x2c, 0x17, 0x64,
0x9c, 0xa1, 0x08, 0x00,
0xaf, 0xee, 0xe6, 0xa3,
0x87, 0x33, 0x3c, 0x87,
0xb2, 0x17, 0x95, 0x89,
0x7d, 0x08, 0xc0, 0x1b,
0xfe, 0xdf, 0x15, 0x88,
0x1a, 0xcc, 0xb2, 0xff,
0xff, 0xe8, 0xbd, 0x52,
0x03, 0xff, 0xff, 0xff,
0xff, 0xff, 0x03, 0x87,
0x0b, 0x00, 0x7f, 0x99,
0xfc, 0x6d, 0x06, 0xd5,
0xcf, 0x1e, 0x00, 0xde,
0x8d, 0x17, 0x76, 0x9d,
0x0d, 0xc7, 0xff, 0x40,
0x3a, 0x5b, 0x71, 0x49,
0x00, 0x36, 0x8a, 0xb0,
0x7c, 0x1c, 0xd7, 0x00,
0xe0, 0x3b, 0x2d, 0xb0,
0xa9, 0x9b, 0x70, 0xb8,
0x7f, 0x9a, 0x85, 0xd6,
0x58, 0x36, 0x02, 0x10,
0x9d, 0xfc, 0x88, 0x44,
0xd5, 0x48, 0x00, 0xf8,
0x27, 0xde, 0xff, 0x6c,
0xef, 0xb2, 0x7c, 0x39,
0x12, 0x2a, 0x38, 0xfd,
0xad, 0x01, 0x20, 0x5f,
0x7f, 0xec, 0xe7, 0x97,
0x46, 0x0a, 0xac, 0xe5,
0x93, 0x6a, 0x9c, 0x0d,
0x00, 0xa8, 0x4e, 0x1e,
0x79, 0x71, 0xc7, 0x4b,
0x6e, 0x29, 0x00, 0xd0,
0x93, 0x2f, 0x2f, 0xaf,
0xe4, 0x56, 0xfe, 0x00,
0xc0, 0xea, 0x47, 0xc1,
0xcf, 0xd8, 0x3a, 0x96,
0xb7, 0xef, 0xef, 0xd9,
0xea, 0x12, 0x4a, 0x00,
0x78, 0xea, 0xc2, 0x84,
0x23, 0xa4, 0x50, 0xf7,
0x9f, 0x02, 0x6f, 0xd4,
0x2a, 0x81, 0x1c, 0x04,
0x7e, 0xad, 0x60, 0x5d,
0xed, 0x00, 0x07, 0x00,
0xdf, 0xcb, 0x11, 0x10,
0x2e, 0x0a, 0x72, 0x00,
0x78, 0x3f, 0x99, 0x77,
0xc2, 0xaf, 0x39, 0xe4,
0x5a, 0x27, 0xde, 0x99,
0x04, 0x2f, 0x64, 0x02,
0xc0, 0xec, 0x48, 0xc2,
0x0e, 0xe6, 0x78, 0x60,
0x14, 0xfe, 0x82, 0xe0,
0xcc, 0xad, 0xbf, 0x34,
0xfc, 0xff, 0x2f, 0x97,
0x22, 0x6a, 0x7f, 0xa0,
0xfc, 0xff, 0xff, 0xff,
0xff, 0xff, 0xc8, 0x06,
0x02, 0x1c, 0x0e, 0x07,
0x80, 0x5f, 0xcf, 0x33,
0x35, 0xa6, 0x19, 0xc1,
0xc1, 0x17, 0xc8, 0x32,
0x20, 0x1b, 0x06, 0x80,
0xfe, 0xb8, 0x14, 0x43,
0x89, 0x3a, 0xc6, 0x21,
0x00, 0xf8, 0x15, 0xc3,
0x21, 0x06, 0xd6, 0x31,
0xfb, 0x09, 0x0e, 0xbe,
0x81, 0xba, 0x3d, 0x00,
0x40, 0xb7, 0xd8, 0x7e,
0xcb, 0x10, 0xfd, 0x97,
0x00, 0x70, 0xbd, 0x8f,
0x89, 0x5a, 0x78, 0xa2,
0xf5, 0xaf, 0x96, 0x68,
0x9e, 0x41, 0x45, 0x00,
0xf0, 0xdd, 0xb6, 0x06,
0x6f, 0x4a, 0x7d, 0x02,
0xa5, 0x77, 0x6d, 0x8f,
0xc2, 0xd3, 0x00, 0x50,
0x0b, 0x3d, 0xb7, 0xd7,
0x0d, 0x0b, 0x00, 0x40,
0xcf, 0x8c, 0xed, 0x95,
0x26, 0x11, 0x7e, 0xfd,
0x3d, 0xc2, 0x49, 0x9c,
0xa5, 0x0f, 0x00, 0x26,
0xbd, 0x89, 0xb2, 0x7b,
0x0b, 0xb8, 0x5b, 0x1e,
0x00, 0xc0, 0xca, 0x23,
0xfc, 0xea, 0xda, 0x9b,
0x8a, 0x06, 0x00, 0x6f,
0xf6, 0x74, 0x40, 0xf1,
0x71, 0xd8, 0xc0, 0x89,
0x0b, 0x85, 0x38, 0x21,
0x0d, 0x01, 0x00, 0xdc,
0x84, 0x90, 0x92, 0x8b,
0xe1, 0x14, 0x00, 0x00,
0xf4, 0x3a, 0x49, 0x03,
0x6c, 0x08, 0xe0, 0x00,
0x00, 0xd6, 0x3f, 0x5c,
0x59, 0x1a, 0x90, 0x58,
0xc9, 0x15, 0x00, 0x38,
0x71, 0xe8, 0xe8, 0xf4,
0xc3, 0x42, 0x09, 0x80,
0x6f, 0x24, 0x96, 0xc1,
0xe8, 0x77, 0x00, 0x80,
0x02, 0x00, 0xff, 0xff,
0xed, 0xff, 0xff, 0x1f,
0x00, 0xff, 0xff, 0xff, 

};






static inline const int8_t * Getfc_lif_layer_2WeightsPointer()
{
	return weight_fc_lif_layer_2;
}

static inline size_t Getfc_lif_layer_2WeightsLen()
{
	return sizeof(weight_fc_lif_layer_2);
}





static const int8_t lif_param_fc_lif_layer_2[]  __attribute__((aligned(16))) = 
{


// ln(beta)_quant
0, 0, 0, 0, 0, 0, 0, 0, 0, 
0, 0, 0, 0, 0, 0, 0, 0, 
0, 0, 0, 0, 0, 0, 0, 0, 
0, 0, 0, 0, 0, 0, 0, 0, 
0, 0, 0, 0, 0, 0, 0, 0, 
0, 0, 0, 0, 0, 0, 0, 0, 
0, 0, 0, 0, 0, 0, 0, 0, 
0, 0, 0, 0, 0, 0, 0, 
// vth_quant
0, 0, 0, 0, 0, 0, 0, 0, 0, 
0, 0, 0, 0, 0, 0, 0, 0, 
0, 0, 0, 0, 0, 0, 0, 0, 
0, 0, 0, 0, 0, 0, 0, 0, 
0, 0, 0, 0, 0, 0, 0, 0, 
0, 0, 0, 0, 0, 0, 0, 0, 
0, 0, 0, 0, 0, 0, 0, 0, 
0, 0, 0, 0, 0, 0, 0, 

};







static inline const int8_t* Getfc_lif_layer_2LIFParamPointer()
{
	return lif_param_fc_lif_layer_2;
}
static inline size_t Getfc_lif_layer_2LIFParamLen()
{
	return sizeof(lif_param_fc_lif_layer_2);
}





static const int8_t lut_fc_lif_layer_2[] __attribute__((aligned(16))) = 
{


//lut index 0
-29, 
-29, -28, -28, -28, -27, -27, -27, -26, 
-26, -25, -25, -24, -24, -24, -23, -23, 
-22, -22, -22, -21, -21, -20, -20, -20, 
-19, -19, -18, -18, -17, -17, -16, -16, 
-16, -15, -15, -14, -14, -13, -13, -12, 
-12, -12, -11, -11, -10, -10, -9, -9, 
-8, -8, -7, -7, -6, -6, -5, -5, 
-5, -4, -4, -3, -3, -2, -2, -1, 
-1, 0, 0, 1, 1, 2, 2, 3, 
3, 4, 5, 5, 6, 6, 7, 7, 
8, 8, 9, 9, 10, 10, 11, 11, 
12, 13, 13, 14, 14, 15, 15, 16, 
16, 17, 18, 18, 19, 19, 20, 20, 
21, 22, 22, 23, 23, 24, 25, 25, 
26, 26, 27, 28, 28, 29, 29, 30, 
31, 31, 32, 33, 33, 34, 34, 35, 
36, 36, 37, 38, 38, 39, 40, 40, 
41, 42, 42, 43, 44, 44, 45, 46, 
46, 47, 48, 48, 49, 50, 51, 51, 
52, 53, 53, 54, 55, 55, 56, 57, 
58, 58, 59, 60, 61, 61, 62, 63, 
64, 64, 65, 66, 67, 67, 68, 69, 
70, 70, 71, 72, 73, 74, 74, 75, 
76, 77, 78, 78, 79, 80, 81, 82, 
82, 83, 84, 85, 86, 87, 87, 88, 
89, 90, 91, 92, 93, 93, 94, 95, 
96, 97, 98, 99, 100, 101, 101, 102, 
103, 104, 105, 106, 107, 108, 109, 110, 
111, 112, 113, 113, 114, 115, 116, 117, 
118, 119, 120, 121, 122, 123, 124, 125, 
126, 127, 127, 127, 127, 127, 127, 127, 
127, 127, 127, 127, 127, 127, 127, 
//lut index 1
0, 
0, 0, 0, 0, 0, 0, 0, 0, 
0, 0, 0, 0, 0, 0, 0, 0, 
0, 0, 0, 0, 0, 0, 0, 0, 
0, 0, 0, 0, 0, 0, 0, 0, 
0, 0, 0, 0, 0, 0, 0, 0, 
0, 0, 0, 0, 0, 0, 0, 0, 
0, 0, 0, 0, 0, 0, 0, 0, 
0, 0, 0, 0, 0, 0, 0, 0, 
0, 0, 0, 0, 0, 0, 0, 0, 
0, 0, 0, 0, 0, 0, 0, 0, 
0, 0, 0, 0, 0, 0, 0, 0, 
0, 0, 0, 0, 0, 0, 0, 0, 
0, 0, 0, 0, 0, 0, 0, 0, 
0, 0, 0, 0, 0, 0, 0, 0, 
0, 0, 0, 0, 0, 0, 0, 0, 
0, 0, 0, 0, 0, 0, 0, 0, 
1, 1, 1, 1, 1, 1, 1, 1, 
1, 1, 1, 1, 1, 1, 1, 1, 
1, 1, 1, 1, 1, 1, 1, 1, 
1, 1, 1, 1, 1, 1, 1, 1, 
1, 1, 1, 1, 1, 1, 1, 1, 
1, 1, 1, 1, 1, 1, 1, 1, 
1, 1, 1, 1, 1, 1, 1, 1, 
1, 1, 1, 1, 1, 1, 1, 1, 
1, 1, 1, 1, 1, 1, 1, 1, 
1, 1, 1, 1, 1, 1, 1, 1, 
1, 1, 1, 1, 1, 1, 1, 1, 
1, 1, 1, 1, 1, 1, 1, 1, 
1, 1, 1, 1, 1, 1, 1, 1, 
1, 1, 1, 1, 1, 1, 1, 1, 
1, 1, 1, 1, 1, 1, 1, 1, 
1, 1, 1, 1, 1, 1, 1, 


};







static inline const int8_t* Getfc_lif_layer_2LUTPointer()
{
	return lut_fc_lif_layer_2;
}
static inline size_t Getfc_lif_layer_2LUTLen()
{
	return sizeof(lut_fc_lif_layer_2);
}

/*
Register Command Stream:
+---------------------------+-----------+-------------------------+
| Command Name              | Parameter | Payload Data            |
+---------------------------+-----------+-------------------------+
| NPU_SET_DMA0_SRC_REGION   | 4         | -                       |
| NPU_SET_DMA0_SRC          | 0         | 0x00000000 (0)          |
| NPU_SET_DMA0_DST_REGION   | 259       | -                       |
| NPU_SET_DMA0_DST          | 0         | 0x0000b800 (47104)      |
| NPU_SET_DMA0_LEN          | 0         | 0x00000100 (256)        |
| NPU_OP_DMA_START          | 0         | -                       |
| NPU_SET_OFM_SCALE         | 37        | 0x66cd3380 (1724724096) |
| NPU_SET_IFM_REGION        | 3         | -                       |
| NPU_SET_IFM_BASE0         | 0         | 0x00000000 (0)          |
| NPU_SET_IFM_BASE1         | 0         | 0x00000000 (0)          |
| NPU_SET_IFM_BASE2         | 0         | 0x00000000 (0)          |
| NPU_SET_IFM_BASE3         | 0         | 0x00000000 (0)          |
| NPU_SET_IFM_HEIGHT0_M1    | 0         | -                       |
| NPU_SET_IFM_HEIGHT1_M1    | 65535     | -                       |
| NPU_SET_IFM_WIDTH0_M1     | 0         | -                       |
| NPU_SET_IFM_DEPTH_M1      | 63        | -                       |
| NPU_SET_IFM_STRIDE_C      | 0         | 0x00000001 (1)          |
| NPU_SET_IFM_STRIDE_Y      | 0         | 0x00000040 (64)         |
| NPU_SET_IFM_STRIDE_X      | 0         | 0x00000040 (64)         |
| NPU_SET_IFM_ZERO_POINT    | 65        | -                       |
| NPU_SET_IFM_PRECISION     | 1         | -                       |
| NPU_SET_IFM_UPSCALE       | 0         | -                       |
| NPU_SET_OFM_REGION        | 1         | -                       |
| NPU_SET_OFM_BASE0         | 0         | 0x00000000 (0)          |
| NPU_SET_OFM_BASE1         | 0         | 0x00000000 (0)          |
| NPU_SET_OFM_BASE2         | 0         | 0x00000000 (0)          |
| NPU_SET_OFM_BASE3         | 0         | 0x00000000 (0)          |
| NPU_SET_OFM_HEIGHT0_M1    | 0         | -                       |
| NPU_SET_OFM_HEIGHT1_M1    | 65535     | -                       |
| NPU_SET_OFM_WIDTH0_M1     | 0         | -                       |
| NPU_SET_OFM_HEIGHT_M1     | 0         | -                       |
| NPU_SET_OFM_WIDTH_M1      | 0         | -                       |
| NPU_SET_OFM_DEPTH_M1      | 63        | -                       |
| NPU_SET_OFM_STRIDE_C      | 0         | 0x00000010 (16)         |
| NPU_SET_OFM_STRIDE_Y      | 0         | 0x00000040 (64)         |
| NPU_SET_OFM_STRIDE_X      | 0         | 0x00000010 (16)         |
| NPU_SET_OFM_ZERO_POINT    | 127       | -                       |
| NPU_SET_OFM_PRECISION     | 321       | -                       |
| NPU_SET_ACTIVATION        | 16        | -                       |
| NPU_SET_ACTIVATION_MIN    | 65408     | -                       |
| NPU_SET_ACTIVATION_MAX    | 127       | -                       |
| NPU_SET_OFM_BLK_HEIGHT_M1 | 1         | -                       |
| NPU_SET_OFM_BLK_WIDTH_M1  | 1         | -                       |
| NPU_SET_OFM_BLK_DEPTH_M1  | 63        | -                       |
| NPU_SET_IFM_IB_END        | 46        | -                       |
| NPU_SET_AB_START          | 46        | -                       |
| NPU_SET_IFM2_IB_START     | 10        | -                       |
| NPU_SET_ACC_FORMAT        | 0         | -                       |
| NPU_SET_IFM2_REGION       | 1         | -                       |
| NPU_SET_IFM2_BASE0        | 0         | 0x000000c0 (192)        |
| NPU_SET_IFM2_BASE1        | 0         | 0x00000000 (0)          |
| NPU_SET_IFM2_BASE2        | 0         | 0x00000000 (0)          |
| NPU_SET_IFM2_BASE3        | 0         | 0x00000000 (0)          |
| NPU_SET_IFM2_HEIGHT0_M1   | 0         | -                       |
| NPU_SET_IFM2_HEIGHT1_M1   | 65535     | -                       |
| NPU_SET_IFM2_WIDTH0_M1    | 0         | -                       |
| NPU_SET_IFM2_STRIDE_C     | 0         | 0x00000001 (1)          |
| NPU_SET_IFM2_STRIDE_Y     | 0         | 0x00000001 (1)          |
| NPU_SET_IFM2_STRIDE_X     | 0         | 0x00000001 (1)          |
| NPU_SET_IFM2_ZERO_POINT   | 65408     | -                       |
| NPU_SET_IFM_PRECISION     | 1         | -                       |
| NPU_SET_IFM2_BROADCAST    | 4         | -                       |
| NPU_SET_BLOCKDEP          | 0         | -                       |
| NPU_OP_DMA_WAIT           | 0         | -                       |
| NPU_OP_ELEMENTWISE        | 0         | -                       |
| NPU_SET_IFM_REGION        | 5         | -                       |
| NPU_SET_IFM_ZERO_POINT    | 0         | -                       |
| NPU_SET_IFM_PAD_TOP       | 0         | -                       |
| NPU_SET_IFM_PAD_LEFT      | 0         | -                       |
| NPU_SET_IFM_PAD_BOTTOM    | 0         | -                       |
| NPU_SET_IFM_PAD_RIGHT     | 0         | -                       |
| NPU_SET_OFM_BASE0         | 0         | 0x00000040 (64)         |
| NPU_SET_OFM_ZERO_POINT    | 0         | -                       |
| NPU_SET_OFM_PRECISION     | 65        | -                       |
| NPU_SET_KERNEL_HEIGHT_M1  | 0         | -                       |
| NPU_SET_KERNEL_WIDTH_M1   | 0         | -                       |
| NPU_SET_KERNEL_STRIDE     | 0         | -                       |
| NPU_SET_WEIGHT_REGION     | 0         | -                       |
| NPU_SET_WEIGHT_BASE       | 0         | 0x00000280 (640)        |
| NPU_SET_WEIGHT_LENGTH     | 0         | 0x00000cb0 (3248)       |
| NPU_SET_SCALE_REGION      | 0         | -                       |
| NPU_SET_SCALE_BASE        | 0         | 0x00000000 (0)          |
| NPU_SET_SCALE_LENGTH      | 0         | 0x00000280 (640)        |
| NPU_SET_ACTIVATION        | 0         | -                       |
| NPU_SET_IFM_IB_END        | 10        | -                       |
| NPU_SET_AB_START          | 30        | -                       |
| NPU_SET_BLOCKDEP          | 3         | -                       |
| NPU_OP_CONV               | 0         | -                       |
| NPU_SET_OFM_SCALE         | 38        | 0x533bf600 (1396438528) |
| NPU_SET_IFM_REGION        | 1         | -                       |
| NPU_SET_IFM_BASE0         | 0         | 0x00000080 (128)        |
| NPU_SET_IFM_ZERO_POINT    | 65510     | -                       |
| NPU_SET_OFM_BASE0         | 0         | 0x00000000 (0)          |
| NPU_SET_OFM_ZERO_POINT    | 65501     | -                       |
| NPU_SET_OFM_PRECISION     | 321       | -                       |
| NPU_SET_IFM_IB_END        | 46        | -                       |
| NPU_SET_AB_START          | 46        | -                       |
| NPU_SET_IFM2_BASE0        | 0         | 0x00000000 (0)          |
| NPU_SET_IFM2_STRIDE_C     | 0         | 0x00000010 (16)         |
| NPU_SET_IFM2_STRIDE_Y     | 0         | 0x00000040 (64)         |
| NPU_SET_IFM2_STRIDE_X     | 0         | 0x00000010 (16)         |
| NPU_SET_IFM_PRECISION     | 65        | -                       |
| NPU_SET_IFM2_BROADCAST    | 0         | -                       |
| NPU_OP_ELEMENTWISE        | 0         | -                       |
| NPU_SET_OPA_SCALE         | 12        | 0x4e38e38e (1312351118) |
| NPU_SET_OPB_SCALE         | 0         | 0x00000000 (0)          |
| NPU_SET_OFM_SCALE         | 49        | 0x4ccccccd (1288490189) |
| NPU_SET_IFM_BASE0         | 0         | 0x00000000 (0)          |
| NPU_SET_IFM_STRIDE_C      | 0         | 0x00000010 (16)         |
| NPU_SET_IFM_STRIDE_X      | 0         | 0x00000010 (16)         |
| NPU_SET_IFM_ZERO_POINT    | 65501     | -                       |
| NPU_SET_IFM_PRECISION     | 321       | -                       |
| NPU_SET_OFM_BASE0         | 0         | 0x00000080 (128)        |
| NPU_SET_OFM_ZERO_POINT    | 65510     | -                       |
| NPU_SET_IFM2_BASE0        | 0         | 0x00000040 (64)         |
| NPU_SET_IFM2_ZERO_POINT   | 0         | -                       |
| NPU_SET_BLOCKDEP          | 0         | -                       |
| NPU_OP_ELEMENTWISE        | 1         | -                       |
| NPU_SET_DMA0_SRC          | 0         | 0x00000100 (256)        |
| NPU_SET_DMA0_DST          | 0         | 0x0000b900 (47360)      |
| NPU_OP_DMA_START          | 0         | -                       |
| NPU_SET_OPA_SCALE         | 18        | 0x6d3a06d4 (1832519380) |
| NPU_SET_OFM_SCALE         | 47        | 0x78000000 (2013265920) |
| NPU_SET_IFM_BASE0         | 0         | 0x00000080 (128)        |
| NPU_SET_IFM_ZERO_POINT    | 65510     | -                       |
| NPU_SET_IFM_PRECISION     | 577       | -                       |
| NPU_SET_OFM_REGION        | 6         | -                       |
| NPU_SET_OFM_BASE0         | 0         | 0x00000000 (0)          |
| NPU_SET_OFM_STRIDE_C      | 0         | 0x00000001 (1)          |
| NPU_SET_OFM_STRIDE_X      | 0         | 0x00000040 (64)         |
| NPU_SET_OFM_ZERO_POINT    | 0         | -                       |
| NPU_SET_OFM_PRECISION     | 257       | -                       |
| NPU_SET_ACTIVATION        | 17        | -                       |
| NPU_SET_IFM2_REGION       | 3         | -                       |
| NPU_SET_IFM2_STRIDE_C     | 0         | 0x00000001 (1)          |
| NPU_SET_IFM2_STRIDE_X     | 0         | 0x00000040 (64)         |
| NPU_SET_IFM2_ZERO_POINT   | 64261     | -                       |
| NPU_SET_IFM_PRECISION     | 1         | -                       |
| NPU_OP_DMA_WAIT           | 0         | -                       |
| NPU_OP_ELEMENTWISE        | 2         | -                       |
| NPU_SET_OFM_SCALE         | 33        | 0x5d174580 (1561806208) |
| NPU_SET_IFM_REGION        | 3         | -                       |
| NPU_SET_IFM_BASE0         | 0         | 0x00000040 (64)         |
| NPU_SET_IFM_STRIDE_C      | 0         | 0x00000001 (1)          |
| NPU_SET_IFM_STRIDE_X      | 0         | 0x00000040 (64)         |
| NPU_SET_IFM_ZERO_POINT    | 64261     | -                       |
| NPU_SET_IFM_PRECISION     | 1         | -                       |
| NPU_SET_OFM_REGION        | 1         | -                       |
| NPU_SET_OFM_BASE0         | 0         | 0x00000040 (64)         |
| NPU_SET_OFM_STRIDE_C      | 0         | 0x00000010 (16)         |
| NPU_SET_OFM_STRIDE_X      | 0         | 0x00000010 (16)         |
| NPU_SET_OFM_ZERO_POINT    | 65408     | -                       |
| NPU_SET_OFM_PRECISION     | 321       | -                       |
| NPU_SET_ACTIVATION        | 0         | -                       |
| NPU_SET_IFM2_REGION       | 6         | -                       |
| NPU_SET_IFM2_BASE0        | 0         | 0x00000000 (0)          |
| NPU_SET_IFM2_ZERO_POINT   | 0         | -                       |
| NPU_OP_ELEMENTWISE        | 0         | -                       |
| NPU_SET_OPA_SCALE         | 15        | 0x4b17e4b1 (1259857073) |
| NPU_SET_OFM_SCALE         | 49        | 0x40000000 (1073741824) |
| NPU_SET_IFM_REGION        | 1         | -                       |
| NPU_SET_IFM_BASE0         | 0         | 0x00000080 (128)        |
| NPU_SET_IFM_STRIDE_C      | 0         | 0x00000010 (16)         |
| NPU_SET_IFM_STRIDE_X      | 0         | 0x00000010 (16)         |
| NPU_SET_IFM_ZERO_POINT    | 65510     | -                       |
| NPU_SET_IFM_PRECISION     | 577       | -                       |
| NPU_SET_OFM_BASE0         | 0         | 0x00000080 (128)        |
| NPU_SET_OFM_STRIDE_C      | 0         | 0x00000001 (1)          |
| NPU_SET_OFM_STRIDE_X      | 0         | 0x00000040 (64)         |
| NPU_SET_OFM_ZERO_POINT    | 65510     | -                       |
| NPU_SET_OFM_PRECISION     | 257       | -                       |
| NPU_SET_IFM2_REGION       | 1         | -                       |
| NPU_SET_IFM2_BASE0        | 0         | 0x00000040 (64)         |
| NPU_SET_IFM2_STRIDE_C     | 0         | 0x00000010 (16)         |
| NPU_SET_IFM2_STRIDE_X     | 0         | 0x00000010 (16)         |
| NPU_SET_IFM2_ZERO_POINT   | 65408     | -                       |
| NPU_SET_IFM_PRECISION     | 65        | -                       |
| NPU_OP_ELEMENTWISE        | 2         | -                       |
| NPU_SET_IFM_REGION        | 6         | -                       |
| NPU_SET_IFM_BASE0         | 0         | 0x00000000 (0)          |
| NPU_SET_IFM_STRIDE_C      | 0         | 0x00000001 (1)          |
| NPU_SET_IFM_STRIDE_X      | 0         | 0x00000040 (64)         |
| NPU_SET_IFM_ZERO_POINT    | 0         | -                       |
| NPU_SET_IFM_PRECISION     | 1         | -                       |
| NPU_SET_OFM_BASE0         | 0         | 0x000000c1 (193)        |
| NPU_SET_OFM_DEPTH_M1      | 0         | -                       |
| NPU_SET_OFM_STRIDE_Y      | 0         | 0x00000001 (1)          |
| NPU_SET_OFM_STRIDE_X      | 0         | 0x00000001 (1)          |
| NPU_SET_OFM_ZERO_POINT    | 65408     | -                       |
| NPU_SET_OFM_BLK_DEPTH_M1  | 7         | -                       |
| NPU_SET_IFM_IB_END        | 10        | -                       |
| NPU_SET_AB_START          | 30        | -                       |
| NPU_SET_OFM_SCALE         | 22        | 0x3fc000ff (1069547775) |
| NPU_SET_BLOCKDEP          | 3         | -                       |
| NPU_OP_POOL               | 2         | -                       |
| NPU_SET_OFM_SCALE         | 30        | 0x40000000 (1073741824) |
| NPU_SET_IFM_REGION        | 1         | -                       |
| NPU_SET_IFM_BASE0         | 0         | 0x000000c0 (192)        |
| NPU_SET_IFM_DEPTH_M1      | 0         | -                       |
| NPU_SET_IFM_STRIDE_Y      | 0         | 0x00000001 (1)          |
| NPU_SET_IFM_STRIDE_X      | 0         | 0x00000001 (1)          |
| NPU_SET_IFM_ZERO_POINT    | 65408     | -                       |
| NPU_SET_OFM_BASE0         | 0         | 0x000000c0 (192)        |
| NPU_SET_ACTIVATION_MAX    | 65408     | -                       |
| NPU_SET_IFM_IB_END        | 46        | -                       |
| NPU_SET_AB_START          | 46        | -                       |
| NPU_SET_IFM2_ZERO_POINT   | 0         | -                       |
| NPU_SET_IFM_PRECISION     | 0         | -                       |
| NPU_SET_IFM2_BROADCAST    | 128       | -                       |
| NPU_SET_IFM2_SCALAR       | 0         | -                       |
| NPU_OP_ELEMENTWISE        | 0         | -                       |
| NPU_OP_STOP               | 65535     | -                       |
+---------------------------+-----------+-------------------------+
*/
