#include <stddef.h>
#include <stdint.h>




#define IN_SPK_ADDR 0
#define WEIGHT_ADDR 80
#define BIAS_ADDR 48
#define IN_CURR_ADDR 16
#define WEIGHT_LEN 272
#define BIAS_LEN 320





static const uint8_t cms_fullyconnected[] __attribute__((aligned(16))) = 
{

0x43, 0x4f, 0x50, 0x31,
0x01, 0x00, 0x10, 0x00,
0x08, 0x30, 0x00, 0x00,
0x00, 0x00, 0x06, 0x10,
0x05, 0x00, 0x00, 0x00,
0x05, 0x00, 0x00, 0x00,
0x05, 0x00, 0x00, 0x00,
0x02, 0x00, 0x4a, 0x00,
0x0f, 0x01, 0x01, 0x00,
0x00, 0x40, 0x00, 0x00,
0x00, 0x00, 0x00, 0x00,
0x01, 0x40, 0x00, 0x00,
0x00, 0x00, 0x00, 0x00,
0x02, 0x40, 0x00, 0x00,
0x00, 0x00, 0x00, 0x00,
0x03, 0x40, 0x00, 0x00,
0x00, 0x00, 0x00, 0x00,
0x0b, 0x01, 0x00, 0x00,
0x0c, 0x01, 0xff, 0xff,
0x0a, 0x01, 0x00, 0x00,
0x04, 0x01, 0x0f, 0x00,
0x06, 0x40, 0x00, 0x00,
0x01, 0x00, 0x00, 0x00,
0x05, 0x40, 0x00, 0x00,
0x10, 0x00, 0x00, 0x00,
0x04, 0x40, 0x00, 0x00,
0x10, 0x00, 0x00, 0x00,
0x09, 0x01, 0x00, 0x00,
0x05, 0x01, 0x01, 0x00,
0x07, 0x01, 0x00, 0x00,
0x00, 0x01, 0x00, 0x00,
0x01, 0x01, 0x00, 0x00,
0x03, 0x01, 0x00, 0x00,
0x02, 0x01, 0x00, 0x00,
0x1f, 0x01, 0x01, 0x00,
0x10, 0x40, 0x00, 0x00,
0x10, 0x00, 0x00, 0x00,
0x11, 0x40, 0x00, 0x00,
0x00, 0x00, 0x00, 0x00,
0x12, 0x40, 0x00, 0x00,
0x00, 0x00, 0x00, 0x00,
0x13, 0x40, 0x00, 0x00,
0x00, 0x00, 0x00, 0x00,
0x1b, 0x01, 0x00, 0x00,
0x1c, 0x01, 0xff, 0xff,
0x1a, 0x01, 0x00, 0x00,
0x12, 0x01, 0x00, 0x00,
0x11, 0x01, 0x00, 0x00,
0x13, 0x01, 0x1f, 0x00,
0x16, 0x40, 0x00, 0x00,
0x01, 0x00, 0x00, 0x00,
0x15, 0x40, 0x00, 0x00,
0x20, 0x00, 0x00, 0x00,
0x14, 0x40, 0x00, 0x00,
0x20, 0x00, 0x00, 0x00,
0x18, 0x01, 0x00, 0x00,
0x14, 0x01, 0x01, 0x00,
0x21, 0x01, 0x00, 0x00,
0x20, 0x01, 0x00, 0x00,
0x22, 0x01, 0x00, 0x00,
0x28, 0x01, 0x01, 0x00,
0x20, 0x40, 0x00, 0x00,
0x50, 0x00, 0x00, 0x00,
0x21, 0x40, 0x00, 0x00,
0x10, 0x00, 0x00, 0x00,
0x29, 0x01, 0x01, 0x00,
0x22, 0x40, 0x00, 0x00,
0x30, 0x00, 0x00, 0x00,
0x23, 0x40, 0x00, 0x00,
0x20, 0x00, 0x00, 0x00,
0x25, 0x01, 0x00, 0x00,
0x26, 0x01, 0x80, 0xff,
0x27, 0x01, 0x7f, 0x00,
0x16, 0x01, 0x01, 0x00,
0x15, 0x01, 0x01, 0x00,
0x17, 0x01, 0x0f, 0x00,
0x0d, 0x01, 0x0a, 0x00,
0x2d, 0x01, 0x1e, 0x00,
0x24, 0x01, 0x00, 0x00,
0x2f, 0x01, 0x00, 0x00,
0x02, 0x00, 0x00, 0x00,
0x00, 0x00, 0xff, 0xff, 

};







const uint8_t * GetfullyconnectedCMSPointer()
{
	return cms_fullyconnected;
}

size_t GetfullyconnectedCMSLen()
{
	return sizeof(cms_fullyconnected);
}





static const int8_t weight_fullyconnected[] __attribute__((aligned(16))) = 
{

//biases
0x01, 0x00, 0x00, 0x00,
0x00, 0x01, 0x00, 0x00,
0x00, 0x00, 0x01, 0x00,
0x00, 0x00, 0x00, 0x01,
0x00, 0x00, 0x00, 0x00,
0x01, 0x00, 0x00, 0x00,
0x00, 0x01, 0x00, 0x00,
0x00, 0x00, 0x01, 0x00,
0x00, 0x00, 0x00, 0x01,
0x00, 0x00, 0x00, 0x00,
0x01, 0x00, 0x00, 0x00,
0x00, 0x01, 0x00, 0x00,
0x00, 0x00, 0x01, 0x00,
0x00, 0x00, 0x00, 0x01,
0x00, 0x00, 0x00, 0x00,
0x01, 0x00, 0x00, 0x00,
0x00, 0x01, 0x00, 0x00,
0x00, 0x00, 0x01, 0x00,
0x00, 0x00, 0x00, 0x01,
0x00, 0x00, 0x00, 0x00,
0x01, 0x00, 0x00, 0x00,
0x00, 0x01, 0x00, 0x00,
0x00, 0x00, 0x01, 0x00,
0x00, 0x00, 0x00, 0x01,
0x00, 0x00, 0x00, 0x00,
0x01, 0x00, 0x00, 0x00,
0x00, 0x01, 0x00, 0x00,
0x00, 0x00, 0x01, 0x00,
0x00, 0x00, 0x00, 0x01,
0x00, 0x00, 0x00, 0x00,
0x01, 0x00, 0x00, 0x00,
0x00, 0x01, 0x00, 0x00,
0x00, 0x00, 0x01, 0x00,
0x00, 0x00, 0x00, 0x01,
0x00, 0x00, 0x00, 0x00,
0x01, 0x00, 0x00, 0x00,
0x00, 0x01, 0x00, 0x00,
0x00, 0x00, 0x01, 0x00,
0x00, 0x00, 0x00, 0x01,
0x00, 0x00, 0x00, 0x00,
0x01, 0x00, 0x00, 0x00,
0x00, 0x01, 0x00, 0x00,
0x00, 0x00, 0x01, 0x00,
0x00, 0x00, 0x00, 0x01,
0x00, 0x00, 0x00, 0x00,
0x01, 0x00, 0x00, 0x00,
0x00, 0x01, 0x00, 0x00,
0x00, 0x00, 0x01, 0x00,
0x00, 0x00, 0x00, 0x01,
0x00, 0x00, 0x00, 0x00,
0x01, 0x00, 0x00, 0x00,
0x00, 0x01, 0x00, 0x00,
0x00, 0x00, 0x01, 0x00,
0x00, 0x00, 0x00, 0x01,
0x00, 0x00, 0x00, 0x00,
0x01, 0x00, 0x00, 0x00,
0x00, 0x01, 0x00, 0x00,
0x00, 0x00, 0x01, 0x00,
0x00, 0x00, 0x00, 0x01,
0x00, 0x00, 0x00, 0x00,
0x01, 0x00, 0x00, 0x00,
0x00, 0x01, 0x00, 0x00,
0x00, 0x00, 0x01, 0x00,
0x00, 0x00, 0x00, 0x01,
0x00, 0x00, 0x00, 0x00,
0x01, 0x00, 0x00, 0x00,
0x00, 0x01, 0x00, 0x00,
0x00, 0x00, 0x01, 0x00,
0x00, 0x00, 0x00, 0x01,
0x00, 0x00, 0x00, 0x00,
0x01, 0x00, 0x00, 0x00,
0x00, 0x01, 0x00, 0x00,
0x00, 0x00, 0x01, 0x00,
0x00, 0x00, 0x00, 0x01,
0x00, 0x00, 0x00, 0x00,
0x01, 0x00, 0x00, 0x00,
0x00, 0x01, 0x00, 0x00,
0x00, 0x00, 0x01, 0x00,
0x00, 0x00, 0x00, 0x01,
0x00, 0x00, 0x00, 0x00, 
//weights
0xee, 0x03, 0x64, 0x40,
0x04, 0x68, 0x24, 0x77,
0x97, 0xe4, 0xee, 0x92,
0xa8, 0xea, 0xdd, 0x25,
0x51, 0xd5, 0xbb, 0x4b,
0xa2, 0xaa, 0x77, 0x97,
0x44, 0x55, 0xef, 0x2e,
0x89, 0xaa, 0xde, 0x5d,
0x12, 0x55, 0xbd, 0xbb,
0x24, 0xaa, 0x7a, 0x77,
0x49, 0x54, 0xf5, 0xee,
0x92, 0xa8, 0xea, 0x0d,
0x24, 0x55, 0x55, 0x1d,
0x08, 0x40, 0x03, 0x10,
0x00, 0x00, 0x00, 0x00,
0x00, 0x00, 0x00, 0x00,
0x00, 0x00, 0x00, 0x00,
0x00, 0x00, 0x80, 0xfb,
0x00, 0xe9, 0xee, 0x92,
0xdc, 0x5d, 0x12, 0x55,
0xbd, 0xbb, 0x24, 0xaa,
0x7a, 0x77, 0x49, 0x54,
0xf5, 0xee, 0x92, 0xa8,
0xea, 0xdd, 0x25, 0x51,
0xd5, 0xbb, 0x4b, 0xa2,
0xaa, 0x77, 0x97, 0x44,
0x55, 0xef, 0x2e, 0x89,
0xaa, 0xde, 0x5d, 0x12,
0x55, 0xbd, 0x81, 0xa4,
0xaa, 0xaa, 0x03, 0x01,
0x68, 0x00, 0x02, 0x00,
0x00, 0x00, 0x00, 0x00,
0x00, 0x00, 0x00, 0x00,
0x00, 0x00, 0x00, 0x00,
0x00, 0x70, 0x1f, 0x20,
0xdd, 0x5d, 0x92, 0xbb,
0x4b, 0xa2, 0xaa, 0x77,
0x97, 0x44, 0x55, 0xef,
0x2e, 0x89, 0xaa, 0xde,
0x5d, 0x12, 0x55, 0xbd,
0xbb, 0x24, 0xaa, 0x7a,
0x77, 0x49, 0x54, 0xf5,
0xee, 0x92, 0xa8, 0xea,
0xdd, 0x25, 0x51, 0xd5,
0xbb, 0x4b, 0xa2, 0xaa,
0x37, 0x90, 0x54, 0x55,
0x75, 0x20, 0x00, 0x0d,
0x40, 0x00, 0x00, 0x00,
0x00, 0x00, 0x00, 0x00,
0x00, 0x00, 0x00, 0x00,
0x00, 0x00, 0x00, 0x00,
0xee, 0x03, 0xa4, 0xbb,
0x4b, 0x72, 0x77, 0x49,
0x54, 0xf5, 0xee, 0x92,
0xa8, 0xea, 0xdd, 0x25,
0x51, 0xd5, 0xbb, 0x4b,
0xa2, 0xaa, 0x77, 0x97,
0x44, 0x55, 0xef, 0x2e,
0x89, 0xaa, 0xde, 0x5d,
0x12, 0x55, 0xbd, 0xbb,
0x24, 0xaa, 0x7a, 0x77,
0x49, 0x54, 0xf5, 0x06,
0x92, 0xaa, 0xaa, 0x0e,
0x04, 0xa0, 0x01, 0x08,
0x00, 0x00, 0x00, 0x00,
0x00, 0x00, 0x00, 0x00,
0x00, 0x00, 0x00, 0x00,
0x00, 0x00, 0xe0, 0xff, 

};






const int8_t * GetfullyconnectedWeightsPointer()
{
	return weight_fullyconnected;
}

size_t GetfullyconnectedWeightsLen()
{
	return sizeof(weight_fullyconnected);
}

