#pragma once
#include <stddef.h>
#include <stdint.h>




// Tensor sizes

#define FC_LIF_LAYER_1_IS_LAST_LAYER 0
#define FC_LIF_LAYER_1_MAX_NUM_TENSORS_TO_TRACK 8
#define FC_LIF_LAYER_1_TENSOR_ARENA_SIZE  160
#define FC_LIF_LAYER_1_INPUT_LAYER_SIZE  48
#define FC_LIF_LAYER_1_OUTPUT_LAYER_SIZE  48
#define FC_LIF_LAYER_1_WEIGHT_LEN 2192
#define FC_LIF_LAYER_1_BIAS_LEN 480

// Input/output addresses (Relative Addressing)

#define FC_LIF_LAYER_1_IN_SPK_ADDR 0
#define FC_LIF_LAYER_1_BIAS_ADDR 0
#define FC_LIF_LAYER_1_WEIGHT_ADDR 480
#define FC_LIF_LAYER_1_LN_BETA_ADDR 0
#define FC_LIF_LAYER_1_VTH_ADDR 48
#define FC_LIF_LAYER_1_V_MEM_ADDR 96
#define FC_LIF_LAYER_1_TIME_NOT_UPDATED_ADDR 144
#define FC_LIF_LAYER_1_IN_CURR_ADDR 48
#define FC_LIF_LAYER_1_DECAY_ADDR 0
#define FC_LIF_LAYER_1_DECAYED_MEM_ADDR 0
#define FC_LIF_LAYER_1_UPDATE_NXT_LAYER_ADDR 145
#define FC_LIF_LAYER_1_OUT_SPK_ADDR 0
#define FC_LIF_LAYER_1_OUT_SPK_SUM_ADDR -1

//Quantization Params

#define FC_LIF_LAYER_1_IN_SPK_SCALE 1.0
#define FC_LIF_LAYER_1_IN_SPK_ZERO_POINT 0
#define FC_LIF_LAYER_1_BIAS_SCALE 0.01762619467342601
#define FC_LIF_LAYER_1_BIAS_ZERO_POINT 0
#define FC_LIF_LAYER_1_WEIGHT_SCALE 0.01762619467342601
#define FC_LIF_LAYER_1_WEIGHT_ZERO_POINT 0
#define FC_LIF_LAYER_1_LN_BETA_SCALE 0.0007843137254901962
#define FC_LIF_LAYER_1_LN_BETA_ZERO_POINT 65
#define FC_LIF_LAYER_1_VTH_SCALE 0.0007843137254901964
#define FC_LIF_LAYER_1_VTH_ZERO_POINT -1275
#define FC_LIF_LAYER_1_V_MEM_SCALE 0.058823529411764705
#define FC_LIF_LAYER_1_V_MEM_ZERO_POINT -26
#define FC_LIF_LAYER_1_TIME_NOT_UPDATED_SCALE 0.06274509803921569
#define FC_LIF_LAYER_1_TIME_NOT_UPDATED_ZERO_POINT -128
#define FC_LIF_LAYER_1_DECAY_SCALE 0.0037254901960784314
#define FC_LIF_LAYER_1_DECAY_ZERO_POINT -128
#define FC_LIF_LAYER_1_IN_CURR_SCALE 0.047058823529411764
#define FC_LIF_LAYER_1_IN_CURR_ZERO_POINT 0
#define FC_LIF_LAYER_1_DECAYED_MEM_SCALE 0.043137254901960784
#define FC_LIF_LAYER_1_DECAYED_MEM_ZERO_POINT -35
#define FC_LIF_LAYER_1_UPDATE_NXT_LAYER_SCALE 0.00392156862745098
#define FC_LIF_LAYER_1_UPDATE_NXT_LAYER_ZERO_POINT -128
#define FC_LIF_LAYER_1_OUT_SPK_SCALE 1.0
#define FC_LIF_LAYER_1_OUT_SPK_ZERO_POINT 0
#define FC_LIF_LAYER_1_OUT_SPK_SUM_SCALE 0
#define FC_LIF_LAYER_1_OUT_SPK_SUM_ZERO_POINT 0











static const uint8_t cms_fc_lif_layer_1[] __attribute__((aligned(16))) = 
{

0x43, 0x4f, 0x50, 0x31,
0x01, 0x00, 0x10, 0x00,
0x08, 0x30, 0x00, 0x00,
0x00, 0x00, 0x06, 0x10,
0x05, 0x00, 0x00, 0x00,
0x05, 0x00, 0x00, 0x00,
0x05, 0x00, 0x00, 0x00,
0x02, 0x00, 0x2a, 0x01,
0x30, 0x01, 0x04, 0x00,
0x30, 0x40, 0x00, 0x00,
0x00, 0x00, 0x00, 0x00,
0x31, 0x01, 0x03, 0x01,
0x31, 0x40, 0x00, 0x00,
0x00, 0xb8, 0x00, 0x00,
0x32, 0x40, 0x00, 0x00,
0x00, 0x01, 0x00, 0x00,
0x10, 0x00, 0x00, 0x00,
0x24, 0x40, 0x25, 0x00,
0x80, 0x33, 0xcd, 0x66,
0x0f, 0x01, 0x03, 0x00,
0x00, 0x40, 0x00, 0x00,
0x00, 0x00, 0x00, 0x00,
0x01, 0x40, 0x00, 0x00,
0x00, 0x00, 0x00, 0x00,
0x02, 0x40, 0x00, 0x00,
0x00, 0x00, 0x00, 0x00,
0x03, 0x40, 0x00, 0x00,
0x00, 0x00, 0x00, 0x00,
0x0b, 0x01, 0x00, 0x00,
0x0c, 0x01, 0xff, 0xff,
0x0a, 0x01, 0x00, 0x00,
0x04, 0x01, 0x2f, 0x00,
0x06, 0x40, 0x00, 0x00,
0x01, 0x00, 0x00, 0x00,
0x05, 0x40, 0x00, 0x00,
0x30, 0x00, 0x00, 0x00,
0x04, 0x40, 0x00, 0x00,
0x30, 0x00, 0x00, 0x00,
0x09, 0x01, 0x41, 0x00,
0x05, 0x01, 0x01, 0x00,
0x07, 0x01, 0x00, 0x00,
0x1f, 0x01, 0x01, 0x00,
0x10, 0x40, 0x00, 0x00,
0x00, 0x00, 0x00, 0x00,
0x11, 0x40, 0x00, 0x00,
0x00, 0x00, 0x00, 0x00,
0x12, 0x40, 0x00, 0x00,
0x00, 0x00, 0x00, 0x00,
0x13, 0x40, 0x00, 0x00,
0x00, 0x00, 0x00, 0x00,
0x1b, 0x01, 0x00, 0x00,
0x1c, 0x01, 0xff, 0xff,
0x1a, 0x01, 0x00, 0x00,
0x12, 0x01, 0x00, 0x00,
0x11, 0x01, 0x00, 0x00,
0x13, 0x01, 0x2f, 0x00,
0x16, 0x40, 0x00, 0x00,
0x10, 0x00, 0x00, 0x00,
0x15, 0x40, 0x00, 0x00,
0x30, 0x00, 0x00, 0x00,
0x14, 0x40, 0x00, 0x00,
0x10, 0x00, 0x00, 0x00,
0x18, 0x01, 0x7f, 0x00,
0x14, 0x01, 0x41, 0x01,
0x25, 0x01, 0x10, 0x00,
0x26, 0x01, 0x80, 0xff,
0x27, 0x01, 0x7f, 0x00,
0x16, 0x01, 0x01, 0x00,
0x15, 0x01, 0x01, 0x00,
0x17, 0x01, 0x2f, 0x00,
0x0d, 0x01, 0x2e, 0x00,
0x2d, 0x01, 0x2e, 0x00,
0x8d, 0x01, 0x0a, 0x00,
0x24, 0x01, 0x00, 0x00,
0x8f, 0x01, 0x01, 0x00,
0x80, 0x40, 0x00, 0x00,
0x90, 0x00, 0x00, 0x00,
0x81, 0x40, 0x00, 0x00,
0x00, 0x00, 0x00, 0x00,
0x82, 0x40, 0x00, 0x00,
0x00, 0x00, 0x00, 0x00,
0x83, 0x40, 0x00, 0x00,
0x00, 0x00, 0x00, 0x00,
0x8b, 0x01, 0x00, 0x00,
0x8c, 0x01, 0xff, 0xff,
0x8a, 0x01, 0x00, 0x00,
0x86, 0x40, 0x00, 0x00,
0x01, 0x00, 0x00, 0x00,
0x85, 0x40, 0x00, 0x00,
0x01, 0x00, 0x00, 0x00,
0x84, 0x40, 0x00, 0x00,
0x01, 0x00, 0x00, 0x00,
0x89, 0x01, 0x80, 0xff,
0x85, 0x01, 0x01, 0x00,
0x80, 0x01, 0x04, 0x00,
0x2f, 0x01, 0x00, 0x00,
0x11, 0x00, 0x00, 0x00,
0x06, 0x00, 0x00, 0x00,
0x0f, 0x01, 0x05, 0x00,
0x09, 0x01, 0x00, 0x00,
0x00, 0x01, 0x00, 0x00,
0x01, 0x01, 0x00, 0x00,
0x03, 0x01, 0x00, 0x00,
0x02, 0x01, 0x00, 0x00,
0x10, 0x40, 0x00, 0x00,
0x30, 0x00, 0x00, 0x00,
0x18, 0x01, 0x00, 0x00,
0x14, 0x01, 0x41, 0x00,
0x21, 0x01, 0x00, 0x00,
0x20, 0x01, 0x00, 0x00,
0x22, 0x01, 0x00, 0x00,
0x28, 0x01, 0x00, 0x00,
0x20, 0x40, 0x00, 0x00,
0xe0, 0x01, 0x00, 0x00,
0x21, 0x40, 0x00, 0x00,
0x90, 0x08, 0x00, 0x00,
0x29, 0x01, 0x00, 0x00,
0x22, 0x40, 0x00, 0x00,
0x00, 0x00, 0x00, 0x00,
0x23, 0x40, 0x00, 0x00,
0xe0, 0x01, 0x00, 0x00,
0x25, 0x01, 0x00, 0x00,
0x0d, 0x01, 0x0a, 0x00,
0x2d, 0x01, 0x1e, 0x00,
0x2f, 0x01, 0x03, 0x00,
0x02, 0x00, 0x00, 0x00,
0x24, 0x40, 0x26, 0x00,
0x00, 0xf6, 0x3b, 0x53,
0x0f, 0x01, 0x01, 0x00,
0x00, 0x40, 0x00, 0x00,
0x60, 0x00, 0x00, 0x00,
0x09, 0x01, 0xe6, 0xff,
0x10, 0x40, 0x00, 0x00,
0x00, 0x00, 0x00, 0x00,
0x18, 0x01, 0xdd, 0xff,
0x14, 0x01, 0x41, 0x01,
0x0d, 0x01, 0x2e, 0x00,
0x2d, 0x01, 0x2e, 0x00,
0x80, 0x40, 0x00, 0x00,
0x00, 0x00, 0x00, 0x00,
0x86, 0x40, 0x00, 0x00,
0x10, 0x00, 0x00, 0x00,
0x85, 0x40, 0x00, 0x00,
0x30, 0x00, 0x00, 0x00,
0x84, 0x40, 0x00, 0x00,
0x10, 0x00, 0x00, 0x00,
0x85, 0x01, 0x41, 0x00,
0x80, 0x01, 0x00, 0x00,
0x06, 0x00, 0x00, 0x00,
0x25, 0x40, 0x0c, 0x00,
0x55, 0x55, 0x55, 0x75,
0x26, 0x40, 0x00, 0x00,
0x00, 0x00, 0x00, 0x00,
0x24, 0x40, 0x32, 0x00,
0x66, 0x66, 0x66, 0x66,
0x00, 0x40, 0x00, 0x00,
0x00, 0x00, 0x00, 0x00,
0x06, 0x40, 0x00, 0x00,
0x10, 0x00, 0x00, 0x00,
0x04, 0x40, 0x00, 0x00,
0x10, 0x00, 0x00, 0x00,
0x09, 0x01, 0xdd, 0xff,
0x05, 0x01, 0x41, 0x01,
0x10, 0x40, 0x00, 0x00,
0x60, 0x00, 0x00, 0x00,
0x18, 0x01, 0xe6, 0xff,
0x80, 0x40, 0x00, 0x00,
0x30, 0x00, 0x00, 0x00,
0x89, 0x01, 0x00, 0x00,
0x2f, 0x01, 0x00, 0x00,
0x06, 0x00, 0x01, 0x00,
0x30, 0x40, 0x00, 0x00,
0x00, 0x01, 0x00, 0x00,
0x31, 0x40, 0x00, 0x00,
0x00, 0xb9, 0x00, 0x00,
0x10, 0x00, 0x00, 0x00,
0x25, 0x40, 0x12, 0x00,
0xd4, 0x06, 0x3a, 0x6d,
0x24, 0x40, 0x2f, 0x00,
0x00, 0x00, 0x00, 0x78,
0x00, 0x40, 0x00, 0x00,
0x60, 0x00, 0x00, 0x00,
0x09, 0x01, 0xe6, 0xff,
0x05, 0x01, 0x41, 0x02,
0x1f, 0x01, 0x06, 0x00,
0x10, 0x40, 0x00, 0x00,
0x00, 0x00, 0x00, 0x00,
0x16, 0x40, 0x00, 0x00,
0x01, 0x00, 0x00, 0x00,
0x14, 0x40, 0x00, 0x00,
0x30, 0x00, 0x00, 0x00,
0x18, 0x01, 0x00, 0x00,
0x14, 0x01, 0x01, 0x01,
0x25, 0x01, 0x11, 0x00,
0x8f, 0x01, 0x03, 0x00,
0x86, 0x40, 0x00, 0x00,
0x01, 0x00, 0x00, 0x00,
0x84, 0x40, 0x00, 0x00,
0x30, 0x00, 0x00, 0x00,
0x89, 0x01, 0x05, 0xfb,
0x85, 0x01, 0x01, 0x00,
0x11, 0x00, 0x00, 0x00,
0x06, 0x00, 0x02, 0x00,
0x24, 0x40, 0x21, 0x00,
0x80, 0x45, 0x17, 0x5d,
0x0f, 0x01, 0x03, 0x00,
0x00, 0x40, 0x00, 0x00,
0x30, 0x00, 0x00, 0x00,
0x06, 0x40, 0x00, 0x00,
0x01, 0x00, 0x00, 0x00,
0x04, 0x40, 0x00, 0x00,
0x30, 0x00, 0x00, 0x00,
0x09, 0x01, 0x05, 0xfb,
0x05, 0x01, 0x01, 0x00,
0x1f, 0x01, 0x01, 0x00,
0x10, 0x40, 0x00, 0x00,
0x30, 0x00, 0x00, 0x00,
0x16, 0x40, 0x00, 0x00,
0x10, 0x00, 0x00, 0x00,
0x14, 0x40, 0x00, 0x00,
0x10, 0x00, 0x00, 0x00,
0x18, 0x01, 0x80, 0xff,
0x14, 0x01, 0x41, 0x01,
0x25, 0x01, 0x00, 0x00,
0x8f, 0x01, 0x06, 0x00,
0x80, 0x40, 0x00, 0x00,
0x00, 0x00, 0x00, 0x00,
0x89, 0x01, 0x00, 0x00,
0x06, 0x00, 0x00, 0x00,
0x25, 0x40, 0x0f, 0x00,
0xb1, 0xe4, 0x17, 0x4b,
0x24, 0x40, 0x31, 0x00,
0x00, 0x00, 0x00, 0x40,
0x0f, 0x01, 0x01, 0x00,
0x00, 0x40, 0x00, 0x00,
0x60, 0x00, 0x00, 0x00,
0x06, 0x40, 0x00, 0x00,
0x10, 0x00, 0x00, 0x00,
0x04, 0x40, 0x00, 0x00,
0x10, 0x00, 0x00, 0x00,
0x09, 0x01, 0xe6, 0xff,
0x05, 0x01, 0x41, 0x02,
0x10, 0x40, 0x00, 0x00,
0x60, 0x00, 0x00, 0x00,
0x16, 0x40, 0x00, 0x00,
0x01, 0x00, 0x00, 0x00,
0x14, 0x40, 0x00, 0x00,
0x30, 0x00, 0x00, 0x00,
0x18, 0x01, 0xe6, 0xff,
0x14, 0x01, 0x01, 0x01,
0x8f, 0x01, 0x01, 0x00,
0x80, 0x40, 0x00, 0x00,
0x30, 0x00, 0x00, 0x00,
0x86, 0x40, 0x00, 0x00,
0x10, 0x00, 0x00, 0x00,
0x84, 0x40, 0x00, 0x00,
0x10, 0x00, 0x00, 0x00,
0x89, 0x01, 0x80, 0xff,
0x85, 0x01, 0x41, 0x00,
0x06, 0x00, 0x02, 0x00,
0x0f, 0x01, 0x06, 0x00,
0x00, 0x40, 0x00, 0x00,
0x00, 0x00, 0x00, 0x00,
0x06, 0x40, 0x00, 0x00,
0x01, 0x00, 0x00, 0x00,
0x04, 0x40, 0x00, 0x00,
0x30, 0x00, 0x00, 0x00,
0x09, 0x01, 0x00, 0x00,
0x05, 0x01, 0x01, 0x00,
0x10, 0x40, 0x00, 0x00,
0x91, 0x00, 0x00, 0x00,
0x13, 0x01, 0x00, 0x00,
0x15, 0x40, 0x00, 0x00,
0x01, 0x00, 0x00, 0x00,
0x14, 0x40, 0x00, 0x00,
0x01, 0x00, 0x00, 0x00,
0x18, 0x01, 0x80, 0xff,
0x17, 0x01, 0x07, 0x00,
0x0d, 0x01, 0x0a, 0x00,
0x2d, 0x01, 0x1e, 0x00,
0x24, 0x40, 0x16, 0x00,
0xff, 0x00, 0xc0, 0x3f,
0x2f, 0x01, 0x03, 0x00,
0x05, 0x00, 0x02, 0x00,
0x24, 0x40, 0x1e, 0x00,
0x00, 0x00, 0x00, 0x40,
0x0f, 0x01, 0x01, 0x00,
0x00, 0x40, 0x00, 0x00,
0x90, 0x00, 0x00, 0x00,
0x04, 0x01, 0x00, 0x00,
0x05, 0x40, 0x00, 0x00,
0x01, 0x00, 0x00, 0x00,
0x04, 0x40, 0x00, 0x00,
0x01, 0x00, 0x00, 0x00,
0x09, 0x01, 0x80, 0xff,
0x10, 0x40, 0x00, 0x00,
0x90, 0x00, 0x00, 0x00,
0x27, 0x01, 0x80, 0xff,
0x0d, 0x01, 0x2e, 0x00,
0x2d, 0x01, 0x2e, 0x00,
0x89, 0x01, 0x00, 0x00,
0x85, 0x01, 0x00, 0x00,
0x80, 0x01, 0x80, 0x00,
0x81, 0x01, 0x00, 0x00,
0x06, 0x00, 0x00, 0x00,
0x00, 0x00, 0xff, 0xff, 

};







static inline const uint8_t * Getfc_lif_layer_1CMSPointer()
{
	return cms_fc_lif_layer_1;
}

static inline size_t Getfc_lif_layer_1CMSLen()
{
	return sizeof(cms_fc_lif_layer_1);
}





static const int8_t weight_fc_lif_layer_1[] __attribute__((aligned(16))) = 
{

//biases
0x0f, 0x00, 0x00, 0x00,
0x00, 0x9a, 0xf1, 0xe2,
0x5f, 0x20, 0x01, 0x00,
0x00, 0x00, 0x00, 0x9a,
0xf1, 0xe2, 0x5f, 0x20,
0xe5, 0xff, 0xff, 0xff,
0xff, 0x9a, 0xf1, 0xe2,
0x5f, 0x20, 0xeb, 0xff,
0xff, 0xff, 0xff, 0x9a,
0xf1, 0xe2, 0x5f, 0x20,
0x0c, 0x00, 0x00, 0x00,
0x00, 0x9a, 0xf1, 0xe2,
0x5f, 0x20, 0xfa, 0xff,
0xff, 0xff, 0xff, 0x9a,
0xf1, 0xe2, 0x5f, 0x20,
0xf0, 0xff, 0xff, 0xff,
0xff, 0x9a, 0xf1, 0xe2,
0x5f, 0x20, 0xec, 0xff,
0xff, 0xff, 0xff, 0x9a,
0xf1, 0xe2, 0x5f, 0x20,
0xee, 0xff, 0xff, 0xff,
0xff, 0x9a, 0xf1, 0xe2,
0x5f, 0x20, 0xd1, 0xff,
0xff, 0xff, 0xff, 0x9a,
0xf1, 0xe2, 0x5f, 0x20,
0xf3, 0xff, 0xff, 0xff,
0xff, 0x9a, 0xf1, 0xe2,
0x5f, 0x20, 0xfd, 0xff,
0xff, 0xff, 0xff, 0x9a,
0xf1, 0xe2, 0x5f, 0x20,
0xe4, 0xff, 0xff, 0xff,
0xff, 0x9a, 0xf1, 0xe2,
0x5f, 0x20, 0xfc, 0xff,
0xff, 0xff, 0xff, 0x9a,
0xf1, 0xe2, 0x5f, 0x20,
0xd8, 0xff, 0xff, 0xff,
0xff, 0x9a, 0xf1, 0xe2,
0x5f, 0x20, 0xdd, 0xff,
0xff, 0xff, 0xff, 0x9a,
0xf1, 0xe2, 0x5f, 0x20,
0xc5, 0xff, 0xff, 0xff,
0xff, 0x9a, 0xf1, 0xe2,
0x5f, 0x20, 0xff, 0xff,
0xff, 0xff, 0xff, 0x9a,
0xf1, 0xe2, 0x5f, 0x20,
0xfa, 0xff, 0xff, 0xff,
0xff, 0x9a, 0xf1, 0xe2,
0x5f, 0x20, 0xf9, 0xff,
0xff, 0xff, 0xff, 0x9a,
0xf1, 0xe2, 0x5f, 0x20,
0xd7, 0xff, 0xff, 0xff,
0xff, 0x9a, 0xf1, 0xe2,
0x5f, 0x20, 0xf6, 0xff,
0xff, 0xff, 0xff, 0x9a,
0xf1, 0xe2, 0x5f, 0x20,
0xdc, 0xff, 0xff, 0xff,
0xff, 0x9a, 0xf1, 0xe2,
0x5f, 0x20, 0xd8, 0xff,
0xff, 0xff, 0xff, 0x9a,
0xf1, 0xe2, 0x5f, 0x20,
0xe8, 0xff, 0xff, 0xff,
0xff, 0x9a, 0xf1, 0xe2,
0x5f, 0x20, 0xe6, 0xff,
0xff, 0xff, 0xff, 0x9a,
0xf1, 0xe2, 0x5f, 0x20,
0xd6, 0xff, 0xff, 0xff,
0xff, 0x9a, 0xf1, 0xe2,
0x5f, 0x20, 0xff, 0xff,
0xff, 0xff, 0xff, 0x9a,
0xf1, 0xe2, 0x5f, 0x20,
0xcd, 0xff, 0xff, 0xff,
0xff, 0x9a, 0xf1, 0xe2,
0x5f, 0x20, 0xf6, 0xff,
0xff, 0xff, 0xff, 0x9a,
0xf1, 0xe2, 0x5f, 0x20,
0xe8, 0xff, 0xff, 0xff,
0xff, 0x9a, 0xf1, 0xe2,
0x5f, 0x20, 0xd2, 0xff,
0xff, 0xff, 0xff, 0x9a,
0xf1, 0xe2, 0x5f, 0x20,
0xcf, 0xff, 0xff, 0xff,
0xff, 0x9a, 0xf1, 0xe2,
0x5f, 0x20, 0x00, 0x00,
0x00, 0x00, 0x00, 0x9a,
0xf1, 0xe2, 0x5f, 0x20,
0xf6, 0xff, 0xff, 0xff,
0xff, 0x9a, 0xf1, 0xe2,
0x5f, 0x20, 0xf6, 0xff,
0xff, 0xff, 0xff, 0x9a,
0xf1, 0xe2, 0x5f, 0x20,
0xcf, 0xff, 0xff, 0xff,
0xff, 0x9a, 0xf1, 0xe2,
0x5f, 0x20, 0xde, 0xff,
0xff, 0xff, 0xff, 0x9a,
0xf1, 0xe2, 0x5f, 0x20,
0xe9, 0xff, 0xff, 0xff,
0xff, 0x9a, 0xf1, 0xe2,
0x5f, 0x20, 0xf7, 0xff,
0xff, 0xff, 0xff, 0x9a,
0xf1, 0xe2, 0x5f, 0x20,
0x0a, 0x00, 0x00, 0x00,
0x00, 0x9a, 0xf1, 0xe2,
0x5f, 0x20, 0xf4, 0xff,
0xff, 0xff, 0xff, 0x9a,
0xf1, 0xe2, 0x5f, 0x20,
0xf9, 0xff, 0xff, 0xff,
0xff, 0x9a, 0xf1, 0xe2,
0x5f, 0x20, 0xdc, 0xff,
0xff, 0xff, 0xff, 0x9a,
0xf1, 0xe2, 0x5f, 0x20,
0xd7, 0xff, 0xff, 0xff,
0xff, 0x9a, 0xf1, 0xe2,
0x5f, 0x20, 0x07, 0x00,
0x00, 0x00, 0x00, 0x9a,
0xf1, 0xe2, 0x5f, 0x20,
0xcf, 0xff, 0xff, 0xff,
0xff, 0x9a, 0xf1, 0xe2,
0x5f, 0x20, 0xd3, 0xff,
0xff, 0xff, 0xff, 0x9a,
0xf1, 0xe2, 0x5f, 0x20, 
//weights
0xa0, 0x0d, 0x4c, 0xf1,
0xeb, 0x78, 0x24, 0x04,
0x88, 0xc1, 0x81, 0xc0,
0x50, 0x18, 0x0a, 0x8b,
0x46, 0x04, 0x32, 0xec,
0x9d, 0x9e, 0xe1, 0x64,
0xa5, 0x1a, 0x02, 0xcd,
0x5a, 0xa9, 0xcc, 0x56,
0x43, 0x2b, 0x00, 0x20,
0xae, 0x52, 0x34, 0xeb,
0x9d, 0xb9, 0x5e, 0x08,
0x24, 0x82, 0x82, 0xbc,
0x30, 0x10, 0x00, 0x18,
0x0d, 0xff, 0x1c, 0xe9,
0x21, 0xe7, 0x8b, 0x00,
0xe5, 0xa8, 0x44, 0xcc,
0x86, 0xc0, 0x07, 0x00,
0x6f, 0x40, 0x02, 0xc4,
0x39, 0x01, 0x00, 0x1a,
0x44, 0x7a, 0xfd, 0x97,
0x7f, 0x24, 0x33, 0xdb,
0x99, 0xf8, 0x05, 0x80,
0x9f, 0x15, 0x65, 0xef,
0xbb, 0x6f, 0xed, 0x09,
0xf8, 0x13, 0xd0, 0x2f,
0x0a, 0x80, 0xb9, 0x1c,
0x25, 0x01, 0x80, 0xd2,
0x01, 0x92, 0x59, 0xee,
0xe5, 0x0e, 0x1f, 0x00,
0xf0, 0x92, 0x84, 0x65,
0xa1, 0x1d, 0x00, 0xf2,
0x11, 0x41, 0x17, 0xd8,
0xa0, 0x04, 0xe9, 0x83,
0x7c, 0x40, 0x00, 0x1e,
0x1a, 0x01, 0x1e, 0x99,
0x24, 0x02, 0x80, 0xb0,
0x03, 0x0b, 0x11, 0x39,
0x00, 0xf0, 0x29, 0x14,
0x00, 0x1c, 0xc6, 0x01,
0x00, 0x80, 0x40, 0x03,
0xd6, 0xa9, 0x81, 0x00,
0x42, 0x96, 0x10, 0xe0,
0x7f, 0xfe, 0x10, 0x20,
0xfc, 0xb3, 0x00, 0xfe,
0x91, 0xfd, 0xff, 0xfd,
0x57, 0x8e, 0xe7, 0xf7,
0x8f, 0xbc, 0x1f, 0x40,
0xfe, 0x37, 0x2d, 0x5c,
0xff, 0xfd, 0xc4, 0xac,
0x8c, 0x02, 0xfc, 0x0f,
0x00, 0xdc, 0x1b, 0xac,
0x28, 0xc2, 0x67, 0x7b,
0xfe, 0x78, 0xff, 0x3b,
0x20, 0xfc, 0xbc, 0x9a,
0x30, 0xff, 0xc2, 0x69,
0x44, 0x33, 0x10, 0x40,
0x99, 0x81, 0xc2, 0x78,
0x24, 0x00, 0x44, 0x14,
0x1e, 0x6e, 0x10, 0x4a,
0x89, 0x1a, 0xcc, 0x46,
0x0a, 0x02, 0x64, 0x06,
0x16, 0x01, 0x66, 0x14,
0x02, 0x80, 0xae, 0x8b,
0xda, 0x02, 0xe5, 0x8f,
0xff, 0xc0, 0x00, 0x60,
0x76, 0x0a, 0x81, 0x85,
0x08, 0x40, 0x29, 0x5b,
0xcb, 0x3a, 0x63, 0x02,
0x20, 0x72, 0x94, 0x35,
0x53, 0x41, 0x70, 0x00,
0xf8, 0x38, 0x85, 0xfd,
0x74, 0x4c, 0x4f, 0x88,
0x11, 0xce, 0x1f, 0x00,
0xc0, 0x7f, 0xe5, 0xb0,
0x6d, 0xd6, 0x89, 0x0b,
0x79, 0x02, 0x00, 0xc3,
0x84, 0x52, 0xfc, 0xf7,
0x9f, 0xaf, 0x33, 0x6e,
0xd3, 0xd4, 0x03, 0x10,
0x7d, 0x31, 0x31, 0x9b,
0x89, 0x03, 0x00, 0xbf,
0x08, 0x6f, 0x06, 0x05,
0xd7, 0x2e, 0x45, 0x01,
0x60, 0xa4, 0x32, 0x1a,
0x04, 0x39, 0x89, 0x00,
0xe8, 0x6c, 0x94, 0xd0,
0x49, 0xba, 0x90, 0x00,
0x5c, 0x0e, 0xb8, 0xb4,
0x05, 0xd6, 0x00, 0x04,
0xaa, 0xb9, 0x02, 0x36,
0xfc, 0xf7, 0xc7, 0xfd,
0x01, 0x00, 0xff, 0xa2,
0x6b, 0x58, 0x04, 0x87,
0x08, 0x00, 0x00, 0xa0,
0xda, 0xe9, 0x9a, 0x11,
0x00, 0x44, 0xa4, 0x04,
0x42, 0x02, 0xf9, 0xf8,
0x00, 0xf8, 0xef, 0x63,
0xbf, 0xe3, 0xe2, 0xf2,
0xfb, 0xe6, 0xf5, 0x72,
0xec, 0x41, 0x48, 0x5e,
0x80, 0x8c, 0x85, 0x3f,
0x02, 0xc0, 0x9f, 0xde,
0xf8, 0xf1, 0xc3, 0xb1,
0xc3, 0xe0, 0x01, 0x1e,
0x1e, 0x00, 0xde, 0x21,
0x7c, 0x7f, 0x8c, 0xe6,
0xa7, 0x6f, 0xe1, 0xfc,
0xfc, 0x11, 0x28, 0x7c,
0xa7, 0x24, 0x27, 0x3e,
0xe0, 0x8d, 0x8c, 0xc9,
0x1c, 0x30, 0x00, 0xec,
0x5c, 0x86, 0x85, 0xd8,
0x80, 0x03, 0x00, 0x1f,
0x82, 0x2b, 0x28, 0x03,
0x7c, 0x00, 0x78, 0x3a,
0x52, 0x1d, 0x25, 0x0a,
0x08, 0xf4, 0xb9, 0x48,
0x67, 0x01, 0x00, 0x8c,
0x05, 0xaa, 0x52, 0xa5,
0x02, 0x0f, 0x8e, 0x1f,
0x00, 0xe0, 0x93, 0x8a,
0x03, 0xbf, 0x0d, 0x24,
0x00, 0x00, 0x2c, 0x27,
0xfc, 0x8e, 0x90, 0x01,
0x90, 0x15, 0x83, 0x1a,
0x16, 0xe1, 0xea, 0xe3,
0xd1, 0xaf, 0x43, 0x0e,
0x88, 0x86, 0x09, 0x3e,
0x00, 0xf8, 0x64, 0x65,
0xea, 0xc5, 0x21, 0x01,
0x60, 0x22, 0x04, 0x78,
0x58, 0xf0, 0x7c, 0x7a,
0x08, 0x7a, 0x9e, 0x33,
0x3c, 0x00, 0xe8, 0xa1,
0x72, 0x72, 0x89, 0x01,
0x00, 0x14, 0x4a, 0x3a,
0xb8, 0x05, 0x0c, 0x00,
0x08, 0x78, 0xef, 0x5c,
0x01, 0x66, 0x94, 0x80,
0x00, 0x90, 0x10, 0x42,
0x8d, 0x0e, 0x45, 0x03,
0x01, 0x00, 0x10, 0x85,
0x40, 0xfa, 0x54, 0x40,
0xe7, 0x80, 0x20, 0xf0,
0x44, 0x09, 0xc7, 0xa5,
0x55, 0x34, 0x07, 0xb8,
0xbe, 0x72, 0x55, 0xa1,
0x00, 0x50, 0x24, 0x20,
0xe5, 0x2d, 0x1f, 0xff,
0xde, 0x3f, 0x21, 0xe8,
0xef, 0xcb, 0xc0, 0x39,
0x2c, 0x5d, 0x53, 0x3e,
0x07, 0x00, 0x6b, 0x41,
0x12, 0x09, 0x00, 0xc1,
0xcd, 0x6f, 0x3b, 0x90,
0xed, 0x3f, 0x3c, 0x00,
0xf8, 0xc3, 0x40, 0x11,
0xfd, 0xe3, 0xff, 0x2e,
0xb4, 0x8a, 0x79, 0x00,
0xc1, 0x8f, 0xe9, 0xdc,
0xf7, 0xd7, 0x83, 0x80,
0xa1, 0x3a, 0x1f, 0x00,
0xd8, 0x3f, 0xe8, 0xe5,
0xff, 0xf7, 0x63, 0xbc,
0x35, 0x70, 0x8e, 0x27,
0xc1, 0x00, 0x00, 0x9a,
0x9a, 0xca, 0xcc, 0x63,
0x1f, 0x80, 0x80, 0x57,
0x33, 0xc0, 0xbb, 0x16,
0x78, 0x02, 0x0e, 0x00,
0xbe, 0x25, 0x46, 0x29,
0x1e, 0xe0, 0x97, 0x56,
0xaa, 0x8a, 0x94, 0x00,
0xd0, 0xe1, 0x32, 0x4a,
0x61, 0x80, 0x00, 0x00,
0xc2, 0xc6, 0x28, 0xae,
0x02, 0x2e, 0xf0, 0xe0,
0x38, 0x0e, 0x00, 0x3e,
0xee, 0x29, 0x1b, 0x10,
0xc2, 0x00, 0x00, 0x3c,
0xa4, 0xa2, 0xfe, 0x3c,
0xf1, 0xed, 0xc9, 0x9e,
0x16, 0x25, 0x4a, 0x38,
0x04, 0x60, 0x5a, 0xb2,
0xe1, 0x25, 0x3c, 0x00,
0xe0, 0x79, 0xa2, 0x83,
0x30, 0xab, 0x80, 0x0c,
0x00, 0x84, 0x0a, 0xf5,
0x9e, 0xcc, 0xe3, 0x01,
0xf0, 0x16, 0xa0, 0x39,
0xa1, 0x8a, 0x42, 0x80,
0xe0, 0x38, 0x1e, 0x8b,
0x03, 0x40, 0xf0, 0x3c,
0x4a, 0x10, 0x00, 0x4e,
0x16, 0x03, 0x09, 0xa0,
0xd4, 0xd1, 0x63, 0x45,
0x14, 0x04, 0x00, 0x01,
0x12, 0x82, 0x9e, 0xf0,
0x11, 0x0f, 0x78, 0x00,
0xf0, 0x92, 0x33, 0x7c,
0x34, 0x3d, 0x66, 0x00,
0x02, 0x00, 0x1c, 0x6f,
0x6f, 0x74, 0x1d, 0x02,
0x00, 0xae, 0xb6, 0x61,
0x8a, 0x29, 0x0c, 0x62,
0xe7, 0x01, 0xe0, 0xfd,
0xfc, 0x85, 0x29, 0xd4,
0xc2, 0xff, 0x7b, 0xce,
0xdd, 0x13, 0x9e, 0x59,
0x2a, 0x13, 0x1f, 0x00,
0xf0, 0x5d, 0xc1, 0x26,
0x31, 0xfc, 0x3f, 0x00,
0xbc, 0xbf, 0xed, 0x2e,
0x26, 0x02, 0xfe, 0x3a,
0x3e, 0xfc, 0x4b, 0x8a,
0x3a, 0x86, 0x72, 0x7f,
0x00, 0xe0, 0x1f, 0xfa,
0xc6, 0xec, 0x87, 0xff,
0xd7, 0x90, 0xfc, 0xa1,
0x00, 0xf8, 0x86, 0xd0,
0x3e, 0xe0, 0xdd, 0x8e,
0x2b, 0x0d, 0x00, 0x00,
0xb8, 0x44, 0x18, 0x5b,
0x00, 0x00, 0x00, 0x20,
0x32, 0x62, 0x50, 0xc1,
0x0c, 0x02, 0x0e, 0x00,
0x3e, 0x7c, 0xfa, 0x44,
0x24, 0x6b, 0x31, 0x00,
0x05, 0x0f, 0x5d, 0x81,
0x02, 0x00, 0x44, 0x36,
0x92, 0x52, 0xd2, 0x33,
0x08, 0x00, 0x80, 0x50,
0x02, 0xb0, 0x20, 0x92,
0x66, 0x4f, 0x38, 0x13,
0x0e, 0x00, 0xf9, 0x56,
0x3e, 0xa3, 0x1a, 0x00,
0x20, 0x00, 0xe8, 0x29,
0x10, 0x0a, 0x84, 0x00,
0x00, 0x50, 0xd7, 0x33,
0x5c, 0x11, 0x59, 0xf0,
0xc4, 0x80, 0x70, 0xf6,
0x92, 0x70, 0x92, 0x20,
0x8f, 0x09, 0x40, 0x42,
0x90, 0x23, 0x0c, 0x00,
0x1a, 0x7d, 0xc8, 0x28,
0xab, 0x2b, 0x1f, 0xe0,
0x00, 0x62, 0xa3, 0x48,
0x96, 0x80, 0x41, 0x40,
0x08, 0x61, 0x80, 0x8f,
0xac, 0x85, 0x4c, 0x01,
0x41, 0x00, 0xe0, 0x00,
0x00, 0x58, 0xd6, 0x84,
0x20, 0x0c, 0x4d, 0x6b,
0xc0, 0x39, 0x41, 0x57,
0x99, 0x02, 0x13, 0x00,
0x94, 0x0d, 0x00, 0x74,
0x02, 0xc0, 0x7f, 0xf8,
0x02, 0xc0, 0x1f, 0xa0,
0xac, 0xdb, 0xe7, 0x8f,
0xfe, 0xae, 0xdc, 0x0a,
0x84, 0x04, 0x80, 0x5c,
0xf0, 0x90, 0x78, 0x10,
0xe0, 0x6b, 0xda, 0xef,
0x0b, 0x06, 0xe7, 0xce,
0x1b, 0x00, 0xf4, 0x9f,
0x4b, 0x2a, 0xf4, 0x8d,
0xdf, 0x5f, 0xc1, 0xda,
0xf3, 0x8f, 0xff, 0xd2,
0x4e, 0x8a, 0x3f, 0x00,
0xb8, 0x13, 0x44, 0x46,
0xc4, 0x54, 0x8c, 0x50,
0x36, 0x00, 0x02, 0xc0,
0xbd, 0x0d, 0xe9, 0x80,
0x82, 0x01, 0x0f, 0x80,
0x96, 0x0f, 0x35, 0x81,
0x82, 0xd8, 0x80, 0x07,
0x00, 0x97, 0xb6, 0x30,
0x34, 0x52, 0xc0, 0x01,
0x00, 0x87, 0x03, 0x80,
0xe8, 0x08, 0x30, 0xc8,
0x63, 0x29, 0xfa, 0x41,
0x00, 0xc0, 0xd6, 0x24,
0x36, 0x24, 0x64, 0x08,
0x08, 0x00, 0xa8, 0xf2,
0xc2, 0x10, 0x66, 0x99,
0x00, 0xa6, 0x61, 0x0e,
0x02, 0x34, 0x01, 0x62,
0x03, 0x82, 0x45, 0x07,
0x04, 0x81, 0x17, 0xd6,
0x1e, 0x51, 0xa6, 0x19,
0x0c, 0x80, 0x96, 0x58,
0x2b, 0xa5, 0xcc, 0xe1,
0x80, 0xb0, 0x15, 0xe8,
0x38, 0x6f, 0x84, 0xe1,
0xff, 0x61, 0x6e, 0xa2,
0x1d, 0x88, 0x43, 0x11,
0x7c, 0x74, 0x20, 0x0e,
0x00, 0x00, 0x34, 0x00,
0xe4, 0x91, 0x53, 0xe0,
0x10, 0x00, 0x43, 0x85,
0x98, 0x52, 0x08, 0x08,
0x04, 0x04, 0x00, 0x0a,
0x2c, 0x0c, 0x90, 0xbe,
0x80, 0x03, 0x02, 0x2e,
0xd3, 0x28, 0x44, 0x04,
0xcc, 0x00, 0x02, 0xa2,
0x78, 0x96, 0x48, 0x0f,
0x00, 0x66, 0x23, 0xc4,
0x01, 0xa2, 0x08, 0x0c,
0x60, 0x00, 0xa8, 0xd6,
0x4a, 0x2c, 0x50, 0x8b,
0x61, 0x0f, 0x4e, 0x00,
0x30, 0x5b, 0x5b, 0x44,
0x60, 0xdc, 0x04, 0x04,
0x5f, 0x82, 0x70, 0xfe,
0xa9, 0x14, 0xc3, 0xff,
0x41, 0x38, 0x67, 0x31,
0xfc, 0x00, 0xf0, 0x5b,
0x32, 0xbd, 0xf3, 0x01,
0xbf, 0x4c, 0x26, 0x9e,
0x1f, 0x02, 0xee, 0x7b,
0x98, 0xa0, 0x3a, 0xfc,
0xbf, 0x8f, 0x9b, 0x8d,
0x8f, 0x00, 0xf0, 0x8e,
0xdf, 0xdd, 0xdf, 0xff,
0x4f, 0xb9, 0x63, 0x8d,
0xc5, 0xe9, 0x2e, 0x00,
0xdc, 0x37, 0xdc, 0x6c,
0x20, 0x05, 0xc3, 0x71,
0x02, 0x04, 0x2e, 0xd4,
0x0a, 0x74, 0x04, 0x06,
0xbf, 0x00, 0xe2, 0xa2,
0x12, 0xb0, 0xa5, 0xd6,
0xdc, 0x0c, 0x10, 0xbb,
0xb1, 0x75, 0xa1, 0x36,
0xae, 0x18, 0xdd, 0xac,
0xe8, 0x0a, 0x00, 0x1e,
0xad, 0x90, 0xd3, 0x46,
0x01, 0x02, 0x00, 0x5c,
0x53, 0xc9, 0x5b, 0x99,
0xed, 0x36, 0xb6, 0x7b,
0x3b, 0x81, 0x80, 0x1e,
0x23, 0xab, 0x6a, 0x72,
0xcc, 0x4f, 0xb4, 0xd5,
0x09, 0xd1, 0x07, 0x50,
0x16, 0x84, 0x27, 0x4f,
0x18, 0x3b, 0x00, 0xdc,
0x6d, 0x95, 0x07, 0xc5,
0xc2, 0xc2, 0x73, 0xea,
0xaa, 0x9d, 0x67, 0x00,
0x00, 0x5f, 0x81, 0x63,
0x88, 0x96, 0x00, 0x80,
0xdf, 0xee, 0x34, 0x88,
0xfc, 0x7f, 0x1a, 0xca,
0xfc, 0xff, 0xff, 0xff,
0xff, 0xff, 0xff, 0xff,
0xff, 0xff, 0xff, 0xff,
0xff, 0xff, 0x00, 0x0c,
0x00, 0x40, 0x00, 0x00,
0x40, 0x81, 0x3c, 0x40,
0x19, 0x66, 0x20, 0xb8,
0x77, 0xa3, 0x5d, 0x8e,
0x67, 0x03, 0x0c, 0x01,
0x03, 0x81, 0x85, 0x52,
0xc3, 0x00, 0x6b, 0xc2,
0x01, 0xe0, 0x6f, 0x39,
0x01, 0x92, 0x44, 0x5a,
0xae, 0x8d, 0xd4, 0x42,
0xae, 0x3b, 0x03, 0xf0,
0x00, 0xe0, 0x5a, 0x29,
0xe4, 0x8d, 0x31, 0xcc,
0x8d, 0x03, 0xc0, 0xda,
0xc8, 0x2a, 0x0b, 0xc1,
0x6e, 0x72, 0xc3, 0xb5,
0x96, 0x08, 0x0c, 0xc9,
0x06, 0x08, 0x02, 0x0f,
0x47, 0x8c, 0x64, 0x54,
0x9b, 0x45, 0x20, 0xa8,
0x6f, 0xdb, 0x83, 0xb3,
0x32, 0x59, 0xb1, 0x21,
0x00, 0xf7, 0xef, 0x78,
0xc2, 0x00, 0x16, 0xf7,
0xb7, 0x4c, 0xc8, 0xf0,
0x45, 0x4e, 0x2d, 0xd0,
0x00, 0xc0, 0x42, 0x19,
0x03, 0x7c, 0x70, 0x00,
0x80, 0xc5, 0x50, 0x97,
0x58, 0x40, 0x21, 0x20,
0x0f, 0xc0, 0x7f, 0x2d,
0x3b, 0x58, 0x64, 0x4f,
0x20, 0xf8, 0x7f, 0xf6,
0x4f, 0xc9, 0x01, 0xfe,
0xff, 0xff, 0xff, 0xff,
0xff, 0xff, 0xff, 0xff,
0xff, 0xff, 0xff, 0xff,
0xff, 0x00, 0x0c, 0x00,
0x50, 0x00, 0x00, 0x60,
0x00, 0x7d, 0x80, 0xf2,
0x0e, 0x00, 0x70, 0x03,
0x83, 0x8e, 0x78, 0xe0,
0x16, 0x50, 0x20, 0x00,
0xa0, 0xa3, 0x45, 0x7d,
0x15, 0x88, 0x24, 0x14,
0xde, 0x00, 0xc0, 0xcd,
0x1b, 0x30, 0x40, 0xd1,
0x13, 0x97, 0x1d, 0x48,
0x00, 0x78, 0x25, 0x5c,
0x23, 0xbf, 0xc0, 0xfb,
0x2d, 0x08, 0x22, 0xe6,
0x50, 0x04, 0xbc, 0x01,
0xe0, 0x26, 0x66, 0x85,
0x96, 0x62, 0x60, 0xeb,
0x72, 0x89, 0x10, 0x3d,
0x98, 0x01, 0x00, 0xfc,
0x1b, 0x54, 0x1d, 0x83,
0x86, 0xd8, 0x10, 0x00,
0xb8, 0x7d, 0x8c, 0xc2,
0xcc, 0x1f, 0x05, 0xf0,
0x29, 0x48, 0x0a, 0x37,
0x1d, 0x00, 0xf0, 0x07,
0x10, 0x33, 0x69, 0xe1,
0x03, 0x3b, 0xdd, 0x00,
0x00, 0x20, 0x90, 0x06,
0x4a, 0xa8, 0xd2, 0x9d,
0x21, 0x80, 0x96, 0x4a,
0x23, 0x49, 0x31, 0x1a,
0xc8, 0x85, 0x1b, 0x80,
0xff, 0xbf, 0x10, 0xa2,
0x1a, 0x62, 0xfc, 0x7f,
0x34, 0x29, 0xb4, 0xf9,
0xff, 0xff, 0xff, 0xff,
0xff, 0xff, 0xff, 0xff,
0xff, 0xff, 0xff, 0xff,
0xff, 0x03, 0x30, 0x00,
0x40, 0x01, 0x00, 0x00,
0x01, 0xe8, 0x01, 0x0a,
0x00, 0x01, 0x00, 0x78,
0x03, 0x90, 0xbb, 0x87,
0x08, 0x22, 0x40, 0x84,
0x82, 0x3c, 0x60, 0xa4,
0x9d, 0x10, 0x71, 0x4b,
0xe2, 0x4d, 0x00, 0xb8,
0x93, 0x5b, 0x88, 0x6c,
0xc8, 0xf5, 0x12, 0x06,
0x00, 0xb0, 0x75, 0xba,
0xd9, 0x85, 0xe7, 0x7e,
0x21, 0x00, 0x91, 0x44,
0x12, 0x80, 0xe1, 0x0d,
0x08, 0x5c, 0xa3, 0x24,
0x73, 0x12, 0x11, 0x01,
0x80, 0xa3, 0x21, 0x37,
0xec, 0x03, 0x01, 0xe4,
0x4a, 0x90, 0xd5, 0x30,
0xf4, 0x78, 0x02, 0x20,
0x52, 0x94, 0x44, 0x98,
0x00, 0xea, 0x39, 0xa0,
0x05, 0x80, 0x76, 0x17,
0x1c, 0x46, 0x22, 0xc1,
0xe4, 0x3d, 0x80, 0x02,
0x40, 0xbd, 0x25, 0x02,
0xae, 0x22, 0xc7, 0x00,
0xf8, 0xcd, 0x8f, 0x3a,
0x4e, 0x36, 0x92, 0x4a,
0xec, 0x68, 0x29, 0xdc,
0x32, 0x60, 0x03, 0xfe,
0x3c, 0x4e, 0x25, 0xf9,
0x9e, 0xfa, 0xff, 0xff,
0xff, 0xff, 0xff, 0xff,
0xff, 0xff, 0xff, 0xff,
0xff, 0xff, 0xff, 0xff,
0x3f, 0x00, 0x03, 0x00,
0x14, 0x00, 0x00, 0x58,
0x80, 0x1f, 0xa0, 0x3c,
0x07, 0x00, 0xfc, 0xb1,
0xac, 0xcd, 0x90, 0x17,
0x65, 0x45, 0x00, 0x88,
0x42, 0x15, 0x09, 0xc4,
0xe9, 0x09, 0xc2, 0x01,
0xe0, 0x04, 0x79, 0x86,
0x16, 0x5b, 0x8a, 0xc0,
0xf8, 0xce, 0x81, 0xc1,
0xb2, 0x08, 0x26, 0x1b,
0x18, 0x00, 0xdc, 0xa0,
0x2c, 0x0a, 0x64, 0x3a,
0xb0, 0x00, 0x40, 0x4b,
0x63, 0xf3, 0xa1, 0x94,
0x1c, 0x98, 0x03, 0xc0,
0x17, 0x8f, 0x0b, 0x45,
0xcc, 0x00, 0x09, 0x20,
0x5a, 0xe7, 0xc4, 0x68,
0x62, 0x30, 0x00, 0xa0,
0xe2, 0x1c, 0x17, 0xb4,
0xde, 0x5c, 0x47, 0x32,
0x08, 0x00, 0xfd, 0x42,
0x0a, 0xc3, 0x82, 0x83,
0x5a, 0x23, 0x00, 0x80,
0xaf, 0x11, 0x68, 0x2a,
0x15, 0x1d, 0x5f, 0x5c,
0x6f, 0x50, 0xf8, 0xaa,
0x63, 0x45, 0x82, 0x04,
0x00, 0xa7, 0x7c, 0xc7,
0x4f, 0x22, 0x00, 0x80,
0x5f, 0x27, 0x51, 0x0b,
0x39, 0x58, 0x45, 0xff,
0xaf, 0x00, 0xd2, 0xff,
0xff, 0xff, 0xff, 0xff,
0xff, 0xff, 0xff, 0xff,
0xff, 0xff, 0xff, 0xff,
0x3f, 0x00, 0x03, 0x00,
0x14, 0x00, 0x00, 0x20,
0xc0, 0x1e, 0xa0, 0x10,
0x00, 0x00, 0x41, 0x08,
0x00, 0x78, 0x88, 0x2e,
0x66, 0x1a, 0xa4, 0x94,
0x27, 0xdc, 0x64, 0x27,
0x22, 0xe0, 0x94, 0x45,
0x3d, 0x83, 0x73, 0x00,
0xe0, 0x23, 0xcb, 0x8d,
0xf2, 0x01, 0x48, 0x00,
0x40, 0xa5, 0x6c, 0x13,
0x18, 0x3d, 0x37, 0x00,
0xf8, 0x26, 0x4a, 0x94,
0x02, 0x42, 0x56, 0xc4,
0xe0, 0xdd, 0x6d, 0xaf,
0x96, 0x1e, 0x20, 0x80,
0x40, 0x51, 0x42, 0x2e,
0x05, 0x58, 0x09, 0x00,
0xb4, 0x1a, 0x46, 0x39,
0xb9, 0xbe, 0x96, 0x09,
0xc3, 0xd2, 0x77, 0x8d,
0x62, 0xa2, 0x33, 0x54,
0x86, 0x00, 0x70, 0x2d,
0xe3, 0xb4, 0x45, 0x81,
0x6e, 0x98, 0x41, 0x00,
0x28, 0x39, 0xb7, 0x22,
0x96, 0x14, 0x82, 0x03,
0x00, 0x37, 0xe9, 0xe9,
0xc4, 0xfd, 0x20, 0xe9,
0xe4, 0xf6, 0x07, 0x18,
0x65, 0x92, 0x79, 0x19,
0x00, 0x00, 0xc0, 0x0b,
0xe2, 0x96, 0xfd, 0xc4,
0x00, 0x00, 0x65, 0x00,
0xfe, 0xfb, 0xaf, 0x00,
0xf8, 0xff, 0xff, 0xff,
0xff, 0xff, 0xff, 0xff,
0xff, 0xff, 0xff, 0xff, 

};






static inline const int8_t * Getfc_lif_layer_1WeightsPointer()
{
	return weight_fc_lif_layer_1;
}

static inline size_t Getfc_lif_layer_1WeightsLen()
{
	return sizeof(weight_fc_lif_layer_1);
}





static const int8_t lif_param_fc_lif_layer_1[] __attribute__((aligned(16))) = 
{


// ln(beta)_quant
0, 0, 0, 0, 0, 0, 0, 0, 0, 
0, 0, 0, 0, 0, 0, 0, 0, 
0, 0, 0, 0, 0, 0, 0, 0, 
0, 0, 0, 0, 0, 0, 0, 0, 
0, 0, 0, 0, 0, 0, 0, 0, 
0, 0, 0, 0, 0, 0, 0, 
// vth_quant
0, 0, 0, 0, 0, 0, 0, 0, 0, 
0, 0, 0, 0, 0, 0, 0, 0, 
0, 0, 0, 0, 0, 0, 0, 0, 
0, 0, 0, 0, 0, 0, 0, 0, 
0, 0, 0, 0, 0, 0, 0, 0, 
0, 0, 0, 0, 0, 0, 0, 

};







static inline const int8_t* Getfc_lif_layer_1LIFParamPointer()
{
	return lif_param_fc_lif_layer_1;
}
static inline size_t Getfc_lif_layer_1LIFParamLen()
{
	return sizeof(lif_param_fc_lif_layer_1);
}





static const int8_t lut_fc_lif_layer_1[] __attribute__((aligned(16))) = 
{


//lut index 0
-29, 
-29, -28, -28, -28, -27, -27, -27, -26, 
-26, -25, -25, -24, -24, -24, -23, -23, 
-22, -22, -22, -21, -21, -20, -20, -20, 
-19, -19, -18, -18, -17, -17, -16, -16, 
-16, -15, -15, -14, -14, -13, -13, -12, 
-12, -12, -11, -11, -10, -10, -9, -9, 
-8, -8, -7, -7, -6, -6, -5, -5, 
-5, -4, -4, -3, -3, -2, -2, -1, 
-1, 0, 0, 1, 1, 2, 2, 3, 
3, 4, 5, 5, 6, 6, 7, 7, 
8, 8, 9, 9, 10, 10, 11, 11, 
12, 13, 13, 14, 14, 15, 15, 16, 
16, 17, 18, 18, 19, 19, 20, 20, 
21, 22, 22, 23, 23, 24, 25, 25, 
26, 26, 27, 28, 28, 29, 29, 30, 
31, 31, 32, 33, 33, 34, 34, 35, 
36, 36, 37, 38, 38, 39, 40, 40, 
41, 42, 42, 43, 44, 44, 45, 46, 
46, 47, 48, 48, 49, 50, 51, 51, 
52, 53, 53, 54, 55, 55, 56, 57, 
58, 58, 59, 60, 61, 61, 62, 63, 
64, 64, 65, 66, 67, 67, 68, 69, 
70, 70, 71, 72, 73, 74, 74, 75, 
76, 77, 78, 78, 79, 80, 81, 82, 
82, 83, 84, 85, 86, 87, 87, 88, 
89, 90, 91, 92, 93, 93, 94, 95, 
96, 97, 98, 99, 100, 101, 101, 102, 
103, 104, 105, 106, 107, 108, 109, 110, 
111, 112, 113, 113, 114, 115, 116, 117, 
118, 119, 120, 121, 122, 123, 124, 125, 
126, 127, 127, 127, 127, 127, 127, 127, 
127, 127, 127, 127, 127, 127, 127, 
//lut index 1
0, 
0, 0, 0, 0, 0, 0, 0, 0, 
0, 0, 0, 0, 0, 0, 0, 0, 
0, 0, 0, 0, 0, 0, 0, 0, 
0, 0, 0, 0, 0, 0, 0, 0, 
0, 0, 0, 0, 0, 0, 0, 0, 
0, 0, 0, 0, 0, 0, 0, 0, 
0, 0, 0, 0, 0, 0, 0, 0, 
0, 0, 0, 0, 0, 0, 0, 0, 
0, 0, 0, 0, 0, 0, 0, 0, 
0, 0, 0, 0, 0, 0, 0, 0, 
0, 0, 0, 0, 0, 0, 0, 0, 
0, 0, 0, 0, 0, 0, 0, 0, 
0, 0, 0, 0, 0, 0, 0, 0, 
0, 0, 0, 0, 0, 0, 0, 0, 
0, 0, 0, 0, 0, 0, 0, 0, 
0, 0, 0, 0, 0, 0, 0, 0, 
1, 1, 1, 1, 1, 1, 1, 1, 
1, 1, 1, 1, 1, 1, 1, 1, 
1, 1, 1, 1, 1, 1, 1, 1, 
1, 1, 1, 1, 1, 1, 1, 1, 
1, 1, 1, 1, 1, 1, 1, 1, 
1, 1, 1, 1, 1, 1, 1, 1, 
1, 1, 1, 1, 1, 1, 1, 1, 
1, 1, 1, 1, 1, 1, 1, 1, 
1, 1, 1, 1, 1, 1, 1, 1, 
1, 1, 1, 1, 1, 1, 1, 1, 
1, 1, 1, 1, 1, 1, 1, 1, 
1, 1, 1, 1, 1, 1, 1, 1, 
1, 1, 1, 1, 1, 1, 1, 1, 
1, 1, 1, 1, 1, 1, 1, 1, 
1, 1, 1, 1, 1, 1, 1, 1, 
1, 1, 1, 1, 1, 1, 1, 


};







static inline const int8_t* Getfc_lif_layer_1LUTPointer()
{
	return lut_fc_lif_layer_1;
}
static inline size_t Getfc_lif_layer_1LUTLen()
{
	return sizeof(lut_fc_lif_layer_1);
}

/*
Register Command Stream:
+---------------------------+-----------+-------------------------+
| Command Name              | Parameter | Payload Data            |
+---------------------------+-----------+-------------------------+
| NPU_SET_DMA0_SRC_REGION   | 4         | -                       |
| NPU_SET_DMA0_SRC          | 0         | 0x00000000 (0)          |
| NPU_SET_DMA0_DST_REGION   | 259       | -                       |
| NPU_SET_DMA0_DST          | 0         | 0x0000b800 (47104)      |
| NPU_SET_DMA0_LEN          | 0         | 0x00000100 (256)        |
| NPU_OP_DMA_START          | 0         | -                       |
| NPU_SET_OFM_SCALE         | 37        | 0x66cd3380 (1724724096) |
| NPU_SET_IFM_REGION        | 3         | -                       |
| NPU_SET_IFM_BASE0         | 0         | 0x00000000 (0)          |
| NPU_SET_IFM_BASE1         | 0         | 0x00000000 (0)          |
| NPU_SET_IFM_BASE2         | 0         | 0x00000000 (0)          |
| NPU_SET_IFM_BASE3         | 0         | 0x00000000 (0)          |
| NPU_SET_IFM_HEIGHT0_M1    | 0         | -                       |
| NPU_SET_IFM_HEIGHT1_M1    | 65535     | -                       |
| NPU_SET_IFM_WIDTH0_M1     | 0         | -                       |
| NPU_SET_IFM_DEPTH_M1      | 47        | -                       |
| NPU_SET_IFM_STRIDE_C      | 0         | 0x00000001 (1)          |
| NPU_SET_IFM_STRIDE_Y      | 0         | 0x00000030 (48)         |
| NPU_SET_IFM_STRIDE_X      | 0         | 0x00000030 (48)         |
| NPU_SET_IFM_ZERO_POINT    | 65        | -                       |
| NPU_SET_IFM_PRECISION     | 1         | -                       |
| NPU_SET_IFM_UPSCALE       | 0         | -                       |
| NPU_SET_OFM_REGION        | 1         | -                       |
| NPU_SET_OFM_BASE0         | 0         | 0x00000000 (0)          |
| NPU_SET_OFM_BASE1         | 0         | 0x00000000 (0)          |
| NPU_SET_OFM_BASE2         | 0         | 0x00000000 (0)          |
| NPU_SET_OFM_BASE3         | 0         | 0x00000000 (0)          |
| NPU_SET_OFM_HEIGHT0_M1    | 0         | -                       |
| NPU_SET_OFM_HEIGHT1_M1    | 65535     | -                       |
| NPU_SET_OFM_WIDTH0_M1     | 0         | -                       |
| NPU_SET_OFM_HEIGHT_M1     | 0         | -                       |
| NPU_SET_OFM_WIDTH_M1      | 0         | -                       |
| NPU_SET_OFM_DEPTH_M1      | 47        | -                       |
| NPU_SET_OFM_STRIDE_C      | 0         | 0x00000010 (16)         |
| NPU_SET_OFM_STRIDE_Y      | 0         | 0x00000030 (48)         |
| NPU_SET_OFM_STRIDE_X      | 0         | 0x00000010 (16)         |
| NPU_SET_OFM_ZERO_POINT    | 127       | -                       |
| NPU_SET_OFM_PRECISION     | 321       | -                       |
| NPU_SET_ACTIVATION        | 16        | -                       |
| NPU_SET_ACTIVATION_MIN    | 65408     | -                       |
| NPU_SET_ACTIVATION_MAX    | 127       | -                       |
| NPU_SET_OFM_BLK_HEIGHT_M1 | 1         | -                       |
| NPU_SET_OFM_BLK_WIDTH_M1  | 1         | -                       |
| NPU_SET_OFM_BLK_DEPTH_M1  | 47        | -                       |
| NPU_SET_IFM_IB_END        | 46        | -                       |
| NPU_SET_AB_START          | 46        | -                       |
| NPU_SET_IFM2_IB_START     | 10        | -                       |
| NPU_SET_ACC_FORMAT        | 0         | -                       |
| NPU_SET_IFM2_REGION       | 1         | -                       |
| NPU_SET_IFM2_BASE0        | 0         | 0x00000090 (144)        |
| NPU_SET_IFM2_BASE1        | 0         | 0x00000000 (0)          |
| NPU_SET_IFM2_BASE2        | 0         | 0x00000000 (0)          |
| NPU_SET_IFM2_BASE3        | 0         | 0x00000000 (0)          |
| NPU_SET_IFM2_HEIGHT0_M1   | 0         | -                       |
| NPU_SET_IFM2_HEIGHT1_M1   | 65535     | -                       |
| NPU_SET_IFM2_WIDTH0_M1    | 0         | -                       |
| NPU_SET_IFM2_STRIDE_C     | 0         | 0x00000001 (1)          |
| NPU_SET_IFM2_STRIDE_Y     | 0         | 0x00000001 (1)          |
| NPU_SET_IFM2_STRIDE_X     | 0         | 0x00000001 (1)          |
| NPU_SET_IFM2_ZERO_POINT   | 65408     | -                       |
| NPU_SET_IFM_PRECISION     | 1         | -                       |
| NPU_SET_IFM2_BROADCAST    | 4         | -                       |
| NPU_SET_BLOCKDEP          | 0         | -                       |
| NPU_OP_DMA_WAIT           | 0         | -                       |
| NPU_OP_ELEMENTWISE        | 0         | -                       |
| NPU_SET_IFM_REGION        | 5         | -                       |
| NPU_SET_IFM_ZERO_POINT    | 0         | -                       |
| NPU_SET_IFM_PAD_TOP       | 0         | -                       |
| NPU_SET_IFM_PAD_LEFT      | 0         | -                       |
| NPU_SET_IFM_PAD_BOTTOM    | 0         | -                       |
| NPU_SET_IFM_PAD_RIGHT     | 0         | -                       |
| NPU_SET_OFM_BASE0         | 0         | 0x00000030 (48)         |
| NPU_SET_OFM_ZERO_POINT    | 0         | -                       |
| NPU_SET_OFM_PRECISION     | 65        | -                       |
| NPU_SET_KERNEL_HEIGHT_M1  | 0         | -                       |
| NPU_SET_KERNEL_WIDTH_M1   | 0         | -                       |
| NPU_SET_KERNEL_STRIDE     | 0         | -                       |
| NPU_SET_WEIGHT_REGION     | 0         | -                       |
| NPU_SET_WEIGHT_BASE       | 0         | 0x000001e0 (480)        |
| NPU_SET_WEIGHT_LENGTH     | 0         | 0x00000890 (2192)       |
| NPU_SET_SCALE_REGION      | 0         | -                       |
| NPU_SET_SCALE_BASE        | 0         | 0x00000000 (0)          |
| NPU_SET_SCALE_LENGTH      | 0         | 0x000001e0 (480)        |
| NPU_SET_ACTIVATION        | 0         | -                       |
| NPU_SET_IFM_IB_END        | 10        | -                       |
| NPU_SET_AB_START          | 30        | -                       |
| NPU_SET_BLOCKDEP          | 3         | -                       |
| NPU_OP_CONV               | 0         | -                       |
| NPU_SET_OFM_SCALE         | 38        | 0x533bf600 (1396438528) |
| NPU_SET_IFM_REGION        | 1         | -                       |
| NPU_SET_IFM_BASE0         | 0         | 0x00000060 (96)         |
| NPU_SET_IFM_ZERO_POINT    | 65510     | -                       |
| NPU_SET_OFM_BASE0         | 0         | 0x00000000 (0)          |
| NPU_SET_OFM_ZERO_POINT    | 65501     | -                       |
| NPU_SET_OFM_PRECISION     | 321       | -                       |
| NPU_SET_IFM_IB_END        | 46        | -                       |
| NPU_SET_AB_START          | 46        | -                       |
| NPU_SET_IFM2_BASE0        | 0         | 0x00000000 (0)          |
| NPU_SET_IFM2_STRIDE_C     | 0         | 0x00000010 (16)         |
| NPU_SET_IFM2_STRIDE_Y     | 0         | 0x00000030 (48)         |
| NPU_SET_IFM2_STRIDE_X     | 0         | 0x00000010 (16)         |
| NPU_SET_IFM_PRECISION     | 65        | -                       |
| NPU_SET_IFM2_BROADCAST    | 0         | -                       |
| NPU_OP_ELEMENTWISE        | 0         | -                       |
| NPU_SET_OPA_SCALE         | 12        | 0x75555555 (1968526677) |
| NPU_SET_OPB_SCALE         | 0         | 0x00000000 (0)          |
| NPU_SET_OFM_SCALE         | 50        | 0x66666666 (1717986918) |
| NPU_SET_IFM_BASE0         | 0         | 0x00000000 (0)          |
| NPU_SET_IFM_STRIDE_C      | 0         | 0x00000010 (16)         |
| NPU_SET_IFM_STRIDE_X      | 0         | 0x00000010 (16)         |
| NPU_SET_IFM_ZERO_POINT    | 65501     | -                       |
| NPU_SET_IFM_PRECISION     | 321       | -                       |
| NPU_SET_OFM_BASE0         | 0         | 0x00000060 (96)         |
| NPU_SET_OFM_ZERO_POINT    | 65510     | -                       |
| NPU_SET_IFM2_BASE0        | 0         | 0x00000030 (48)         |
| NPU_SET_IFM2_ZERO_POINT   | 0         | -                       |
| NPU_SET_BLOCKDEP          | 0         | -                       |
| NPU_OP_ELEMENTWISE        | 1         | -                       |
| NPU_SET_DMA0_SRC          | 0         | 0x00000100 (256)        |
| NPU_SET_DMA0_DST          | 0         | 0x0000b900 (47360)      |
| NPU_OP_DMA_START          | 0         | -                       |
| NPU_SET_OPA_SCALE         | 18        | 0x6d3a06d4 (1832519380) |
| NPU_SET_OFM_SCALE         | 47        | 0x78000000 (2013265920) |
| NPU_SET_IFM_BASE0         | 0         | 0x00000060 (96)         |
| NPU_SET_IFM_ZERO_POINT    | 65510     | -                       |
| NPU_SET_IFM_PRECISION     | 577       | -                       |
| NPU_SET_OFM_REGION        | 6         | -                       |
| NPU_SET_OFM_BASE0         | 0         | 0x00000000 (0)          |
| NPU_SET_OFM_STRIDE_C      | 0         | 0x00000001 (1)          |
| NPU_SET_OFM_STRIDE_X      | 0         | 0x00000030 (48)         |
| NPU_SET_OFM_ZERO_POINT    | 0         | -                       |
| NPU_SET_OFM_PRECISION     | 257       | -                       |
| NPU_SET_ACTIVATION        | 17        | -                       |
| NPU_SET_IFM2_REGION       | 3         | -                       |
| NPU_SET_IFM2_STRIDE_C     | 0         | 0x00000001 (1)          |
| NPU_SET_IFM2_STRIDE_X     | 0         | 0x00000030 (48)         |
| NPU_SET_IFM2_ZERO_POINT   | 64261     | -                       |
| NPU_SET_IFM_PRECISION     | 1         | -                       |
| NPU_OP_DMA_WAIT           | 0         | -                       |
| NPU_OP_ELEMENTWISE        | 2         | -                       |
| NPU_SET_OFM_SCALE         | 33        | 0x5d174580 (1561806208) |
| NPU_SET_IFM_REGION        | 3         | -                       |
| NPU_SET_IFM_BASE0         | 0         | 0x00000030 (48)         |
| NPU_SET_IFM_STRIDE_C      | 0         | 0x00000001 (1)          |
| NPU_SET_IFM_STRIDE_X      | 0         | 0x00000030 (48)         |
| NPU_SET_IFM_ZERO_POINT    | 64261     | -                       |
| NPU_SET_IFM_PRECISION     | 1         | -                       |
| NPU_SET_OFM_REGION        | 1         | -                       |
| NPU_SET_OFM_BASE0         | 0         | 0x00000030 (48)         |
| NPU_SET_OFM_STRIDE_C      | 0         | 0x00000010 (16)         |
| NPU_SET_OFM_STRIDE_X      | 0         | 0x00000010 (16)         |
| NPU_SET_OFM_ZERO_POINT    | 65408     | -                       |
| NPU_SET_OFM_PRECISION     | 321       | -                       |
| NPU_SET_ACTIVATION        | 0         | -                       |
| NPU_SET_IFM2_REGION       | 6         | -                       |
| NPU_SET_IFM2_BASE0        | 0         | 0x00000000 (0)          |
| NPU_SET_IFM2_ZERO_POINT   | 0         | -                       |
| NPU_OP_ELEMENTWISE        | 0         | -                       |
| NPU_SET_OPA_SCALE         | 15        | 0x4b17e4b1 (1259857073) |
| NPU_SET_OFM_SCALE         | 49        | 0x40000000 (1073741824) |
| NPU_SET_IFM_REGION        | 1         | -                       |
| NPU_SET_IFM_BASE0         | 0         | 0x00000060 (96)         |
| NPU_SET_IFM_STRIDE_C      | 0         | 0x00000010 (16)         |
| NPU_SET_IFM_STRIDE_X      | 0         | 0x00000010 (16)         |
| NPU_SET_IFM_ZERO_POINT    | 65510     | -                       |
| NPU_SET_IFM_PRECISION     | 577       | -                       |
| NPU_SET_OFM_BASE0         | 0         | 0x00000060 (96)         |
| NPU_SET_OFM_STRIDE_C      | 0         | 0x00000001 (1)          |
| NPU_SET_OFM_STRIDE_X      | 0         | 0x00000030 (48)         |
| NPU_SET_OFM_ZERO_POINT    | 65510     | -                       |
| NPU_SET_OFM_PRECISION     | 257       | -                       |
| NPU_SET_IFM2_REGION       | 1         | -                       |
| NPU_SET_IFM2_BASE0        | 0         | 0x00000030 (48)         |
| NPU_SET_IFM2_STRIDE_C     | 0         | 0x00000010 (16)         |
| NPU_SET_IFM2_STRIDE_X     | 0         | 0x00000010 (16)         |
| NPU_SET_IFM2_ZERO_POINT   | 65408     | -                       |
| NPU_SET_IFM_PRECISION     | 65        | -                       |
| NPU_OP_ELEMENTWISE        | 2         | -                       |
| NPU_SET_IFM_REGION        | 6         | -                       |
| NPU_SET_IFM_BASE0         | 0         | 0x00000000 (0)          |
| NPU_SET_IFM_STRIDE_C      | 0         | 0x00000001 (1)          |
| NPU_SET_IFM_STRIDE_X      | 0         | 0x00000030 (48)         |
| NPU_SET_IFM_ZERO_POINT    | 0         | -                       |
| NPU_SET_IFM_PRECISION     | 1         | -                       |
| NPU_SET_OFM_BASE0         | 0         | 0x00000091 (145)        |
| NPU_SET_OFM_DEPTH_M1      | 0         | -                       |
| NPU_SET_OFM_STRIDE_Y      | 0         | 0x00000001 (1)          |
| NPU_SET_OFM_STRIDE_X      | 0         | 0x00000001 (1)          |
| NPU_SET_OFM_ZERO_POINT    | 65408     | -                       |
| NPU_SET_OFM_BLK_DEPTH_M1  | 7         | -                       |
| NPU_SET_IFM_IB_END        | 10        | -                       |
| NPU_SET_AB_START          | 30        | -                       |
| NPU_SET_OFM_SCALE         | 22        | 0x3fc000ff (1069547775) |
| NPU_SET_BLOCKDEP          | 3         | -                       |
| NPU_OP_POOL               | 2         | -                       |
| NPU_SET_OFM_SCALE         | 30        | 0x40000000 (1073741824) |
| NPU_SET_IFM_REGION        | 1         | -                       |
| NPU_SET_IFM_BASE0         | 0         | 0x00000090 (144)        |
| NPU_SET_IFM_DEPTH_M1      | 0         | -                       |
| NPU_SET_IFM_STRIDE_Y      | 0         | 0x00000001 (1)          |
| NPU_SET_IFM_STRIDE_X      | 0         | 0x00000001 (1)          |
| NPU_SET_IFM_ZERO_POINT    | 65408     | -                       |
| NPU_SET_OFM_BASE0         | 0         | 0x00000090 (144)        |
| NPU_SET_ACTIVATION_MAX    | 65408     | -                       |
| NPU_SET_IFM_IB_END        | 46        | -                       |
| NPU_SET_AB_START          | 46        | -                       |
| NPU_SET_IFM2_ZERO_POINT   | 0         | -                       |
| NPU_SET_IFM_PRECISION     | 0         | -                       |
| NPU_SET_IFM2_BROADCAST    | 128       | -                       |
| NPU_SET_IFM2_SCALAR       | 0         | -                       |
| NPU_OP_ELEMENTWISE        | 0         | -                       |
| NPU_OP_STOP               | 65535     | -                       |
+---------------------------+-----------+-------------------------+
*/
