#pragma once
#include <stddef.h>
#include <stdint.h>




// Tensor sizes

#define FC_LIF_LAYER_2_IS_LAST_LAYER 0
#define FC_LIF_LAYER_2_MAX_NUM_TENSORS_TO_TRACK 8
#define FC_LIF_LAYER_2_TENSOR_ARENA_SIZE  160
#define FC_LIF_LAYER_2_INPUT_LAYER_SIZE  48
#define FC_LIF_LAYER_2_OUTPUT_LAYER_SIZE  48
#define FC_LIF_LAYER_2_WEIGHT_LEN 2224
#define FC_LIF_LAYER_2_BIAS_LEN 480

// Input/output addresses (Relative Addressing)

#define FC_LIF_LAYER_2_IN_SPK_ADDR 0
#define FC_LIF_LAYER_2_BIAS_ADDR 0
#define FC_LIF_LAYER_2_WEIGHT_ADDR 480
#define FC_LIF_LAYER_2_LN_BETA_ADDR 0
#define FC_LIF_LAYER_2_VTH_ADDR 48
#define FC_LIF_LAYER_2_V_MEM_ADDR 96
#define FC_LIF_LAYER_2_TIME_NOT_UPDATED_ADDR 144
#define FC_LIF_LAYER_2_IN_CURR_ADDR 48
#define FC_LIF_LAYER_2_DECAY_ADDR 0
#define FC_LIF_LAYER_2_DECAYED_MEM_ADDR 0
#define FC_LIF_LAYER_2_UPDATE_NXT_LAYER_ADDR 145
#define FC_LIF_LAYER_2_OUT_SPK_ADDR 0
#define FC_LIF_LAYER_2_OUT_SPK_SUM_ADDR -1

//Quantization Params

#define FC_LIF_LAYER_2_IN_SPK_SCALE 1.0
#define FC_LIF_LAYER_2_IN_SPK_ZERO_POINT 0
#define FC_LIF_LAYER_2_BIAS_SCALE 0.026222085765763826
#define FC_LIF_LAYER_2_BIAS_ZERO_POINT 0
#define FC_LIF_LAYER_2_WEIGHT_SCALE 0.026222085765763826
#define FC_LIF_LAYER_2_WEIGHT_ZERO_POINT 0
#define FC_LIF_LAYER_2_LN_BETA_SCALE 0.0007843137254901962
#define FC_LIF_LAYER_2_LN_BETA_ZERO_POINT 65
#define FC_LIF_LAYER_2_VTH_SCALE 0.0007843137254901964
#define FC_LIF_LAYER_2_VTH_ZERO_POINT -1275
#define FC_LIF_LAYER_2_V_MEM_SCALE 0.058823529411764705
#define FC_LIF_LAYER_2_V_MEM_ZERO_POINT -26
#define FC_LIF_LAYER_2_TIME_NOT_UPDATED_SCALE 0.06274509803921569
#define FC_LIF_LAYER_2_TIME_NOT_UPDATED_ZERO_POINT -128
#define FC_LIF_LAYER_2_DECAY_SCALE 0.0037254901960784314
#define FC_LIF_LAYER_2_DECAY_ZERO_POINT -128
#define FC_LIF_LAYER_2_IN_CURR_SCALE 0.047058823529411764
#define FC_LIF_LAYER_2_IN_CURR_ZERO_POINT 0
#define FC_LIF_LAYER_2_DECAYED_MEM_SCALE 0.043137254901960784
#define FC_LIF_LAYER_2_DECAYED_MEM_ZERO_POINT -35
#define FC_LIF_LAYER_2_UPDATE_NXT_LAYER_SCALE 0.00392156862745098
#define FC_LIF_LAYER_2_UPDATE_NXT_LAYER_ZERO_POINT -128
#define FC_LIF_LAYER_2_OUT_SPK_SCALE 1.0
#define FC_LIF_LAYER_2_OUT_SPK_ZERO_POINT 0
#define FC_LIF_LAYER_2_OUT_SPK_SUM_SCALE 0
#define FC_LIF_LAYER_2_OUT_SPK_SUM_ZERO_POINT 0











static const uint8_t cms_fc_lif_layer_2[] __attribute__((aligned(16))) = 
{

0x43, 0x4f, 0x50, 0x31,
0x01, 0x00, 0x10, 0x00,
0x08, 0x30, 0x00, 0x00,
0x00, 0x00, 0x06, 0x10,
0x05, 0x00, 0x00, 0x00,
0x05, 0x00, 0x00, 0x00,
0x05, 0x00, 0x00, 0x00,
0x02, 0x00, 0x2a, 0x01,
0x30, 0x01, 0x04, 0x00,
0x30, 0x40, 0x00, 0x00,
0x00, 0x00, 0x00, 0x00,
0x31, 0x01, 0x03, 0x01,
0x31, 0x40, 0x00, 0x00,
0x00, 0xb8, 0x00, 0x00,
0x32, 0x40, 0x00, 0x00,
0x00, 0x01, 0x00, 0x00,
0x10, 0x00, 0x00, 0x00,
0x24, 0x40, 0x25, 0x00,
0x80, 0x33, 0xcd, 0x66,
0x0f, 0x01, 0x03, 0x00,
0x00, 0x40, 0x00, 0x00,
0x00, 0x00, 0x00, 0x00,
0x01, 0x40, 0x00, 0x00,
0x00, 0x00, 0x00, 0x00,
0x02, 0x40, 0x00, 0x00,
0x00, 0x00, 0x00, 0x00,
0x03, 0x40, 0x00, 0x00,
0x00, 0x00, 0x00, 0x00,
0x0b, 0x01, 0x00, 0x00,
0x0c, 0x01, 0xff, 0xff,
0x0a, 0x01, 0x00, 0x00,
0x04, 0x01, 0x2f, 0x00,
0x06, 0x40, 0x00, 0x00,
0x01, 0x00, 0x00, 0x00,
0x05, 0x40, 0x00, 0x00,
0x30, 0x00, 0x00, 0x00,
0x04, 0x40, 0x00, 0x00,
0x30, 0x00, 0x00, 0x00,
0x09, 0x01, 0x41, 0x00,
0x05, 0x01, 0x01, 0x00,
0x07, 0x01, 0x00, 0x00,
0x1f, 0x01, 0x01, 0x00,
0x10, 0x40, 0x00, 0x00,
0x00, 0x00, 0x00, 0x00,
0x11, 0x40, 0x00, 0x00,
0x00, 0x00, 0x00, 0x00,
0x12, 0x40, 0x00, 0x00,
0x00, 0x00, 0x00, 0x00,
0x13, 0x40, 0x00, 0x00,
0x00, 0x00, 0x00, 0x00,
0x1b, 0x01, 0x00, 0x00,
0x1c, 0x01, 0xff, 0xff,
0x1a, 0x01, 0x00, 0x00,
0x12, 0x01, 0x00, 0x00,
0x11, 0x01, 0x00, 0x00,
0x13, 0x01, 0x2f, 0x00,
0x16, 0x40, 0x00, 0x00,
0x10, 0x00, 0x00, 0x00,
0x15, 0x40, 0x00, 0x00,
0x30, 0x00, 0x00, 0x00,
0x14, 0x40, 0x00, 0x00,
0x10, 0x00, 0x00, 0x00,
0x18, 0x01, 0x7f, 0x00,
0x14, 0x01, 0x41, 0x01,
0x25, 0x01, 0x10, 0x00,
0x26, 0x01, 0x80, 0xff,
0x27, 0x01, 0x7f, 0x00,
0x16, 0x01, 0x01, 0x00,
0x15, 0x01, 0x01, 0x00,
0x17, 0x01, 0x2f, 0x00,
0x0d, 0x01, 0x2e, 0x00,
0x2d, 0x01, 0x2e, 0x00,
0x8d, 0x01, 0x0a, 0x00,
0x24, 0x01, 0x00, 0x00,
0x8f, 0x01, 0x01, 0x00,
0x80, 0x40, 0x00, 0x00,
0x90, 0x00, 0x00, 0x00,
0x81, 0x40, 0x00, 0x00,
0x00, 0x00, 0x00, 0x00,
0x82, 0x40, 0x00, 0x00,
0x00, 0x00, 0x00, 0x00,
0x83, 0x40, 0x00, 0x00,
0x00, 0x00, 0x00, 0x00,
0x8b, 0x01, 0x00, 0x00,
0x8c, 0x01, 0xff, 0xff,
0x8a, 0x01, 0x00, 0x00,
0x86, 0x40, 0x00, 0x00,
0x01, 0x00, 0x00, 0x00,
0x85, 0x40, 0x00, 0x00,
0x01, 0x00, 0x00, 0x00,
0x84, 0x40, 0x00, 0x00,
0x01, 0x00, 0x00, 0x00,
0x89, 0x01, 0x80, 0xff,
0x85, 0x01, 0x01, 0x00,
0x80, 0x01, 0x04, 0x00,
0x2f, 0x01, 0x00, 0x00,
0x11, 0x00, 0x00, 0x00,
0x06, 0x00, 0x00, 0x00,
0x0f, 0x01, 0x05, 0x00,
0x09, 0x01, 0x00, 0x00,
0x00, 0x01, 0x00, 0x00,
0x01, 0x01, 0x00, 0x00,
0x03, 0x01, 0x00, 0x00,
0x02, 0x01, 0x00, 0x00,
0x10, 0x40, 0x00, 0x00,
0x30, 0x00, 0x00, 0x00,
0x18, 0x01, 0x00, 0x00,
0x14, 0x01, 0x41, 0x00,
0x21, 0x01, 0x00, 0x00,
0x20, 0x01, 0x00, 0x00,
0x22, 0x01, 0x00, 0x00,
0x28, 0x01, 0x00, 0x00,
0x20, 0x40, 0x00, 0x00,
0xe0, 0x01, 0x00, 0x00,
0x21, 0x40, 0x00, 0x00,
0xb0, 0x08, 0x00, 0x00,
0x29, 0x01, 0x00, 0x00,
0x22, 0x40, 0x00, 0x00,
0x00, 0x00, 0x00, 0x00,
0x23, 0x40, 0x00, 0x00,
0xe0, 0x01, 0x00, 0x00,
0x25, 0x01, 0x00, 0x00,
0x0d, 0x01, 0x0a, 0x00,
0x2d, 0x01, 0x1e, 0x00,
0x2f, 0x01, 0x03, 0x00,
0x02, 0x00, 0x00, 0x00,
0x24, 0x40, 0x26, 0x00,
0x00, 0xf6, 0x3b, 0x53,
0x0f, 0x01, 0x01, 0x00,
0x00, 0x40, 0x00, 0x00,
0x60, 0x00, 0x00, 0x00,
0x09, 0x01, 0xe6, 0xff,
0x10, 0x40, 0x00, 0x00,
0x00, 0x00, 0x00, 0x00,
0x18, 0x01, 0xdd, 0xff,
0x14, 0x01, 0x41, 0x01,
0x0d, 0x01, 0x2e, 0x00,
0x2d, 0x01, 0x2e, 0x00,
0x80, 0x40, 0x00, 0x00,
0x00, 0x00, 0x00, 0x00,
0x86, 0x40, 0x00, 0x00,
0x10, 0x00, 0x00, 0x00,
0x85, 0x40, 0x00, 0x00,
0x30, 0x00, 0x00, 0x00,
0x84, 0x40, 0x00, 0x00,
0x10, 0x00, 0x00, 0x00,
0x85, 0x01, 0x41, 0x00,
0x80, 0x01, 0x00, 0x00,
0x06, 0x00, 0x00, 0x00,
0x25, 0x40, 0x0c, 0x00,
0x55, 0x55, 0x55, 0x75,
0x26, 0x40, 0x00, 0x00,
0x00, 0x00, 0x00, 0x00,
0x24, 0x40, 0x32, 0x00,
0x66, 0x66, 0x66, 0x66,
0x00, 0x40, 0x00, 0x00,
0x00, 0x00, 0x00, 0x00,
0x06, 0x40, 0x00, 0x00,
0x10, 0x00, 0x00, 0x00,
0x04, 0x40, 0x00, 0x00,
0x10, 0x00, 0x00, 0x00,
0x09, 0x01, 0xdd, 0xff,
0x05, 0x01, 0x41, 0x01,
0x10, 0x40, 0x00, 0x00,
0x60, 0x00, 0x00, 0x00,
0x18, 0x01, 0xe6, 0xff,
0x80, 0x40, 0x00, 0x00,
0x30, 0x00, 0x00, 0x00,
0x89, 0x01, 0x00, 0x00,
0x2f, 0x01, 0x00, 0x00,
0x06, 0x00, 0x01, 0x00,
0x30, 0x40, 0x00, 0x00,
0x00, 0x01, 0x00, 0x00,
0x31, 0x40, 0x00, 0x00,
0x00, 0xb9, 0x00, 0x00,
0x10, 0x00, 0x00, 0x00,
0x25, 0x40, 0x12, 0x00,
0xd4, 0x06, 0x3a, 0x6d,
0x24, 0x40, 0x2f, 0x00,
0x00, 0x00, 0x00, 0x78,
0x00, 0x40, 0x00, 0x00,
0x60, 0x00, 0x00, 0x00,
0x09, 0x01, 0xe6, 0xff,
0x05, 0x01, 0x41, 0x02,
0x1f, 0x01, 0x06, 0x00,
0x10, 0x40, 0x00, 0x00,
0x00, 0x00, 0x00, 0x00,
0x16, 0x40, 0x00, 0x00,
0x01, 0x00, 0x00, 0x00,
0x14, 0x40, 0x00, 0x00,
0x30, 0x00, 0x00, 0x00,
0x18, 0x01, 0x00, 0x00,
0x14, 0x01, 0x01, 0x01,
0x25, 0x01, 0x11, 0x00,
0x8f, 0x01, 0x03, 0x00,
0x86, 0x40, 0x00, 0x00,
0x01, 0x00, 0x00, 0x00,
0x84, 0x40, 0x00, 0x00,
0x30, 0x00, 0x00, 0x00,
0x89, 0x01, 0x05, 0xfb,
0x85, 0x01, 0x01, 0x00,
0x11, 0x00, 0x00, 0x00,
0x06, 0x00, 0x02, 0x00,
0x24, 0x40, 0x21, 0x00,
0x80, 0x45, 0x17, 0x5d,
0x0f, 0x01, 0x03, 0x00,
0x00, 0x40, 0x00, 0x00,
0x30, 0x00, 0x00, 0x00,
0x06, 0x40, 0x00, 0x00,
0x01, 0x00, 0x00, 0x00,
0x04, 0x40, 0x00, 0x00,
0x30, 0x00, 0x00, 0x00,
0x09, 0x01, 0x05, 0xfb,
0x05, 0x01, 0x01, 0x00,
0x1f, 0x01, 0x01, 0x00,
0x10, 0x40, 0x00, 0x00,
0x30, 0x00, 0x00, 0x00,
0x16, 0x40, 0x00, 0x00,
0x10, 0x00, 0x00, 0x00,
0x14, 0x40, 0x00, 0x00,
0x10, 0x00, 0x00, 0x00,
0x18, 0x01, 0x80, 0xff,
0x14, 0x01, 0x41, 0x01,
0x25, 0x01, 0x00, 0x00,
0x8f, 0x01, 0x06, 0x00,
0x80, 0x40, 0x00, 0x00,
0x00, 0x00, 0x00, 0x00,
0x89, 0x01, 0x00, 0x00,
0x06, 0x00, 0x00, 0x00,
0x25, 0x40, 0x0f, 0x00,
0xb1, 0xe4, 0x17, 0x4b,
0x24, 0x40, 0x31, 0x00,
0x00, 0x00, 0x00, 0x40,
0x0f, 0x01, 0x01, 0x00,
0x00, 0x40, 0x00, 0x00,
0x60, 0x00, 0x00, 0x00,
0x06, 0x40, 0x00, 0x00,
0x10, 0x00, 0x00, 0x00,
0x04, 0x40, 0x00, 0x00,
0x10, 0x00, 0x00, 0x00,
0x09, 0x01, 0xe6, 0xff,
0x05, 0x01, 0x41, 0x02,
0x10, 0x40, 0x00, 0x00,
0x60, 0x00, 0x00, 0x00,
0x16, 0x40, 0x00, 0x00,
0x01, 0x00, 0x00, 0x00,
0x14, 0x40, 0x00, 0x00,
0x30, 0x00, 0x00, 0x00,
0x18, 0x01, 0xe6, 0xff,
0x14, 0x01, 0x01, 0x01,
0x8f, 0x01, 0x01, 0x00,
0x80, 0x40, 0x00, 0x00,
0x30, 0x00, 0x00, 0x00,
0x86, 0x40, 0x00, 0x00,
0x10, 0x00, 0x00, 0x00,
0x84, 0x40, 0x00, 0x00,
0x10, 0x00, 0x00, 0x00,
0x89, 0x01, 0x80, 0xff,
0x85, 0x01, 0x41, 0x00,
0x06, 0x00, 0x02, 0x00,
0x0f, 0x01, 0x06, 0x00,
0x00, 0x40, 0x00, 0x00,
0x00, 0x00, 0x00, 0x00,
0x06, 0x40, 0x00, 0x00,
0x01, 0x00, 0x00, 0x00,
0x04, 0x40, 0x00, 0x00,
0x30, 0x00, 0x00, 0x00,
0x09, 0x01, 0x00, 0x00,
0x05, 0x01, 0x01, 0x00,
0x10, 0x40, 0x00, 0x00,
0x91, 0x00, 0x00, 0x00,
0x13, 0x01, 0x00, 0x00,
0x15, 0x40, 0x00, 0x00,
0x01, 0x00, 0x00, 0x00,
0x14, 0x40, 0x00, 0x00,
0x01, 0x00, 0x00, 0x00,
0x18, 0x01, 0x80, 0xff,
0x17, 0x01, 0x07, 0x00,
0x0d, 0x01, 0x0a, 0x00,
0x2d, 0x01, 0x1e, 0x00,
0x24, 0x40, 0x16, 0x00,
0xff, 0x00, 0xc0, 0x3f,
0x2f, 0x01, 0x03, 0x00,
0x05, 0x00, 0x02, 0x00,
0x24, 0x40, 0x1e, 0x00,
0x00, 0x00, 0x00, 0x40,
0x0f, 0x01, 0x01, 0x00,
0x00, 0x40, 0x00, 0x00,
0x90, 0x00, 0x00, 0x00,
0x04, 0x01, 0x00, 0x00,
0x05, 0x40, 0x00, 0x00,
0x01, 0x00, 0x00, 0x00,
0x04, 0x40, 0x00, 0x00,
0x01, 0x00, 0x00, 0x00,
0x09, 0x01, 0x80, 0xff,
0x10, 0x40, 0x00, 0x00,
0x90, 0x00, 0x00, 0x00,
0x27, 0x01, 0x80, 0xff,
0x0d, 0x01, 0x2e, 0x00,
0x2d, 0x01, 0x2e, 0x00,
0x89, 0x01, 0x00, 0x00,
0x85, 0x01, 0x00, 0x00,
0x80, 0x01, 0x80, 0x00,
0x81, 0x01, 0x00, 0x00,
0x06, 0x00, 0x00, 0x00,
0x00, 0x00, 0xff, 0xff, 

};







static inline const uint8_t * Getfc_lif_layer_2CMSPointer()
{
	return cms_fc_lif_layer_2;
}

static inline size_t Getfc_lif_layer_2CMSLen()
{
	return sizeof(cms_fc_lif_layer_2);
}





static const int8_t weight_fc_lif_layer_2[] __attribute__((aligned(16))) = 
{

//biases
0xf8, 0xff, 0xff, 0xff,
0xff, 0x77, 0xf6, 0x52,
0x47, 0x1f, 0x04, 0x00,
0x00, 0x00, 0x00, 0x77,
0xf6, 0x52, 0x47, 0x1f,
0xf0, 0xff, 0xff, 0xff,
0xff, 0x77, 0xf6, 0x52,
0x47, 0x1f, 0xf6, 0xff,
0xff, 0xff, 0xff, 0x77,
0xf6, 0x52, 0x47, 0x1f,
0xf9, 0xff, 0xff, 0xff,
0xff, 0x77, 0xf6, 0x52,
0x47, 0x1f, 0xf5, 0xff,
0xff, 0xff, 0xff, 0x77,
0xf6, 0x52, 0x47, 0x1f,
0xf6, 0xff, 0xff, 0xff,
0xff, 0x77, 0xf6, 0x52,
0x47, 0x1f, 0xdc, 0xff,
0xff, 0xff, 0xff, 0x77,
0xf6, 0x52, 0x47, 0x1f,
0x02, 0x00, 0x00, 0x00,
0x00, 0x77, 0xf6, 0x52,
0x47, 0x1f, 0xea, 0xff,
0xff, 0xff, 0xff, 0x77,
0xf6, 0x52, 0x47, 0x1f,
0xf7, 0xff, 0xff, 0xff,
0xff, 0x77, 0xf6, 0x52,
0x47, 0x1f, 0xe4, 0xff,
0xff, 0xff, 0xff, 0x77,
0xf6, 0x52, 0x47, 0x1f,
0xf7, 0xff, 0xff, 0xff,
0xff, 0x77, 0xf6, 0x52,
0x47, 0x1f, 0xf8, 0xff,
0xff, 0xff, 0xff, 0x77,
0xf6, 0x52, 0x47, 0x1f,
0xe4, 0xff, 0xff, 0xff,
0xff, 0x77, 0xf6, 0x52,
0x47, 0x1f, 0x07, 0x00,
0x00, 0x00, 0x00, 0x77,
0xf6, 0x52, 0x47, 0x1f,
0xfa, 0xff, 0xff, 0xff,
0xff, 0x77, 0xf6, 0x52,
0x47, 0x1f, 0xf2, 0xff,
0xff, 0xff, 0xff, 0x77,
0xf6, 0x52, 0x47, 0x1f,
0xe8, 0xff, 0xff, 0xff,
0xff, 0x77, 0xf6, 0x52,
0x47, 0x1f, 0xf4, 0xff,
0xff, 0xff, 0xff, 0x77,
0xf6, 0x52, 0x47, 0x1f,
0x0d, 0x00, 0x00, 0x00,
0x00, 0x77, 0xf6, 0x52,
0x47, 0x1f, 0xe5, 0xff,
0xff, 0xff, 0xff, 0x77,
0xf6, 0x52, 0x47, 0x1f,
0xfa, 0xff, 0xff, 0xff,
0xff, 0x77, 0xf6, 0x52,
0x47, 0x1f, 0xeb, 0xff,
0xff, 0xff, 0xff, 0x77,
0xf6, 0x52, 0x47, 0x1f,
0xf5, 0xff, 0xff, 0xff,
0xff, 0x77, 0xf6, 0x52,
0x47, 0x1f, 0x04, 0x00,
0x00, 0x00, 0x00, 0x77,
0xf6, 0x52, 0x47, 0x1f,
0xf5, 0xff, 0xff, 0xff,
0xff, 0x77, 0xf6, 0x52,
0x47, 0x1f, 0xef, 0xff,
0xff, 0xff, 0xff, 0x77,
0xf6, 0x52, 0x47, 0x1f,
0xd9, 0xff, 0xff, 0xff,
0xff, 0x77, 0xf6, 0x52,
0x47, 0x1f, 0xf5, 0xff,
0xff, 0xff, 0xff, 0x77,
0xf6, 0x52, 0x47, 0x1f,
0xe7, 0xff, 0xff, 0xff,
0xff, 0x77, 0xf6, 0x52,
0x47, 0x1f, 0x00, 0x00,
0x00, 0x00, 0x00, 0x77,
0xf6, 0x52, 0x47, 0x1f,
0xe4, 0xff, 0xff, 0xff,
0xff, 0x77, 0xf6, 0x52,
0x47, 0x1f, 0xfd, 0xff,
0xff, 0xff, 0xff, 0x77,
0xf6, 0x52, 0x47, 0x1f,
0x10, 0x00, 0x00, 0x00,
0x00, 0x77, 0xf6, 0x52,
0x47, 0x1f, 0xf6, 0xff,
0xff, 0xff, 0xff, 0x77,
0xf6, 0x52, 0x47, 0x1f,
0x0b, 0x00, 0x00, 0x00,
0x00, 0x77, 0xf6, 0x52,
0x47, 0x1f, 0xed, 0xff,
0xff, 0xff, 0xff, 0x77,
0xf6, 0x52, 0x47, 0x1f,
0xed, 0xff, 0xff, 0xff,
0xff, 0x77, 0xf6, 0x52,
0x47, 0x1f, 0xe0, 0xff,
0xff, 0xff, 0xff, 0x77,
0xf6, 0x52, 0x47, 0x1f,
0x01, 0x00, 0x00, 0x00,
0x00, 0x77, 0xf6, 0x52,
0x47, 0x1f, 0xe3, 0xff,
0xff, 0xff, 0xff, 0x77,
0xf6, 0x52, 0x47, 0x1f,
0xec, 0xff, 0xff, 0xff,
0xff, 0x77, 0xf6, 0x52,
0x47, 0x1f, 0xfa, 0xff,
0xff, 0xff, 0xff, 0x77,
0xf6, 0x52, 0x47, 0x1f,
0xee, 0xff, 0xff, 0xff,
0xff, 0x77, 0xf6, 0x52,
0x47, 0x1f, 0x0b, 0x00,
0x00, 0x00, 0x00, 0x77,
0xf6, 0x52, 0x47, 0x1f,
0xe1, 0xff, 0xff, 0xff,
0xff, 0x77, 0xf6, 0x52,
0x47, 0x1f, 0xea, 0xff,
0xff, 0xff, 0xff, 0x77,
0xf6, 0x52, 0x47, 0x1f, 
//weights
0x68, 0x32, 0x50, 0xf1,
0x5b, 0x10, 0x2c, 0x06,
0x09, 0x04, 0x41, 0x71,
0x30, 0x3c, 0x32, 0x95,
0x4d, 0x24, 0xf4, 0x29,
0x75, 0x2e, 0x93, 0xe0,
0xea, 0xd4, 0x18, 0x0d,
0x73, 0xb7, 0x59, 0xcc,
0xb1, 0x13, 0x00, 0x00,
0x9e, 0xad, 0x43, 0x05,
0x0f, 0x84, 0xb5, 0xeb,
0x02, 0x00, 0x8a, 0x00,
0xd7, 0xa5, 0xc0, 0x0c,
0x00, 0xc0, 0xbb, 0x34,
0xc3, 0xda, 0x06, 0x4f,
0x9c, 0xf2, 0x69, 0x0e,
0x00, 0x31, 0xf7, 0x8f,
0x3d, 0xd1, 0xbd, 0x06,
0x00, 0xdc, 0xbb, 0x28,
0x63, 0xde, 0xfb, 0xf3,
0xdb, 0x05, 0xdd, 0xee,
0xc4, 0xbf, 0x02, 0xc0,
0x33, 0x91, 0xad, 0x0f,
0xb8, 0x32, 0x79, 0x33,
0x4d, 0x03, 0x00, 0x80,
0x83, 0x8d, 0x9a, 0x5b,
0x26, 0x21, 0x44, 0x01,
0x90, 0x19, 0x4a, 0x13,
0x82, 0x28, 0x3d, 0xc6,
0x00, 0xc8, 0x13, 0x41,
0x94, 0xa4, 0x33, 0x18,
0x56, 0x00, 0xc0, 0xcc,
0xd0, 0x51, 0x9e, 0x38,
0x0f, 0x00, 0xec, 0x83,
0xac, 0xa9, 0x36, 0x10,
0x48, 0x39, 0xd1, 0x6e,
0xe6, 0x9c, 0x28, 0x01,
0x18, 0x24, 0xfa, 0x5d,
0x76, 0x82, 0x61, 0x00,
0x01, 0xc8, 0xa6, 0x2d,
0x89, 0x79, 0x35, 0x30,
0x00, 0x80, 0xcc, 0xa1,
0x85, 0x08, 0xa6, 0x88,
0x20, 0x06, 0x00, 0x6c,
0xc5, 0xe9, 0x9a, 0xab,
0x0b, 0xbb, 0x0e, 0x0a,
0xb8, 0xf3, 0x58, 0x08,
0x19, 0x1e, 0x12, 0x38,
0x00, 0xc0, 0xbf, 0xa5,
0xab, 0x58, 0x20, 0xbc,
0x55, 0xb1, 0x81, 0x01,
0x00, 0x22, 0x6c, 0x0a,
0x37, 0x2e, 0xe9, 0x91,
0x97, 0x10, 0x00, 0x08,
0x71, 0x25, 0xaa, 0x14,
0x11, 0x00, 0x00, 0x8c,
0x80, 0x28, 0xc0, 0x0c,
0x20, 0x40, 0x3c, 0x00,
0x38, 0x4c, 0xa3, 0x4a,
0xb1, 0x30, 0x0d, 0xe0,
0x05, 0x00, 0x29, 0x38,
0x8b, 0xf0, 0x35, 0xe7,
0x0f, 0x00, 0xb9, 0x97,
0xfd, 0x84, 0xa4, 0x40,
0x6f, 0x62, 0xbb, 0xc1,
0x3e, 0x7b, 0x03, 0x00,
0xb9, 0x49, 0xb7, 0xc2,
0xb4, 0xb5, 0xcc, 0xec,
0xbb, 0x6c, 0x87, 0x11,
0x07, 0x80, 0x19, 0x14,
0xb0, 0x93, 0x83, 0x79,
0x8f, 0x00, 0x7e, 0xba,
0x0b, 0x56, 0x6f, 0xdf,
0xfb, 0x9f, 0xbd, 0xd9,
0x24, 0x0a, 0x06, 0x00,
0xbe, 0xcf, 0xc8, 0x21,
0x63, 0x07, 0x75, 0x4a,
0x05, 0x03, 0x00, 0xc2,
0x48, 0x40, 0x53, 0x8a,
0x1e, 0xf4, 0x84, 0x00,
0x00, 0x88, 0x87, 0x01,
0xd8, 0x20, 0x39, 0x00,
0x00, 0xc6, 0x47, 0x3e,
0xdd, 0x40, 0x40, 0xe1,
0x29, 0x00, 0x2e, 0xd2,
0xac, 0xf8, 0x04, 0x3d,
0xe5, 0xb1, 0x40, 0xc0,
0xe6, 0x81, 0x02, 0xc1,
0x02, 0x83, 0xfc, 0x91,
0x41, 0x4a, 0x02, 0x84,
0x38, 0x79, 0x86, 0x33,
0x3b, 0xb9, 0x93, 0x1f,
0x57, 0x00, 0xe0, 0xe9,
0x13, 0x9d, 0x53, 0x18,
0x00, 0x00, 0xa8, 0x71,
0x50, 0xbb, 0xc7, 0x31,
0x08, 0xf8, 0xcf, 0x00,
0x17, 0xa1, 0x07, 0x04,
0xf0, 0xfa, 0x40, 0xf1,
0x05, 0x34, 0xde, 0x01,
0x80, 0x2f, 0x06, 0xfc,
0x8b, 0x2a, 0x60, 0x00,
0x40, 0x75, 0x96, 0x2f,
0x88, 0x9e, 0x00, 0xe0,
0x18, 0xc0, 0xd8, 0x3d,
0xaa, 0x50, 0x1c, 0xb8,
0xe8, 0x58, 0x44, 0xc4,
0x20, 0x08, 0x00, 0x80,
0x20, 0x50, 0x90, 0x33,
0x00, 0x08, 0x00, 0xaa,
0x4a, 0x23, 0x29, 0x2c,
0x8e, 0xf5, 0x00, 0x00,
0x5c, 0x22, 0x4e, 0x6c,
0x08, 0xa5, 0x52, 0xe3,
0x01, 0x80, 0x27, 0x41,
0xc6, 0xce, 0x00, 0x4c,
0x1c, 0x0b, 0xc1, 0xb2,
0x6e, 0x00, 0x80, 0xf4,
0x66, 0xf0, 0xdd, 0xd9,
0xe7, 0xbd, 0x1f, 0xef,
0x00, 0xf0, 0x3f, 0x3b,
0x9d, 0x4f, 0x8d, 0xfd,
0x8d, 0xbe, 0x06, 0x00,
0xdb, 0xed, 0xb4, 0xa0,
0x75, 0x6e, 0x37, 0x7c,
0x4a, 0x45, 0x9b, 0xf7,
0x05, 0x00, 0x7f, 0xfc,
0x61, 0x6a, 0xbb, 0x1e,
0xf1, 0xb1, 0x2b, 0xb1,
0xfc, 0x00, 0xb0, 0xdb,
0x1a, 0xe4, 0xea, 0x60,
0x10, 0xf6, 0xe2, 0x3b,
0xc0, 0x09, 0x00, 0x9f,
0xbd, 0x18, 0xc3, 0x45,
0x35, 0x8f, 0x9c, 0xf0,
0x13, 0x35, 0xa6, 0x4a,
0x02, 0x34, 0x00, 0xc0,
0x4f, 0x9a, 0x11, 0xe7,
0xa5, 0xc0, 0xce, 0x48,
0x07, 0x88, 0xbe, 0x52,
0x00, 0x38, 0x7e, 0xba,
0x50, 0x25, 0x00, 0x40,
0x40, 0x12, 0x53, 0x25,
0xe4, 0xe1, 0x68, 0x10,
0x00, 0x4c, 0x60, 0xd5,
0x5e, 0xae, 0x26, 0x1e,
0x00, 0xe6, 0x1c, 0x4c,
0x12, 0x02, 0x5b, 0x15,
0x12, 0x9b, 0x23, 0x46,
0x00, 0x10, 0xed, 0x53,
0x60, 0xd2, 0xec, 0x82,
0x1a, 0x0c, 0x00, 0x70,
0x01, 0x07, 0x07, 0x00,
0xfc, 0xf3, 0xfe, 0xf8,
0x04, 0x70, 0x87, 0xe0,
0xaf, 0x1c, 0x6f, 0x1f,
0x78, 0x77, 0xd1, 0x31,
0x01, 0x60, 0x61, 0x67,
0x75, 0x03, 0x02, 0x00,
0xd8, 0x48, 0x30, 0x84,
0x10, 0x75, 0x04, 0x00,
0x36, 0x80, 0x90, 0x29,
0x21, 0x3e, 0x11, 0x10,
0xca, 0xc4, 0xe5, 0x4e,
0x20, 0x00, 0xf8, 0x3d,
0x0c, 0x84, 0x43, 0x29,
0x80, 0x3f, 0x20, 0x00,
0x00, 0xc3, 0x1a, 0x71,
0x71, 0xa1, 0x73, 0x00,
0xb0, 0xcd, 0x98, 0x2b,
0x91, 0x48, 0x1c, 0xe0,
0x1e, 0x00, 0xfc, 0x7c,
0x32, 0xba, 0x68, 0xdc,
0xe8, 0x5a, 0x81, 0x4d,
0x7f, 0x39, 0x00, 0x70,
0x98, 0x63, 0xef, 0xf9,
0x8e, 0x3d, 0x00, 0xf0,
0x4d, 0x0d, 0x69, 0x2b,
0xce, 0x3f, 0xbb, 0x0d,
0xb4, 0xba, 0xab, 0x7f,
0x0f, 0x00, 0x3d, 0x90,
0x9a, 0x76, 0xf7, 0xfe,
0x9d, 0xb9, 0xc2, 0x10,
0xde, 0xfd, 0x67, 0xa7,
0xf3, 0x7d, 0x00, 0xe0,
0xdf, 0xfd, 0x8c, 0xcc,
0x4d, 0x3e, 0x8f, 0x1b,
0xeb, 0x00, 0x60, 0xc7,
0x40, 0x50, 0x03, 0xc0,
0x48, 0x20, 0x6e, 0xea,
0x01, 0x00, 0x4b, 0x6e,
0xd9, 0x0c, 0x49, 0x8d,
0xf3, 0xa5, 0x5c, 0x40,
0x00, 0xb1, 0x11, 0xda,
0xea, 0x41, 0x04, 0xe0,
0x6a, 0x6e, 0x2a, 0xd4,
0x1c, 0xd4, 0xc3, 0x01,
0xc0, 0x3d, 0x25, 0x41,
0xc6, 0x8f, 0x27, 0xef,
0xa1, 0x14, 0xd9, 0xc1,
0x01, 0x82, 0xa0, 0x76,
0x61, 0x3a, 0xb0, 0x03,
0x00, 0x7f, 0x34, 0x83,
0x62, 0xfc, 0x8a, 0x0f,
0x6a, 0x88, 0xd9, 0x73,
0x07, 0xde, 0x01, 0xc0,
0x4f, 0x83, 0x60, 0xbf,
0x83, 0x2a, 0xdf, 0x11,
0x80, 0xbf, 0xcd, 0x44,
0x0f, 0x87, 0xef, 0x25,
0x65, 0x9f, 0xc3, 0x00,
0xe0, 0x2e, 0x2d, 0x20,
0xc5, 0xdf, 0xdd, 0xde,
0x9f, 0x39, 0x41, 0x02,
0x07, 0x40, 0xb0, 0x9f,
0x4c, 0x02, 0x00, 0x00,
0x14, 0x04, 0x39, 0x8d,
0x44, 0x40, 0x40, 0x04,
0xc0, 0x44, 0xba, 0x22,
0x0f, 0x01, 0x09, 0x1a,
0x00, 0x58, 0x4c, 0xa2,
0xaf, 0x63, 0x02, 0x6a,
0xc0, 0x09, 0xe0, 0xb1,
0x54, 0xa0, 0x78, 0xc5,
0x80, 0x8e, 0x4d, 0x22,
0xc7, 0xd7, 0x00, 0x00,
0x04, 0x29, 0x58, 0x2c,
0x18, 0xea, 0x73, 0x7a,
0x0f, 0x01, 0xfc, 0x97,
0xd6, 0xc7, 0xca, 0xf9,
0x7f, 0xe3, 0x3a, 0x76,
0xda, 0x3c, 0x01, 0x20,
0x4f, 0xd1, 0xad, 0xfd,
0xda, 0x6e, 0xd5, 0x9c,
0x6f, 0x76, 0x7b, 0x00,
0xe0, 0x5a, 0x56, 0x1b,
0x55, 0xf7, 0x99, 0x3e,
0x28, 0xa2, 0x3f, 0x37,
0x00, 0xc4, 0x5f, 0x41,
0x05, 0x58, 0x9b, 0x31,
0x00, 0x18, 0xc4, 0xe3,
0xf9, 0xfc, 0xfe, 0xe6,
0x2b, 0x60, 0x17, 0xa9,
0xfd, 0x7f, 0x06, 0x80,
0x8e, 0xf9, 0x4e, 0x28,
0x4f, 0x1d, 0xd7, 0x42,
0x00, 0x4c, 0x09, 0x00,
0xb1, 0x99, 0xbe, 0x68,
0xe2, 0x8e, 0x0c, 0x40,
0xa6, 0x1d, 0x8e, 0x21,
0x39, 0x4a, 0x54, 0x00,
0x80, 0xcc, 0xc5, 0x06,
0x03, 0x1b, 0x0f, 0x41,
0xc0, 0xc9, 0x1a, 0x9f,
0x73, 0x34, 0x0d, 0x61,
0x04, 0x00, 0x67, 0xdb,
0x49, 0xb1, 0x91, 0xc3,
0xdb, 0x23, 0x4f, 0xc8,
0x2d, 0xd5, 0x1d, 0x42,
0xc0, 0xef, 0x09, 0x8c,
0xbf, 0xc2, 0x72, 0xef,
0x80, 0xe0, 0x0c, 0x02,
0xc0, 0xf5, 0x22, 0x1a,
0x2b, 0xa7, 0x81, 0x06,
0x80, 0x6e, 0x27, 0x53,
0xd7, 0xd7, 0xf0, 0xba,
0x3c, 0x31, 0x90, 0xd3,
0x8e, 0x07, 0x00, 0x73,
0x34, 0x84, 0x11, 0x6b,
0x85, 0x07, 0x00, 0xbe,
0x69, 0x01, 0x4a, 0x9c,
0xe0, 0xd2, 0xce, 0x88,
0x46, 0xe7, 0x01, 0x00,
0xfe, 0xcd, 0xa8, 0x0c,
0xe8, 0x30, 0x51, 0x02,
0x18, 0x77, 0x15, 0x51,
0xc2, 0x0a, 0x84, 0x52,
0x64, 0x14, 0xcc, 0x11,
0x23, 0x1c, 0x00, 0xc0,
0xe0, 0xe3, 0x8e, 0xcc,
0x6a, 0x74, 0xc0, 0xe0,
0x62, 0x4d, 0x87, 0x50,
0x00, 0xc0, 0x64, 0xfa,
0x66, 0x88, 0xde, 0x01,
0xf7, 0x38, 0x00, 0x60,
0x90, 0x26, 0x90, 0x96,
0x1f, 0xbf, 0x07, 0x80,
0xe3, 0xca, 0x40, 0x66,
0xa8, 0xca, 0xbf, 0xef,
0x79, 0x1c, 0x1f, 0x8d,
0xdd, 0x07, 0x00, 0xfe,
0xf6, 0xaf, 0xfa, 0xd1,
0x5e, 0x84, 0xf6, 0xef,
0x07, 0x00, 0xe4, 0xc4,
0xee, 0x3c, 0xff, 0xf9,
0xdd, 0x68, 0x4c, 0x75,
0xaa, 0x78, 0x0d, 0x00,
0xd6, 0xe9, 0x8f, 0xdb,
0x3b, 0xaf, 0xa4, 0x24,
0xa0, 0xf1, 0xf3, 0x00,
0xf0, 0x5d, 0x31, 0xf4,
0xa7, 0x13, 0x14, 0xc0,
0x01, 0xe4, 0x00, 0xe0,
0x56, 0x1a, 0x4a, 0xe4,
0xa6, 0x30, 0xf2, 0x08,
0x90, 0xa3, 0xb7, 0xd0,
0x2a, 0x42, 0x1c, 0xb9,
0x89, 0x11, 0xe6, 0x2c,
0xce, 0x13, 0x80, 0x1d,
0x8d, 0x1e, 0xca, 0x8b,
0xc9, 0x07, 0x00, 0x2c,
0x34, 0x4d, 0x14, 0x43,
0x3e, 0x00, 0xe0, 0xa7,
0x9e, 0x03, 0x4a, 0x1d,
0x02, 0x8a, 0x58, 0x39,
0x25, 0xc3, 0x0b, 0x80,
0xbc, 0x23, 0xd3, 0x99,
0x8f, 0x8c, 0x15, 0xfe,
0x00, 0xf0, 0xe0, 0xd9,
0xa5, 0x9f, 0x0a, 0x0b,
0x00, 0x00, 0xd4, 0x19,
0x7a, 0x15, 0xef, 0x02,
0xc1, 0xcf, 0x29, 0x80,
0xb9, 0x84, 0x1c, 0x14,
0xe7, 0x64, 0xc1, 0x97,
0x52, 0xfc, 0x0b, 0x00,
0x6f, 0x4b, 0xac, 0x3b,
0x06, 0x6a, 0x68, 0xf2,
0x58, 0xec, 0x00, 0x61,
0x00, 0xd8, 0x30, 0xc4,
0x0e, 0x1b, 0x79, 0x40,
0x00, 0x0f, 0x42, 0x2b,
0x8a, 0x0b, 0x34, 0xe7,
0x00, 0x00, 0xfe, 0x4a,
0xc8, 0xf8, 0x06, 0x0e,
0xcd, 0x55, 0x59, 0x01,
0x22, 0x00, 0x1e, 0x6d,
0x30, 0x88, 0xd8, 0x01,
0x1c, 0x74, 0x00, 0xc0,
0xbf, 0x22, 0x86, 0x2a,
0x07, 0x84, 0x80, 0x00,
0x9b, 0x96, 0x31, 0xeb,
0x03, 0x3b, 0x00, 0x58,
0x27, 0x6e, 0x52, 0x81,
0x05, 0x9d, 0x20, 0x02,
0x00, 0x94, 0xe4, 0x9c,
0x2c, 0x45, 0xc9, 0x00,
0x00, 0x24, 0x16, 0xfb,
0x48, 0x9c, 0xb7, 0x41,
0x06, 0x00, 0xf1, 0x09,
0x5e, 0x7e, 0x67, 0xfa,
0x12, 0x9c, 0x59, 0x78,
0x01, 0x5d, 0x02, 0x01,
0x80, 0x93, 0x94, 0xde,
0xd8, 0xd8, 0x8f, 0x1f,
0x07, 0x72, 0x00, 0x90,
0x05, 0xb1, 0x71, 0x30,
0x00, 0x81, 0xab, 0x46,
0xd9, 0x2e, 0x08, 0x23,
0xe5, 0x01, 0x00, 0x1f,
0x64, 0x02, 0x3b, 0x2d,
0x34, 0x24, 0xb1, 0x81,
0x86, 0xae, 0x06, 0x00,
0x35, 0xd1, 0xca, 0x06,
0x5a, 0xa6, 0x0e, 0xdc,
0xf3, 0x01, 0xe0, 0x1e,
0x08, 0x63, 0xe4, 0xc8,
0xd3, 0xa7, 0xd7, 0x4f,
0x25, 0xfe, 0x00, 0xf0,
0xff, 0x35, 0xdd, 0x9b,
0xf7, 0xff, 0x4b, 0xff,
0xff, 0xff, 0xff, 0xff,
0xff, 0xff, 0xff, 0xff,
0xff, 0xff, 0xff, 0xff,
0xff, 0x00, 0x03, 0x00,
0x10, 0x00, 0x00, 0x00,
0x60, 0x0f, 0x40, 0x2e,
0x1d, 0x08, 0xcc, 0x03,
0xe7, 0x09, 0x49, 0x6d,
0xe2, 0x10, 0x00, 0x80,
0x6a, 0xbf, 0x4e, 0x1b,
0x99, 0x04, 0x00, 0x62,
0x4e, 0xa5, 0xf4, 0x84,
0x71, 0x0a, 0x1a, 0x00,
0x70, 0x9a, 0x84, 0x39,
0xfd, 0x53, 0x3d, 0x0f,
0x00, 0x84, 0x7b, 0x81,
0x76, 0x25, 0x76, 0x02,
0xff, 0xdd, 0x69, 0x82,
0xd8, 0xe3, 0xe0, 0x00,
0x10, 0x02, 0x30, 0x99,
0xc7, 0xf3, 0x03, 0xc0,
0xfd, 0x8b, 0x88, 0xc6,
0x33, 0x2c, 0x01, 0x52,
0x00, 0x9e, 0x27, 0x00,
0xe0, 0x6c, 0x54, 0x32,
0xab, 0x55, 0x88, 0xe3,
0x03, 0xc0, 0x7f, 0x3e,
0xc4, 0x1c, 0x96, 0xc1,
0x1c, 0xef, 0x2c, 0xe2,
0x4f, 0x10, 0xe0, 0x4f,
0x01, 0x83, 0x9d, 0xd9,
0x3f, 0xfc, 0xbb, 0x71,
0xf8, 0x08, 0x00, 0xe8,
0x77, 0x77, 0x91, 0xff,
0x6f, 0x49, 0x71, 0xff,
0xff, 0xff, 0xff, 0xff,
0xff, 0xff, 0xff, 0xff,
0xff, 0xff, 0xff, 0xff,
0x3f, 0x00, 0x03, 0x00,
0x10, 0x00, 0x00, 0x38,
0xa0, 0x0f, 0x40, 0x04,
0x0c, 0x00, 0x82, 0xde,
0x6e, 0x70, 0x30, 0x33,
0x21, 0xc5, 0x86, 0x27,
0x00, 0x38, 0x40, 0xc3,
0xd6, 0x4b, 0x88, 0x00,
0x90, 0x3d, 0x80, 0xb4,
0x7d, 0xef, 0x0d, 0x00,
0xf0, 0x87, 0xe9, 0x42,
0x7e, 0xe8, 0x3c, 0xc7,
0x7e, 0x81, 0xd1, 0x3f,
0xec, 0x01, 0x40, 0x7c,
0xed, 0xde, 0x34, 0x72,
0x25, 0x00, 0x1c, 0x2a,
0xc3, 0x31, 0xfd, 0xfc,
0xc8, 0x07, 0x7c, 0xaf,
0x13, 0xa8, 0x9f, 0x06,
0x80, 0xcf, 0x27, 0x46,
0x67, 0xf7, 0xfc, 0xf7,
0x87, 0x14, 0xf3, 0x28,
0x03, 0xc0, 0x1c, 0x58,
0xf3, 0x1e, 0x7c, 0x83,
0xc0, 0x62, 0x2c, 0xfe,
0x00, 0x20, 0x6f, 0x8a,
0x82, 0xea, 0xcd, 0x3f,
0xff, 0x14, 0x4d, 0xc8,
0x3a, 0x9c, 0x03, 0xc0,
0x06, 0x09, 0xf4, 0x3e,
0x0f, 0xfc, 0xef, 0x7f,
0x1d, 0x32, 0x20, 0x1f,
0xe0, 0xf7, 0x8b, 0xfe,
0x7f, 0xc7, 0xfe, 0xff,
0xff, 0xff, 0xff, 0xff,
0xff, 0xff, 0xff, 0xff,
0xff, 0xff, 0xff, 0xff,
0x00, 0x06, 0x00, 0x20,
0x03, 0x00, 0xf0, 0x02,
0x7c, 0x00, 0x22, 0xb2,
0x00, 0x40, 0x79, 0xa1,
0x70, 0x56, 0x68, 0x99,
0xa9, 0x01, 0x80, 0x8b,
0xb0, 0x84, 0xec, 0x98,
0xc2, 0xc2, 0x1f, 0x07,
0x80, 0xe3, 0x15, 0xb3,
0xbf, 0x61, 0xe4, 0xd2,
0xc1, 0x00, 0xc0, 0x8f,
0x81, 0x08, 0xe5, 0xcc,
0x13, 0x76, 0xdb, 0x1a,
0xd3, 0xc1, 0x00, 0x20,
0xd4, 0xf5, 0x1a, 0x8e,
0x3c, 0x3e, 0x00, 0xfe,
0xd7, 0xc0, 0x38, 0x1d,
0xca, 0x91, 0x39, 0xc8,
0x23, 0xa0, 0xe3, 0x00,
0xe0, 0x9f, 0x89, 0x16,
0x97, 0xb5, 0xe3, 0x3f,
0x5f, 0x80, 0x37, 0x82,
0x3f, 0x00, 0xf0, 0xdf,
0x2a, 0x07, 0x7e, 0xf6,
0x8e, 0x84, 0xbd, 0x3f,
0x04, 0x80, 0x1f, 0xe3,
0x5c, 0x06, 0x9e, 0x3f,
0xbe, 0xb0, 0xd8, 0x3c,
0x7e, 0x00, 0xf8, 0x3f,
0xd5, 0x18, 0x16, 0xa3,
0x34, 0x6a, 0x02, 0x00,
0xc0, 0xbf, 0xa5, 0x4c,
0xad, 0xa8, 0xea, 0xff,
0xe1, 0xff, 0xff, 0xff,
0xff, 0xff, 0xff, 0xff,
0xff, 0xff, 0xff, 0xff,
0xff, 0xff, 0x03, 0x60,
0x00, 0x00, 0x02, 0x00,
0x00, 0x00, 0xe8, 0x01,
0xc8, 0x23, 0x03, 0xc0,
0x3b, 0x1b, 0xd7, 0xff,
0x25, 0xa1, 0x1d, 0x01,
0x80, 0x72, 0x87, 0x5b,
0x3c, 0xce, 0xd0, 0x3a,
0xa7, 0x61, 0xcf, 0xf9,
0x2b, 0x3f, 0x80, 0xd4,
0x99, 0x6e, 0x5a, 0x3a,
0x9a, 0x3c, 0x00, 0xcc,
0xc2, 0x7f, 0x06, 0xcf,
0xc1, 0x76, 0x6d, 0x23,
0xc1, 0xa4, 0x77, 0x00,
0xc0, 0x93, 0xd6, 0x5f,
0x4f, 0xfa, 0xff, 0x00,
0xe2, 0x78, 0x34, 0x96,
0x2a, 0xe0, 0x1f, 0xff,
0x51, 0x13, 0x3e, 0xb0,
0x00, 0x50, 0x33, 0x6b,
0x1f, 0xef, 0x9f, 0x6b,
0x0d, 0x2b, 0x45, 0x39,
0x09, 0x04, 0x44, 0x44,
0x7d, 0xe2, 0x80, 0x00,
0x03, 0x34, 0x92, 0x1a,
0xc4, 0xf7, 0x9f, 0x06,
0x80, 0xcf, 0x41, 0xf0,
0x15, 0xbd, 0x58, 0xf7,
0x97, 0xff, 0xa0, 0x2d,
0xe3, 0x8f, 0x6f, 0xb0,
0xee, 0x3f, 0x80, 0xff,
0x5f, 0x40, 0x4b, 0xd0,
0xfc, 0x7f, 0x14, 0xfd,
0xff, 0xff, 0xff, 0xff,
0xff, 0xff, 0xff, 0xff,
0xff, 0xff, 0xff, 0xff,
0xff, 0x00, 0x0c, 0x00,
0x40, 0x00, 0x00, 0x20,
0x80, 0x3d, 0x00, 0x01,
0x77, 0x00, 0xca, 0xc3,
0xd9, 0xaf, 0xbe, 0x4b,
0x01, 0x2a, 0x5c, 0x00,
0x68, 0xe7, 0x5d, 0xf6,
0xe8, 0x63, 0x01, 0x20,
0x75, 0xe1, 0x03, 0x78,
0xed, 0xa2, 0xc7, 0x70,
0xe0, 0x23, 0x92, 0x0d,
0x0e, 0x00, 0x7a, 0x74,
0x8c, 0x78, 0x63, 0xe0,
0x01, 0xc0, 0x53, 0xc5,
0xa8, 0x69, 0x03, 0xcc,
0xd7, 0x3e, 0x00, 0x9d,
0x9d, 0x07, 0x00, 0xf4,
0xfd, 0x89, 0x2a, 0xa2,
0xfb, 0x3f, 0xe7, 0x1d,
0xb7, 0x8b, 0xfb, 0x63,
0x00, 0xf8, 0x93, 0xf0,
0x03, 0x1f, 0xff, 0x3f,
0xc0, 0x32, 0x1e, 0x02,
0x00, 0xde, 0x00, 0xe4,
0x0f, 0xde, 0x5a, 0x10,
0x02, 0xd5, 0x3f, 0x03,
0xc0, 0xdf, 0x3b, 0xd5,
0x74, 0x46, 0xce, 0xac,
0x6e, 0x28, 0x3f, 0x07,
0x40, 0xef, 0x7e, 0x40,
0x69, 0x14, 0x9f, 0xf9,
0xb8, 0xd9, 0x83, 0x07,
0x00, 0x00, 0xbf, 0x21,
0x49, 0xae, 0xbc, 0x01,
0x00, 0x08, 0x00, 0xfc,
0xff, 0x0b, 0x00, 0xfe,
0xff, 0xff, 0xff, 0xff, 

};






static inline const int8_t * Getfc_lif_layer_2WeightsPointer()
{
	return weight_fc_lif_layer_2;
}

static inline size_t Getfc_lif_layer_2WeightsLen()
{
	return sizeof(weight_fc_lif_layer_2);
}





static const int8_t lif_param_fc_lif_layer_2[] __attribute__((aligned(16))) = 
{


// ln(beta)_quant
0, 0, 0, 0, 0, 0, 0, 0, 0, 
0, 0, 0, 0, 0, 0, 0, 0, 
0, 0, 0, 0, 0, 0, 0, 0, 
0, 0, 0, 0, 0, 0, 0, 0, 
0, 0, 0, 0, 0, 0, 0, 0, 
0, 0, 0, 0, 0, 0, 0, 
// vth_quant
0, 0, 0, 0, 0, 0, 0, 0, 0, 
0, 0, 0, 0, 0, 0, 0, 0, 
0, 0, 0, 0, 0, 0, 0, 0, 
0, 0, 0, 0, 0, 0, 0, 0, 
0, 0, 0, 0, 0, 0, 0, 0, 
0, 0, 0, 0, 0, 0, 0, 

};







static inline const int8_t* Getfc_lif_layer_2LIFParamPointer()
{
	return lif_param_fc_lif_layer_2;
}
static inline size_t Getfc_lif_layer_2LIFParamLen()
{
	return sizeof(lif_param_fc_lif_layer_2);
}





static const int8_t lut_fc_lif_layer_2[] __attribute__((aligned(16))) = 
{


//lut index 0
-29, 
-29, -28, -28, -28, -27, -27, -27, -26, 
-26, -25, -25, -24, -24, -24, -23, -23, 
-22, -22, -22, -21, -21, -20, -20, -20, 
-19, -19, -18, -18, -17, -17, -16, -16, 
-16, -15, -15, -14, -14, -13, -13, -12, 
-12, -12, -11, -11, -10, -10, -9, -9, 
-8, -8, -7, -7, -6, -6, -5, -5, 
-5, -4, -4, -3, -3, -2, -2, -1, 
-1, 0, 0, 1, 1, 2, 2, 3, 
3, 4, 5, 5, 6, 6, 7, 7, 
8, 8, 9, 9, 10, 10, 11, 11, 
12, 13, 13, 14, 14, 15, 15, 16, 
16, 17, 18, 18, 19, 19, 20, 20, 
21, 22, 22, 23, 23, 24, 25, 25, 
26, 26, 27, 28, 28, 29, 29, 30, 
31, 31, 32, 33, 33, 34, 34, 35, 
36, 36, 37, 38, 38, 39, 40, 40, 
41, 42, 42, 43, 44, 44, 45, 46, 
46, 47, 48, 48, 49, 50, 51, 51, 
52, 53, 53, 54, 55, 55, 56, 57, 
58, 58, 59, 60, 61, 61, 62, 63, 
64, 64, 65, 66, 67, 67, 68, 69, 
70, 70, 71, 72, 73, 74, 74, 75, 
76, 77, 78, 78, 79, 80, 81, 82, 
82, 83, 84, 85, 86, 87, 87, 88, 
89, 90, 91, 92, 93, 93, 94, 95, 
96, 97, 98, 99, 100, 101, 101, 102, 
103, 104, 105, 106, 107, 108, 109, 110, 
111, 112, 113, 113, 114, 115, 116, 117, 
118, 119, 120, 121, 122, 123, 124, 125, 
126, 127, 127, 127, 127, 127, 127, 127, 
127, 127, 127, 127, 127, 127, 127, 
//lut index 1
0, 
0, 0, 0, 0, 0, 0, 0, 0, 
0, 0, 0, 0, 0, 0, 0, 0, 
0, 0, 0, 0, 0, 0, 0, 0, 
0, 0, 0, 0, 0, 0, 0, 0, 
0, 0, 0, 0, 0, 0, 0, 0, 
0, 0, 0, 0, 0, 0, 0, 0, 
0, 0, 0, 0, 0, 0, 0, 0, 
0, 0, 0, 0, 0, 0, 0, 0, 
0, 0, 0, 0, 0, 0, 0, 0, 
0, 0, 0, 0, 0, 0, 0, 0, 
0, 0, 0, 0, 0, 0, 0, 0, 
0, 0, 0, 0, 0, 0, 0, 0, 
0, 0, 0, 0, 0, 0, 0, 0, 
0, 0, 0, 0, 0, 0, 0, 0, 
0, 0, 0, 0, 0, 0, 0, 0, 
0, 0, 0, 0, 0, 0, 0, 0, 
1, 1, 1, 1, 1, 1, 1, 1, 
1, 1, 1, 1, 1, 1, 1, 1, 
1, 1, 1, 1, 1, 1, 1, 1, 
1, 1, 1, 1, 1, 1, 1, 1, 
1, 1, 1, 1, 1, 1, 1, 1, 
1, 1, 1, 1, 1, 1, 1, 1, 
1, 1, 1, 1, 1, 1, 1, 1, 
1, 1, 1, 1, 1, 1, 1, 1, 
1, 1, 1, 1, 1, 1, 1, 1, 
1, 1, 1, 1, 1, 1, 1, 1, 
1, 1, 1, 1, 1, 1, 1, 1, 
1, 1, 1, 1, 1, 1, 1, 1, 
1, 1, 1, 1, 1, 1, 1, 1, 
1, 1, 1, 1, 1, 1, 1, 1, 
1, 1, 1, 1, 1, 1, 1, 1, 
1, 1, 1, 1, 1, 1, 1, 


};







static inline const int8_t* Getfc_lif_layer_2LUTPointer()
{
	return lut_fc_lif_layer_2;
}
static inline size_t Getfc_lif_layer_2LUTLen()
{
	return sizeof(lut_fc_lif_layer_2);
}

/*
Register Command Stream:
+---------------------------+-----------+-------------------------+
| Command Name              | Parameter | Payload Data            |
+---------------------------+-----------+-------------------------+
| NPU_SET_DMA0_SRC_REGION   | 4         | -                       |
| NPU_SET_DMA0_SRC          | 0         | 0x00000000 (0)          |
| NPU_SET_DMA0_DST_REGION   | 259       | -                       |
| NPU_SET_DMA0_DST          | 0         | 0x0000b800 (47104)      |
| NPU_SET_DMA0_LEN          | 0         | 0x00000100 (256)        |
| NPU_OP_DMA_START          | 0         | -                       |
| NPU_SET_OFM_SCALE         | 37        | 0x66cd3380 (1724724096) |
| NPU_SET_IFM_REGION        | 3         | -                       |
| NPU_SET_IFM_BASE0         | 0         | 0x00000000 (0)          |
| NPU_SET_IFM_BASE1         | 0         | 0x00000000 (0)          |
| NPU_SET_IFM_BASE2         | 0         | 0x00000000 (0)          |
| NPU_SET_IFM_BASE3         | 0         | 0x00000000 (0)          |
| NPU_SET_IFM_HEIGHT0_M1    | 0         | -                       |
| NPU_SET_IFM_HEIGHT1_M1    | 65535     | -                       |
| NPU_SET_IFM_WIDTH0_M1     | 0         | -                       |
| NPU_SET_IFM_DEPTH_M1      | 47        | -                       |
| NPU_SET_IFM_STRIDE_C      | 0         | 0x00000001 (1)          |
| NPU_SET_IFM_STRIDE_Y      | 0         | 0x00000030 (48)         |
| NPU_SET_IFM_STRIDE_X      | 0         | 0x00000030 (48)         |
| NPU_SET_IFM_ZERO_POINT    | 65        | -                       |
| NPU_SET_IFM_PRECISION     | 1         | -                       |
| NPU_SET_IFM_UPSCALE       | 0         | -                       |
| NPU_SET_OFM_REGION        | 1         | -                       |
| NPU_SET_OFM_BASE0         | 0         | 0x00000000 (0)          |
| NPU_SET_OFM_BASE1         | 0         | 0x00000000 (0)          |
| NPU_SET_OFM_BASE2         | 0         | 0x00000000 (0)          |
| NPU_SET_OFM_BASE3         | 0         | 0x00000000 (0)          |
| NPU_SET_OFM_HEIGHT0_M1    | 0         | -                       |
| NPU_SET_OFM_HEIGHT1_M1    | 65535     | -                       |
| NPU_SET_OFM_WIDTH0_M1     | 0         | -                       |
| NPU_SET_OFM_HEIGHT_M1     | 0         | -                       |
| NPU_SET_OFM_WIDTH_M1      | 0         | -                       |
| NPU_SET_OFM_DEPTH_M1      | 47        | -                       |
| NPU_SET_OFM_STRIDE_C      | 0         | 0x00000010 (16)         |
| NPU_SET_OFM_STRIDE_Y      | 0         | 0x00000030 (48)         |
| NPU_SET_OFM_STRIDE_X      | 0         | 0x00000010 (16)         |
| NPU_SET_OFM_ZERO_POINT    | 127       | -                       |
| NPU_SET_OFM_PRECISION     | 321       | -                       |
| NPU_SET_ACTIVATION        | 16        | -                       |
| NPU_SET_ACTIVATION_MIN    | 65408     | -                       |
| NPU_SET_ACTIVATION_MAX    | 127       | -                       |
| NPU_SET_OFM_BLK_HEIGHT_M1 | 1         | -                       |
| NPU_SET_OFM_BLK_WIDTH_M1  | 1         | -                       |
| NPU_SET_OFM_BLK_DEPTH_M1  | 47        | -                       |
| NPU_SET_IFM_IB_END        | 46        | -                       |
| NPU_SET_AB_START          | 46        | -                       |
| NPU_SET_IFM2_IB_START     | 10        | -                       |
| NPU_SET_ACC_FORMAT        | 0         | -                       |
| NPU_SET_IFM2_REGION       | 1         | -                       |
| NPU_SET_IFM2_BASE0        | 0         | 0x00000090 (144)        |
| NPU_SET_IFM2_BASE1        | 0         | 0x00000000 (0)          |
| NPU_SET_IFM2_BASE2        | 0         | 0x00000000 (0)          |
| NPU_SET_IFM2_BASE3        | 0         | 0x00000000 (0)          |
| NPU_SET_IFM2_HEIGHT0_M1   | 0         | -                       |
| NPU_SET_IFM2_HEIGHT1_M1   | 65535     | -                       |
| NPU_SET_IFM2_WIDTH0_M1    | 0         | -                       |
| NPU_SET_IFM2_STRIDE_C     | 0         | 0x00000001 (1)          |
| NPU_SET_IFM2_STRIDE_Y     | 0         | 0x00000001 (1)          |
| NPU_SET_IFM2_STRIDE_X     | 0         | 0x00000001 (1)          |
| NPU_SET_IFM2_ZERO_POINT   | 65408     | -                       |
| NPU_SET_IFM_PRECISION     | 1         | -                       |
| NPU_SET_IFM2_BROADCAST    | 4         | -                       |
| NPU_SET_BLOCKDEP          | 0         | -                       |
| NPU_OP_DMA_WAIT           | 0         | -                       |
| NPU_OP_ELEMENTWISE        | 0         | -                       |
| NPU_SET_IFM_REGION        | 5         | -                       |
| NPU_SET_IFM_ZERO_POINT    | 0         | -                       |
| NPU_SET_IFM_PAD_TOP       | 0         | -                       |
| NPU_SET_IFM_PAD_LEFT      | 0         | -                       |
| NPU_SET_IFM_PAD_BOTTOM    | 0         | -                       |
| NPU_SET_IFM_PAD_RIGHT     | 0         | -                       |
| NPU_SET_OFM_BASE0         | 0         | 0x00000030 (48)         |
| NPU_SET_OFM_ZERO_POINT    | 0         | -                       |
| NPU_SET_OFM_PRECISION     | 65        | -                       |
| NPU_SET_KERNEL_HEIGHT_M1  | 0         | -                       |
| NPU_SET_KERNEL_WIDTH_M1   | 0         | -                       |
| NPU_SET_KERNEL_STRIDE     | 0         | -                       |
| NPU_SET_WEIGHT_REGION     | 0         | -                       |
| NPU_SET_WEIGHT_BASE       | 0         | 0x000001e0 (480)        |
| NPU_SET_WEIGHT_LENGTH     | 0         | 0x000008b0 (2224)       |
| NPU_SET_SCALE_REGION      | 0         | -                       |
| NPU_SET_SCALE_BASE        | 0         | 0x00000000 (0)          |
| NPU_SET_SCALE_LENGTH      | 0         | 0x000001e0 (480)        |
| NPU_SET_ACTIVATION        | 0         | -                       |
| NPU_SET_IFM_IB_END        | 10        | -                       |
| NPU_SET_AB_START          | 30        | -                       |
| NPU_SET_BLOCKDEP          | 3         | -                       |
| NPU_OP_CONV               | 0         | -                       |
| NPU_SET_OFM_SCALE         | 38        | 0x533bf600 (1396438528) |
| NPU_SET_IFM_REGION        | 1         | -                       |
| NPU_SET_IFM_BASE0         | 0         | 0x00000060 (96)         |
| NPU_SET_IFM_ZERO_POINT    | 65510     | -                       |
| NPU_SET_OFM_BASE0         | 0         | 0x00000000 (0)          |
| NPU_SET_OFM_ZERO_POINT    | 65501     | -                       |
| NPU_SET_OFM_PRECISION     | 321       | -                       |
| NPU_SET_IFM_IB_END        | 46        | -                       |
| NPU_SET_AB_START          | 46        | -                       |
| NPU_SET_IFM2_BASE0        | 0         | 0x00000000 (0)          |
| NPU_SET_IFM2_STRIDE_C     | 0         | 0x00000010 (16)         |
| NPU_SET_IFM2_STRIDE_Y     | 0         | 0x00000030 (48)         |
| NPU_SET_IFM2_STRIDE_X     | 0         | 0x00000010 (16)         |
| NPU_SET_IFM_PRECISION     | 65        | -                       |
| NPU_SET_IFM2_BROADCAST    | 0         | -                       |
| NPU_OP_ELEMENTWISE        | 0         | -                       |
| NPU_SET_OPA_SCALE         | 12        | 0x75555555 (1968526677) |
| NPU_SET_OPB_SCALE         | 0         | 0x00000000 (0)          |
| NPU_SET_OFM_SCALE         | 50        | 0x66666666 (1717986918) |
| NPU_SET_IFM_BASE0         | 0         | 0x00000000 (0)          |
| NPU_SET_IFM_STRIDE_C      | 0         | 0x00000010 (16)         |
| NPU_SET_IFM_STRIDE_X      | 0         | 0x00000010 (16)         |
| NPU_SET_IFM_ZERO_POINT    | 65501     | -                       |
| NPU_SET_IFM_PRECISION     | 321       | -                       |
| NPU_SET_OFM_BASE0         | 0         | 0x00000060 (96)         |
| NPU_SET_OFM_ZERO_POINT    | 65510     | -                       |
| NPU_SET_IFM2_BASE0        | 0         | 0x00000030 (48)         |
| NPU_SET_IFM2_ZERO_POINT   | 0         | -                       |
| NPU_SET_BLOCKDEP          | 0         | -                       |
| NPU_OP_ELEMENTWISE        | 1         | -                       |
| NPU_SET_DMA0_SRC          | 0         | 0x00000100 (256)        |
| NPU_SET_DMA0_DST          | 0         | 0x0000b900 (47360)      |
| NPU_OP_DMA_START          | 0         | -                       |
| NPU_SET_OPA_SCALE         | 18        | 0x6d3a06d4 (1832519380) |
| NPU_SET_OFM_SCALE         | 47        | 0x78000000 (2013265920) |
| NPU_SET_IFM_BASE0         | 0         | 0x00000060 (96)         |
| NPU_SET_IFM_ZERO_POINT    | 65510     | -                       |
| NPU_SET_IFM_PRECISION     | 577       | -                       |
| NPU_SET_OFM_REGION        | 6         | -                       |
| NPU_SET_OFM_BASE0         | 0         | 0x00000000 (0)          |
| NPU_SET_OFM_STRIDE_C      | 0         | 0x00000001 (1)          |
| NPU_SET_OFM_STRIDE_X      | 0         | 0x00000030 (48)         |
| NPU_SET_OFM_ZERO_POINT    | 0         | -                       |
| NPU_SET_OFM_PRECISION     | 257       | -                       |
| NPU_SET_ACTIVATION        | 17        | -                       |
| NPU_SET_IFM2_REGION       | 3         | -                       |
| NPU_SET_IFM2_STRIDE_C     | 0         | 0x00000001 (1)          |
| NPU_SET_IFM2_STRIDE_X     | 0         | 0x00000030 (48)         |
| NPU_SET_IFM2_ZERO_POINT   | 64261     | -                       |
| NPU_SET_IFM_PRECISION     | 1         | -                       |
| NPU_OP_DMA_WAIT           | 0         | -                       |
| NPU_OP_ELEMENTWISE        | 2         | -                       |
| NPU_SET_OFM_SCALE         | 33        | 0x5d174580 (1561806208) |
| NPU_SET_IFM_REGION        | 3         | -                       |
| NPU_SET_IFM_BASE0         | 0         | 0x00000030 (48)         |
| NPU_SET_IFM_STRIDE_C      | 0         | 0x00000001 (1)          |
| NPU_SET_IFM_STRIDE_X      | 0         | 0x00000030 (48)         |
| NPU_SET_IFM_ZERO_POINT    | 64261     | -                       |
| NPU_SET_IFM_PRECISION     | 1         | -                       |
| NPU_SET_OFM_REGION        | 1         | -                       |
| NPU_SET_OFM_BASE0         | 0         | 0x00000030 (48)         |
| NPU_SET_OFM_STRIDE_C      | 0         | 0x00000010 (16)         |
| NPU_SET_OFM_STRIDE_X      | 0         | 0x00000010 (16)         |
| NPU_SET_OFM_ZERO_POINT    | 65408     | -                       |
| NPU_SET_OFM_PRECISION     | 321       | -                       |
| NPU_SET_ACTIVATION        | 0         | -                       |
| NPU_SET_IFM2_REGION       | 6         | -                       |
| NPU_SET_IFM2_BASE0        | 0         | 0x00000000 (0)          |
| NPU_SET_IFM2_ZERO_POINT   | 0         | -                       |
| NPU_OP_ELEMENTWISE        | 0         | -                       |
| NPU_SET_OPA_SCALE         | 15        | 0x4b17e4b1 (1259857073) |
| NPU_SET_OFM_SCALE         | 49        | 0x40000000 (1073741824) |
| NPU_SET_IFM_REGION        | 1         | -                       |
| NPU_SET_IFM_BASE0         | 0         | 0x00000060 (96)         |
| NPU_SET_IFM_STRIDE_C      | 0         | 0x00000010 (16)         |
| NPU_SET_IFM_STRIDE_X      | 0         | 0x00000010 (16)         |
| NPU_SET_IFM_ZERO_POINT    | 65510     | -                       |
| NPU_SET_IFM_PRECISION     | 577       | -                       |
| NPU_SET_OFM_BASE0         | 0         | 0x00000060 (96)         |
| NPU_SET_OFM_STRIDE_C      | 0         | 0x00000001 (1)          |
| NPU_SET_OFM_STRIDE_X      | 0         | 0x00000030 (48)         |
| NPU_SET_OFM_ZERO_POINT    | 65510     | -                       |
| NPU_SET_OFM_PRECISION     | 257       | -                       |
| NPU_SET_IFM2_REGION       | 1         | -                       |
| NPU_SET_IFM2_BASE0        | 0         | 0x00000030 (48)         |
| NPU_SET_IFM2_STRIDE_C     | 0         | 0x00000010 (16)         |
| NPU_SET_IFM2_STRIDE_X     | 0         | 0x00000010 (16)         |
| NPU_SET_IFM2_ZERO_POINT   | 65408     | -                       |
| NPU_SET_IFM_PRECISION     | 65        | -                       |
| NPU_OP_ELEMENTWISE        | 2         | -                       |
| NPU_SET_IFM_REGION        | 6         | -                       |
| NPU_SET_IFM_BASE0         | 0         | 0x00000000 (0)          |
| NPU_SET_IFM_STRIDE_C      | 0         | 0x00000001 (1)          |
| NPU_SET_IFM_STRIDE_X      | 0         | 0x00000030 (48)         |
| NPU_SET_IFM_ZERO_POINT    | 0         | -                       |
| NPU_SET_IFM_PRECISION     | 1         | -                       |
| NPU_SET_OFM_BASE0         | 0         | 0x00000091 (145)        |
| NPU_SET_OFM_DEPTH_M1      | 0         | -                       |
| NPU_SET_OFM_STRIDE_Y      | 0         | 0x00000001 (1)          |
| NPU_SET_OFM_STRIDE_X      | 0         | 0x00000001 (1)          |
| NPU_SET_OFM_ZERO_POINT    | 65408     | -                       |
| NPU_SET_OFM_BLK_DEPTH_M1  | 7         | -                       |
| NPU_SET_IFM_IB_END        | 10        | -                       |
| NPU_SET_AB_START          | 30        | -                       |
| NPU_SET_OFM_SCALE         | 22        | 0x3fc000ff (1069547775) |
| NPU_SET_BLOCKDEP          | 3         | -                       |
| NPU_OP_POOL               | 2         | -                       |
| NPU_SET_OFM_SCALE         | 30        | 0x40000000 (1073741824) |
| NPU_SET_IFM_REGION        | 1         | -                       |
| NPU_SET_IFM_BASE0         | 0         | 0x00000090 (144)        |
| NPU_SET_IFM_DEPTH_M1      | 0         | -                       |
| NPU_SET_IFM_STRIDE_Y      | 0         | 0x00000001 (1)          |
| NPU_SET_IFM_STRIDE_X      | 0         | 0x00000001 (1)          |
| NPU_SET_IFM_ZERO_POINT    | 65408     | -                       |
| NPU_SET_OFM_BASE0         | 0         | 0x00000090 (144)        |
| NPU_SET_ACTIVATION_MAX    | 65408     | -                       |
| NPU_SET_IFM_IB_END        | 46        | -                       |
| NPU_SET_AB_START          | 46        | -                       |
| NPU_SET_IFM2_ZERO_POINT   | 0         | -                       |
| NPU_SET_IFM_PRECISION     | 0         | -                       |
| NPU_SET_IFM2_BROADCAST    | 128       | -                       |
| NPU_SET_IFM2_SCALAR       | 0         | -                       |
| NPU_OP_ELEMENTWISE        | 0         | -                       |
| NPU_OP_STOP               | 65535     | -                       |
+---------------------------+-----------+-------------------------+
*/
