#pragma once
#include <stddef.h>
#include <stdint.h>




// Tensor sizes

#define FC_LIF_LAYER_1_IS_LAST_LAYER 0
#define FC_LIF_LAYER_1_MAX_NUM_TENSORS_TO_TRACK 8
#define FC_LIF_LAYER_1_TENSOR_ARENA_SIZE  146
#define FC_LIF_LAYER_1_INPUT_LAYER_SIZE  48
#define FC_LIF_LAYER_1_OUTPUT_LAYER_SIZE  48
#define FC_LIF_LAYER_1_WEIGHT_LEN 2224
#define FC_LIF_LAYER_1_BIAS_LEN 480








static const uint8_t cms_fc_lif_layer_1[] __attribute__((aligned(16))) =
{
0x43, 0x4f, 0x50, 0x31,
0x01, 0x00, 0x10, 0x00,
0x08, 0x30, 0x00, 0x00,
0x00, 0x00, 0x06, 0x10,
0x05, 0x00, 0x00, 0x00,
0x05, 0x00, 0x00, 0x00,
0x05, 0x00, 0x00, 0x00,
0x02, 0x00, 0x21, 0x01,
0x30, 0x01, 0x04, 0x00,
0x30, 0x40, 0x00, 0x00,
0x00, 0x00, 0x00, 0x00,
0x31, 0x01, 0x03, 0x01,
0x31, 0x40, 0x00, 0x00,
0x00, 0xb8, 0x00, 0x00,
0x32, 0x40, 0x00, 0x00,
0x00, 0x01, 0x00, 0x00,
0x10, 0x00, 0x00, 0x00,
0x24, 0x40, 0x25, 0x00,
0x9a, 0x33, 0xcd, 0x66,
0x0f, 0x01, 0x03, 0x00,
0x00, 0x40, 0x00, 0x00,
0x00, 0x00, 0x00, 0x00,
0x01, 0x40, 0x00, 0x00,
0x00, 0x00, 0x00, 0x00,
0x02, 0x40, 0x00, 0x00,
0x00, 0x00, 0x00, 0x00,
0x03, 0x40, 0x00, 0x00,
0x00, 0x00, 0x00, 0x00,
0x0b, 0x01, 0x00, 0x00,
0x0c, 0x01, 0xff, 0xff,
0x0a, 0x01, 0x00, 0x00,
0x04, 0x01, 0x2f, 0x00,
0x06, 0x40, 0x00, 0x00,
0x01, 0x00, 0x00, 0x00,
0x05, 0x40, 0x00, 0x00,
0x30, 0x00, 0x00, 0x00,
0x04, 0x40, 0x00, 0x00,
0x30, 0x00, 0x00, 0x00,
0x09, 0x01, 0x41, 0x00,
0x05, 0x01, 0x01, 0x00,
0x07, 0x01, 0x00, 0x00,
0x1f, 0x01, 0x01, 0x00,
0x10, 0x40, 0x00, 0x00,
0x00, 0x00, 0x00, 0x00,
0x11, 0x40, 0x00, 0x00,
0x00, 0x00, 0x00, 0x00,
0x12, 0x40, 0x00, 0x00,
0x00, 0x00, 0x00, 0x00,
0x13, 0x40, 0x00, 0x00,
0x00, 0x00, 0x00, 0x00,
0x1b, 0x01, 0x00, 0x00,
0x1c, 0x01, 0xff, 0xff,
0x1a, 0x01, 0x00, 0x00,
0x12, 0x01, 0x00, 0x00,
0x11, 0x01, 0x00, 0x00,
0x13, 0x01, 0x2f, 0x00,
0x16, 0x40, 0x00, 0x00,
0x10, 0x00, 0x00, 0x00,
0x15, 0x40, 0x00, 0x00,
0x30, 0x00, 0x00, 0x00,
0x14, 0x40, 0x00, 0x00,
0x10, 0x00, 0x00, 0x00,
0x18, 0x01, 0x7f, 0x00,
0x14, 0x01, 0x41, 0x01,
0x25, 0x01, 0x10, 0x00,
0x26, 0x01, 0x80, 0xff,
0x27, 0x01, 0x7f, 0x00,
0x16, 0x01, 0x01, 0x00,
0x15, 0x01, 0x01, 0x00,
0x17, 0x01, 0x2f, 0x00,
0x0d, 0x01, 0x2e, 0x00,
0x2d, 0x01, 0x2e, 0x00,
0x8d, 0x01, 0x0a, 0x00,
0x24, 0x01, 0x00, 0x00,
0x8f, 0x01, 0x01, 0x00,
0x80, 0x40, 0x00, 0x00,
0x90, 0x00, 0x00, 0x00,
0x81, 0x40, 0x00, 0x00,
0x00, 0x00, 0x00, 0x00,
0x82, 0x40, 0x00, 0x00,
0x00, 0x00, 0x00, 0x00,
0x83, 0x40, 0x00, 0x00,
0x00, 0x00, 0x00, 0x00,
0x8b, 0x01, 0x00, 0x00,
0x8c, 0x01, 0xff, 0xff,
0x8a, 0x01, 0x00, 0x00,
0x86, 0x40, 0x00, 0x00,
0x01, 0x00, 0x00, 0x00,
0x85, 0x40, 0x00, 0x00,
0x01, 0x00, 0x00, 0x00,
0x84, 0x40, 0x00, 0x00,
0x01, 0x00, 0x00, 0x00,
0x89, 0x01, 0x80, 0xff,
0x85, 0x01, 0x01, 0x00,
0x80, 0x01, 0x04, 0x00,
0x2f, 0x01, 0x00, 0x00,
0x11, 0x00, 0x00, 0x00,
0x06, 0x00, 0x00, 0x00,
0x0f, 0x01, 0x05, 0x00,
0x09, 0x01, 0x00, 0x00,
0x00, 0x01, 0x00, 0x00,
0x01, 0x01, 0x00, 0x00,
0x03, 0x01, 0x00, 0x00,
0x02, 0x01, 0x00, 0x00,
0x10, 0x40, 0x00, 0x00,
0x30, 0x00, 0x00, 0x00,
0x18, 0x01, 0x00, 0x00,
0x14, 0x01, 0x41, 0x00,
0x21, 0x01, 0x00, 0x00,
0x20, 0x01, 0x00, 0x00,
0x22, 0x01, 0x00, 0x00,
0x28, 0x01, 0x00, 0x00,
0x20, 0x40, 0x00, 0x00,
0xe0, 0x01, 0x00, 0x00,
0x21, 0x40, 0x00, 0x00,
0xb0, 0x08, 0x00, 0x00,
0x29, 0x01, 0x00, 0x00,
0x22, 0x40, 0x00, 0x00,
0x00, 0x00, 0x00, 0x00,
0x23, 0x40, 0x00, 0x00,
0xe0, 0x01, 0x00, 0x00,
0x25, 0x01, 0x00, 0x00,
0x0d, 0x01, 0x0a, 0x00,
0x2d, 0x01, 0x1e, 0x00,
0x2f, 0x01, 0x03, 0x00,
0x02, 0x00, 0x00, 0x00,
0x24, 0x40, 0x26, 0x00,
0x25, 0xf6, 0x3b, 0x53,
0x0f, 0x01, 0x01, 0x00,
0x00, 0x40, 0x00, 0x00,
0x60, 0x00, 0x00, 0x00,
0x09, 0x01, 0xe6, 0xff,
0x10, 0x40, 0x00, 0x00,
0x00, 0x00, 0x00, 0x00,
0x18, 0x01, 0xdd, 0xff,
0x14, 0x01, 0x41, 0x01,
0x0d, 0x01, 0x2e, 0x00,
0x2d, 0x01, 0x2e, 0x00,
0x80, 0x40, 0x00, 0x00,
0x00, 0x00, 0x00, 0x00,
0x86, 0x40, 0x00, 0x00,
0x10, 0x00, 0x00, 0x00,
0x85, 0x40, 0x00, 0x00,
0x30, 0x00, 0x00, 0x00,
0x84, 0x40, 0x00, 0x00,
0x10, 0x00, 0x00, 0x00,
0x85, 0x01, 0x41, 0x00,
0x80, 0x01, 0x00, 0x00,
0x06, 0x00, 0x00, 0x00,
0x25, 0x40, 0x0c, 0x00,
0x55, 0x55, 0x55, 0x75,
0x26, 0x40, 0x00, 0x00,
0x00, 0x00, 0x00, 0x00,
0x24, 0x40, 0x32, 0x00,
0x66, 0x66, 0x66, 0x66,
0x00, 0x40, 0x00, 0x00,
0x00, 0x00, 0x00, 0x00,
0x06, 0x40, 0x00, 0x00,
0x10, 0x00, 0x00, 0x00,
0x04, 0x40, 0x00, 0x00,
0x10, 0x00, 0x00, 0x00,
0x09, 0x01, 0xdd, 0xff,
0x05, 0x01, 0x41, 0x01,
0x10, 0x40, 0x00, 0x00,
0x60, 0x00, 0x00, 0x00,
0x16, 0x40, 0x00, 0x00,
0x01, 0x00, 0x00, 0x00,
0x14, 0x40, 0x00, 0x00,
0x30, 0x00, 0x00, 0x00,
0x18, 0x01, 0xe6, 0xff,
0x14, 0x01, 0x01, 0x01,
0x80, 0x40, 0x00, 0x00,
0x30, 0x00, 0x00, 0x00,
0x89, 0x01, 0x00, 0x00,
0x2f, 0x01, 0x00, 0x00,
0x06, 0x00, 0x01, 0x00,
0x30, 0x40, 0x00, 0x00,
0x00, 0x01, 0x00, 0x00,
0x31, 0x40, 0x00, 0x00,
0x00, 0xb9, 0x00, 0x00,
0x10, 0x00, 0x00, 0x00,
0x25, 0x40, 0x12, 0x00,
0xd4, 0x06, 0x3a, 0x6d,
0x24, 0x40, 0x2f, 0x00,
0x00, 0x00, 0x00, 0x78,
0x00, 0x40, 0x00, 0x00,
0x60, 0x00, 0x00, 0x00,
0x06, 0x40, 0x00, 0x00,
0x01, 0x00, 0x00, 0x00,
0x04, 0x40, 0x00, 0x00,
0x30, 0x00, 0x00, 0x00,
0x09, 0x01, 0xe6, 0xff,
0x05, 0x01, 0x01, 0x02,
0x1f, 0x01, 0x06, 0x00,
0x10, 0x40, 0x00, 0x00,
0x00, 0x00, 0x00, 0x00,
0x18, 0x01, 0x00, 0x00,
0x25, 0x01, 0x11, 0x00,
0x8f, 0x01, 0x03, 0x00,
0x86, 0x40, 0x00, 0x00,
0x01, 0x00, 0x00, 0x00,
0x84, 0x40, 0x00, 0x00,
0x30, 0x00, 0x00, 0x00,
0x89, 0x01, 0x05, 0xfb,
0x85, 0x01, 0x01, 0x00,
0x11, 0x00, 0x00, 0x00,
0x06, 0x00, 0x02, 0x00,
0x24, 0x40, 0x21, 0x00,
0xd1, 0x45, 0x17, 0x5d,
0x0f, 0x01, 0x03, 0x00,
0x00, 0x40, 0x00, 0x00,
0x30, 0x00, 0x00, 0x00,
0x09, 0x01, 0x05, 0xfb,
0x05, 0x01, 0x01, 0x00,
0x1f, 0x01, 0x01, 0x00,
0x10, 0x40, 0x00, 0x00,
0x30, 0x00, 0x00, 0x00,
0x16, 0x40, 0x00, 0x00,
0x10, 0x00, 0x00, 0x00,
0x14, 0x40, 0x00, 0x00,
0x10, 0x00, 0x00, 0x00,
0x18, 0x01, 0x80, 0xff,
0x14, 0x01, 0x41, 0x01,
0x25, 0x01, 0x00, 0x00,
0x8f, 0x01, 0x06, 0x00,
0x80, 0x40, 0x00, 0x00,
0x00, 0x00, 0x00, 0x00,
0x89, 0x01, 0x00, 0x00,
0x06, 0x00, 0x00, 0x00,
0x25, 0x40, 0x0f, 0x00,
0xb1, 0xe4, 0x17, 0x4b,
0x24, 0x40, 0x31, 0x00,
0x00, 0x00, 0x00, 0x40,
0x0f, 0x01, 0x01, 0x00,
0x00, 0x40, 0x00, 0x00,
0x60, 0x00, 0x00, 0x00,
0x09, 0x01, 0xe6, 0xff,
0x05, 0x01, 0x01, 0x02,
0x10, 0x40, 0x00, 0x00,
0x60, 0x00, 0x00, 0x00,
0x16, 0x40, 0x00, 0x00,
0x01, 0x00, 0x00, 0x00,
0x14, 0x40, 0x00, 0x00,
0x30, 0x00, 0x00, 0x00,
0x18, 0x01, 0xe6, 0xff,
0x14, 0x01, 0x01, 0x01,
0x8f, 0x01, 0x01, 0x00,
0x80, 0x40, 0x00, 0x00,
0x30, 0x00, 0x00, 0x00,
0x86, 0x40, 0x00, 0x00,
0x10, 0x00, 0x00, 0x00,
0x84, 0x40, 0x00, 0x00,
0x10, 0x00, 0x00, 0x00,
0x89, 0x01, 0x80, 0xff,
0x85, 0x01, 0x41, 0x00,
0x06, 0x00, 0x02, 0x00,
0x0f, 0x01, 0x06, 0x00,
0x00, 0x40, 0x00, 0x00,
0x00, 0x00, 0x00, 0x00,
0x09, 0x01, 0x00, 0x00,
0x05, 0x01, 0x01, 0x00,
0x10, 0x40, 0x00, 0x00,
0x91, 0x00, 0x00, 0x00,
0x13, 0x01, 0x00, 0x00,
0x15, 0x40, 0x00, 0x00,
0x01, 0x00, 0x00, 0x00,
0x14, 0x40, 0x00, 0x00,
0x01, 0x00, 0x00, 0x00,
0x18, 0x01, 0x80, 0xff,
0x17, 0x01, 0x07, 0x00,
0x0d, 0x01, 0x0a, 0x00,
0x2d, 0x01, 0x1e, 0x00,
0x24, 0x40, 0x16, 0x00,
0xff, 0x00, 0xc0, 0x3f,
0x2f, 0x01, 0x03, 0x00,
0x05, 0x00, 0x02, 0x00,
0x24, 0x40, 0x1e, 0x00,
0x00, 0x00, 0x00, 0x40,
0x0f, 0x01, 0x01, 0x00,
0x00, 0x40, 0x00, 0x00,
0x90, 0x00, 0x00, 0x00,
0x04, 0x01, 0x00, 0x00,
0x05, 0x40, 0x00, 0x00,
0x01, 0x00, 0x00, 0x00,
0x04, 0x40, 0x00, 0x00,
0x01, 0x00, 0x00, 0x00,
0x09, 0x01, 0x80, 0xff,
0x10, 0x40, 0x00, 0x00,
0x90, 0x00, 0x00, 0x00,
0x0d, 0x01, 0x2e, 0x00,
0x2d, 0x01, 0x2e, 0x00,
0x89, 0x01, 0x00, 0x00,
0x85, 0x01, 0x00, 0x00,
0x80, 0x01, 0x80, 0x00,
0x81, 0x01, 0x00, 0x00,
0x06, 0x00, 0x00, 0x00,
0x00, 0x00, 0xff, 0xff, };

static inline const uint8_t* Getcmsfc_lif_layer_1Pointer()
{
	return cms_fc_lif_layer_1;
}


static inline const size_t Getcmsfc_lif_layer_1Len()
{
	return sizeof(cms_fc_lif_layer_1);
}


static const int8_t WEIGHTS_AND_BIASES_REGION_fc_lif_layer_1[] __attribute__((aligned(16))) =
{
//biases
0x0f, 0x00, 0x00, 0x00,
0x00, 0x55, 0xad, 0x9e,
0x5b, 0x20, 0x01, 0x00,
0x00, 0x00, 0x00, 0x55,
0xad, 0x9e, 0x5b, 0x20,
0xe4, 0xff, 0xff, 0xff,
0xff, 0x55, 0xad, 0x9e,
0x5b, 0x20, 0xea, 0xff,
0xff, 0xff, 0xff, 0x55,
0xad, 0x9e, 0x5b, 0x20,
0x0c, 0x00, 0x00, 0x00,
0x00, 0x55, 0xad, 0x9e,
0x5b, 0x20, 0xf9, 0xff,
0xff, 0xff, 0xff, 0x55,
0xad, 0x9e, 0x5b, 0x20,
0xef, 0xff, 0xff, 0xff,
0xff, 0x55, 0xad, 0x9e,
0x5b, 0x20, 0xeb, 0xff,
0xff, 0xff, 0xff, 0x55,
0xad, 0x9e, 0x5b, 0x20,
0xed, 0xff, 0xff, 0xff,
0xff, 0x55, 0xad, 0x9e,
0x5b, 0x20, 0xcf, 0xff,
0xff, 0xff, 0xff, 0x55,
0xad, 0x9e, 0x5b, 0x20,
0xf2, 0xff, 0xff, 0xff,
0xff, 0x55, 0xad, 0x9e,
0x5b, 0x20, 0xfd, 0xff,
0xff, 0xff, 0xff, 0x55,
0xad, 0x9e, 0x5b, 0x20,
0xe3, 0xff, 0xff, 0xff,
0xff, 0x55, 0xad, 0x9e,
0x5b, 0x20, 0xfc, 0xff,
0xff, 0xff, 0xff, 0x55,
0xad, 0x9e, 0x5b, 0x20,
0xd6, 0xff, 0xff, 0xff,
0xff, 0x55, 0xad, 0x9e,
0x5b, 0x20, 0xdb, 0xff,
0xff, 0xff, 0xff, 0x55,
0xad, 0x9e, 0x5b, 0x20,
0xc3, 0xff, 0xff, 0xff,
0xff, 0x55, 0xad, 0x9e,
0x5b, 0x20, 0xff, 0xff,
0xff, 0xff, 0xff, 0x55,
0xad, 0x9e, 0x5b, 0x20,
0xfa, 0xff, 0xff, 0xff,
0xff, 0x55, 0xad, 0x9e,
0x5b, 0x20, 0xf8, 0xff,
0xff, 0xff, 0xff, 0x55,
0xad, 0x9e, 0x5b, 0x20,
0xd6, 0xff, 0xff, 0xff,
0xff, 0x55, 0xad, 0x9e,
0x5b, 0x20, 0xf5, 0xff,
0xff, 0xff, 0xff, 0x55,
0xad, 0x9e, 0x5b, 0x20,
0xda, 0xff, 0xff, 0xff,
0xff, 0x55, 0xad, 0x9e,
0x5b, 0x20, 0xd7, 0xff,
0xff, 0xff, 0xff, 0x55,
0xad, 0x9e, 0x5b, 0x20,
0xe6, 0xff, 0xff, 0xff,
0xff, 0x55, 0xad, 0x9e,
0x5b, 0x20, 0xe5, 0xff,
0xff, 0xff, 0xff, 0x55,
0xad, 0x9e, 0x5b, 0x20,
0xd4, 0xff, 0xff, 0xff,
0xff, 0x55, 0xad, 0x9e,
0x5b, 0x20, 0xff, 0xff,
0xff, 0xff, 0xff, 0x55,
0xad, 0x9e, 0x5b, 0x20,
0xcb, 0xff, 0xff, 0xff,
0xff, 0x55, 0xad, 0x9e,
0x5b, 0x20, 0xf6, 0xff,
0xff, 0xff, 0xff, 0x55,
0xad, 0x9e, 0x5b, 0x20,
0xe7, 0xff, 0xff, 0xff,
0xff, 0x55, 0xad, 0x9e,
0x5b, 0x20, 0xd0, 0xff,
0xff, 0xff, 0xff, 0x55,
0xad, 0x9e, 0x5b, 0x20,
0xcc, 0xff, 0xff, 0xff,
0xff, 0x55, 0xad, 0x9e,
0x5b, 0x20, 0x00, 0x00,
0x00, 0x00, 0x00, 0x55,
0xad, 0x9e, 0x5b, 0x20,
0xf6, 0xff, 0xff, 0xff,
0xff, 0x55, 0xad, 0x9e,
0x5b, 0x20, 0xf6, 0xff,
0xff, 0xff, 0xff, 0x55,
0xad, 0x9e, 0x5b, 0x20,
0xcc, 0xff, 0xff, 0xff,
0xff, 0x55, 0xad, 0x9e,
0x5b, 0x20, 0xdc, 0xff,
0xff, 0xff, 0xff, 0x55,
0xad, 0x9e, 0x5b, 0x20,
0xe8, 0xff, 0xff, 0xff,
0xff, 0x55, 0xad, 0x9e,
0x5b, 0x20, 0xf7, 0xff,
0xff, 0xff, 0xff, 0x55,
0xad, 0x9e, 0x5b, 0x20,
0x0a, 0x00, 0x00, 0x00,
0x00, 0x55, 0xad, 0x9e,
0x5b, 0x20, 0xf3, 0xff,
0xff, 0xff, 0xff, 0x55,
0xad, 0x9e, 0x5b, 0x20,
0xf9, 0xff, 0xff, 0xff,
0xff, 0x55, 0xad, 0x9e,
0x5b, 0x20, 0xda, 0xff,
0xff, 0xff, 0xff, 0x55,
0xad, 0x9e, 0x5b, 0x20,
0xd6, 0xff, 0xff, 0xff,
0xff, 0x55, 0xad, 0x9e,
0x5b, 0x20, 0x07, 0x00,
0x00, 0x00, 0x00, 0x55,
0xad, 0x9e, 0x5b, 0x20,
0xcd, 0xff, 0xff, 0xff,
0xff, 0x55, 0xad, 0x9e,
0x5b, 0x20, 0xd1, 0xff,
0xff, 0xff, 0xff, 0x55,
0xad, 0x9e, 0x5b, 0x20, 
//weights
0xc8, 0x31, 0x50, 0xf1,
0x4b, 0x50, 0x2c, 0x0a,
0x0f, 0xc7, 0x21, 0x01,
0x11, 0x44, 0x10, 0x03,
0x86, 0x61, 0xd2, 0x90,
0xf4, 0x4e, 0x99, 0xe2,
0x30, 0x1b, 0x5d, 0xd6,
0x5e, 0xab, 0xd0, 0xb7,
0x02, 0x01, 0x00, 0x20,
0x08, 0x84, 0x80, 0x34,
0x07, 0x82, 0xdf, 0x61,
0x70, 0x06, 0x04, 0x80,
0x6a, 0x74, 0x38, 0x8e,
0xcd, 0xd7, 0x04, 0x06,
0xa0, 0x88, 0x42, 0x81,
0x00, 0xd5, 0x09, 0x07,
0x00, 0x60, 0x29, 0xa1,
0x30, 0xd5, 0x8d, 0xe1,
0x80, 0x4b, 0x88, 0x1d,
0xa5, 0x27, 0x00, 0x00,
0x0c, 0xe7, 0x2f, 0x94,
0x93, 0x17, 0xde, 0x84,
0x01, 0x40, 0xd2, 0xd0,
0x03, 0x1c, 0x39, 0x1c,
0x02, 0xda, 0xeb, 0xc0,
0x34, 0xe2, 0xb6, 0xc0,
0x24, 0x4a, 0x42, 0xd4,
0x0c, 0x00, 0x61, 0x54,
0xe8, 0x0a, 0xae, 0xc1,
0x02, 0x00, 0x00, 0x52,
0x86, 0xed, 0x91, 0x56,
0x64, 0x83, 0x19, 0x00,
0xc8, 0x55, 0x45, 0xca,
0x08, 0x0c, 0x0c, 0xc1,
0x00, 0x02, 0x1c, 0x02,
0xdb, 0x1d, 0x5a, 0x04,
0x0c, 0x00, 0x00, 0x0b,
0x43, 0x1b, 0xd7, 0x81,
0x03, 0x0c, 0x00, 0x44,
0x71, 0xd5, 0x85, 0xd0,
0x01, 0x02, 0x00, 0x00,
0x9b, 0xb5, 0x64, 0x4c,
0xde, 0x8f, 0x11, 0x01,
0x8e, 0x2b, 0xea, 0x0e,
0x00, 0x8d, 0xd4, 0xc3,
0x06, 0x88, 0x7f, 0xb5,
0x45, 0x14, 0x25, 0x9c,
0xc3, 0x6f, 0x46, 0xc6,
0xfb, 0x0c, 0x20, 0xbf,
0x79, 0x41, 0x7a, 0x07,
0xec, 0x05, 0x1b, 0xf1,
0x1d, 0x00, 0x9a, 0xaf,
0xde, 0xc9, 0xf5, 0xc0,
0xe7, 0x21, 0x8c, 0x87,
0xc1, 0x98, 0x03, 0x42,
0x8d, 0xd2, 0x3b, 0xa9,
0x15, 0x13, 0x10, 0x20,
0x26, 0xd1, 0x1c, 0xfb,
0x41, 0x01, 0x00, 0x58,
0x2f, 0xd5, 0x5d, 0xa8,
0x3b, 0x1e, 0x00, 0x81,
0xa7, 0xe8, 0x34, 0x2b,
0x82, 0x5d, 0x0a, 0x50,
0x4c, 0x15, 0xb7, 0x76,
0x01, 0x00, 0x0c, 0x67,
0xf8, 0x30, 0x57, 0x03,
0x78, 0x3c, 0x18, 0x00,
0xc0, 0xe9, 0x1a, 0xdd,
0xb3, 0x3c, 0x80, 0x00,
0x37, 0x6c, 0xf7, 0xb7,
0x19, 0x7e, 0x60, 0x04,
0x30, 0xfe, 0xc2, 0x56,
0x22, 0xde, 0xe1, 0x00,
0x60, 0x7b, 0xee, 0x37,
0x50, 0x28, 0x11, 0x1e,
0xb7, 0x2f, 0x08, 0x51,
0x03, 0x08, 0x00, 0x28,
0xb6, 0x60, 0x32, 0xeb,
0x00, 0xc0, 0x40, 0xbe,
0x6d, 0xfb, 0x62, 0xfa,
0x23, 0x3e, 0x80, 0x05,
0x20, 0xc4, 0x48, 0x37,
0xf8, 0x64, 0x00, 0x00,
0xda, 0x87, 0x99, 0xb8,
0x3a, 0xd0, 0x01, 0x0f,
0x00, 0x78, 0x80, 0xa4,
0xac, 0x69, 0x09, 0x81,
0x08, 0x28, 0xe3, 0x6b,
0x70, 0x02, 0x20, 0xdf,
0x8a, 0x04, 0x2f, 0x16,
0x04, 0x78, 0x05, 0xc0,
0x01, 0xc3, 0x4f, 0x25,
0x19, 0xb0, 0x00, 0x08,
0x71, 0xa3, 0x20, 0x80,
0x32, 0x78, 0xf0, 0x78,
0x00, 0x00, 0x1f, 0x53,
0x31, 0xbc, 0x03, 0x00,
0x00, 0xd0, 0x21, 0x29,
0x00, 0xf2, 0xf1, 0x04,
0xf0, 0xff, 0xe7, 0x83,
0x44, 0x6f, 0xf7, 0xe4,
0xe7, 0x7c, 0xbd, 0x30,
0x97, 0xdf, 0xe3, 0x01,
0x5a, 0x72, 0x1b, 0x08,
0xbb, 0x0f, 0xf1, 0x45,
0xce, 0x9f, 0x00, 0xe6,
0xef, 0x87, 0x50, 0xca,
0x70, 0x67, 0xc8, 0x8a,
0x8f, 0x01, 0xe0, 0x79,
0x58, 0xa2, 0x3f, 0x38,
0xcf, 0x7f, 0x9f, 0x45,
0x14, 0xfc, 0xe1, 0x0f,
0x40, 0xf9, 0x92, 0xef,
0xfd, 0xe0, 0x07, 0xca,
0x59, 0x3b, 0x1c, 0x00,
0x80, 0x41, 0x8c, 0xd4,
0x38, 0x22, 0x00, 0x4c,
0xd4, 0xa9, 0x40, 0xe0,
0x9a, 0x09, 0x06, 0x80,
0x6d, 0x0c, 0x37, 0xa0,
0x73, 0x07, 0xf8, 0xee,
0x21, 0x1c, 0x0e, 0x01,
0x0f, 0x00, 0x2e, 0xd0,
0x44, 0x8a, 0x19, 0xf0,
0x01, 0xe0, 0xbb, 0xdf,
0xd0, 0xb1, 0x6e, 0xc0,
0x7b, 0x7c, 0x18, 0xb2,
0x50, 0x48, 0x00, 0xc0,
0xd4, 0x07, 0xf0, 0xa6,
0x20, 0x07, 0x80, 0x36,
0x80, 0xdb, 0x08, 0x1c,
0x0c, 0x78, 0x2d, 0x00,
0xef, 0x10, 0x42, 0xa5,
0x02, 0x02, 0x9f, 0x37,
0x02, 0x1b, 0x17, 0x33,
0x00, 0x80, 0xb5, 0xa8,
0xfe, 0x2c, 0xf0, 0x19,
0x00, 0x5e, 0x86, 0x1a,
0xc1, 0x00, 0x32, 0xf0,
0xf9, 0x44, 0x46, 0x6c,
0x64, 0x00, 0x00, 0xa0,
0x80, 0x82, 0x40, 0x59,
0x04, 0x16, 0x00, 0x1f,
0xbc, 0x23, 0x66, 0xba,
0x5e, 0x40, 0x3c, 0x00,
0xf8, 0x76, 0x82, 0xf7,
0x36, 0x62, 0x40, 0x10,
0x00, 0x51, 0xe1, 0x11,
0x8c, 0x08, 0x0c, 0x08,
0x1e, 0xd8, 0x08, 0x04,
0x66, 0x67, 0x1e, 0x68,
0x00, 0xc8, 0x0b, 0x8f,
0x07, 0xc3, 0xe4, 0x0f,
0xff, 0x9f, 0x2b, 0x25,
0xfc, 0x20, 0xff, 0x09,
0x04, 0xfe, 0xde, 0x25,
0x1e, 0xc3, 0x9a, 0xcf,
0x31, 0xf3, 0x00, 0x80,
0x57, 0xdc, 0x3b, 0x22,
0xaa, 0xfc, 0x00, 0x80,
0xcf, 0x24, 0x6e, 0x2c,
0x10, 0xbc, 0xff, 0x7f,
0xa2, 0xd8, 0xe1, 0x1e,
0xe3, 0xd3, 0xf2, 0xfc,
0x00, 0x70, 0xdf, 0x9b,
0x33, 0x14, 0xd5, 0x7f,
0x02, 0x00, 0xbf, 0x11,
0xdc, 0xf8, 0xf1, 0xef,
0x01, 0x33, 0xff, 0x0f,
0xfc, 0xe3, 0x02, 0x02,
0x06, 0x00, 0xfa, 0x9d,
0x9c, 0x00, 0x1f, 0x20,
0x78, 0x21, 0x20, 0x03,
0x59, 0xd2, 0x03, 0x06,
0x19, 0x35, 0xcc, 0x8a,
0x01, 0xc0, 0x86, 0x7c,
0xd4, 0xb8, 0x7b, 0xf3,
0xc1, 0xe3, 0x00, 0x00,
0xd8, 0xc6, 0xd0, 0x5f,
0xfa, 0x81, 0x02, 0xc0,
0x5d, 0x52, 0x35, 0xb0,
0x20, 0x38, 0x20, 0x00,
0x98, 0xd5, 0x02, 0x15,
0x48, 0x65, 0x62, 0x69,
0x59, 0x12, 0x7a, 0x49,
0x00, 0x30, 0x06, 0x00,
0xf1, 0x00, 0x07, 0x4f,
0x8f, 0x09, 0x45, 0x20,
0x7d, 0xc3, 0x57, 0x56,
0x27, 0x1d, 0x00, 0xe2,
0xcf, 0x9e, 0x44, 0x14,
0x1d, 0x01, 0x0e, 0x00,
0x7f, 0xdc, 0x8a, 0x1c,
0x1f, 0xf1, 0x7d, 0x8b,
0xe0, 0x26, 0x08, 0x0e,
0x10, 0x80, 0x8b, 0x89,
0xfa, 0x9b, 0xc0, 0x01,
0xc2, 0xef, 0x69, 0x17,
0x36, 0xf0, 0x02, 0x93,
0x00, 0xa4, 0x90, 0x43,
0x64, 0x20, 0x10, 0x28,
0x20, 0x98, 0x1e, 0x22,
0x5e, 0x89, 0x02, 0x22,
0x00, 0x00, 0x80, 0x1e,
0xe5, 0x2f, 0x00, 0x18,
0x78, 0x02, 0x00, 0x5e,
0x00, 0x80, 0x99, 0x37,
0x0c, 0x00, 0xe2, 0x39,
0x9f, 0x1d, 0xc0, 0x1c,
0x62, 0x07, 0x00, 0x4f,
0x96, 0xbe, 0x28, 0x07,
0x78, 0x18, 0x00, 0x7e,
0x35, 0x2d, 0x9e, 0xad,
0xff, 0xd9, 0x0f, 0xa0,
0xd9, 0x2f, 0x8c, 0x01,
0xc0, 0xe7, 0x4f, 0x1d,
0xfe, 0xdf, 0x46, 0x08,
0xe2, 0xcc, 0x1f, 0x02,
0xc0, 0x5f, 0x74, 0x74,
0xf3, 0xf9, 0x7a, 0x1f,
0x2f, 0x1c, 0x3f, 0x00,
0xcc, 0xd7, 0xc4, 0xed,
0x9f, 0x8f, 0x7e, 0x28,
0x4c, 0xfa, 0x1f, 0x02,
0xdc, 0xbf, 0x7b, 0x77,
0x0b, 0x1f, 0x7f, 0x7e,
0xc0, 0x60, 0x82, 0xf1,
0xd8, 0x00, 0x80, 0xd6,
0x19, 0x24, 0x01, 0x31,
0x00, 0x02, 0x00, 0x35,
0x24, 0x82, 0x20, 0xe0,
0xb1, 0x80, 0x00, 0x00,
0x36, 0x6e, 0x4c, 0x95,
0x33, 0x80, 0xf1, 0xe5,
0x81, 0x40, 0x00, 0x00,
0x1d, 0x2f, 0xa0, 0x17,
0xf2, 0x00, 0xc0, 0xf9,
0xc6, 0x86, 0xa8, 0x6f,
0xd5, 0x0f, 0x09, 0x00,
0x00, 0x45, 0x1c, 0xc8,
0x64, 0x50, 0x00, 0x00,
0x10, 0xdc, 0x6e, 0xd8,
0xc0, 0x75, 0xe1, 0x20,
0x00, 0x70, 0xd4, 0x09,
0x00, 0x29, 0xa3, 0x1a,
0xe0, 0x79, 0xa6, 0x9e,
0x85, 0x7c, 0x05, 0x40,
0x68, 0x9f, 0xa0, 0xa4,
0x19, 0x01, 0x00, 0x80,
0x92, 0x59, 0x7f, 0xae,
0x45, 0x70, 0x7b, 0xf8,
0x00, 0x18, 0x80, 0x06,
0x86, 0x27, 0x0e, 0x00,
0x20, 0x04, 0x99, 0x45,
0x69, 0xc5, 0x4f, 0x11,
0x29, 0x00, 0xdc, 0x18,
0x09, 0x70, 0x4c, 0xaa,
0x80, 0x20, 0x00, 0xd0,
0x05, 0x9b, 0xe0, 0x51,
0x36, 0xe3, 0x60, 0x00,
0x70, 0xcc, 0x51, 0x22,
0x2d, 0xb1, 0x10, 0x7c,
0x18, 0x00, 0xfe, 0x41,
0x85, 0x63, 0x00, 0x7f,
0xff, 0xff, 0xcf, 0xe7,
0xb7, 0x44, 0x46, 0x8b,
0x00, 0x33, 0xe5, 0x34,
0x09, 0x0f, 0x0a, 0x4f,
0x47, 0xfd, 0x00, 0x81,
0x87, 0x0b, 0x3a, 0x00,
0xfc, 0xfc, 0x0f, 0x00,
0xde, 0x0b, 0x2d, 0x80,
0x8c, 0xf1, 0xe3, 0x6f,
0x9b, 0x88, 0xff, 0x04,
0x00, 0x7f, 0x67, 0x63,
0xeb, 0x78, 0xf7, 0x7b,
0x94, 0x9e, 0xeb, 0x26,
0x2e, 0x22, 0x22, 0x00,
0x00, 0x08, 0x98, 0x3e,
0x50, 0x03, 0x26, 0x00,
0x8e, 0xa9, 0x88, 0x1a,
0xa0, 0xbe, 0x0e, 0x7c,
0x00, 0xe0, 0x1a, 0xc4,
0x06, 0x33, 0x40, 0x80,
0x0f, 0x00, 0xdc, 0x21,
0x14, 0x16, 0x41, 0x01,
0x43, 0xfa, 0x34, 0x41,
0x30, 0x05, 0x00, 0x62,
0x63, 0x42, 0x4d, 0xa7,
0x82, 0x80, 0x02, 0x40,
0xce, 0xf8, 0x34, 0x9d,
0xc8, 0x1d, 0xf0, 0x26,
0x64, 0x10, 0xe0, 0x20,
0xc1, 0x10, 0xc3, 0x38,
0x00, 0x04, 0x27, 0xdc,
0x16, 0xf1, 0x06, 0xe1,
0x04, 0x02, 0x18, 0x96,
0x0d, 0x9e, 0x39, 0x3e,
0x69, 0x00, 0x19, 0xbb,
0x64, 0xf9, 0xbc, 0x8c,
0x36, 0xbc, 0xff, 0x2b,
0x25, 0x15, 0x3e, 0x71,
0x50, 0xa4, 0x0b, 0x30,
0x20, 0xd9, 0x00, 0x00,
0x5c, 0x56, 0xed, 0x6b,
0x27, 0xc0, 0x6d, 0x82,
0x91, 0x92, 0xbd, 0x08,
0x40, 0x4b, 0x19, 0x4d,
0x4d, 0x5a, 0x1c, 0x18,
0x00, 0x36, 0xe6, 0x12,
0x42, 0x36, 0x20, 0xd0,
0x01, 0x02, 0x82, 0x2d,
0x8a, 0x94, 0xb2, 0xe4,
0x2c, 0x30, 0x00, 0xc0,
0xe8, 0x90, 0x43, 0x74,
0x5e, 0x20, 0x06, 0x00,
0x2e, 0x9d, 0xa8, 0x79,
0xe7, 0xc0, 0x20, 0x00,
0x58, 0x4f, 0xb9, 0x2d,
0xcf, 0x98, 0xe1, 0x02,
0xc4, 0xb7, 0x68, 0x5b,
0x27, 0x61, 0x20, 0xe6,
0xb8, 0xdf, 0xe8, 0xf2,
0x1c, 0x3e, 0x00, 0xfc,
0xc1, 0x13, 0xcb, 0xc0,
0xc0, 0x1f, 0xfc, 0xda,
0x04, 0xce, 0xf3, 0x81,
0xe0, 0xfe, 0x15, 0xe8,
0x4e, 0xf8, 0xbf, 0x03,
0x4f, 0x9c, 0x0f, 0x00,
0xec, 0x0f, 0x3c, 0xac,
0xef, 0xfb, 0x5f, 0x1b,
0x91, 0x07, 0x31, 0x06,
0x4b, 0x00, 0xf1, 0x3f,
0xff, 0x6f, 0x50, 0x0b,
0x96, 0x89, 0x0a, 0x20,
0x20, 0x49, 0x6d, 0xd0,
0x93, 0x78, 0x0b, 0x80,
0x3e, 0x08, 0x2a, 0x84,
0xc8, 0x6a, 0x90, 0x9f,
0x09, 0x40, 0xfc, 0x36,
0x24, 0x4b, 0x96, 0xce,
0x1c, 0x00, 0x70, 0x7d,
0x46, 0x04, 0x00, 0xe0,
0x27, 0xf3, 0x0a, 0x04,
0x1a, 0x05, 0x00, 0x63,
0x71, 0x10, 0x73, 0x61,
0x6c, 0xdf, 0x4e, 0x00,
0xa1, 0x9b, 0x69, 0x5a,
0x66, 0x02, 0x71, 0x4c,
0x00, 0xfc, 0xda, 0xda,
0x4f, 0x43, 0x31, 0xe7,
0x7d, 0x0b, 0x8c, 0xed,
0xd8, 0x09, 0xc0, 0xdd,
0x05, 0x42, 0xf4, 0xa3,
0xc3, 0x01, 0xc0, 0xfe,
0x33, 0x9d, 0xbe, 0x81,
0x2c, 0xa4, 0x33, 0x76,
0x00, 0x00, 0xe0, 0x1f,
0xf3, 0xf1, 0x24, 0xac,
0xff, 0x5f, 0xf2, 0xff,
0xff, 0xff, 0xff, 0xff,
0xff, 0xff, 0xff, 0xff,
0xff, 0xff, 0xff, 0xff,
0x1f, 0x60, 0x00, 0x00,
0x02, 0x00, 0x00, 0x0e,
0xe4, 0x01, 0xca, 0x30,
0x03, 0xc1, 0xbd, 0x1b,
0xed, 0x05, 0xbc, 0x38,
0x05, 0x00, 0x30, 0x08,
0x9c, 0x58, 0x57, 0x07,
0x0d, 0xe0, 0x01, 0x80,
0x83, 0x32, 0x94, 0x15,
0x44, 0xc0, 0xcf, 0x48,
0x7a, 0x2d, 0xf9, 0x40,
0xba, 0x2c, 0x03, 0x40,
0x98, 0x00, 0x24, 0x94,
0x80, 0x0b, 0xcf, 0x7f,
0xe3, 0x00, 0xa0, 0x06,
0xce, 0x11, 0x21, 0xdc,
0xe0, 0xda, 0x47, 0x45,
0x66, 0x7d, 0x12, 0xe0,
0x20, 0xf0, 0x4f, 0x9c,
0x60, 0x1c, 0x94, 0x58,
0x0c, 0x04, 0x6d, 0x6e,
0xc0, 0x05, 0xc3, 0x42,
0x6d, 0x11, 0x80, 0x7b,
0x6e, 0x9a, 0x07, 0x15,
0x01, 0x71, 0x77, 0x7f,
0xa8, 0xd2, 0xe7, 0x37,
0xd8, 0xd0, 0x00, 0xa0,
0x0d, 0x96, 0x12, 0x3a,
0x92, 0x03, 0x00, 0xae,
0x92, 0x35, 0xc4, 0x28,
0x8c, 0x81, 0xf3, 0x42,
0x55, 0x80, 0x70, 0xbe,
0x5f, 0xc0, 0x5f, 0x8b,
0xb0, 0x60, 0x49, 0x52,
0xfe, 0xff, 0xff, 0xff,
0xff, 0xff, 0xff, 0xff,
0xff, 0xff, 0xff, 0xff,
0xff, 0xff, 0xff, 0x07,
0x60, 0x00, 0x80, 0x02,
0x00, 0x00, 0x09, 0xe8,
0x03, 0x94, 0x77, 0x00,
0x80, 0x1b, 0x36, 0xd4,
0x3b, 0xb5, 0x5c, 0x56,
0x14, 0x06, 0x00, 0x1c,
0x68, 0xb1, 0x62, 0x2e,
0x27, 0x1c, 0xe0, 0x05,
0x80, 0xeb, 0x3c, 0x14,
0x06, 0xb9, 0x02, 0x36,
0xb0, 0xbf, 0xf1, 0x9d,
0x78, 0x35, 0x10, 0x1e,
0x00, 0xbc, 0xc2, 0x8a,
0x58, 0x02, 0x83, 0x83,
0x07, 0x80, 0x3d, 0x5b,
0xc6, 0x0c, 0x72, 0x03,
0x37, 0xec, 0x3b, 0xee,
0x3a, 0xc7, 0x3e, 0x01,
0xa0, 0x3d, 0x91, 0x9a,
0x86, 0x03, 0x26, 0x1a,
0x7b, 0x3b, 0x62, 0x9c,
0x84, 0x1c, 0x00, 0xb0,
0x4b, 0x18, 0x0c, 0x56,
0x6e, 0x00, 0x0c, 0x00,
0x1d, 0xf1, 0xea, 0x03,
0xb1, 0x34, 0x37, 0x03,
0x80, 0x9f, 0x30, 0x61,
0x74, 0x80, 0x42, 0x6a,
0x0d, 0xc8, 0xd6, 0xfa,
0x70, 0x0d, 0x3c, 0x13,
0x01, 0x6c, 0xc3, 0x14,
0x09, 0x22, 0x30, 0x26,
0x71, 0x03, 0xe0, 0xff,
0xa7, 0xbb, 0x23, 0xd2,
0xff, 0x7f, 0x13, 0x0b,
0xc4, 0xff, 0xff, 0xff,
0xff, 0xff, 0xff, 0xff,
0xff, 0xff, 0xff, 0xff,
0xff, 0xff, 0x3f, 0x00,
0x03, 0x00, 0x14, 0x00,
0x00, 0x10, 0x80, 0x1e,
0xa0, 0x90, 0x30, 0x00,
0x3c, 0xc1, 0x7b, 0xaa,
0x3a, 0xfa, 0xa8, 0x2d,
0x06, 0x03, 0x90, 0x1b,
0x25, 0x03, 0xba, 0xc2,
0x01, 0x1e, 0x00, 0xf8,
0x31, 0x5e, 0xb8, 0x2c,
0x58, 0x78, 0xc3, 0xbb,
0xf6, 0xec, 0x18, 0xe0,
0x18, 0xc0, 0x03, 0x80,
0x0f, 0xac, 0x10, 0x74,
0x9a, 0x8b, 0x83, 0xc0,
0xfe, 0x04, 0x51, 0x04,
0x60, 0x33, 0x03, 0x66,
0x5e, 0xe8, 0x26, 0x40,
0x14, 0x00, 0x7c, 0xa8,
0x0f, 0xea, 0x08, 0x51,
0x64, 0x90, 0x13, 0x80,
0x53, 0x53, 0xa7, 0x78,
0x42, 0x3f, 0x40, 0x0c,
0x00, 0x0b, 0xc2, 0xa8,
0x92, 0x41, 0xbd, 0x70,
0xfc, 0x46, 0x4d, 0x66,
0x36, 0x42, 0x61, 0x23,
0x05, 0x00, 0xd0, 0x2a,
0xd2, 0x55, 0x0f, 0xd6,
0x81, 0x05, 0xc0, 0x4b,
0xc0, 0x9b, 0x89, 0x69,
0x50, 0x72, 0x1c, 0x00,
0xf0, 0x6f, 0x55, 0x28,
0x13, 0xc8, 0xeb, 0xff,
0xff, 0x05, 0xf9, 0xff,
0xff, 0xff, 0xff, 0xff,
0xff, 0xff, 0xff, 0xff,
0xff, 0xff, 0xff, 0xff,
0x07, 0x60, 0x00, 0x80,
0x02, 0x00, 0x00, 0x03,
0xf0, 0x03, 0x94, 0xe7,
0x05, 0x80, 0xbf, 0x61,
0xb9, 0xbf, 0x0a, 0x23,
0xac, 0x00, 0x60, 0x0c,
0xe1, 0x98, 0x2d, 0x04,
0x10, 0xe0, 0x21, 0x9c,
0x35, 0x8d, 0x65, 0x76,
0x00, 0x00, 0x3b, 0xb0,
0x24, 0x21, 0x85, 0x32,
0x33, 0xf3, 0x79, 0x06,
0x00, 0xfc, 0x21, 0x15,
0x51, 0x4f, 0xc3, 0x80,
0xcc, 0x19, 0x53, 0x60,
0x00, 0x88, 0x2d, 0xb4,
0x27, 0x22, 0x3f, 0x6e,
0x2d, 0x60, 0xe7, 0x00,
0x00, 0x3c, 0x02, 0x22,
0xfc, 0xf7, 0x4e, 0x22,
0x06, 0x00, 0xd8, 0x14,
0x19, 0x83, 0x5b, 0xa0,
0x81, 0x25, 0x85, 0x90,
0xb6, 0xa9, 0x82, 0x02,
0x00, 0xf0, 0x05, 0x68,
0x70, 0x4c, 0x62, 0x97,
0xd9, 0xd4, 0x22, 0x07,
0x00, 0x7f, 0xac, 0x06,
0x3e, 0x4a, 0x7c, 0x00,
0x01, 0xa0, 0xe3, 0xa6,
0xd1, 0x43, 0x40, 0x86,
0x6d, 0x60, 0x83, 0xb0,
0xeb, 0xe9, 0x03, 0xfc,
0x27, 0x89, 0xdc, 0x1c,
0x6a, 0xfa, 0xff, 0xff,
0xff, 0xff, 0xff, 0xff,
0xff, 0xff, 0xff, 0xff,
0xff, 0xff, 0xff, 0xff,
0x7f, 0x00, 0x06, 0x00,
0x28, 0x00, 0x00, 0xb0,
0x80, 0x3d, 0x40, 0x81,
0x01, 0x00, 0x0a, 0x92,
0x00, 0xe0, 0xe0, 0x74,
0x11, 0x43, 0x0a, 0x83,
0x45, 0xdc, 0xd8, 0x62,
0x1d, 0xa2, 0x03, 0x38,
0x17, 0xef, 0x00, 0xe0,
0x06, 0x40, 0x88, 0xef,
0x30, 0x3b, 0x90, 0x00,
0x70, 0x88, 0xb1, 0x61,
0x8e, 0xc0, 0xbb, 0xdb,
0x08, 0xee, 0xb0, 0x21,
0x48, 0x1e, 0x1e, 0x00,
0xf8, 0xdd, 0x32, 0x63,
0xcc, 0x70, 0xa0, 0xbb,
0x0a, 0x46, 0x06, 0x9b,
0x2c, 0x10, 0x50, 0x57,
0xc9, 0x0a, 0x0c, 0x00,
0x02, 0x16, 0x00, 0x72,
0x45, 0xe8, 0x43, 0xdc,
0x86, 0x61, 0x03, 0x00,
0xb4, 0x3b, 0x5d, 0xb4,
0x2f, 0xbc, 0x85, 0xf0,
0xb9, 0xff, 0xd3, 0xb6,
0xfa, 0x12, 0xe6, 0x48,
0x01, 0x80, 0x3c, 0x63,
0x8a, 0x5d, 0x80, 0x9d,
0x01, 0x40, 0x2b, 0xac,
0x87, 0xd5, 0xb4, 0x40,
0x24, 0x7c, 0x00, 0x80,
0x3b, 0x62, 0xd8, 0x57,
0x4c, 0x72, 0xe4, 0x28,
0xf1, 0x0c, 0x00, 0x50,
0x06, 0xe0, 0xbf, 0xff,
0x0c, 0x80, 0xff, 0xff,
0xff, 0xff, 0xff, 0xff,
0xff, 0xff, 0xff, 0xff,
0xff, 0xff, 0xff, 0xff, };

static inline const int8_t* GetWEIGHTS_AND_BIASES_REGIONfc_lif_layer_1Pointer()
{
	return WEIGHTS_AND_BIASES_REGION_fc_lif_layer_1;
}


static inline const size_t GetWEIGHTS_AND_BIASES_REGIONfc_lif_layer_1Len()
{
	return sizeof(WEIGHTS_AND_BIASES_REGION_fc_lif_layer_1);
}


static int8_t SRAM_SCRATCH_REGION_fc_lif_layer_1 [146] __attribute__((section("model_params_sram1"))) __attribute__((aligned(16)));

static inline int8_t* GetSRAM_SCRATCH_REGIONfc_lif_layer_1Pointer()
{
	return SRAM_SCRATCH_REGION_fc_lif_layer_1;
}


static inline const size_t GetSRAM_SCRATCH_REGIONfc_lif_layer_1Len()
{
	return sizeof(SRAM_SCRATCH_REGION_fc_lif_layer_1);
}


static int8_t SRAM_FAST_SCRATCH_REGION_fc_lif_layer_1 [0] __attribute__((section("model_params_sram1"))) __attribute__((aligned(16)));

static inline int8_t* GetSRAM_FAST_SCRATCH_REGIONfc_lif_layer_1Pointer()
{
	return SRAM_FAST_SCRATCH_REGION_fc_lif_layer_1;
}


static inline const size_t GetSRAM_FAST_SCRATCH_REGIONfc_lif_layer_1Len()
{
	return sizeof(SRAM_FAST_SCRATCH_REGION_fc_lif_layer_1);
}


static const int8_t PARAMS_REGIONS_fc_lif_layer_1[] __attribute__((aligned(16))) =
{

// ln(beta)_quant
0, 0, 0, 0, 0, 0, 0, 0, 0, 
0, 0, 0, 0, 0, 0, 0, 0, 
0, 0, 0, 0, 0, 0, 0, 0, 
0, 0, 0, 0, 0, 0, 0, 0, 
0, 0, 0, 0, 0, 0, 0, 0, 
0, 0, 0, 0, 0, 0, 0, 
// vth_quant
0, 0, 0, 0, 0, 0, 0, 0, 0, 
0, 0, 0, 0, 0, 0, 0, 0, 
0, 0, 0, 0, 0, 0, 0, 0, 
0, 0, 0, 0, 0, 0, 0, 0, 
0, 0, 0, 0, 0, 0, 0, 0, 
0, 0, 0, 0, 0, 0, 0, };

static inline const int8_t* GetPARAMS_REGIONSfc_lif_layer_1Pointer()
{
	return PARAMS_REGIONS_fc_lif_layer_1;
}


static inline const size_t GetPARAMS_REGIONSfc_lif_layer_1Len()
{
	return sizeof(PARAMS_REGIONS_fc_lif_layer_1);
}


static const int8_t LUT_REGION_fc_lif_layer_1[] __attribute__((aligned(16))) =
{

//lut index 0
-29, 
-29, -28, -28, -28, -27, -27, -27, -26, 
-26, -25, -25, -24, -24, -24, -23, -23, 
-22, -22, -22, -21, -21, -20, -20, -20, 
-19, -19, -18, -18, -17, -17, -16, -16, 
-16, -15, -15, -14, -14, -13, -13, -12, 
-12, -12, -11, -11, -10, -10, -9, -9, 
-8, -8, -7, -7, -6, -6, -5, -5, 
-5, -4, -4, -3, -3, -2, -2, -1, 
-1, 0, 0, 1, 1, 2, 2, 3, 
3, 4, 5, 5, 6, 6, 7, 7, 
8, 8, 9, 9, 10, 10, 11, 11, 
12, 13, 13, 14, 14, 15, 15, 16, 
16, 17, 18, 18, 19, 19, 20, 20, 
21, 22, 22, 23, 23, 24, 25, 25, 
26, 26, 27, 28, 28, 29, 29, 30, 
31, 31, 32, 33, 33, 34, 34, 35, 
36, 36, 37, 38, 38, 39, 40, 40, 
41, 42, 42, 43, 44, 44, 45, 46, 
46, 47, 48, 48, 49, 50, 51, 51, 
52, 53, 53, 54, 55, 55, 56, 57, 
58, 58, 59, 60, 61, 61, 62, 63, 
64, 64, 65, 66, 67, 67, 68, 69, 
70, 70, 71, 72, 73, 74, 74, 75, 
76, 77, 78, 78, 79, 80, 81, 82, 
82, 83, 84, 85, 86, 87, 87, 88, 
89, 90, 91, 92, 93, 93, 94, 95, 
96, 97, 98, 99, 100, 101, 101, 102, 
103, 104, 105, 106, 107, 108, 109, 110, 
111, 112, 113, 113, 114, 115, 116, 117, 
118, 119, 120, 121, 122, 123, 124, 125, 
126, 127, 127, 127, 127, 127, 127, 127, 
127, 127, 127, 127, 127, 127, 127, 
//lut index 1
0, 
0, 0, 0, 0, 0, 0, 0, 0, 
0, 0, 0, 0, 0, 0, 0, 0, 
0, 0, 0, 0, 0, 0, 0, 0, 
0, 0, 0, 0, 0, 0, 0, 0, 
0, 0, 0, 0, 0, 0, 0, 0, 
0, 0, 0, 0, 0, 0, 0, 0, 
0, 0, 0, 0, 0, 0, 0, 0, 
0, 0, 0, 0, 0, 0, 0, 0, 
0, 0, 0, 0, 0, 0, 0, 0, 
0, 0, 0, 0, 0, 0, 0, 0, 
0, 0, 0, 0, 0, 0, 0, 0, 
0, 0, 0, 0, 0, 0, 0, 0, 
0, 0, 0, 0, 0, 0, 0, 0, 
0, 0, 0, 0, 0, 0, 0, 0, 
0, 0, 0, 0, 0, 0, 0, 0, 
0, 0, 0, 0, 0, 0, 0, 0, 
1, 1, 1, 1, 1, 1, 1, 1, 
1, 1, 1, 1, 1, 1, 1, 1, 
1, 1, 1, 1, 1, 1, 1, 1, 
1, 1, 1, 1, 1, 1, 1, 1, 
1, 1, 1, 1, 1, 1, 1, 1, 
1, 1, 1, 1, 1, 1, 1, 1, 
1, 1, 1, 1, 1, 1, 1, 1, 
1, 1, 1, 1, 1, 1, 1, 1, 
1, 1, 1, 1, 1, 1, 1, 1, 
1, 1, 1, 1, 1, 1, 1, 1, 
1, 1, 1, 1, 1, 1, 1, 1, 
1, 1, 1, 1, 1, 1, 1, 1, 
1, 1, 1, 1, 1, 1, 1, 1, 
1, 1, 1, 1, 1, 1, 1, 1, 
1, 1, 1, 1, 1, 1, 1, 1, 
1, 1, 1, 1, 1, 1, 1, 
};

static inline const int8_t* GetLUT_REGIONfc_lif_layer_1Pointer()
{
	return LUT_REGION_fc_lif_layer_1;
}


static inline const size_t GetLUT_REGIONfc_lif_layer_1Len()
{
	return sizeof(LUT_REGION_fc_lif_layer_1);
}


static int8_t OUTPUT_REGION_fc_lif_layer_1 [48] __attribute__((section("model_params_sram1"))) __attribute__((aligned(16)));

static inline int8_t* GetOUTPUT_REGIONfc_lif_layer_1Pointer()
{
	return OUTPUT_REGION_fc_lif_layer_1;
}


static inline const size_t GetOUTPUT_REGIONfc_lif_layer_1Len()
{
	return sizeof(OUTPUT_REGION_fc_lif_layer_1);
}


char* name_fc_lif_layer_1 [15] =
{
	"TIME_NOT_UPDATED",
	"DECAYED_MEM",
	"BIAS",
	"DECAY",
	"WEIGHT",
	"VTH",
	"OUT_SPK",
	"DECAY_ACC",
	"IN_CURR",
	"v_mem_sub_vth",
	"LN_BETA",
	"UPDATE_NXT_LAYER",
	"IN_SPK",
	"RESET",
	"V_MEM",
};

size_t relative_addr_fc_lif_layer_1 [15] =
{
	144,
	0,
	0,
	0,
	480,
	48,
	0,
	0,
	48,
	0,
	0,
	145,
	0,
	48,
	96,
};

size_t region_fc_lif_layer_1 [15] =
{
	1,
	1,
	0,
	1,
	0,
	3,
	6,
	1,
	1,
	6,
	3,
	1,
	5,
	1,
	1,
};

size_t size_fc_lif_layer_1 [15] =
{
	1,
	48,
	480,
	48,
	2224,
	48,
	48,
	48,
	48,
	48,
	48,
	1,
	48,
	48,
	48,
};

float scale_fc_lif_layer_1 [15] =
{
	0.06274509803921569,
	0.043137254901960784,
	0.00811441739400228,
	0.0037254901960784314,
	0.016841880947935813,
	0.0007843137254901964,
	1.0,
	0.00392156862745098,
	0.047058823529411764,
	0.00784313725490196,
	0.0007843137254901962,
	0.00392156862745098,
	1.0,
	0.004313725490196079,
	0.058823529411764705,
};

int zero_point_fc_lif_layer_1 [15] =
{
	-128,
	-35,
	0,
	-128,
	0,
	-1275,
	0,
	127,
	0,
	0,
	65,
	-128,
	0,
	-128,
	-26,
};

static inline char** Getnamefc_lif_layer_1Pointer()
{
	return name_fc_lif_layer_1;
}


static inline size_t* Getrelative_addrfc_lif_layer_1Pointer()
{
	return relative_addr_fc_lif_layer_1;
}


static inline size_t* Getregionfc_lif_layer_1Pointer()
{
	return region_fc_lif_layer_1;
}


static inline size_t* Getsizefc_lif_layer_1Pointer()
{
	return size_fc_lif_layer_1;
}


static inline float* Getscalefc_lif_layer_1Pointer()
{
	return scale_fc_lif_layer_1;
}


static inline int* Getzero_pointfc_lif_layer_1Pointer()
{
	return zero_point_fc_lif_layer_1;
}

/*
Register Command Stream:
+---------------------------+-----------+-------------------------+
| Command Name              | Parameter | Payload Data            |
+---------------------------+-----------+-------------------------+
| NPU_SET_DMA0_SRC_REGION   | 4         | -                       |
| NPU_SET_DMA0_SRC          | 0         | 0x00000000 (0)          |
| NPU_SET_DMA0_DST_REGION   | 259       | -                       |
| NPU_SET_DMA0_DST          | 0         | 0x0000b800 (47104)      |
| NPU_SET_DMA0_LEN          | 0         | 0x00000100 (256)        |
| NPU_OP_DMA_START          | 0         | -                       |
| NPU_SET_OFM_SCALE         | 37        | 0x66cd339a (1724724122) |
| NPU_SET_IFM_REGION        | 3         | -                       |
| NPU_SET_IFM_BASE0         | 0         | 0x00000000 (0)          |
| NPU_SET_IFM_BASE1         | 0         | 0x00000000 (0)          |
| NPU_SET_IFM_BASE2         | 0         | 0x00000000 (0)          |
| NPU_SET_IFM_BASE3         | 0         | 0x00000000 (0)          |
| NPU_SET_IFM_HEIGHT0_M1    | 0         | -                       |
| NPU_SET_IFM_HEIGHT1_M1    | 65535     | -                       |
| NPU_SET_IFM_WIDTH0_M1     | 0         | -                       |
| NPU_SET_IFM_DEPTH_M1      | 47        | -                       |
| NPU_SET_IFM_STRIDE_C      | 0         | 0x00000001 (1)          |
| NPU_SET_IFM_STRIDE_Y      | 0         | 0x00000030 (48)         |
| NPU_SET_IFM_STRIDE_X      | 0         | 0x00000030 (48)         |
| NPU_SET_IFM_ZERO_POINT    | 65        | -                       |
| NPU_SET_IFM_PRECISION     | 1         | -                       |
| NPU_SET_IFM_UPSCALE       | 0         | -                       |
| NPU_SET_OFM_REGION        | 1         | -                       |
| NPU_SET_OFM_BASE0         | 0         | 0x00000000 (0)          |
| NPU_SET_OFM_BASE1         | 0         | 0x00000000 (0)          |
| NPU_SET_OFM_BASE2         | 0         | 0x00000000 (0)          |
| NPU_SET_OFM_BASE3         | 0         | 0x00000000 (0)          |
| NPU_SET_OFM_HEIGHT0_M1    | 0         | -                       |
| NPU_SET_OFM_HEIGHT1_M1    | 65535     | -                       |
| NPU_SET_OFM_WIDTH0_M1     | 0         | -                       |
| NPU_SET_OFM_HEIGHT_M1     | 0         | -                       |
| NPU_SET_OFM_WIDTH_M1      | 0         | -                       |
| NPU_SET_OFM_DEPTH_M1      | 47        | -                       |
| NPU_SET_OFM_STRIDE_C      | 0         | 0x00000010 (16)         |
| NPU_SET_OFM_STRIDE_Y      | 0         | 0x00000030 (48)         |
| NPU_SET_OFM_STRIDE_X      | 0         | 0x00000010 (16)         |
| NPU_SET_OFM_ZERO_POINT    | 127       | -                       |
| NPU_SET_OFM_PRECISION     | 321       | -                       |
| NPU_SET_ACTIVATION        | 16        | -                       |
| NPU_SET_ACTIVATION_MIN    | 65408     | -                       |
| NPU_SET_ACTIVATION_MAX    | 127       | -                       |
| NPU_SET_OFM_BLK_HEIGHT_M1 | 1         | -                       |
| NPU_SET_OFM_BLK_WIDTH_M1  | 1         | -                       |
| NPU_SET_OFM_BLK_DEPTH_M1  | 47        | -                       |
| NPU_SET_IFM_IB_END        | 46        | -                       |
| NPU_SET_AB_START          | 46        | -                       |
| NPU_SET_IFM2_IB_START     | 10        | -                       |
| NPU_SET_ACC_FORMAT        | 0         | -                       |
| NPU_SET_IFM2_REGION       | 1         | -                       |
| NPU_SET_IFM2_BASE0        | 0         | 0x00000090 (144)        |
| NPU_SET_IFM2_BASE1        | 0         | 0x00000000 (0)          |
| NPU_SET_IFM2_BASE2        | 0         | 0x00000000 (0)          |
| NPU_SET_IFM2_BASE3        | 0         | 0x00000000 (0)          |
| NPU_SET_IFM2_HEIGHT0_M1   | 0         | -                       |
| NPU_SET_IFM2_HEIGHT1_M1   | 65535     | -                       |
| NPU_SET_IFM2_WIDTH0_M1    | 0         | -                       |
| NPU_SET_IFM2_STRIDE_C     | 0         | 0x00000001 (1)          |
| NPU_SET_IFM2_STRIDE_Y     | 0         | 0x00000001 (1)          |
| NPU_SET_IFM2_STRIDE_X     | 0         | 0x00000001 (1)          |
| NPU_SET_IFM2_ZERO_POINT   | 65408     | -                       |
| NPU_SET_IFM_PRECISION     | 1         | -                       |
| NPU_SET_IFM2_BROADCAST    | 4         | -                       |
| NPU_SET_BLOCKDEP          | 0         | -                       |
| NPU_OP_DMA_WAIT           | 0         | -                       |
| NPU_OP_ELEMENTWISE        | 0         | -                       |
| NPU_SET_IFM_REGION        | 5         | -                       |
| NPU_SET_IFM_ZERO_POINT    | 0         | -                       |
| NPU_SET_IFM_PAD_TOP       | 0         | -                       |
| NPU_SET_IFM_PAD_LEFT      | 0         | -                       |
| NPU_SET_IFM_PAD_BOTTOM    | 0         | -                       |
| NPU_SET_IFM_PAD_RIGHT     | 0         | -                       |
| NPU_SET_OFM_BASE0         | 0         | 0x00000030 (48)         |
| NPU_SET_OFM_ZERO_POINT    | 0         | -                       |
| NPU_SET_OFM_PRECISION     | 65        | -                       |
| NPU_SET_KERNEL_HEIGHT_M1  | 0         | -                       |
| NPU_SET_KERNEL_WIDTH_M1   | 0         | -                       |
| NPU_SET_KERNEL_STRIDE     | 0         | -                       |
| NPU_SET_WEIGHT_REGION     | 0         | -                       |
| NPU_SET_WEIGHT_BASE       | 0         | 0x000001e0 (480)        |
| NPU_SET_WEIGHT_LENGTH     | 0         | 0x000008b0 (2224)       |
| NPU_SET_SCALE_REGION      | 0         | -                       |
| NPU_SET_SCALE_BASE        | 0         | 0x00000000 (0)          |
| NPU_SET_SCALE_LENGTH      | 0         | 0x000001e0 (480)        |
| NPU_SET_ACTIVATION        | 0         | -                       |
| NPU_SET_IFM_IB_END        | 10        | -                       |
| NPU_SET_AB_START          | 30        | -                       |
| NPU_SET_BLOCKDEP          | 3         | -                       |
| NPU_OP_CONV               | 0         | -                       |
| NPU_SET_OFM_SCALE         | 38        | 0x533bf625 (1396438565) |
| NPU_SET_IFM_REGION        | 1         | -                       |
| NPU_SET_IFM_BASE0         | 0         | 0x00000060 (96)         |
| NPU_SET_IFM_ZERO_POINT    | 65510     | -                       |
| NPU_SET_OFM_BASE0         | 0         | 0x00000000 (0)          |
| NPU_SET_OFM_ZERO_POINT    | 65501     | -                       |
| NPU_SET_OFM_PRECISION     | 321       | -                       |
| NPU_SET_IFM_IB_END        | 46        | -                       |
| NPU_SET_AB_START          | 46        | -                       |
| NPU_SET_IFM2_BASE0        | 0         | 0x00000000 (0)          |
| NPU_SET_IFM2_STRIDE_C     | 0         | 0x00000010 (16)         |
| NPU_SET_IFM2_STRIDE_Y     | 0         | 0x00000030 (48)         |
| NPU_SET_IFM2_STRIDE_X     | 0         | 0x00000010 (16)         |
| NPU_SET_IFM_PRECISION     | 65        | -                       |
| NPU_SET_IFM2_BROADCAST    | 0         | -                       |
| NPU_OP_ELEMENTWISE        | 0         | -                       |
| NPU_SET_OPA_SCALE         | 12        | 0x75555555 (1968526677) |
| NPU_SET_OPB_SCALE         | 0         | 0x00000000 (0)          |
| NPU_SET_OFM_SCALE         | 50        | 0x66666666 (1717986918) |
| NPU_SET_IFM_BASE0         | 0         | 0x00000000 (0)          |
| NPU_SET_IFM_STRIDE_C      | 0         | 0x00000010 (16)         |
| NPU_SET_IFM_STRIDE_X      | 0         | 0x00000010 (16)         |
| NPU_SET_IFM_ZERO_POINT    | 65501     | -                       |
| NPU_SET_IFM_PRECISION     | 321       | -                       |
| NPU_SET_OFM_BASE0         | 0         | 0x00000060 (96)         |
| NPU_SET_OFM_STRIDE_C      | 0         | 0x00000001 (1)          |
| NPU_SET_OFM_STRIDE_X      | 0         | 0x00000030 (48)         |
| NPU_SET_OFM_ZERO_POINT    | 65510     | -                       |
| NPU_SET_OFM_PRECISION     | 257       | -                       |
| NPU_SET_IFM2_BASE0        | 0         | 0x00000030 (48)         |
| NPU_SET_IFM2_ZERO_POINT   | 0         | -                       |
| NPU_SET_BLOCKDEP          | 0         | -                       |
| NPU_OP_ELEMENTWISE        | 1         | -                       |
| NPU_SET_DMA0_SRC          | 0         | 0x00000100 (256)        |
| NPU_SET_DMA0_DST          | 0         | 0x0000b900 (47360)      |
| NPU_OP_DMA_START          | 0         | -                       |
| NPU_SET_OPA_SCALE         | 18        | 0x6d3a06d4 (1832519380) |
| NPU_SET_OFM_SCALE         | 47        | 0x78000000 (2013265920) |
| NPU_SET_IFM_BASE0         | 0         | 0x00000060 (96)         |
| NPU_SET_IFM_STRIDE_C      | 0         | 0x00000001 (1)          |
| NPU_SET_IFM_STRIDE_X      | 0         | 0x00000030 (48)         |
| NPU_SET_IFM_ZERO_POINT    | 65510     | -                       |
| NPU_SET_IFM_PRECISION     | 513       | -                       |
| NPU_SET_OFM_REGION        | 6         | -                       |
| NPU_SET_OFM_BASE0         | 0         | 0x00000000 (0)          |
| NPU_SET_OFM_ZERO_POINT    | 0         | -                       |
| NPU_SET_ACTIVATION        | 17        | -                       |
| NPU_SET_IFM2_REGION       | 3         | -                       |
| NPU_SET_IFM2_STRIDE_C     | 0         | 0x00000001 (1)          |
| NPU_SET_IFM2_STRIDE_X     | 0         | 0x00000030 (48)         |
| NPU_SET_IFM2_ZERO_POINT   | 64261     | -                       |
| NPU_SET_IFM_PRECISION     | 1         | -                       |
| NPU_OP_DMA_WAIT           | 0         | -                       |
| NPU_OP_ELEMENTWISE        | 2         | -                       |
| NPU_SET_OFM_SCALE         | 33        | 0x5d1745d1 (1561806289) |
| NPU_SET_IFM_REGION        | 3         | -                       |
| NPU_SET_IFM_BASE0         | 0         | 0x00000030 (48)         |
| NPU_SET_IFM_ZERO_POINT    | 64261     | -                       |
| NPU_SET_IFM_PRECISION     | 1         | -                       |
| NPU_SET_OFM_REGION        | 1         | -                       |
| NPU_SET_OFM_BASE0         | 0         | 0x00000030 (48)         |
| NPU_SET_OFM_STRIDE_C      | 0         | 0x00000010 (16)         |
| NPU_SET_OFM_STRIDE_X      | 0         | 0x00000010 (16)         |
| NPU_SET_OFM_ZERO_POINT    | 65408     | -                       |
| NPU_SET_OFM_PRECISION     | 321       | -                       |
| NPU_SET_ACTIVATION        | 0         | -                       |
| NPU_SET_IFM2_REGION       | 6         | -                       |
| NPU_SET_IFM2_BASE0        | 0         | 0x00000000 (0)          |
| NPU_SET_IFM2_ZERO_POINT   | 0         | -                       |
| NPU_OP_ELEMENTWISE        | 0         | -                       |
| NPU_SET_OPA_SCALE         | 15        | 0x4b17e4b1 (1259857073) |
| NPU_SET_OFM_SCALE         | 49        | 0x40000000 (1073741824) |
| NPU_SET_IFM_REGION        | 1         | -                       |
| NPU_SET_IFM_BASE0         | 0         | 0x00000060 (96)         |
| NPU_SET_IFM_ZERO_POINT    | 65510     | -                       |
| NPU_SET_IFM_PRECISION     | 513       | -                       |
| NPU_SET_OFM_BASE0         | 0         | 0x00000060 (96)         |
| NPU_SET_OFM_STRIDE_C      | 0         | 0x00000001 (1)          |
| NPU_SET_OFM_STRIDE_X      | 0         | 0x00000030 (48)         |
| NPU_SET_OFM_ZERO_POINT    | 65510     | -                       |
| NPU_SET_OFM_PRECISION     | 257       | -                       |
| NPU_SET_IFM2_REGION       | 1         | -                       |
| NPU_SET_IFM2_BASE0        | 0         | 0x00000030 (48)         |
| NPU_SET_IFM2_STRIDE_C     | 0         | 0x00000010 (16)         |
| NPU_SET_IFM2_STRIDE_X     | 0         | 0x00000010 (16)         |
| NPU_SET_IFM2_ZERO_POINT   | 65408     | -                       |
| NPU_SET_IFM_PRECISION     | 65        | -                       |
| NPU_OP_ELEMENTWISE        | 2         | -                       |
| NPU_SET_IFM_REGION        | 6         | -                       |
| NPU_SET_IFM_BASE0         | 0         | 0x00000000 (0)          |
| NPU_SET_IFM_ZERO_POINT    | 0         | -                       |
| NPU_SET_IFM_PRECISION     | 1         | -                       |
| NPU_SET_OFM_BASE0         | 0         | 0x00000091 (145)        |
| NPU_SET_OFM_DEPTH_M1      | 0         | -                       |
| NPU_SET_OFM_STRIDE_Y      | 0         | 0x00000001 (1)          |
| NPU_SET_OFM_STRIDE_X      | 0         | 0x00000001 (1)          |
| NPU_SET_OFM_ZERO_POINT    | 65408     | -                       |
| NPU_SET_OFM_BLK_DEPTH_M1  | 7         | -                       |
| NPU_SET_IFM_IB_END        | 10        | -                       |
| NPU_SET_AB_START          | 30        | -                       |
| NPU_SET_OFM_SCALE         | 22        | 0x3fc000ff (1069547775) |
| NPU_SET_BLOCKDEP          | 3         | -                       |
| NPU_OP_POOL               | 2         | -                       |
| NPU_SET_OFM_SCALE         | 30        | 0x40000000 (1073741824) |
| NPU_SET_IFM_REGION        | 1         | -                       |
| NPU_SET_IFM_BASE0         | 0         | 0x00000090 (144)        |
| NPU_SET_IFM_DEPTH_M1      | 0         | -                       |
| NPU_SET_IFM_STRIDE_Y      | 0         | 0x00000001 (1)          |
| NPU_SET_IFM_STRIDE_X      | 0         | 0x00000001 (1)          |
| NPU_SET_IFM_ZERO_POINT    | 65408     | -                       |
| NPU_SET_OFM_BASE0         | 0         | 0x00000090 (144)        |
| NPU_SET_IFM_IB_END        | 46        | -                       |
| NPU_SET_AB_START          | 46        | -                       |
| NPU_SET_IFM2_ZERO_POINT   | 0         | -                       |
| NPU_SET_IFM_PRECISION     | 0         | -                       |
| NPU_SET_IFM2_BROADCAST    | 128       | -                       |
| NPU_SET_IFM2_SCALAR       | 0         | -                       |
| NPU_OP_ELEMENTWISE        | 0         | -                       |
| NPU_OP_STOP               | 65535     | -                       |
+---------------------------+-----------+-------------------------+
*/
